import io
import base64
import pickle
import random

import numpy as np

import torch
import torch.nn as nn
import torch.nn.functional as F


class CNN(nn.Module):
    def __init__(self, num_channel: int, num_action: int):
        super(CNN, self).__init__()
        self.conv1 = nn.Conv2d(num_channel, 16, 3)
        self.bn1 = nn.BatchNorm2d(16)
        self.conv2 = nn.Conv2d(16, 32, 3)
        self.bn2 = nn.BatchNorm2d(32)
        self.fc1 = nn.Linear(192, 32)
        self.fc2 = nn.Linear(32, num_action)

        self.device = torch.device('cuda:0' if torch.cuda.is_available() else 'cpu')
        self.to(self.device)

    def forward(self, x):
        x = F.relu(self.bn1(self.conv1(x)))
        x = F.relu(self.bn2(self.conv2(x)))
        x = x.view(x.size()[0], -1)
        x = self.fc1(x)
        x = self.fc2(x)
        return x


def preprocess(state: dict) -> np.array:
    row = 6
    column = 7

    own_mark = state['mark']
    baord = state['board']

    assert len(baord) == 42, "Board length is 7 * 6 or 42."

    board = np.array(baord).reshape([column, row])
    # Convert Own place to 1.0 and Enemy place to 0.5.
    if own_mark == 1:
        return np.where(board == 2, 0.5, board)
    elif own_mark == 2:
        board = np.where(board == 1, 0.5, board)
        return np.where(board == 2, 1, board)


def load_model():
    model = CNN(1, 7)
    encoded_weights = "gASVgMgAAAAAAACMC2NvbGxlY3Rpb25zlIwLT3JkZXJlZERpY3SUk5QpUpQojAxjb252MS53ZWlnaHSUjAx0b3JjaC5fdXRpbHOUjBJfcmVidWlsZF90ZW5zb3JfdjKUk5QojA10b3JjaC5zdG9yYWdllIwQX2xvYWRfZnJvbV9ieXRlc5STlEI9AwAAgAKKCmz8nEb5IGqoUBkugAJN6QMugAJ9cQAoWBAAAABwcm90b2NvbF92ZXJzaW9ucQFN6QNYDQAAAGxpdHRsZV9lbmRpYW5xAohYCgAAAHR5cGVfc2l6ZXNxA31xBChYBQAAAHNob3J0cQVLAlgDAAAAaW50cQZLBFgEAAAAbG9uZ3EHSwR1dS6AAihYBwAAAHN0b3JhZ2VxAGN0b3JjaApGbG9hdFN0b3JhZ2UKcQFYDwAAADE0MDQyNzkyNzg3MjI4OHECWAMAAABjcHVxA0uQTnRxBFEugAJdcQBYDwAAADE0MDQyNzkyNzg3MjI4OHEBYS6QAAAAAAAAAKQu8T3fMIc+aJ4MPWhBCb3eFE2+gsplPrZqA76+JSq+VgWrvWAjAT3Z3IU+qINvvcgtOT3K8pe+eCxwvqyN+714Y1e+qypDvl2ziz5AbkO9nNzCPfy62D2Aegi87LSSPePXC75ISyk+mD8yvfDV0j1cHsI9AObzPcCXOL0orEI9zjE4Pthcmr6m1Nq9S6ttvtgsKj0AOBi6cox4Pqbhg74QCPC8QPNNvlqRVj5MJta9yWCpPv25mz6eY2k+bs9OPmAni74gLnc8JMqvPRpLbD4eNEC+MKd2vgLdOj4gly68XB74vXDhqL7AJ7i74r0nPp4uQL6Zb5Y+A72mvtCx4Lzkd9c9WDQVPSAPcL5aHgw+sGo9vuYCTz6eji8+2x2NvrlPnD4Ax886U2o1vl+ugT7AqaC7IHYQPs9ilb7Q9qM8KMkqvSqLDj4cQsc9i98ivphqVL6ghL697pEzvrHkkD7QMaK+lDz8Pf/pgr4Y8G29/Jv5vcZkBj5o8w++xxWnvmBRCr6gQzO8fjkLvt1knD6+BUi+EOC1vJYZWr7MP/M9OPQJPUCiO76omiW+PeSDPpzJwz2oiHc94NQQvsg2L70cDuO99kA/vsGYgD6ARTO7uF0KPjBxy7zmanO+PPeJPdbGcr5IOBC+gKk3u6usK76INQm9Nq4OPrCH2z2wKhC+lhK9vbPpYb4LgV2+UvhGPvDn6rwOlSm+gAxivY+7jj4YY1I9AOmNO5Yl/L1OtQS+AHqDvPD9yj2o8qa+a0qfvpSFlFKUSwAoSxBLAUsDSwN0lChLCUsJSwNLAXSUiWgCKVKUdJRSlIwKY29udjEuYmlhc5RoByhoCkI9AQAAgAKKCmz8nEb5IGqoUBkugAJN6QMugAJ9cQAoWBAAAABwcm90b2NvbF92ZXJzaW9ucQFN6QNYDQAAAGxpdHRsZV9lbmRpYW5xAohYCgAAAHR5cGVfc2l6ZXNxA31xBChYBQAAAHNob3J0cQVLAlgDAAAAaW50cQZLBFgEAAAAbG9uZ3EHSwR1dS6AAihYBwAAAHN0b3JhZ2VxAGN0b3JjaApGbG9hdFN0b3JhZ2UKcQFYDwAAADE0MDQyNzkyNzg3NjY4OHECWAMAAABjcHVxA0sQTnRxBFEugAJdcQBYDwAAADE0MDQyNzkyNzg3NjY4OHEBYS4QAAAAAAAAAO7FTT6Q0ce9XZOWPvCxmb1wz++9ImtnPvIiWD5mOb69iNERvUAhob7Qz829CSOWPkDM97xagFE+sIrmPTAd672UhZRSlEsASxCFlEsBhZSJaAIpUpR0lFKUjApibjEud2VpZ2h0lGgHKGgKQj0BAACAAooKbPycRvkgaqhQGS6AAk3pAy6AAn1xAChYEAAAAHByb3RvY29sX3ZlcnNpb25xAU3pA1gNAAAAbGl0dGxlX2VuZGlhbnECiFgKAAAAdHlwZV9zaXplc3EDfXEEKFgFAAAAc2hvcnRxBUsCWAMAAABpbnRxBksEWAQAAABsb25ncQdLBHV1LoACKFgHAAAAc3RvcmFnZXEAY3RvcmNoCkZsb2F0U3RvcmFnZQpxAVgPAAAAMTQwNDI3OTI3ODc0NzIwcQJYAwAAAGNwdXEDSxBOdHEEUS6AAl1xAFgPAAAAMTQwNDI3OTI3ODc0NzIwcQFhLhAAAAAAAAAAAACAPwAAgD8AAIA/AACAPwAAgD8AAIA/AACAPwAAgD8AAIA/AACAPwAAgD8AAIA/AACAPwAAgD8AAIA/AACAP5SFlFKUSwBLEIWUSwGFlIloAilSlHSUUpSMCGJuMS5iaWFzlGgHKGgKQj0BAACAAooKbPycRvkgaqhQGS6AAk3pAy6AAn1xAChYEAAAAHByb3RvY29sX3ZlcnNpb25xAU3pA1gNAAAAbGl0dGxlX2VuZGlhbnECiFgKAAAAdHlwZV9zaXplc3EDfXEEKFgFAAAAc2hvcnRxBUsCWAMAAABpbnRxBksEWAQAAABsb25ncQdLBHV1LoACKFgHAAAAc3RvcmFnZXEAY3RvcmNoCkZsb2F0U3RvcmFnZQpxAVgPAAAAMTQwNDI3OTI3ODgxNTY4cQJYAwAAAGNwdXEDSxBOdHEEUS6AAl1xAFgPAAAAMTQwNDI3OTI3ODgxNTY4cQFhLhAAAAAAAAAAAAAAAAAAAAAAAAAAAAAAAAAAAAAAAAAAAAAAAAAAAAAAAAAAAAAAAAAAAAAAAAAAAAAAAAAAAAAAAAAAAAAAAJSFlFKUSwBLEIWUSwGFlIloAilSlHSUUpSMEGJuMS5ydW5uaW5nX21lYW6UaAcoaApCPQEAAIACigps/JxG+SBqqFAZLoACTekDLoACfXEAKFgQAAAAcHJvdG9jb2xfdmVyc2lvbnEBTekDWA0AAABsaXR0bGVfZW5kaWFucQKIWAoAAAB0eXBlX3NpemVzcQN9cQQoWAUAAABzaG9ydHEFSwJYAwAAAGludHEGSwRYBAAAAGxvbmdxB0sEdXUugAIoWAcAAABzdG9yYWdlcQBjdG9yY2gKRmxvYXRTdG9yYWdlCnEBWA8AAAAxNDA0Mjc5Mjc4ODczOTJxAlgDAAAAY3B1cQNLEE50cQRRLoACXXEAWA8AAAAxNDA0Mjc5Mjc4ODczOTJxAWEuEAAAAAAAAAAlXBg+8z2Lvs2wrj7GSCq+11+FvRgTUT5mXRU+5tvkvSQGEL1LQbi+eCN/vh+ikT4WH7Y7SvsFPqulgjxESIS+lIWUUpRLAEsQhZRLAYWUiWgCKVKUdJRSlIwPYm4xLnJ1bm5pbmdfdmFylGgHKGgKQj0BAACAAooKbPycRvkgaqhQGS6AAk3pAy6AAn1xAChYEAAAAHByb3RvY29sX3ZlcnNpb25xAU3pA1gNAAAAbGl0dGxlX2VuZGlhbnECiFgKAAAAdHlwZV9zaXplc3EDfXEEKFgFAAAAc2hvcnRxBUsCWAMAAABpbnRxBksEWAQAAABsb25ncQdLBHV1LoACKFgHAAAAc3RvcmFnZXEAY3RvcmNoCkZsb2F0U3RvcmFnZQpxAVgPAAAAMTQwNDI3OTI3ODg4MDk2cQJYAwAAAGNwdXEDSxBOdHEEUS6AAl1xAFgPAAAAMTQwNDI3OTI3ODg4MDk2cQFhLhAAAAAAAAAALmmmPHJqMz0wE2s813fIPOoayjxsXdo8gzfVPImueDwu0rU8RBviPIJhNz1PTNs81YoxPBM1nzxck748iYkbPZSFlFKUSwBLEIWUSwGFlIloAilSlHSUUpSMF2JuMS5udW1fYmF0Y2hlc190cmFja2VklGgHKGgKQgQBAACAAooKbPycRvkgaqhQGS6AAk3pAy6AAn1xAChYEAAAAHByb3RvY29sX3ZlcnNpb25xAU3pA1gNAAAAbGl0dGxlX2VuZGlhbnECiFgKAAAAdHlwZV9zaXplc3EDfXEEKFgFAAAAc2hvcnRxBUsCWAMAAABpbnRxBksEWAQAAABsb25ncQdLBHV1LoACKFgHAAAAc3RvcmFnZXEAY3RvcmNoCkxvbmdTdG9yYWdlCnEBWA8AAAAxNDA0Mjc5Mjc4ODgyNTZxAlgDAAAAY3B1cQNLAU50cQRRLoACXXEAWA8AAAAxNDA0Mjc5Mjc4ODgyNTZxAWEuAQAAAAAAAABigQEAAAAAAJSFlFKUSwApKYloAilSlHSUUpSMDGNvbnYyLndlaWdodJRoByhoCkL+SAAAgAKKCmz8nEb5IGqoUBkugAJN6QMugAJ9cQAoWBAAAABwcm90b2NvbF92ZXJzaW9ucQFN6QNYDQAAAGxpdHRsZV9lbmRpYW5xAohYCgAAAHR5cGVfc2l6ZXNxA31xBChYBQAAAHNob3J0cQVLAlgDAAAAaW50cQZLBFgEAAAAbG9uZ3EHSwR1dS6AAihYBwAAAHN0b3JhZ2VxAGN0b3JjaApGbG9hdFN0b3JhZ2UKcQFYDwAAADE0MDQyNzkyNzg4ODg0OHECWAMAAABjcHVxA00AEk50cQRRLoACXXEAWA8AAAAxNDA0Mjc5Mjc4ODg4NDhxAWEuABIAAAAAAADk/eY8IsBMPWqVaz3Wn5e9ITiMPcDER7x8hsk82iUpPeCV1jyA+Be8jkJQvaP7S72Q4bu7gPRXvQBhUDxwpNs89kNEPeX1oz1m1Aa9oGQYvGKlQD0A3hs8QmSpveZoIL0yGxA9iAAWvOtXab3l3Jg9hnxzvQAhLjuo96K9QuMLPUCwXDyG/aq80PvTPCukhj2Q7gw9eF49PID+RjwMlqE8hpTKvCY8yrxqRBo9kKlGveggO73AB8y8IFFuO2DJ/zzAs+678Iq4u2w00ryQ0Jm8PKeFPJUMoj02Lxa94Me6vDYPib1rzYE9/02CvXOhob1HRZO9yjJ/PfOkBb3g59K8mLo6PJ7sRb2ATxu74DWRvaym5DxGai69QB9SvaxqqDx+CFQ9jMT3PBwA4Lx4cyK8gIVgvIibCz3Y/BW9eAwUPH8nm73Ekoe8etUiPX3hnj1onlE8hM6ZPKS2pTwAMkO9xE2iPDD0u7uiRCQ9HP/qPKATpLxETpe9EgOZvQB2xLyW1TY9oGJ6PF+KkD2I5yU9/GuLvDiEUb3wOGm9hhNjPQrgLj3oOQC9wAKRvHKej70r84y94GeEvWNqIr1gvQw8sElmvTY9Cj30eaS99x2SPbJlZz22LN+8mJsUvHCI0rxWAV+9u0VYvSLsEj1Fzow9oIsnO8AWlTrcAs48KHM0vHuLfb1EXoA8eCBIPM3skz1URYQ828qYvfNAQb0ZzJM9FkndvGBBVruLkja9G0SUPYSbiL0Mm9C8DHG5PJFRpD3Q44K7jZGPPeJ2Dj3yy3A9aKUkvdtLmb24V1m8apVOPdzUz7xDAFW9qTuBPeh1KTzDUzm9SMJhvOBvabtYYRC9x3KWvVBX1zuCjXM918CfPXjcIDzAv4e8yxI7vbAzKD2AV6U8yKN9vUjfMLwIxFi8w+OeveDxCDyxfZc9aPk8vAABYL20/I48aFQOPBM3Ab00ULU8MyibvbCKKj048FY8QU2jPYyTwryHvqe9/Q2nPZB86zs9fJQ9Sw5NvbHxlj08Upm9AO+PuuD3brwAGJi9TI+fvbHrgz0QtPG77s6cvXMvQr3iHko9JrZwPShHJT1UysE8xhFbvdxb+LwAJb452hYJPZgEYjwcoMi8yFsmPAiqQb0eTGw9q3OPPXDvujsAraO8aX2RPd27lj1MTbs8QPOtPLYa0LxeZGa9AGJ/OZPChL1S6no93A6gPHpCgb3cF5o88kmPvVBEDD2jNBi9n2efPaAHmL0tmKY9nK6qPHBq4zv7V429sOaku0w/p73Unqe9eJ0ivawvgLxWvzG9djEgvQANR7zW4Gm9p3+IPfxDwzzt/I89UEkWPQCiIjr7Zjq9oCsWO6MhD71CUlA9MD/AvCrylr3O5KG9aAA/PKi4IjyAq2s8UkZGPcIhSj1smpW8GpQ9PRpcHz1eoyO9uG2WvQDUtjokI+Q8b5WMvU5FfL2WpSO9g7mOPWimUzwAEMg8dIq1PJMRjT3G+XO9NuZgPfjXL73GCTM9PCiePMbeN72DRqQ9ex59vUj9ULwSLUk9DIqUvHPxoj32L5W9D2aZPWPCWr0rhAe9mCEpva/toL0KfaW9EBKKvVgkAjyg4hk8QB65OmzlyDzK33I9UK27PJMpUL1I9x292vp8PaqNQz3KQng9f9qnPWbxaj3Kwaa9KJYvPAMKpz1SO2Y9Qtd4PcbXRj3EkZe92lSnvVaks7zg+XS9U4OTPYHViz3GcHI9SG4XPGzhn7zzn6E9EMmSvPYAf71fWIu9UNJMvTBIljvoozU8RrkUPfC9Er0bJoy9QNXsuyDRLLzpH5k9GxmnPQgQjr3e3nO9IukIPe6oSL2JCoU9mOhQvcU1oD1Hk6I9QCjsO2aVrLzA45E6baOqPbRr7zzARzO89JaEvOA+Ez2yWl89vqIcvRYv07zUdpu9e3kuvb72LD3Nypo92IgKve6qHj3tZ589tuozvUaTFz0Wzn6943uhvYCKazpKdKq9BamnPR+9kL1ACJa6peKQPft7Mr0ww627GNQjPDoPPj0b8CO98GjCPBUwkj3AKwi8jTCnPTikWDw4txc8ID4jPOD/Sb2wOhk9SA4KvKAzdzsA6Wi9iBQpPbvznL0wv0q9bl45vajwELwBKag9EP43vZh0QLwJzo49LHDovJh8VLwHrpW9kY+TPZD12TtyTz898Fmiu/iqJ7wPV4+9cFDCvBtNQb1xRYM9UCxavUDe2DqESOE8psLEvFmxpj3XcpY9QAENPWB+f7yqGQs94P8zPGwr4jwCqH894BgovYNHUr3Q6Y+8ERuVPY6JCb2gdkE8YGcuu6u5Db26uXY96FJ/vd55cL24rx49QNl4vNn0jT0wisy8gBJAOrBTojx2XBq9jIOLvCCXoDyglYg8oGZavVpVQj025Ca9SQuMPejXJD0eLjY96mZ/PZzD6TygAp48M+SGvUzNlTzkQ788bHjJPIAXVL32Ldy8LtMIvUAG8zzmEYe9mGkbvLP7S73yupm9AP37O2z9gjx/IYS9zqUovVQWoDxgEny9AHABOsimXb26e0g9MMyyPAsMor2suso8AlkePc7FbT1Wm1294JHBvOa/87z2wpe9C5iBvVAHJ71zopA9Vth9vaLWAD00bZa8JmyCvQhLUzyATAe6FCeSPGp8Jz1w0MY7dlwKPdrRMD3qzxc90iE+PXWApz17fT+9dhnbvHJDdj0Sn4W98DDMvBAik7zGwTi9fCWsPJ/0iL18+tc8CMZgPICSIr1egh49Qzo+vQlfqj2wV/M8yI1SPPe9iL1gave8pLCkPFBKujtzeZA9+/4QvbxTirzQk808d/qUvbEJoz2uoBg9ql12PeWmnT04VFC8PauTPaY8QL3gswU72AVFvCSy0Tw2ls+8q2w7vQvwjz1bGjG9QErwOvm9jT0QEAg9flQRPSbVRr248ga9TJjLvAB41boWrRg9q3Q6va4nQz0oeVm8X8KHvQCuJrn4UC+8gDSkuxg3GTyARCu8eNRfvcRRgr2WxU29yKYTPcwB3TxAtEO88eOAPXO3h73EBI48iLt9vDvgLL1hQpg9mPOBvUanqr3A8fe6w3xrvS4jMT3YQj08GMohvd4rfr2WxRE9cpYYPeOxML2IGCO8AP5LPDaPzLzyz1Q9YtN/PVgWWrxAwcA84xymPXrTob3qLkI9cjCgveUDoz1W9yw9vQmnPYAPIzyFwZA9mGYRPT6oI71G3IO9cOrJuyRQsDwgCF67FhUKvQOap73Y6yi88NEFPdPbUL2LnZ+9ML+cvYCEe7sWS9G82Ek0vQBk5bk+ZWw9PtY0vcCKvrzcPMY8OweLPUDRxbp0l8Q8CH4IvFqUCD30oPM8u1IgvaComrygNVI7sDOQvfxjib3WKU69AIDzugh8E7xmnXS9exRuvZ62ir3SSGE9TpoiPTb6WD0WHBs9yJOXvVhBHzyG5Yq99PGjvZDOvLyGc9m8sjCCvUYqcb1mSmY9pGb4PEAdKD2+UDG9g+KOvVPUoD3AVfm8hgSgvSBaWDx6AUQ9pOifvZCQuTwsKYm95onLvNLkGT3EDJo88DyfPGpUDT0OoUK9WEBXvLB42DxgvJe84CAxu7h9R72roYA9jNj+PBz7irwyqW09m+MZvQAaPDpAtpM65eagPW4Gdj2QjcQ73kM6PXhZdr2sxc08vjGWvcuygj1gLuC8APS6OzDcgDwUDKe8oMhIPMg4Cr32t1I9YBI2vLbdV71+XXy9GAwGPJ3InD1Bcp094HsEu96cf70zxqA9ePoAPctmXL3wfY296jeHvVioWzw6x2I90OWLPG8mhr0EkrU8JJfLPIxDyDzMM4I8hiM+PXgejb1Gvp29+N4ovZA46Tsc2fI8LXSWPcAAGjz+mAY95N3gPC+ogT1Aroi8u5mevX64ir0AbnM5tD/zPKR5+zwADbW6ZrcePZbyEj2nuZC9pC/wPCZucz3Jj4Q9YainPTjzM7yjgFm9AE90vfAtGL3e+4i9BvnZvKtHmb1YDyW9aFwcvPlClT1BNKg9kKM8vT7DSb3MiMu8Vlq/vMI3UD1gzh+8i7k+vZ8spb2XTIo9BkL7vPB+hTwl7aM9xogMPVhYIb0o2Ge8Pig+vYSwkryAUDo7U2uPvUCBqTo146c9XOKVPOizIjzHdpQ9PpIlPbSyqjz+DTc9qxWPvVUipT2U35485ViEPQAGfLqQ2LE8qiNEPak9jT124828UCPgu2bLCT0AwGI5kEcIvWhQA71Em4K8UzinvT0EhT0WF0o9Yd+APZA8gjtKT3E9AIDTt20moz0D0Em9s9aTvbmujD3e6U090AO9O9Vpgj3wk7Q7mPUovWCcfzxgHfI8EJKPPO37gz1xk4g9KKVcvLYTLT3uhCa94AfkvHIYHj1OuZe9VJaMvIC9Cb1+iYW96XWCPX69XL1Acp874PBZPPj8JbxvUZU9c3GlveupoT1bzWu9HOOUvbASDD1OnHu9juGFvShaCzxCrWA99FnEPABGmbqWchK9dkbvvBRmmDyJFI49YJxZu4YIAb2aR0U9AL5VvcfOnL2gpHE7MGucvSpGaT3DIha9hnkPPdC1qLvjySe9QNyEPACvojvwT5K92/o5vfP8qb3FDIc9dlmavVfznb1P0I+9/qR1vbpvej0V8ZI9Cv8EPdpXFj1R1549MaSjPRjhS7w2jGG9iyOJvcucEr2eCG296GoSvMBZabyYsFy9DrRmPfxwijxowAu9tvI5vTkAnD0KLJi9+mh0PRBpyjv5z5M9oLXyvG75YT1Ee+U8SmREPZgxfDyAGYI8fk1LvSBJGD2q9mQ98L/Ju2aPQr1rJoM9qLcEvNA+mLw4UGa96lSZvfp5Lj0LooK9gNGJO+BlJrvQwMI74DSGvEAdGz1A0zs8gKQOvIYsQ71AFy+8K/t8veCYebzAKCS8EPaqu7qRHD14CRi8JWibPfAJ97z2Jj+9YJQZu31LhD129my90mZVPVatLb0Mm8S8G7iLPbBspL3DgZs9YO9ouyH5nT0EzJ+9bXGqPXrbUD04aYq9mIZQvNSV5zwusTe9VG+FvRJCdT3jCV29CvqAvVYEA70i90A9FFLZPHZnjL0o9zS8lmqvvArNVj3oByk89OTlPHzE2jzYNiM9oPh2uzKvYz2WeZS9EC8pvdhGDz061zY9RBbDPN5ATz23hou983gdvVJlg71jCRC9AImbvbDdvTyL6m+9UbmLPU05gT1j7ke9Yj6YvRGvgD2WqKi9kJQEvcBGUb0Wdjs9AE2QvAAYdzlmfi29OggJPcs3oT3suac8MohFPRDqxbs2mDg9aC9+PKjIQbw0JdQ8MuFCPQRzjjyOpkA9nE+IPABctTut/J09JBHKPMvXcb0wB/K8gHl8OrxNqb3/F4e9k+R6vZ51hb37hD29iqdDPUrbMj2w+pm777SdPXsMXb2YDS88PL/1vPqsXz275Yc9cOyQu8XCgj0ArKQ7+Od3vHDTGD3JkYU9OuQOPa9SkD0OmSq9HhZyvXisPTzwP8i8EOkcvYGegT1gZG87YKMxO+XFhz1gC/+8w4gyveSX9TwAYIG5BPmQPOjpXDxgb248fSKbPS8Sjr2s+Ki9sIzkPMPKcr3Cc3g9UqcMPWCiYDxgvye9nEH8PFxTgTy8WaK8NHyFPBo9kr2+4aS9GHd2vFvXT72oIAA9U36fPeu7aL113IU9JLPwPIAwPLy8i/u8xh+OvZgkcL0LZ1O9dMqivOp3Qj0eMAI9a8NxvTX0nD0e5So9z5iGvcAn8LxUTtA8Cu8NPcEGoD1/r6I94zYXvdDGpzyA8ZK9YBpxO2a35rxAjpe6k6tXvUzu3LzyxyE9SBZwvcS9mLzAQIe6AJoUueZk97yoKAS8QvFRPc7wGz34ZS08krp0PQDYG7jUz6o87lNKPSCwEbvbZyC9kKemvEo6Rj1WuyY94AY1vIAaDT37eEW9IJVivcaRsLzg09w8WkY2PYAd6DsqVTQ93fyLPeCsADv8QIs8cFP1O0eYgb0c15s8Alp/PW4WWT2AY487ll87PZPGmD0B5aQ93h8wPXKHKD37kju9ysOWvaYkB711H6U9+XqHPdxIi7yQILq8tiLtvDPYYb2vgpg90rIAPcMNl722qRa9rMC/vOicRb1EZ6a8QuWQvV7JAL0EbJO9lpO6vIB1FD2Gytm8XhoRPTJKGD0k4Z286hF1PWAI/rxUotI8Cv6XveJQVD2AhEe98CfWu95yDj1AItW7TNHPPDxclzykxoO8gP5QukDiKTwQ9qS9bDygPDyOrTw8rdq8N+OPPY5uaL16smI97tIMPYx6pL02I8K8V/mfvdKGWD22OAM9z6CPPfLIg70pFKE9kInDOwIcm72o8VM8mKFtPCbq6LyuqGK9yj93PdOLpj2skpS86D1avfg3QLwAiq66Gv0xPSzd7rw3dZ+9Va+XPZpqbT3GfWo9InxHPUdYlD3Aq+06/hyEvXDUhDtyZkI9QCZvvFCXvbwtC5I9AghcPW0JgD3qswQ9qF8iPbIfhr3WtK28x0uWPY9Tpr32PC29AFMmPMc7qb0AxLi4cAfFPOgjDrwVVJs99EqQvIqMSD1j3569wJ9MvTbK2bwA7Im7IiVjPQDMsLmANxe9TB2YPI/cm72yQoa9AG4bvIakMj3hoZQ9S+hCvdxl5bwk2ai9SeSYPTzN0ryba569YFQRu7Abl7zP3p+9samhPcDVbLyrYYw92v5oPaTZ3jwG7w49QMqjOvZUgr083pY86DNdveuoH70Myqk8BEOMvQaU87zce+k8HNqGvNY//ryzxZI9AL/DvIjhCT3QKJu81kgEPVp7HT141mG8NiwivYh3LLyghVC9iAd+veDVejsqo3Q9Hh5TvbtXUr0jIjG9aBkSvVI8Cz2YkQm8FvYevRxk0jzJCo49RdyiPRAYtDy4jG+9IJZ5u/FUhj2rNWO9W7REvTqFTT1xgaE9WTWaPcb1LD3LfZ69r3GdPb6eez1cfco8Y6pwverAAT2AkBK7Gio1PYKoMj3yTQ89Z32QPRBMn7vexZK9gDzNO6D+ezxokwA9YC0wO/PmFr24cl+9AEvuvJuAUL3uxDu94MILO4gpJ7z4jlm9RPzLPKhbYjzG7Yy9E1Arvd73k71jZza9iHoqPYy987widEg9OpiovdrtaT0Av9o5q9ZFvczV+LzghSs8SSCXPVQtjLwGKjG9EnlGPaQQhTz4aym9eC8GPVcln70aVRo9AKIZPcpsTD1MNvg8OHxvPKyOmr1GGRQ99r5EPUFGpD3oYV687oOZvSiuTbzSuHU9K7mNPYC7fryRj5A9Sp19PbnXjz0waoG8wLl6vD7xFD1Y/EO92rBrPYBjUbto/Zu9s2kevduslr26jyo9ZFrlPFO7Nb0g5i+8QFLEO8R7zDxWUUq9DOyjvCgXRDyGvzi9o22DvXVjpj04RCM85v7/vOWvlz3nVIo9jSugPVAR/zwHEYs9IYyLPXNBob2wsxy9QC8XPQwFjby5jos9ANWnvJGhhT0zM4A9ussQPc1tjj1Y3y+8vrx3vXjtSjxN+Y09a1OmvaCiJDwu/129v1qhPQMljT1w9bq7WOQWvSjyeDwQiOA7NjflvN55BT0UsOw8K8GMvcA4Cj2TpjG9MHvMO4FKlz32Z5O9HBadvX6ceL37dT+9zm0FPQBctLwYGSi9iEtHvNC2rTyIvwM9gNLtO2BFyDxA5QQ9LKjnPAMpcb2YjhA9kC7ku/CBy7vmOq68Uu9uPdYmIz0Owm49hjQ1vQtmT72slIO860cdvZeoib0HH4O9ytxOPXynn7yL3ZG9PN7uvKuKfr1IzH28mgIvPcJqAD3GHGU98twTPbqHcz1ABtS7zQmqPfOwX736yUg9pUWNPTvNGL1W2Ea9kKW1Owi2PLzm1C09BokSvcmVmz3Qi7q7AD/UOQZuaj2c9vO8AGssuz9Pn70QZLW8MyydvW6OBD1w8vI7NVSkPWDc8DwQFZa8CDBOPF/UnD12XeC8UfWhPUvxib0gZCQ8PnVEPSEqoD3cDKC8hDnkPMCo27rAdYg7CD+EvahJGbxjcKU9MF7JPF69Mr1SaU49wHQIPIajDr3gWfg8YIgivfhbF7zylig9gNDqOwDIM7gADjq6OE1+vRYzLr0Wjr28LmkkPTCGJb3+KyM9widePREcoD0Qx5u9lhcNPZAaxbs6CEM9OEEUPRbcXT2NVqo9Qt8jPQNrmj0as1c9XMnMPJSknTzM/4+8IMsgvPL/Wj3a2io9GldXPTAm8Ty29sG8+heWvaar87ygxQG7OE51PEBTMr3onlO9ENzoPDJxir348E483NjVPL7sOL2ZVIY9mmVtPUyypbx35Y69nvAbvWLNSD10D6i94OAWvFOmkb15d5s9886LvWCgDD20x4k8SJpMvZwg3DxEd5u8yI1KPJwYzzyKC2A9AArtu/pGWT06uTE9KBiWvb7VaL3YgCC8QPPXPMB5njv4Kmw8K2F3vZQhgTxMbP68/rQwvcNogr0Zio49CIVlvDpacj2jsz294Nt1vUr/eT3LeKM9o8spvWYi7rzgx5W8KGsEPOAPaDySy3k99COPvYMKB72A3wA7uEMgvTfUlT18weY8Hp8MPf70JD1AKoU6RmlyPVV8kz1gDBg7OrUUPaQp0jwQIRg9ntE0PUYJ8bwGr+68gCSSvZo3ND1KrD09WM0NPTBiFD1AqgE9235uvW6QUb2iMFs9jViDPXdWgz1ARvm6lk86vfD78TuWvxg9/hBmvUx7gryEIaw8JMKjvKDi5bzvmYM98KB7vZDbAT3zAqe9QC7vumAMlTwla5A9Tlp/PS49RT2QIMs8HxeYvThlOL3+2XY9wHagOyhKfzwLhJE9bhQ2vQYkyby4p0U82KOjveKWl73jGIM9JrYSPcDkMLwadqa9nopYvQBzWrxWOoW9z7CRPew9qjzqlEg9s/GlvbURjD30aY28cGhkvVGZmj1qijQ9cKMYPfbHQr1GkdW8fsVrPVCd3jwx8Zo90O6hPB+anb3elAc9KCVNvOJgST1nG4k98s46PX4ROz2EXpW8mMYcvcwrnbwmTfq8/bSPPVCYvLuAjwQ8AglvPbDyr7xCE2U9xRKGPaRawDxoCxw8ht2IvSbIUT0vjZG9wAMpvLJuqb0QT1+9UALmu0PyNr3AXSA98DfNvIB8FzyvUac9NkAPPfA0kLxAnvw7BsL8vPAxi7zsO5G9sLXbvGCHxLxSIm89rBG0vNL5KD1M7J29eq+ivZKgFD3QG9w86DtivW9yir1TuYA9zx+mvZihEjzcWa+8PDyKvdp+Bj2QN8m8EHi8POFJgD129RE9YHo2u/YQOz3G1T69gL0Lu5J/MT24/h68Vr+wvFrQDz3fvY09gK1fPP8UpL3DlJA9iNwlvYyWzTyw5Ti9YHMgPMgbFz1Splg9S31yvQ6oIr3A4nq9xBizPFAvtLuwmVC9AGTfvJBUzDvOP3y9AeWaPWTGhLw46Bm8kBSJvatdpL3Wmx49gBaZvLDlKT0Amzq7kGXpvOn9gT0se868GL8QPe+Fpj2HW6Q9AuJjPQh4kL3gwxm8m4A2vVYHUb1AsI26tnoqvRAhk7wKj4W98Pr0O1h9Yb1Ggyy9YJZcvbb9hb3Ag3680uwvPdBWo7v0roC8CqRPPdwxrTxOLw69YBacPEMxPb1gOoS84wd/vRk0pD2SXpi9WMhOPEY0Ar3L8J+95e2UPQCOwrtgX0o8HlySvWCiCTzquW092tYtPUpGND1AqdK8QP/cPMKOMj186qE8BB2kPLbHz7w2F1+9mq8DPbyh27w8C868gJ43OuAybLzpOZQ9ULbhvAJ0Zj3jEZy9prtJPeqHaD2i/089NICTPCJMPT0qNDY9qGKqveirQbwM6Nu8LjYbPWyimbx6Cng9qA83PFQRljyA23A7IL2NvNscmL2InhU8fslIPfUHlz27ryS9VizNvKDUS71+C1S9wATuu/unZr2DJQa9qxM4vVDDorwEONg8gDwLutEJgT3uxGw99lYNvQ4Qnr0Gb2g9MTuCPVOhk72gLgc9AHXEuUAF+brK4Ye92+EZvWOQOb3+ICO9VqJlPdvyH73SnwU9yYmjPZEcqD3qjWA9TsYavV/pmz0AR4O56RGOPRRK4zw71pi9ZPGQvPZ7IT3YyFy9LlgCvSoLaz0AUcE7zgpiPd3lgz2OcQ49m92oPf+Poj0kxu08gEdtO76RZ708aZQ8+HsevOqtNz12dHQ9YPcavKhBUb1AbKy7Ut0WPc8Ahr2IwQU9OGJiPM5+FL0BVpQ9ikw8PVPOmD0QkNe88FTPO4ibMTzA67w6zCjOvJYu8ryz6BG9RhgbPRC65DsTbR69fncHPXK/WT0ezai9vIyEvQQriL02hnq9nrQcPfw+5bygxDG97N7pPCAp8TwW8ly9k3eevbgpqL0kYIY83J+SPDxrm7xaaaG9WAMovcT/5zx+7BK9lpvPvAojJj2G3ja9LKrGPF0Gmz0zODm9FkxAPQg7MTyzZZa98N+RPF8imT3I/hu87IbIPOghdrwUyq48TJmnvKgyFL2etWE9aV+oPes8bL0UReA8StoRPeFtpj0Ik4y98NDVPD7tUD1oux+8Qf+HPQBV5Lwg/V69Wa6XPY7DVT2gZT28GD1HvTj6HbzLHJe9VuQbvWqJUT3wGNs83PqRPEggSjyg33e8ZkOHvVbNYL1bgos9IeOiPQAPn7rslsI8ou56PfPkiT2YVi48QKV7PDAuk7wWJAc9bmpvPYhWQ7wAudi8fhosPXspPr1P9oa9DNCkvNoNXD25aaI9cD+SvbDJ3Lts1588eLZMvLtMnz17g3i9KtpDPXQOjrwAG8W5qIZ4vShMKDzIpkG8ViBXvbBp07wC7Qc9/IrLvDzlgLyAFGG7anylvWBQHbupk509Zw+BvUtMLb14VQY85n5oPZC9qTvG1Wm9KUSiPRLqAj0ee1G9nso7vUaFEr1OZna9yu1wPYBapDzOr0A9vu1hvVBC2LzmvUS9Ko9wPVKiUT1sPui8Xc6TPUT98DycLNS8FPvfPAnWiD0AKHy4EhkuPdDDVL0ZPpQ9+J12vIA1OrycgYk83khHPZyG7rxbJIm90iFsPRuYHr3oflW88/GRvW5JkL0z8Jk9yysxvWEOqj0gjhY8jhYGPbCsq7uoRyK8YhwPPejGbb1LTaq9gCp9umZbbb2wo547xGO9PJyswjzQWIS96W+JPXogQz1iVmg9pJqTvUPLP71TZQK9zInzPFZTST1zew29yGVJPDypw7y9nJw9Ruv2vKxDt7xr5Xm9QD83PIs3Tb3Af1u9Os1NPai4fTwewTc9SD8mPVjelb030aO96OyHvTyd57y8OaG81rY0vQ8anz3mer288oB7PQMTqj1ou3W9mxtXvUYLF72gsRI7evdEPXDy0ryjBW29GAOXvZpIdz1um6C9w0hjvTbtXj0QMX29oudLPaCyAjyACRk9Is83PSLcUj3gfZe8qrg/PQBuDTmk5so88BvAu3CJsLvhX509e/yPPVz30Lwn9Is9RkpgPft5YL0A25G8ALOeOWKQFD14/zA8sV6aPWOEhj3gCR87ksgNPUCa2jvSOTU9fOPGvFOAYr1f5Ig9wPLyusYBkL1kx4W8wGgjPFwexTxC5hw9OyFOvWMKib2W76m9qJ5wvLaSOL3gmlC75DiMvQBqPzzMVY68NPm+PFBbGT0I+TI8T2SRPajeXLzYSmy9Qk88PRxlwDyUnJW9hFWGvUDH5bqF8409LKy4vPAovTxBkog94GJjvKqOgr1gGBU8FkhAvXCIqzvwc0W9IHIqvEIUgL2IYyY8vJnhvMQYkryAGwO8vkB4PRSXmbxk/v08K2p8vWg/mb3KzAo9BQ2ePYLsKj0o53S9Oio1PRC0BD2AhPs7bsWVvSMFYL2j4m69cGcDPSr5Yj0MnK68XuKUvQD2NjlaU2A9xictPehZIT3lnIU9gAITvaS9oDzAWxK9jHqkvJ6GE725XKE9thw8vTCGUr0CInY9jDeavGau8bxYRTc8QDwLPQE1pT2cerO8QOBqPOglar2Gbvq8BXuTPZvICr0C6nU98OvWO/OQF73whu28eItIPNsNJr2jg5g9GPosvFB26TtAGIy6JnJwPf6BCj1jmpY9/8KbvdCCo73E+688KIhIPABq6LrMPZW8GE1evRaRnr0Kt0k9Q9tKvaBjED267S09Gc+ePcZaET2IMAW9wIX9u6DyCLvgtRw9OPQOvMMQeb2mXdK8/aCcPdPkcr1k2cQ8ZvYJvVjqYL0I4xa9APo9vRdeib3Lfz293Gn/vJMJqj3EesY8xv8cPQiJKj1G//28yrhSPfI2bD1kooe8EJOLu4x31ryLX269hsI7PfZzGj246Rq9SX2iPfcHoL3wqcg8MLiJvThYGDwIr429VgWpvcawBr1EKpu8gZCiPX44Hz1oYT28cMquuzT7qLxG71A9dD/HPEJecj0A6hg8ijxMPQJAMD1GQba82FoCvLDOiLvQz8i8dXaTPTg6KbzAqJs8UYCbPYhqi71mRfi8/hMlPcClCr0A67O8iPyWvREekD1Dm5W9PvoSvaT51zygADY7fuOXvZhKejzgGoC9AMevOcDDYr1ikDI9cP2JvB1WoD0Ql/s8QGTjPAkSiT0X2Iq91iYhPWZOSL1gK4m8LL6WPJg5H72ARR48jeOOPeDSCj2Aw9M8T1mNvdC4s7vWZRK9v5CcPVBN4bu+ST89dh2YvfSbi7yi72Q9fDL0vAoAQD1QJtS76NV0PK8bmz0CtE49oAcCPa8CmT0bxRS9a86ZvfRq8zyr8Ie9ZM2xPJAREL1IHQK9IGhkvNBtj7ueGZ+9koumvSEhiT3F8IY9Wm92PX77Ub1O4me97E6UvGdzk72wkWG9IBowvYx/9bzGIh09RI+ZPCZiKb0WTHi92IoXvFbpV7132Iu92nw3PWCBTTyaQKa91qTZvFpHGj3SKEg9wFT9uv1Bnz0uW0O9TjGUvdwGz7yRioc96KxNvOjydTxQrK483MHwPBcFkD3gqzw8Re+OPdNeVb1MONA8kJnFu1rBUT3H75q9y6IAvUrdSj3MGNG8WD52PLxJ/Lz+dEk9TJCwPAbiZz2zU4u9zmSZvaBYDLtA6OI7lh++vNZmlb3APb88XhIQvbrIST1vCaK9AhR1Pabj9byIRxo9i6YFvVB/9ruYhCE9nC2qvE4YVr2umwg9zJWHvdYqWL3zQU29d+yKPYChurzbVQ29EBKmO0r+dT2D1Kg9qzQsvWt9Or1EcJE8EzSjPU18hj1vII09BvtEPf6sFr3Ougi9QFbkuusHEb0oyBk9LTSlPa4Fdz3O5Bo94NUrPMCcb7zz/JM9UJi8vACa4bwKsj89qBIkPKO8n73OR349+q4hPcAjGL2VvII9606kPeNgoD1Q4Q89g9V/vQDEK7sw+Y880mNoPSwPtzzk2o88ELXuPEBcBzwBbYI9A0qJvcYNN72Az068OuyZvYcroT08QbC8xgoevdDGyryugH09eEoIPCZaFb31MY89ILEXvbfCg71Nk4M90N0jPStHhz1Y8hQ9sSuCPTxhhzwwVlC9+uJZPY2Tlz3KZRM9lDLqPMM0gr212YY91r6DvbBqzTtg7SW9Vy6evWiSFbxAKva7kNhmvVtAUb2o7k69wu9RPVJRUT1Cthk9X/SjPa6/Ib1ilCs9cvwjPSCnaryY8VY8Zl5PPUg2Tjx4a0S88Kz6O/5NFb0d6qU9JXeDPYxA1jz0Ebk8LymqPb3qnD0ZDJ09vtNtPQtMIL0oSVq9cG2VOxibCT3WJRi9muB2PQujDr02GkK9Qf2dPf9Spj2AQau8Ly2WPVjhP72bmwy9+Ot3vFFXhD05tII97r4nvYl1oz0Tv4k9XrcUveCaAjvcLrU8RM+PPBK1Oz04P369dzaCvYAI4DxjtUW9JiU9PXsxXr3qwAA9AGhFOGvYoL3kqfk8oJ5/PLQNpTwU3Z+9EGEovWzA17zr+C69NNCVvHDttTxguSm8LMSdvOKGhL1+KnK9/H/IvFhFBT0ZloA93hc0PVhQnr3wD+Y8euaVvcZAbb1sBOK8DosLPZ55O71S12c90vSVvSyz9ryIpW+8H2SlPUzN2rwgrXw7aP0CvQxV3jycEvA8N4qOPQEYoz0WeVO9bqkPvaizIrxDTpA99tJWvQjFZr3QJyM95GGPvHNcHr1d3KM9mt9kPcBipr06OGc9Dr0hPTAEdr0AXM84h4KQvRvJnz1QzL676HqovVDyWb2G4jm9klhLPdu1V70UKpI8kPW2vDgGXTyt24M9QEYlvMxWnLwuO3k9k7OSPWI9MT2sSoU8JAmnvaCbjL2Aywo92G41vRhRob26KnE9I8sOvT5mSz1eXW89QwVDvQDugrpDM5O9wPFlPKRxh7127zG9UnJnPftgEL2Kx349jnpbPaATSL3gnp48nKqkPGJ4aD1pmZQ9/tMdvYwRjTxoGQG9+nKmvUBtjDpgRY69ThABvcWQoj1a4Zq9849PvdAkvzz2QpC9mmKTvT1snz1VlaM95GiUvRY2rLwohSM9yiZBPfr9oL14LiU8mmBgPeD6KTtQ9fA8xkTBvHBZoLx7QBi9NrctvegxKL3EDoq8ANHsvBGnoz3KLZW9GEICPdNQZ707Io695sdHvaaruLzAzOs7LsVXve1GjT3aQGs9ZvMAPQAShDziQFc989lrvYIbUj0AuAu4SD95vQBuB7sAgWo7djm7vEBS5To/z5k90+ErvdgSoL2+25G9lgipvZA+ybtAxsO8V5+SPWATezzQLOY8ForOvN14gj3Np6I9abyPPWp2Qz1eFZ+92gwvPU7FTr0zCWq9BG+ovBlbgT0sGKC9RHf2PODYezwpDqA9S69FvV4cfb2A1r07gIpiu5bmG71km+o8cJ3wOyPKmL3mnhA9Lth2PTDWtLzqO1Q9JhK1vDB2+ruL7JO9uNhrvCT0o72G1pW90PanvICuzLsMoJY8zgctvRA6gr0KhQA9MvVePSAmVb1AQ5O7UECwO2p+Oj3eY3G9uBecvTrhqb3aY4i9gBozvBDVpTyLAIS9AHoluhRr3DzkdPk8al6VvSaxer0wER29l3eOPdjOAT3rWW+9sqBtPfa8/rxAtGu9KHo6vagReDzBl5I9QFrvuziOOr1ppZw9uKYaPWDWM7yADB48iyZ7vdpSQT2yenc9WCKDvd4oML0zKiK9a5VxvQCM4Tmuz3w9vm9NvbogRT1SDlE9YsEGPXaEVD2Awwk7yWeaPVKOUD1+pBA9aodCPTsVBL2wrtS8qvdtPasYgL3gBSi8uNxNvf7+Dz2WoaG94FIYPFjHWzzg9Hu9+JwbPLgCTry0OP487cmRPazlmzwYAnS8jAaGPOtTeL22o/e8vOKEvd+rl72eCKm9ucKcPbwQrTxd6pI9AIBxuvQEo7zQjpU8EPFbvTAtFz3OlyO9KrsrPcUVoD2FjqI9hgeDvVhAHb23I5a9GOCOvQAU4Lolm6Q9onVgPWDdNr2AqAQ7sN/+PGw3rzyhTZE9FVuqPUrmRj22pUQ9WIw7vOLEBz0yHi89MdqbPTbGMb3AUtq8qqk5PYDzJb1Lu2K9Njx3PUu+kL1xjJY9M06QvX4/LT3INCy9a5lwvfiOJj3gmC+9SvdbPbB0nrvgMHW9TolAvbDDhrzAgbG8jrk1Pcj4FLxWnpK9ImuGvZDPr7tAA5G9cPWbvXUUmz1WlPO8LnsPPZbuvbz+XXW9cWOqPaxGk72QSZe97gZUvahVHjyAHkU7nICovNsLgD1Ldo0931qHvSCAdL2q+zY9QBpMPDL0Rj1AnY88cLzoO+B2e72v/Ie9LE6Avarwk73QfuS8vWqHPWwlrDydq4c9aK8RPRAi2LzzDEq90jh+PRlijD0es2k9kOCovDZtJj22BG29YBINvSoyFz2sjLa8sFH+PDLGdz03IJ297/CIvdygjjyISXS9aGgDPKX6gT2ejmS9gBYfO8AIlTtyzXE9jqFOPX4qMr32Qpm9d8+KveD3aztaZW09ABXWOtggBbz0r468MB6VvR4WGD0uCUO9mHx6vXdfjj2AvX+94BksvItMGb1IfB09dB2avaDqJzwwMHO9pjk2Pfu8iL0SZmI9reqmPYV0mD1gLOy83oIevTjDVr03XpW9GTCNPQquoL0Qj4o8ejU0PdDCCr16a1k9hhrBvBhCMr3+B1q9St5ZPe79i71OBic9vBn7vBaKjr3oDwY95vxAvcCHjb0AwNY2U5AcvdouPz3iEkc9CoZkPdYidb0CBzo9AAZounCg37zDwl+9Ek9kPTgZATxuvJG92yJhvfUwmj12PMO8clxgPR5CN72qZyM9VJi8PKCssDy4mpm9sr5KPYL2Pj2YpXE8wv4LPUT7kDyLrxO9ANA6vfgnVLweeBK9YG2FvUCyqDxOe3y9BIPcPH4aKj2Gg3C9ArEEPbKKGD1SvHY9RjJ6vWCl4bz4tS698CfbvLOWdL3Tmim9tgRxPVc1pb0EXpG9R0CHvToJST1mzxe9IE6AvQBoo7q7K569UoN/PXTbgTy4SjA8oMdKPJblML2I4yM9S/8tvTAAib3CyU89j6aJPcvzCr39hIM93FHrvA9FmD3MCdA8a8BVvXPMG737zZW9/tQvvQBzaLuJr4k9uOZQvb0Yqj3WW0a94gNaPbpFqr19Y6k9IpE+PcKODj2UOoc8kxAlvXM5oT0opVI8a7Q+vYQmjby47C29kgY0ParbVT3wZbA8QD1nPOA/WLz1G6g9JcyfPbikZzyw2129b0KVPSP4Lr3AQmC8KRGVPe3ymj3QNoA8xHWMvTi4UzxIOw+86AJ4vSjsfTzWZ9a8+1anPZY/YL3AgeO6or5APW3yoD3QVci7JiB6vQaHZb1QbAs92G8ZPXLSeD0M6Yk8ABigOUYUDr2jvC+910WGPS7UDD3GQPS8YFnZvD9KgL2FfII9zrNHPRCbujwAIx882q0rPeLTAj3lOYw9kFyzPLW3pD2QnY67HrI3PQD3WTww87u8BksIPeTWgL0KznY9ECuovSjMFbwYEAW9IyCmPfoSJz3KT4q9YeWVPbI9bz0gAje7KH1sPNAPqDs2AAY9k6OIPaZJEj2K/5K9WuJCPTDN+DvsCuy8CRypPQaEJr2QOoK8o7GevcV4hD1Ogza9rIGjvWiHPL3gNDW7nJKavZfRqb3OwTU9zTqdPaJuSj2Qkds7t0WkPbVajT3oyZC9nOW+PA5ON72AeZ48VcCpPaz+xjwYzm08sxtDvcYLRT1mj0C9pjApveiJTbwunAW9iylYvUbGcj3gopS8zpyKvex9j7yIH0s8qmNePSjUZ71As4m76PRovHzK0bzoFIy9M5oSvSjfKjyKbmo9fFmMvQ5tob3uWnK90FefO0mvgD38Oeg8cZmCPQBb4zswy8q8pIrjPJhXjb0wa/A7YgRSPVgtWjxqd0492PgkvDAikzwAmIi8UKH/vDI7az0ylnQ9Kp6evQA6PTtfRYq9AD5sO7NZiz1utAC9EK+EPNjgWbwHI6C9IrxuPahVRDyy+Tk9gDOUvCC8E73o/xC8wD64vPMad72sD6884PYXveQ0tTxw1ia9hlSLvWApXLuAV3e8MGVUvThCGr1QY8a7EOrIu9K5HT2w87G8Pa2aPZjWDjyE65q9wODEO9j7BDwgXWg8iDUpPdDn/Lzo5AG8DHKYvDenj71kYJu9SPKoveDgKb1+d6S9xjcmPSAifjwYLkm96jJ9PQCxpbnuCC69FjmSvVv2oD0YzUM8/iAwPcCF3btyk6O9ADz2ucZkn70BDIA9uKWTveVloz3TgQC9UJyNvXh4Bb1gD169ooRsPWi9DjxgzBs8+OQHPRCI8rzQz0W9P9CHvYhtJ70+doK9QMWbO2ATEDtAG4U6CKRNvNi0ILwrHKY9KJt/vS3Pgz2JVoM9gA/3u3UYnT2oXQi8kG8dvYMyT71Rc5k9po2mvYBSZLtIpz08QEq/uoCRYDs6tmY9BJmUvbKYaj0wm7e8AyEnvYhrfrwwoqA84kUJPf7oJ73PM5+9kyIbvepnND2AA2K7i8pOvV4fKb1+Jh09wPqXPMuDfb1zZje9AJT+OxZns7zsAqM8RmtvvcpUMj0WoW497P/QvJhjJT1wV5Y8AKSGO1PGFL0ixHk9Ag86PctQWL18DeA8QPTzPCyo1ryj3AC9RkxJPRBx4TuCqaS9AbGMPcboYL0ADTc8UAinPD5Cib1w9Za9zPCNPH6uH71w/hE9vjgnvfLSSj1L6Zi9HYKEPesia70gxAS9YGOqvKC1Azt2RwQ9jpUAvSCrZbtg1Au7DvUbvY75EL0iuno9kyRwvbT0vzygF5a8oPczu12dkD2WtIC9u0gRvaJYYj3UL4G83iomveYrDj3Tg5s9tBf5PKgfNjwmSjS9uEwdPef/ij3oCRC9mvqjvdqxDz0q+Ss9sklWPYDqNL0LCGm9Qs1/PeheSTygCPs87gZUPawqmjwsRMy8gRSlPX65Xz0gvNk8AP3juQDQ3Dkg1dk8WmwaPUsvg70ueVs9yPt0vPnPpT0ig3Y9k5dRvSjHI70ge2s7cveLvTBF+jys8dg8bSKHPShPk73z5zi93to0PYBdfTzqon891mVgPfC+cb3qOy49gLY9Okr+j71opWS83AClvPlnjD0AL9k8W1ihvTwugr3Gjze90rcuPSH/pz0I7DK8NO2lPDi4Ib0mkJu93wOlvYsGR71IXVy9QFyDu/5kRT14kTS9jkppPf7/pb0AnGu6CioEPYS2hzwARp+9OMliPOcEir38G4A8AFFuu4VNgj1Qov68ACBdOPCuyjyb4CS9yhElPTYNPT2y9GI9f2GAPVrqPT2lV4M93jFPPXBZVb35HYU9fZmkPTsKU70S/nM9RN2kvdHMoj3Y2n69p/Khvcr0QT2g7hY9Jr1XPRpdXT0hmZE9eIQNPSCw+rwiVE89PXiMPY1niD1YPE+9j86SvRauDD0YsIa94z81vbDSgrueZgQ9Li0XPQK1VD0o9Aw9aZeDPeimTLwGFlg98L2FPFo8GT1u1BI9I9ESvVTghr3YTly94HQdO+6nBr2lKKM9/3GiPdDdUb0uYEM9IP8Zu0CrhTw2bje9kn0wPXHonD0Oy1u9tK70POHhjD3IpRe8ObydPXBBpTvg35y8hLmzPLRNpryIkxy8fH6XPKqHAD3MrKS8CMxKPApKTT0eXie94HUNOzkTnj2rPxq9dqozPVhMlr3IFy28sE0lvdJLSD3mvEs9oFQPO0jnAb35h6Y9vlcIvRBZwTwBSqo9B3WKvbnMoD0amIy9bJbyPDVrmz0bl2a962aTvcDuZL2emS29oKBPvYa+1LwAUak802+VPQc9j71aumA98sBzPQDF5bx5O5U9kb2GPRtvBL3w6+67YKIIPT7fUD2UleA8qFo5vKXjnD0rJTS9tnM6PbbIg73kkZm9lrdCvUBzsLyF+o89RkhKPXY/FT0zOJi98G/dO+ACi70gvRo8OjaEvYZSKD2FOo09wiFxPcBfRL2uXX69G1tkvZZbrbyWGgs9IF4EPIA4cry4WEi9dpW/vMAeVLwAO+i6HjZTPSrnRD1wiMy7cOvtPJwJjTzCz529bdaAPZa4V73ulFC9mGxfvKCdaL0wH5u9GENKvYBlX7vASNe6TQ+VPa5Ch71cMaC9Zm+RvYuoZr1g+yg8Bs4ovcKUcT0YG5y9G66UPZAiy7z6oQ09wHaWu8zQ5LxOAie9YHWrPNA6vDsygy89/gNKvVbYp70IJCK88GwTPQqFRD0WdD09gIBtvIrbjr3g5Qs7upamvbx/rTxoCiW8auhsPc5lfj1wmZ68zT2bPejsqb0q9mk9y2qoPbAFmDwgvJa9OBtKPKavdD2gGOY8xhTovDR6j7ziy5C9HyeWvWyP17xMYeM8CF5Pvdaq2rywzL+8AN/nPMiSSr07L4O9OAMZvD2IlD3Ec/g8hj9CvaEIoz0W0kk9UBCfvUBD5Ts8xfK8loU+vXOIqj3vgIS968cqvWavEr0Qb5a9AN7Iulyw/zyAkRK7QIyRPMB0nLwYvGK81rb6vOQwnL3wlLC8YBaovVUHqj04fCM9jtYxPT3Znz3Cwi495WuHPYZKHz2Fd589ageCvfh2OrwMtIm8i3xcvcDMR7y/iKK9qk4YPftEDb2yV3o9qlalvQo4AD3Om0y9YnJvPRW7nj1AHO67oBrVvByC8zyQ/ZC9SOEEPPKgTj1YeB69pjknveCDeLyNEZ89QMqEuxb2x7yMcJk81rDzvNZIB736awQ95szkvAMWlj0yo0k9+MobvUBMMbxwjaW8MLG5u/0VnT0KMDU9nH/cPPozkr3ex2i9O7OCvVxy8DxSwUk9hDqUvaZd7bx0noa87lmovXhqED2WLEM99QqlPfw/17xCMjs9Vl8WvRDCkr331oa9p3+QPe5EGr3swbQ8aBgRvJBAgLsQ4Yi9dyOOve93gz0EVYo8Kh1NPZ7fPj2cqLE8Fkb/vIhHNLyWdKW9tgY7vU1Xmj2Avdu8TOmLvGipYLzS+Iy9IkUnPb6CG73dspg9Y7MivaYqlb2gKWc8SChYvHhwaryUG6G8wFEaPAi1Mr3oNAY8IwEVvYljlj3dG5w93u6gvTi1NrwAhLC5k8OnPddLqD3wffg8uIUmvO6LEb1+GYq9rGSVvXT81jwHeo29xngFvboHdD3L6Kc9mk9gPShPM7zjryu9wylFvXCN8zvgKm48QETXPMSc1zzwLyq9cg4UPaocPj3glyA9DnGVvQxcwjwIVUW8Qo1TPQLCaT1gg2y7n8KovV4ugb1QY7a8sn9+PQDPmrvjqle9wHuivCiYSDy0OdM8clV5PabNXj3U5IY8XM6DPLKFST36T2s9/YuYPd50Gr2W8189PgmevSjJWLxTih+9ACjJuqabsryht4o9wDgWPAeKnT2m3hY9+vEAPa0bhj3QdeG7/ROcPaCiYbuIJ3+9JmY0PfO0h71GsEm9npxCPZhnIby7pWG9rJ/3PACMlrkMwaG8WhxNPagwa73iVhs9MjNwPYxIqzyrqTC9zDmIPNbDer0oliW8GtcaPTLQBD0wpI877jAQvcBRY72m9Qq9uNxMPPlzmj2WIES9C0ldveDmcrzvvZM9dfCNPcythL06uwQ9E0yWvTpvXj31y589UyKTvTxFzDw+KBW9698IvRsEYb0+C1M9AO9ZO+MBJL1UAc084x13vc4tcb2yJyg9/vhyPeD+LDty4HU9crpjPX+sgz0qYX09oBMVOzClsbs0we48dnNLPQCP/zrAUZk8QAKPOjP/ir1r4F29GMZ4PFwvxrwp0aU90E2XOzJMTj0Deo09t2qMPfIQVD0+ymM9uBlWvBcnkT0+41u9+ABrvMx64LywpsU8uKyhvQLLbz1jZim9Eu1UPZgODzwSw1A9sgQ9PbTElTxyjzU9kKCAvNCsB70oOGe9aBULvIXQkD32xSE9XPqjvePJWb3E/6i9RJ2uPJ+YjT0B/pE99aOKPXkKkj1q0Rs9gCdcvKR31TwNo5I9AH78vMAUkL1lQak9XBfePF5XTD2Q8Za7CgWZvYD1y7yamqe9wLQLPChtETzsz9q8eA8qPCDWQb3w5bw7WOsZvOCl5TyaQ3s9QIDmvLglMDzzIaa9+tJ8PQ7YBj2lfak9oyGDPSAKd7yYGho8GpR7PeEUnj0cXda8l+aivdCkLb0eZFU9KpNEPWRV9jwNJp89n7CkvUDxubrFtos9mVqXPWg9HrxDS2i9pXOVPS05oD3eb1Q9ShhZPVAIDL1S4kY9YPEBu2i3TDy2AnW9hDW/PNA2Ir2CZH09IdumPR79KT2oQ0E8FKrsPHTyjL3gCxI88OT3O4CTALsA/j88FEfoPFxjrDyk/Z299OPuPBhiNDxEY408um5oPQDPkbk2dSE9pEbcPPBotbtA+C48wlhNPYheDjyZSaY9OZGQPenzjD2vMp698BjSu/wymL2Q6r688SqhPcCPKr1kmpq827MavfZiCr3SBI+9VlMdPVDV8rtYSig8oMKDvQJNRD09RZg9hs4+vQrnPj1Ay0G9uqGqvYAArTwz9QK9X/WivTSijrzAnPQ6rS6DPSvmlL3y8349KyycPQjFazyQKv67SC6evVVTpD2MLIA8cD32O7Dpk7tr1pm9UhMJPXZFMj3pnZ09wLvjO8aa4bx4MEe9qLcKPMDr0zqGrMW8qKdEvRlxjj1guI48PJXjvHAF0DwA2rI7j5mqPbQhyjyh4YQ99GPcPNT9kDxpm6E9AzIovVDStLzLDQq9ARqkPUARorpLvyi9sGP2u5BgwLsQkJq95PH0PABhNzu+yXu94utoPTuwCL2IahC9Ng9UvYBFwjzjnzm9TDLDPCq1pr3w4v880lp5PcAHFr18OP482LGivf0LgD3X9I89GF1pveCoAj1S2DM9MD1yvTf+nj0A+Eu6mnVhPSD6TLtcZd88KLNpvHYucD0qug093o5kvaBqaLvIto69uthPPSYYA72h7qU9uUWMPTE8oj0YHWe8CZadPRA0q7sO3kK9DCr6vHWAoz2WaAA9W2CLPQAzaDwQ5Ak9CF9SPAKzMT1bTGm93mJxvWC3arsagD49u46gPSIIOT0mkSe9ITqoPUKYMj03QpY9xrjtvHY2yLzgcYC8r1+PvfpLUT366jU91WekPeBOODtLwpi94H9RuzZIUD0r4Am9dxCmPXpvDj36qoK9fYGiPdsgj71bdoO9UiMvPVH/lz0g6hU8fFTKPA8Wqr1Aeuq81JSbPDqFGT2+FCM9I4VHvQCu+zwuKl09mRubPdmNqD3wyf+8HtVfvf6zbz3o8VC9s/OEPSirTDyuIRi9kI9DveJxZT1YTwy9Mj1CPei0a70ONIu9IlAOPQYVGL36z3I9nNz3vCYR0LyGEt+86q4PPVjbfDzcK/q8DPKWvSjrKL1AxAQ9Bu5UvSwekr2Mb+u81mZLvRgYELxwTc870L/YvL3igD3uunc9IMzTvK6nMb09BpM921wSvZ8hi70A4Pu6Gt9dPWGlhD2oVyW92ipsPbDjXb0s7ZI8FYCSPSDsc7xAqBU8ANvjOUAX9Tsoing8vKTcPHurjz0YaH88uLtKPFKaMT0Yyxw9cmB4PWNAeL2mGUC9kM7AuzBp+Lv2K7S8ewp8vfCTtTysUOM8ZEKAPJ1zgj3geX+7sH7BO8iBcjwgQVM8D36nvTPvWb0yK5e9POH+PMNyGL2DuYY9E6GjPVbJG72w74o8EFuHu4DKgrsIrnS9I2wJvRnwpz1sS7+8Xxafvek1pj0ADoC6U9KQPZ4AN70oDko8pve9vJTxhLxDjKq9LFaKvKyFh70wRte7Ow2HPR48E71Enfg8wA3ouy8zmb3eRlm9ajJtPQDTwrrOWWC9Sz2VveMJl72EZaA8ea+HPZtJgz0h1aQ90BkCvThHO7zQFH69z1+HPbfXpz0gIso8OwcjvcDW0DvYy3O89LfZPPA4zLu9yZg92QudPQD5pzvYq2C8sNPRO7TLwTzgagO7pjbbvPxm1Dwy1aG9TKCVPGsHe73speo8QvacvTjNg72gmQG7ywl1vViGJz08lsK8CP9ovODQcLxdspQ9VPyxPNrRob2a8gE9uWyDPcAHm70Q+ZK7blQyvSC1TTzgQEO8wMREvJuCpD38QLK8WjpqPR19mz3EpvI8ueSYPaACbrwU6Ik8lt9bPSgfUrxwQTu9NAb/POJlcT0S6WQ9KxSBPXZ8ET3o+gS9AOdMvDBIET2jPo095PvCPIhFErw+m1+9Vsm1vJPNCL0wiRG97hILvVpim70IeDY8iNUQvWjEKD2gsPO8LCPuvHdKjD0g2QA7Nol6PfgRNbwIbBA8njIRvV4mJD1S+Cc9X+ObPfLqPD2O92q9JGWKPBrLgr1Q9Lo8XkmYvcwGyrygJSo7VWOWPaoUfD1BnY09EKM4vSy9lTwgYyY9ip5+PTjqWbxDBxy9XtqnvbDt6bxmCq68y9cqvZMnoL3eqUa9ALwCvFKmAj1nqIg9i1iSvfAF37v0gKc8nBfjPNBtlTu2/TK94FtMve7AGj04i529ecWZPfxEwDzabys9ACCBvRDv1jtwEbI7Tm0ivfhKI7w9UKg9QBdKvQrcIz0DY4m9bO2PPNgyYzzKe2Y9IE4OPQK3CT1+kmu9cHXAu6uZqD36UGQ939SFPQjJHz0Tg4U9sveIvSe1pj2C32E9oMNhveDtTDyq2Vk9ylxsPZwd+Lxgw2K9APnSOXy8i7yAcQo9/IqWvKAK97yAS/67jo6RvSY1yLwglyS9PhdjPYaHRL1YBWu9efCUPedlpz37Xg29zimYvf5uN70GQc28EPKYvQC98rxg4Sa9pjNqPSQanbyJH6c9spslPdb/2LzaQ2g9JkYHvRhbAbyTEym93AeyPISTnr1UKIK9tKanvO4qOb3CRkg9wOlVvJZ+8LzI8Ta94HBwvGZYaD1gyHc7nlt5Pb7LbL18Up+8bqMJPXHDlD3KcF493R2lPd8BkL3z0kO9IK4gO0CGjrqx8KM90wWdvQbdNj3/FqC9AvhmPaBVBzxojSg9bDuSPD7WFb3VvqY9dO36PJcJmL2UhZRSlEsAKEsgSxBLA0sDdJQoS5BLCUsDSwF0lIloAilSlHSUUpSMCmNvbnYyLmJpYXOUaAcoaApCfQEAAIACigps/JxG+SBqqFAZLoACTekDLoACfXEAKFgQAAAAcHJvdG9jb2xfdmVyc2lvbnEBTekDWA0AAABsaXR0bGVfZW5kaWFucQKIWAoAAAB0eXBlX3NpemVzcQN9cQQoWAUAAABzaG9ydHEFSwJYAwAAAGludHEGSwRYBAAAAGxvbmdxB0sEdXUugAIoWAcAAABzdG9yYWdlcQBjdG9yY2gKRmxvYXRTdG9yYWdlCnEBWA8AAAAxNDA0Mjc5Mjc4OTEwNzJxAlgDAAAAY3B1cQNLIE50cQRRLoACXXEAWA8AAAAxNDA0Mjc5Mjc4OTEwNzJxAWEuIAAAAAAAAAByN2893MOZPECC/LvwTZk844CGPWiuj70N2YU9rADbPKwuojzdzpc9gBluutwq+LwmPgK9QNzaPABdTLzOVSm99ktKPUCCpbrOdHu9aS+VPbxwmr2rCoG9CXWdPcDYxzoWnls9hFKVvWCjmDwYi2+9vyWlPYDgabrmqSE9KnVdPZSFlFKUSwBLIIWUSwGFlIloAilSlHSUUpSMCmJuMi53ZWlnaHSUaAcoaApCfQEAAIACigps/JxG+SBqqFAZLoACTekDLoACfXEAKFgQAAAAcHJvdG9jb2xfdmVyc2lvbnEBTekDWA0AAABsaXR0bGVfZW5kaWFucQKIWAoAAAB0eXBlX3NpemVzcQN9cQQoWAUAAABzaG9ydHEFSwJYAwAAAGludHEGSwRYBAAAAGxvbmdxB0sEdXUugAIoWAcAAABzdG9yYWdlcQBjdG9yY2gKRmxvYXRTdG9yYWdlCnEBWA8AAAAxNDA0Mjc5Mjc4OTI5MjhxAlgDAAAAY3B1cQNLIE50cQRRLoACXXEAWA8AAAAxNDA0Mjc5Mjc4OTI5MjhxAWEuIAAAAAAAAAAAAIA/AACAPwAAgD8AAIA/AACAPwAAgD8AAIA/AACAPwAAgD8AAIA/AACAPwAAgD8AAIA/AACAPwAAgD8AAIA/AACAPwAAgD8AAIA/AACAPwAAgD8AAIA/AACAPwAAgD8AAIA/AACAPwAAgD8AAIA/AACAPwAAgD8AAIA/AACAP5SFlFKUSwBLIIWUSwGFlIloAilSlHSUUpSMCGJuMi5iaWFzlGgHKGgKQn0BAACAAooKbPycRvkgaqhQGS6AAk3pAy6AAn1xAChYEAAAAHByb3RvY29sX3ZlcnNpb25xAU3pA1gNAAAAbGl0dGxlX2VuZGlhbnECiFgKAAAAdHlwZV9zaXplc3EDfXEEKFgFAAAAc2hvcnRxBUsCWAMAAABpbnRxBksEWAQAAABsb25ncQdLBHV1LoACKFgHAAAAc3RvcmFnZXEAY3RvcmNoCkZsb2F0U3RvcmFnZQpxAVgPAAAAMTQwNDI3OTI3ODk0MjA4cQJYAwAAAGNwdXEDSyBOdHEEUS6AAl1xAFgPAAAAMTQwNDI3OTI3ODk0MjA4cQFhLiAAAAAAAAAAAAAAAAAAAAAAAAAAAAAAAAAAAAAAAAAAAAAAAAAAAAAAAAAAAAAAAAAAAAAAAAAAAAAAAAAAAAAAAAAAAAAAAAAAAAAAAAAAAAAAAAAAAAAAAAAAAAAAAAAAAAAAAAAAAAAAAAAAAAAAAAAAAAAAAAAAAAAAAAAAAAAAAAAAAACUhZRSlEsASyCFlEsBhZSJaAIpUpR0lFKUjBBibjIucnVubmluZ19tZWFulGgHKGgKQn0BAACAAooKbPycRvkgaqhQGS6AAk3pAy6AAn1xAChYEAAAAHByb3RvY29sX3ZlcnNpb25xAU3pA1gNAAAAbGl0dGxlX2VuZGlhbnECiFgKAAAAdHlwZV9zaXplc3EDfXEEKFgFAAAAc2hvcnRxBUsCWAMAAABpbnRxBksEWAQAAABsb25ncQdLBHV1LoACKFgHAAAAc3RvcmFnZXEAY3RvcmNoCkZsb2F0U3RvcmFnZQpxAVgPAAAAMTQwNDI3OTI3ODk2MDY0cQJYAwAAAGNwdXEDSyBOdHEEUS6AAl1xAFgPAAAAMTQwNDI3OTI3ODk2MDY0cQFhLiAAAAAAAAAAmjRrvlGXuL3uzoo9rq44vjorur12K/a9ppC7vPe74D36BZg8jOB+PK03qD5QrUI+sK6HvuQFgD7LMr69UC8LvgilBz58mdU+toMcvpHMpL4g3Gu+1sd7vRqs6T0bkoa+yIjhPsDhlr4zz3q8r0FjPoHC8T6q3F4+1lnyPezgBD6UhZRSlEsASyCFlEsBhZSJaAIpUpR0lFKUjA9ibjIucnVubmluZ192YXKUaAcoaApCfQEAAIACigps/JxG+SBqqFAZLoACTekDLoACfXEAKFgQAAAAcHJvdG9jb2xfdmVyc2lvbnEBTekDWA0AAABsaXR0bGVfZW5kaWFucQKIWAoAAAB0eXBlX3NpemVzcQN9cQQoWAUAAABzaG9ydHEFSwJYAwAAAGludHEGSwRYBAAAAGxvbmdxB0sEdXUugAIoWAcAAABzdG9yYWdlcQBjdG9yY2gKRmxvYXRTdG9yYWdlCnEBWA8AAAAxNDA0Mjc5Mjc4OTYzMzZxAlgDAAAAY3B1cQNLIE50cQRRLoACXXEAWA8AAAAxNDA0Mjc5Mjc4OTYzMzZxAWEuIAAAAAAAAACxEbU9mHZhPXcmqj2oHks9rQTFPakFkD3mFOE9zZGRPeBWlT0AVA0+bxuKPX1ohD2l45w9SYjsPUg82z0VetA9fCmPPWBnqz3j3p49hESZPRGtGD5IBqI90JCvPQyIAz47tKk9FQFJPidY6D3rb7Q9mFsIPuNqnj1nkz498a5OPZSFlFKUSwBLIIWUSwGFlIloAilSlHSUUpSMF2JuMi5udW1fYmF0Y2hlc190cmFja2VklGgHKGgKQgQBAACAAooKbPycRvkgaqhQGS6AAk3pAy6AAn1xAChYEAAAAHByb3RvY29sX3ZlcnNpb25xAU3pA1gNAAAAbGl0dGxlX2VuZGlhbnECiFgKAAAAdHlwZV9zaXplc3EDfXEEKFgFAAAAc2hvcnRxBUsCWAMAAABpbnRxBksEWAQAAABsb25ncQdLBHV1LoACKFgHAAAAc3RvcmFnZXEAY3RvcmNoCkxvbmdTdG9yYWdlCnEBWA8AAAAxNDA0Mjc5Mjc4OTcwNzJxAlgDAAAAY3B1cQNLAU50cQRRLoACXXEAWA8AAAAxNDA0Mjc5Mjc4OTcwNzJxAWEuAQAAAAAAAABigQEAAAAAAJSFlFKUSwApKYloAilSlHSUUpSMCmZjMS53ZWlnaHSUaAcoaApC/mAAAIACigps/JxG+SBqqFAZLoACTekDLoACfXEAKFgQAAAAcHJvdG9jb2xfdmVyc2lvbnEBTekDWA0AAABsaXR0bGVfZW5kaWFucQKIWAoAAAB0eXBlX3NpemVzcQN9cQQoWAUAAABzaG9ydHEFSwJYAwAAAGludHEGSwRYBAAAAGxvbmdxB0sEdXUugAIoWAcAAABzdG9yYWdlcQBjdG9yY2gKRmxvYXRTdG9yYWdlCnEBWA8AAAAxNDA0Mjc5Mjc4OTc3MTJxAlgDAAAAY3B1cQNNABhOdHEEUS6AAl1xAFgPAAAAMTQwNDI3OTI3ODk3NzEycQFhLgAYAAAAAAAAHhU5vd3ugr2cLI+9QIM7PKCUSrs09Q49RAyPPbHTcr3EnkI9tCZ6PWI9y7yGnkw9eO+MvRnxhr30/WM9wgAkPeCCD7xG9kI9bNwZPSydMj0AYb+70EdMPWBQd7vIGwg8JE9WvAL7h70w8208wLgFPNjN0TzW5BM9hAIXvaB0JLvEKjc98DLrPGAeMLuwAv+8rCzSPHaSKT0A4c654H9cPK2hj714yKI88EhMPM7VhLyiiyC9fCtlvfN2jL3elYk9fAZLvJErdb2A/3c84OkbvDhSWDz0Exi9PDBLvUy0OD0INrk81l5fvdhqwrx2J9G8WmlmvcAvVLssDfg8SImKPRwMAj3hs5G9LokfPaBGw7tAznS7CMJIvc5qBD0A4Qo8JjMXPZdfgr2WYdu8cnATveBtfT2sbS89YA4evJBR8bwB2BG9DIL+PMy8lzwrchO9EOCKPXNkcb3gshM9lKCNPXRMkz3rUVS9pIAovdBQMrwgtTG9FKDNPCCTfjzwRxy9wMr1utyi7Ty2Bbq8+PIEPTsFeb1mY2i98Na5u9CDWz2IQyQ9kBE3PaAdG7virzQ9eP1+PfAZ7zulXIG97kDcvEDSXz3ARi47EFJpPWhGY7y7NBq9DC/ZvPIpFz26j0s9n61ZvTgKiTxI8Qk8iPlePT5sbL2WKXG9VH/rPOb/jb0AdVc8eDqIvaDSrzyBqZO9GLiNPYgCQj2A1Sg7MEgPPaBv9jsAFB87riuLPfyw7bxgx5i7YN7Bu0AQpbs8uoW86HVHPfgs9zwAUtW7kF1/PBAdpzxY3LQ8nLRNPT5QP73g1UY9Exc7vUh4Mz2MFJa8gImhOizsjr3YOdQ8WHxvvUL4eb3ePN28DGEWvYCHxLochU29O9ArveCCqDvwNEE9JPfbPPxUX72k1HY9HLqBvCfPAL00XWQ94kOovJNvgr18Sx49pv89PTjUCD0CH2O9lM5PPSyGFz3g/ja9VdgIvc0Abb3AtQ485jlJvbyjjzz8CJS8AABnu1TiXLzwxve79OrAvGYG2LxUEjG97GZmvUD4h7sULPA8hP+QPfC9ybvYFzQ8QEJ/PT4yhj0F3yO9ZK/LvELvHT1l4Ii92N4vPERnwbxyxS69hjkIPahChrxnWyW9GLxgPLoqk70sMls9LEx4vfxCWry2ikk9cLTevMVok71qRaK8ANtCuqLFw7xwKZ889NGMPQBTfzpIDHW98P+IvECrujzyAYu9VOWkvGZzkL2A65s65rSHPexcvjyYmHA9tJx9vbhFibwAULo5BIZePeCjsLvgwOu7d1M/vaSBfT2e2YG9+C83PL6hrby0DJe8YDd4uwACfzs8yhM9CKP9vBhATrysAYs8/HFbPYDJ6ruAUBy6XHm9PHgosTxGs++8THAgPcSejD2idoM9IMgxO26gP73UEny8qpM6vWi2GLwI5Ye9gLT0OiBOirtMfXu8gNovvdZogL1OshA9UhiCPaDvn7yoYTU8jkHVvGKSVb1SOgI9bDiNvYAjDrtuyDk9A0+MvYLXpbw63ok9wLh3PadVd71Ic2S9KInQPMiMxzws0SU9wMlFuwhOrLz+sgU9nKqHPRB4Fz1NlBu9uNHkPMu+Xr24CC492uk6PSBzxLwET6k8H2E9vQi1Cj1wOV28dl9JPQQGYb2AASu6DNUUvb7Vjz0MKmo9PCRvvP4aGT2g2Pu7gFM7PGE4ib00aSs9rBqbPJD2grswJYY8fFnwPJr9hL2c41u8fESPvLofR73sOHG8jqLxvCR6bT1r94i9BuExPUyV3zxOqYW9SE4XPKTfFj0k54Y9ACVLuwjLd73UihC9MidKPVxqZb2wu507EHnEPFD9+zvcjy89CMafPCjphT0h5xW9kJD0vOC3TD3BX429ABRwuj6HR71G0jC9gpw1PepBij1YQp08JPt+PVgUXz3MKyU9NCMfvDJLUb1mQpE9PPe1vP+RCL20NUm8kFYHvLRJnLxQhTY8ZvE/vTTGeT3s1cc8u54GvQyNwzwAy8G5cGBBPGRJib3yBn+9/KAqvUDlJjs84/w8DC9tPeocDz1x3A29ou8dPd4XSz16UG69GuhHPUD3szyQ2pA8yknKvHcUa73umzW9BGqNvQovjD1kRBY95KRePVj5gD0A35O67P9YvHAHx7sWfU09qNUpvUTZHj0IQ0w9ci3jvNxgujzvAFG9oEaZPADAEjj0HNY8NoIZvW6HhT38ni49BpaPvXgYHb3IoQo9zLCZvDBB9ztaQo49kM2RPagVjz2Aq+E82NAVvKrdhD0UZ0I9WNhmvPTCQrz8igc9/DurPPLG9rzM3/Y8sIUSPbaxOL0yFi099vNovbjAIbxSU7i8HBWyPNi0Zz2cCls92JCRvU3/i73Mkog8zMxPPWwmij2mT5E9AEt/uyA3zjvvJX698FPpPL6Pg7xUNuk8rARbPYRBYb3YpEk9XHVAPchsXz2cfUC9C6qFvazcVj3QFy+9ZMRBPUgOxTzMs6s8cEtEPZLahj1/hWe9HpL2vGKajj0w6rg8ECyYO1E9fb3seuk8IMWgu7TGcz24nuM8oL3PvNRetjz4iGA9PGORPCB+Yrz8i1+99HfvvHBrkz3gAV277GqwPFRPKz1GAoy9OsY7vUqhp7zgUZs8HC8oPaKfv7yIpG29QsaEPRDebL3Y+EI8SuAuvWAREz1g92O7XFeLPYTD7DzqekO9LXI4vd60kLw2OSg9QG96PRZZhb2EFpw8iM+NvKotkrw480k8AE+4OxjZqTzMu0K91HDdvMCd0DsoxvQ8qEZ2vUymsDyAxyY61EubPBhckL2G+gw9kmAWPYApzrowC6084GdHO1Ah77zgeUs9cFbwPEAjGrxcfBy9IAdxvICL7DtwLyC9dmYAvaAtQrsObSy9MrE2PcpJML14K0+97mlMvazlfj0iEy29cGsXPHB0SD1Y7g08YK0CvHQnkD0imRA9XBm6PKhN7TwlfEW9ULaPPAJV3ryKWoi8tIHxPC/HkL0UCrw84K4NPMS6Tz0A1Mu5sKG9OyiWITyEa1g9Ruc0vba4kz00kFW9aEoWvGthGb2Qr2s8xCZuPVQuPLyA5YO9sivKvFZdTb1oO1y83rd9vTS2iT0eQIO9tFC6PJ/jgL2MgFQ9gKSROlzFzjysU3c9dDAfvAiIqrzARXs9hP1VPSaMND0mfDS90reTvUSAlzy4Y/U86I5MPUAAyTtAFlK9Eg0HPUDZkj0S6CM9/kaqvDu2ab1org69AFQSufZKPD3mGxs9iK4jPdY7kz1ECAC9MrpZvag9Lb2I3iU8IEuCPRQNYT2Mz4k9zkTEvIyeojz073K8ZUSTvSNKDL1C/zu9oNzuvMCdpzu0EGO8EgFLPTlbhb0U53A9po+SvcyrXbw4ohy9srsXPaGaIr3iqhM9ylrJvPqU/LwgR4W8ijnNvMhcGj0RfJC9ATCQvTgdu7w4jwY9/UcBvdeLHr2Esrc8eMU8vVqjhD3MPiC8OIAbPQDBPLoAPrE8346RvTXlSb0wnRm8sNwSvKxah71mMoo9GLx8PbA8ID0iuxM9UlskvUal7LxMzo89ANFXvQzwrjzwEzS8ihdGvciORr34tC89TBKNPTiccTwEA0895HvCPPJ+T72QFvk8Xii8vCDkNzxeyEq91LyXPFHmhL2Q9ve79vOVvM5iurw8qoQ9oHEjO7BRjz3Migi9DEWuPP5GQD2A5jk82DEoPOBLe70oMEu8xknEvKq6I728pQI92jIoPcyY/Twgp+070kSCvdxTm7xwQhU9lKaIPbizVzxhVBO92O2vPGiD8zxMqC09EFXZvOwIVb3Qrli9kMBXPHzK9jweoU09XjxSPQ7wi72S0hA9NuJ6vfjOaz0QwTS96FzmPPbEhj3AcRk9FMi4vNugjb1WFo09IOPTvMDMFrwUZzQ9cgbVvJxkpzw3Poe9XRcIvfC+mDs41yg9UJwcvRxfiT2maDq94Oiau8AdiD3Uqo098rVOPQ6DjbwQSBU8IPQKPYY8FT0cdjq9H/KLvcFkYL1oXPG84E6HPDbmPb2MNSK9HNJ3PQv6Rb2AtIO8MPriuyQXvTzE0Ec91j9PvbjlKD2mV3+9WjVHPeA8mbzmaEk9IHg1vbzh+jzSycu8DAY6Pch6Tj0ofD480tPPvFo4ST1lsnW9fu9OvUwBdLzMtba8vBdnPT63B70gOTY7BO3OPHy9ujwSBgw91BNbPWhFUjwbyh69nMhxvABDBrzoxI487+ZzvUAkNTvGswC9/TKFvQDVWDrc7Gw9GL7OvCiYkr1gGO+7yOs5PZfDHb25kIa9vCpuPQJIHz0o5Ww9hHAUPfB9ZbyYkyA8EA/oOwy27zyRLXG9opK5vLBctbyMR/U89pALvRLoFD0w2Ei9AMA/uqjnsjzw3SA8mOmLveBPHbvA+gi7PPBoPaYMHj0Y61881N6KPODeUDv3RBi9gByTO5Rbij32th89XEEzvdZNY724m1q8GCJaPS4SQz1A6zw87vSPvVAK4ruMoGO9eU+MvXSUUb00wnY9FCHPvN4tHj3gjVs7IO1QvSqnhrzsF/A8sE93PVwdaD3oLdQ8UPtpvTgcGLy+Fog9aNOLPe3XRb0WNdK8YO1sPbV2E70AWAo7dBXJvIrTGz3wJfS8wCNlvZvcjr3aggo9zoQ1PV5aQb0QDIw8bKCTPVjLn7zIaz08MCoUvVziTb2qKIY9wDMHO8CX/DyKBiE9COuHPPBHBDy2Fyy9ciOJvFo2jj2KSL+8sOHHPBovjrz5rpO9mCVyPdiwHD3MIoo9tHwhvLD36Tyw+0y8cjcnveDyI7tF3I+93CRuveBymDxgbFU7KrQTvSDlsLugofu7CAt1PRZTTb0wUns9vG8xPewUdLwwU8U7kBuOPADMdzwMVIC9fKZ2PbDuhrwGJ0c9ai2QPYQFHr0tSSu9YTUBvZKZGj3AhQw90H+4vFigGDywgRy8XUCQvcA7PrxNRAK9RP5IvQCPGbtokIQ9EPIWPCxXgT2MZWc92RdRvUB3o7yysca8QF2SOmQ3ObxAC9M6WcogvcKDkb0YEFC8yHJnPfDue7zINU+8iFhJPPinLr1wekG9sBZmPVAXmDyAd6G66sWPPSIMij2O2Ea9MA8QvMCWirvks289v/8LvSaSNj21rDq9mKe7PGBF+rsYkFY9SE5GvZR1rLykQec82FGCPb43G71show8TH5AvZ6vZr1I7zY9MrSPPbidEDyQGNw7dFRSvaOwNb2g8/s7Mm2hvIDZSrtAbWE9IKAiPRBogb0cyju8ZHFAPZBsFjxaCkU9PsOKvcFuHL2YwUi8ID02u6hZT7wooBw9UMktvSyHlDw8rzm8tJ/AvKJ3eb2wPwS8sFKFO3op/rxMQgU9NKVLPTBptbutHoS9qMjgPJJ3N72iz4y9PEKAPRAzXL04el89WsmZvKBudD2zKZO9rOzCPApa17w+JEw9rC+vPPbfUz3kqE28xxAhvVJ0NT1GOjC9AACLPZdAib3qI6a8jsK6vEBvR7ubPSa9GOYwvAD7/jvEbwE9NF0rvaBpkLtGAJE9gPfMOnc+EL1YroU9wCdjPTt/U70gHyY8uG1yPOTQ6zzkzYg95IYKPRtegr2MOjY94GuSO7TmF72PP0W9vpgQPYAJI7vYxaY8VBZgPWjMHDyQvrA8me2Evcjh9jzoYIK8gCWXO9iSgj2YNwM9JmOfvMgCKj1q7UK9QO7TOwB6zToQAtc8NMxtvKg6V71Jo4m9Uh2FvVC04jwmHB49bEuQPKTSj73EnhQ92C3NvEANer04hXQ8TnSBPQisLD1REF+9F+NNvSp5gT1+fsm8tM8FPfgz1jyAmmM8oLoePdQRPbww6b+8QM3RO3AZsbvPGCO9tniRvX4YML0rCR29VJTlvFz5Bz2G/pa82dcWvZTwQT3AWcY69/xQvcwhHL3qCA09wDyHuwC2obkwW7O86PRAvZ6HKz2CbBA9TD+BvIohFL3wFWu9ThEnPVHEJb3AvrM6EO0EPbg5y7x0a2o90NzAu7DvYD2gRzm7qNtBvWT1V71y7Ek90GaBPVpEhj0+8m+96P1fvXopUz1Uzq88uqWGPRRBgL3M58C8hH2APACH4rscDfE8jlOIPaBzJbvamie9vBC4PMBQkjzYzr08iAaPvciph70wl6+7TuWivHx+abzGfIA93vICPbyC/byqdSu9OAmuPKndA73ufOy8wKYkuzz3dj3V8Ia9Wmt9vfBsyrxQjeG7aCbSPKjgZbykY2I97cOTvaBWTDuO8N28jD1mvHAkkj2wwN07UEQNvNALubsY6kc80P72PABnETqY01s8SoAJPWLGwLzAMVo9ALHpupyhMryGSYU9JrsUve5MkrwzHWG9aF2Ovdp4ar38wLs80uRSPS6cUr3wNqW7DHOOvVBEhbzUft48uBdmPOhoLzzGzj49EuUjvcTBNr2LOUe99K4kvSjr4zwy+IS9KoH9vPys2bx0SDc9rDsXPTMAjL08EDA9XbKGveCyubs8hHA9y5JmvRKwVT0APiC5DCG5PBAzDjzYaX29luGHPVgLYj1Yvt28sG3CvNpQi71RKEu9PhAGvT7jJL1Kn2q9He1CvSpUUb1q7eK8yKo2PFKDVz1gGrq72KJbPOEUab2ib2O9grQePWpkhz15Moq9JPwuvAAoBDqAPlc6KE1vPOh9SzxTSxO9nKLOPLJNCD0cVXm8wJEQO5DfhT09RyC9m9MuvTMEh73dK0K9EK4BvfXsDL3wZn894BfxPDz6uLwyTj69OGBzvFbkrLyEqTG9wKiiPPSwuTwqfSE9ggeHvaw1bD1Q3Xo8GRuJvah0J7wgiEE7c1VzveBekz3U9qS89OhsPRjK/Lx6ETa9vBu5PD4aJD2AGrE6AFhvu8S1kjwaj4A9RGoKPTq+kD1EcW89AFpBOlgojL08Gms9MNOiuwBjDTtixDc9FjuBPR4aZ71g20i75HmEPaPQXr0jJzW9WNI0PA7jTb16X+O8eB++PCCX1bu0rWO8snJIPaBIjjyaGAs9vE5ZvD7MNT1Ag8M6yGMLvPjwgzyAVRw8cpWMPWAJwzzJ6IS9TBJKveHokb3GiE+9YBGMvYCZEDswrKM8IoiAvRCXUz1ytgo9SmpbvYQ5Xb18F6o8qt2vvFY927w+Xea8wClAPXQ/eb2u8IA9sGNhPRCbG7wYxlk9TfQ+vSxEkDxCijQ9XPldPVxHEz3GvsO8oCYTvVhCUTwEXxU9HDCHvLgms7x8/La8cEDHu3Ywgb0UU++8oJBzPJWoRb16oca88z99va7GgL3YCOk8gN5OvQBsWzoevzW98DsOvQDnnjlCd3290gxYPbhebjwS61U9qra6vOgbkTzte2e9VNQRPeyb1DzA15u6q4FVvTTj2jwhhEe94MG+u+KfHz3UiFA99W6KvXA+ozyMCtw89EY/vHhSezyVD4O9UKt+vXBr5Tuw7fS7ALhXOPZoWr2wCgc81rqpvHybOb3Q/V+8PlBtvbyvm7y4+Ts9mX4FvSLoDz14uEY98Ehpvc7bKj0xYAq99H3tPMEkM71w+4g7VAvqPIhKezxERuy8ABIbPKhcgr1ARJ27RFlgPefXDb0W2oq9WN2AvJgdEL3i00A98PVePPRafT2VcDu9gG9pvEzBGT3u/Tg9GKsMvIy1/DyYliE8XN20vJgFBryYY2O9IGBCPFbMM72U81C8UHV5PFR+K7z4IHM9vNKGPegJcD0IuEE9AFv0OkBsKD3Ea7S8INqQvesfh73HRxS9tz98veLqVT0AU0e7gtGFvZQ2ZL3gYWc7nPmEPfCourz+ER89eAz3PBi/wLxotVW9gLdJu/yAFT3gbRi8EBrIuytuf702Y8S8eAoFPVyJrjzfepG9INDPu2Bkc7sEyaM86OgbvCharrxgQgE8TACFPU0okb2gMVU9oreTPZhcZzx/USG9wMSDPdDiaz1s1ps8clAVPWh+WT0Anwe7WHFnvcr3/LzATNm7ABoOO5i2cj1kLm899N6GvGolK70Yg3U8rI30PGzukL2stJM9HCe8PHA1R71BCCW9Th8/PQpJzbyyGBY9ithNPTKjTL3ZhBy96P6ivK7OhT1eMqW819EkvSgaVDwIE4E95EWmPI64gz15dla99J+mvIifdD008S+9gr3avMQOgjxp4hS90AGOPTYFe73Amn+9gELROoSfYb0A0sm5GjKFPYEmjL2k9v88ePuyPJa9fr3LghO9YMp4PaCrgj1cGo+9wBoDPbQA2Tw4zHc950hOvXS8hD3Q7yc9YKAXPbv1LL0QABa92PZNvAZcMD2fvI69wCVju5twkL0ol2w9mvQEveyLiz2pLAa9dXKTvXzSizwXcoq9cLJgPfCniTzsahw9ICHOPIxqX7wKqbS8BE4rvHzoQ72O4FQ94AqRvMye1DwASfU8kFuYPHQjdD0zDpO9oKk/uwCbfD07LGS9WH1KPLvIfr2c0aU8lmcRvZKtD72c6b88kHI3vXQxhj3QbjY8hs42vZq3ibzQ7QW8gN1oOiA7ODs6p768QtUYvWA72bteBsS8WLVKvb53iD1J3yu9W4gavSAWer1In0684kBAvZYU+7xUxcy8SmNMPYz8ijw2CIw9ToKLvZErBL2k1dI861NbvajgDDya9oG8QYptvdNYDb1gbwY8PlRPvY+Wbb3gySo70CaJvcA+UDsAtIS9iItvPZrcVT1KDpe8RCSavL44i70cxI88K6YMva5u3LyUcuI8ciTHvPwkUL2qzIQ98LyRO4jNSz0wDuE73KCOPfROzbyFZmi9ujk8vZSgjT3AAWY9Uq1LvUIIEb3wHYE8AmkQvXKHgz3owsC84DCBu0rXFT0gMn89MA9bPbTz0rzUI2Y9uI3ZPEiLgj0AoPe7bE4NPSRLcT3uMiq91J5qPd5rEL2gIfE7AFYSPAbnML2QVv877IiaPNAgpLs6Qk09AIjbOTCyXDzo1Y29wD6BOmg2cj1+/1y9hEYsvTDVeT2kEVk9cCuCPKSzg70MLam8NO2JPaxszzyKMAW9YMB7PG1gkb1AXga8UvyvvBR5/ryggRi8AFSuOXTh/jys7xo9mO4VPM/bAb0yuxW96PIAPGCzRryQw1o8FJeOPADRETzMciu9McAWvaLzIj2g9+u7rGCGPOsghb0Y0ym84P6OvTCCUzxMT4o9gGhjOwZ/nLyADvw777JXvZzeKb2S6ne9MMsnPOBdZD0QjGE9OnVRvUxnOz1SQJA9iApPPCwFAL364yM96CqrPFzoxLzI0gE9EjU0vaCbG7zqMYs9QKZsPdCWg73wpiS8mpIZPaBJgjtMTGY9JCg9vKBqJztwFpE8Pcp3vZZXVT0HTW29gHb4Ogb3hz3kXsQ84E7MOyQwfz0cIUw9mNcjPaqdQj0oXxA85sHFvFirJTzwpcA88CXwPODEGDz+Cg89gFU7PNjmQz1u1Eg9SHTnPJpWyLy6tDI9JDG5PJVPPL00hy09FPbTPEh3Qzwwqm287X8ivSBFP7sEmS89wAX7ugCpwTq8w3U9WEqSPPD+fr1u+Y893WJAvShwkr22dDs9uI1fvSRTCT20M+U8VKavvKfwi70Q3Q+8PDNDPXScTD0orWc9/f6Cvay0VL1gp0u8XXknvai/kD3ID/A8FL+JPHYrY73kmY+8VoI0PQx4uTw0DII9GOkhPS7BnbwgpyI9PIoyPQKGYb3wEng9zBWcvPoEY70s3788YGcOvJjnUj1s+0e9CCwyPeagsLzqjJG9uC65PKzYXz3oUQg8icWEvfBBEjzyDw89CC0lPVxAYj2MtN48LKqrvAB8ODuM1YA8S2YQvV2XfL2UVPA8oKI3OwC8TrrkmHy9ih8/PdvuQr2eOHS9JT4UvbDXYTxNuIO90O8GvBD8Ur1u5yU9iCK/PCbEND0wW5M7eiSSPdyhT72wgA+8TiyOvcxRbD0WUhM9UIs5PCCpCD2sFwQ9AM3kPFJYTL0Sbhw9KK1OvTLCFz334Ie9gCKJu3D8UD10I2U9f6F9vdBOlbss+Hg94I45vZyeR73wEey7lEYqvWQkMr1+/1c9N0MKvWg21jwWp4c9rH9DPe1FBb3I7808SHUVPADdTD1iNi49UlPlvPgYljxe3xA9wOoPu95sgz0wZ5M9QPcPO2CYgDtx1xi9q3s6vUbbVr0UiPs8GkWPPWlzT73wbv27+JZXvaDPGzvUuog9vOfdPELGAz32jZK9brsJvcaikj2ua7O8mOI8vFyQSD3WuYk9GHCxvBD+Ij0yUK+8qL4TvDA5oLuyzhY9ADjSuaA/TTt2G2a9yDSBPZiGaT2AFog9IjLDvOBpGjs7Tgi9sEtYPKQ5Yz2AvT69xC8SPWmLIL2Aj2y6m4U1vZTSij375wW9NDR2PZSJqDxkU389rs1vvfIwUT2wrXo9rp6IvVLsBT00MGO8gP9JO7h7KjxM+Rk9iMLpPGQ/Rj1wYlY8ZDh/PSWnGb3kO1i9yOn3PKBV6TsAyYe6koOevC1JUb1sg209iuoKPWBQfjsMd9G86L6HPADqMLsIUsG8eBZhPEQsjD1sHRA9Sq6OveijhDy4Knm96EsOvBjIR73uMjQ9FneNPaZcMz24vhI9EACWuzTe7zyMX6q8Ap1PvcJWc72qOhi9bKxSPc6wQj3wzZm8GicqvWjwBDyu3Vu9iIk5veZVBj3OCoe9EKTqvOSk5LxInzu8sJnzu3SZszzI8Su9dux/vQB6zLmAnKg7mGCSPXB60zvQYgQ9AkMbPUA1ij2E0ae8cEKwO1h7iLxAzju77CILvUudkr1e2BM9DMsnvJB3xDtjTAi9BINDvdLhKz0+2z+9wNABPe00Ib0OYYI9OLeOvRnkC71fAY29KGABPHzpej0Elbg8kN0MvLRGeL30rtE8lAumvCg7jbycChU9FDusPDpRGL1492E8RW6RvQAaJDtom2a8kFPZO6iDhj1AoT472OV/PdiUYz2+IoW95K+KPOhxjjxc1zA9XOWRPZRmFD04c4O8QOV+PShfPbyQY6Q7uJP3PJWRjL1WJCI90Fk7vYCwozwwKbg7vB2xvOxS+Tz4dQc9GNJZPZgypTz4+YG96ClmPUqiEz2Af6a6wkWEvDztTz1yjBK9oOBrO4iCaT34WBC92FgOvEjFGzywhWI9qCkYvACyg7riU0O9eON8vFA4xjviLwe9zrFFPfRCWD3g9gY8dLTePI4bhz1IJni8iEJvPVBAeT1494k9jENDvUl/IL32s5+8daeBveAUIDwgjcM8MvvAvNiKAzx44z09kRQ7vWusI73fyS69zEmNPDY3jD3YiHm846aFvQDsbbrYYDM96td/vRCWyzuA2ho8GDu1vOhOOz0QY3884IB1POFEkb2QW9c7DOJIvdIE0bwALtE7Dh2lvKCMa7tH93y9APZ/PRZgjT0WilQ9ylqavPRXhL2AHOU65mOAPZndiL1uRie9AChZPMj9bD3cmms97JDwvCjqjL0I38w8GfdyvZIIhj0oKye8n1MUvSAYKzsSA7m8dEuIPIAK4zx6pos9zHmLvJQIcj3WhPO8/AFxPbhWKD3kRUE99BvSvNfcNb3hXji9cI7EOxp2+bz4NIo8oO0iu5ysDL16nKe8kOVyPAA8JDnQxpc7vL0ivA6WzLzQ7rc8nL9lvEqoF71bG4+95yQgvewwtzzEnMq8rLouvbQNfz2sY9A8eLURPJAIXb0g+JM8hH1uPZCHvbskCnu9CniPvXBsXjwWHBk9tGlgPW3Hdr3uKQm9QGO5Ok6siT3Qrew7KJ+OPcCbAjxa5Lq8FpABPWCVZTxAH888RGFPPRK+jj0Qs7S7UPX5PHCmmLuUXT29KSc+vRDQ0DuE2zs9an+LvaJ7QT3QZoa7cyYNvdQkzrybR3a9w7QWvWrWjb10xd48qH1YPJoOHz1kv7C8gMjzPMyNu7yKgDU98PIdPBDrWD1Qdsq7PKckvfhs37xMZnc9DOUNvWysMT1wDds7JAXbPAbnKb2Qzc27JEzUPMwZXT3yswY93uCEPRQldT2AJZs8oLvAPIgpeb2M1oE8al+JPYgL6TyAgcy7wO6JOzAV37tg0/I8EkpRPQBQ8zmhpH+9MKvkPEgmTrw4K4e8IQl7vfwNhLyEZ6a8CrlVPezpzrxA6/U8iIbCvCBB1TxqHR89cAd9PQRh8TzYrUm9YGYUPQj6Pz3DmDC9OpTtvNTMkrzeEmi93FAlvKiV2DwY1hC9zONpPT/YdL3ed0w9KDGIPemWRr3ojmc8xByQPKxDVLzChIu9oAuIPYpqgD2oJkA99IpPvADl37t0Vbs8GNsEPTRENbwShCI9nPlSvfQ7bD0MUIs8tvhEPfmNJb1yfyo9QL14u9zHgrw5xGu9aD8sPa7tED2q0fa83PtnPR4CIj1/3xe98m6Ive7JQD1k5Kg8oKKdOy6jIT0AYUq6c/MIvUDIATtAlty7xIOBvWQq9TzVEYy9Ie5IvRDgNLx5KHi9D5yCvWQDgbzISxg8g2+MvQreS73sZVA9Bg7QvHSAi7xg63g8efeGvYCo7Dw07zG8uk+pvFDxDTwI93Y9faMIvZTkSbzQL667QLADvWgYA73CKzi92MtCPYhc7Tykfug8UPcVvJAt1zyACHy6yl4BPSCdY7tO30W9HuxIPTxVgbySIBQ9IO62vNisGT26OSM9ej0yvQCgEbpqVu+8XjVIPUr7Bz2oJSy8HhUtvXB6jL2mB4g9gLQgOzjd1TxwCms8AA35ObphV73gStY77nQuvcA3Dbtqz3W9CGKrPM0iFb0w6YM9112IvUhfDTxkqMg8yGEIPDsPNL1SXV69dGq2PFLoubyw/kG88gWnvMJZHT2wIra7OLVgPIUwIL36ljs9mLpRPNgqUjygdzG8EjTKvPyFXr1DoIO9aqNqvUZYkr3c04u8wHDQPC67gD2IJow90NO9O2BPlTuigAK9cPPxO/abKj33ao+9XGmIPGydiDzoSUI9OFY2PcSssjwIBrY8gGWyuz+ER73LuQ69QCrLO5KT6rzmduK8IIRZvVQRvzyIpMk8WP8uPLgBFTwALGs9icwkveL4Lj27KQi9EOmMO678VL2wFYg8tnIiPUjbiD3I7zY8ihFYvVwyuLzgMvi84dlYvTFlJr0sRoU90pF0vV+BJL3M2Uu9sGEwPb7fGj0jpV+97PyOPBxtvbxogTe8lMeKPeDnQbso0p08rEM/PTxri71MnFo9OHwMPAAKhTlGvi09iIdyPWLaMj1eQos9+xlwvew4QD1CSb+8atSEPYAYJTowcsy7sFE/PcBewLweywE9LEUvvIZHEL1uyzI9+ScavYgMobzA07E8qmt5vQBfb7v0hTw9DLxqPW4tVz02bzE9IHKPParcir0AVRA7GL0TPQRacD0cK0K8cI9lPajhazzgkyc9kFSAPeS4+Lzz74m9boWLvJhTCzz9ewy9KDxvPZi5bz1x8wu9BkFBPdzA1TyHFgK9yMcfPfwE/TwmGi09FFRZvcT+Hj0A2eQ8AKNaPSA+tbzw0Vi9KveLPQgIFj0Eflw9CARbPVJvzLxoheu8cCmTPMYURr10IF68sG85PaVcPL3QsIs74bpGveA2IbvWAC894Aemu1TMDL3Wh0S9+H3NPECQpjoge6Q86h6GPZrc3rw+JUu90JSlO/A/Qb0GsYA9cakivTjXkj1WnZI9VNMfvIA1Wbsc/TK81EGqvIBluju/QGa9cOjePGXyE70IDne96JMoPOxgZj0wA507pB2uPPC72rxy8QM9dG+9PBCWtzuAC/26oMmEPQ4tGT2QkJ+8EpLQvHiOJD18a+m8hj15vaB3nLtklRq9QvlJPQykRT1GpXy9gmp3veYobr3sUgc9CFiTPThEJz2k6FI9fFiCPa5wBD34sSK8Nm4mvRz6hTwwOpm7bFIjPQSvV70sIYW9BCkePdwpsTxME4c8xJ0wPXIwmbyercW8IPW9O7hhMj3c3li91OLkPOhciTw6Dgm9RF+1vNrkXr2lh3e9EiuivDgFijw0sfE8CNL7PBgghDyOjjo9SMUGPJWijL0Rcl29lCJpPezMM7xoO1m90LMAPLiqKTz4zsA85JIlvIgLNz3wVR69iPT/PJ4Gw7z6quu8LFcuPUpm1rwI4Tc8xKxRPSqPIr0kwYu9gHfJO4h367zkFk29VM4GPayBfbwYDmY9KM2ePMinvjyRmwi9QOl6PU7Ny7yqjYQ9tFB0PeuSjL3WPQk9F0iEvZYejz1a5Qu98AuHPaCbUjvyT4K9UBsgPLlZML2I6Iq9gn9FPWhrBT0aKRI9LeQ5vYOnFb2sYzu8QeEjvcCaDr3IGxY9ZKOQPaCg6bsFjzy9NzcUvexXEz2Y2pC8kjuSvKBTqzyIi148o2YTvRStLLyEfFa97DxhPQpQkz06glO9tE0TvZNEd72AWGW72G2xPCT9njxkOIm8QHEwvKRmYb1AMkg7cARIvfj+Vj1Y+z49BAGDPLYlk71h+I69xjBSvbyMt7x8gVO91Q5/vdMTdr38QSm9pABCvCgrfL0efG697/iMvVaZEj3YRE+9AQUuvbLiQD1+flA9IH9Uu0i83zwc7oo9Y8WNve66db0dZIK9UGxkvKgViT2gIss8pL0xvWQAX7wK4gU9BkcLPZBs0LzALZG7xBBSPbJJUb3iTpM9vKxOvHiLDD2An8m6bSuNveqeCT1wmOE76OqJvXjolbxM94e9KGVcPUadFD0G2NW8AF6/ObN8fb0coZY8QP/tvHpqdL1IYl88LIPXPKyNsrxQ6Z+8nJorPQ6/LT14OIQ9ELoxPHAa0jvIzQS8pLyRPSDuLL14sgy86D4yPeTJXr0gyeQ7liWBPViWfTxQHks9fFwDPeQ+VbxwiLo7avEmvS1Ibr3IWW28HAmqvNDSMbwU4Ni8ANhEPWLwgz0cAnE9HD2ZPAj/BjyJ54K9+0eLvXS7Ez0E4Ca8xTEJvfV8kr0k3gW9CPAaPNAQsrzmTq283pI2vaUKgr289Za8iOeRvEab0bwEs0K8KMphPcjHMD0AqKU8iILDPMLAAj0AeVa6EJFpvPBo3LtAyq68dqCAvVSV4zwkaJe8mK41PagtkD0ooj08f7aSvTbnMD2gj1i7Hl6OvEJOgT0mxr6854Alva7Egz1Abr66WoyPvYC0LTqEF908/PuFPaY/Hb2Qrds8DGyDPQA1K7zWRSU90uIEvUhjaDz8aSq9MBvEPNCLlrsAdIW7kiiTPQIogT2iKwY9DGFPvOzSXrzQo0Q8AFxZOzDXbTzQT968+OsnPRIllLyWMDu9xiKOvWB6OLtgYYQ8QPxPPWz8gr0wadK7BFKIvUz/hTw8Tcm8RKlqPQB6nDm2m4G95BhKvcrUer1cJgY9zHOHPFSINbz4wpq8mmwIveCvN7uIFLC8KMGJPFQ7U738RWY9zrCOvCR1XT3QvI89FHcmPQCzuLnUs568IId4veKliz3A2Wy75mwCPb5ej70IrcI8LIIIvShAHjzAT2u90KpiPaBnZr3U1Tc9TpiBvQxlqrw06Ji8PMfVPBa//byYggO8+haHvTwrkT32Twq99q0FPXd8P716y3u93FswvfARkzswra686C4fPeDxhjukk3A90Ficu2BmdL3Orhq97ViBvdjBaz3EzKg8AOTUu3xMWbxOe1C9QOBKOxQEfz3WNAw9IlSMvUyOCD3jX3O97MTwvKSoKT2ER5e8NS8LveChZDvoA2K9YNfUPFypmzxehVW9dGlmPfL4Nz0E9EE9TdEbva73hz2Co2S9AJCyNyCr3byAUs87rIN/PRw1Lz0cipK9ZPGCvAQtmTzgrnK7gOhLuyDsDrs0WSi9rmHEvJZj97yyI7+8x/wsvQA2Ijs1/kC9/HfzPACp2TvW7BM97AgXvUSHkT1ny4q9oCRgvcDBiz2uC4Q9osGTvQQUkb1P9YO9SEVkvcrwCb09dQC9cFUZPBDeXjymr0m98Nbnuy4dBr1X1zq9LNKTvA5YHD3w7249VNRpvMiI0zxMaCy88MH2uwB+bTkUAje9qsw2PUBHDruiLUe9NI+IvSyvmzyIEEQ9iLHgvIZ+gj0AYgQ8cN4pvSAUWj0cUrI8PCgxvMhpij32ysy8gJNjO9ATzzsgBFc79PuRvbjhJz0grJe8WL59PZy1Wz3eTo69HtAKvYyGXD0EGVo9tBWsPKp4Sr3gUIq89jiLPd5lKT3suWE9XGzdvN5thrxkFne8cB9+PKruOz3GcHu9AoTyvB6KBD2qdj+9uP0YPQiXSD1QSN88oHMwOyAj5zxCKVg9gLvrurD4hD3bf4C9WIljPWALXD0eNjA9cAaZu2BeN72KBSk9MN2MPeD/dLxoAWo96C+NvQhda71Q5Wm9cOP8PPj5MDzSi1e9QOnUuxy8/rxVCB694IbLOwg1ZT0AYoE9uFeNPXRAI73A8ns8XcRLvWB7IzyeG8C8oBk1O9CdYr2g30w9PCP1vDD5gLv8DZA94sqGPUh/g72lmYG9AFnLvEhvijwQMjw9vPPVPDBFmLsJbxu9yGJNvM7bKj1OPIw9oNYZOzyGy7x8Zyy9eIBKvT85Yb1ASzU7UP3NvHKDe70+Y4y9gJsXvJRBeT1ILlO8UJcQPVJW1bzzVhu9dDw1vbJj3LzQ08U8dGGXPNCs17uGUQs9oMR5u1g5OD1mQB49Uh2GPQDAeD0k/GW9gLXuPAAXuzpQu+y7QIaXOtAkszwXoA69BxMDvawYxDxsTZA9YNbyu8g5d7xpTY29gLFLPfuNgL3AVAy7zCRYPQAdBDvw76+75L1aPcykdj12tn+9zZ8CvZBJcj08rze8ANjFO78chr1MG9w8kCvWuxj9njxUtXI9Dr8VPf7La71OCkO9ajaxvGvuIr2h/Ga9vJrkPCSE+Lzs9h896GtaPWi4Cb2QFas8SxhxvQwSVb3cLZO9WxQ3vZlkar1IkpY8jPjCPNxLhr20SkC9/v+KvEAR9LvkBvq80ICyOxRuET1mCo69IP7qvMQVkD3KSCw9MrqbvOraMj3Zd029kIMGPLQnV70ImSI8VGBOPWTOcj2MUBS9uIFpPNCeKzyEJ0y85HPMPL65Ez3A7VU7CFwhPQ5SPT1ABde7FI1TvGzwij0gMzi7VMHAPDBoDb32iYG9OsQbPWAn8jyowES8wLCMuh50Cj1g0Vk9AHngO0A7xLrOgYS9Ans7veBfn7syOHa9+N+2PNDgF7xci6k8bO73PKKx8bxUYIY9/tWAPdaQw7xsACO8vh8fvbhVkDzIyeg8PDMFPXC+MDwUfcQ8LAEHPVTJir0oNVO9Qvtmvb7bh71sLYY9Dv7svJBJD72eRUy9tDPHvGAS7ztO+UM9oEGQOwAugb1wzjE9KFpvvZqfgT20dEG8JGQhPdg5FDyg31s9NlHNvFj1hb0Y2oI9ULGAPfKejT3M0IW9gRWKvYBd3bt0tpY83HO8POhcPL04SI09cHi9O4ArOzrABwa7NKpfPTyEFz0c/128in2ZvFbMiz24k3Y98OzDPLZ7Uz1chno9atlPvQhmGr1UzdW85pbFvCDbVj3goY47cTpBvXLyW70cIfo8XK9gPTCxmTuwByg92LkkPLRvQz0YQg+8QMrCu/jTZzzmRJA9oHo2vfgwfj2ALRu8cP5evIj02TygAom7TDCnPPjFhb1OFoi82g6HPV7oJb2Aijg9PNPgvChXKL1s/pI8SC2yPBAzhTzuZkA93HdfPVIZCD1ncze9sCqIvV4YQj3e2Qq9nmSGPfC/sTwk/8E81g+GPUCxkLoAf626CFcyPJSykT0gFXc8g2UJvShs5TwQMpK9BLy4PGrFKz3AcfG8ZhIQPcjiMr3iSre8rKFCvYC3hTxgW1w9bMGJPfxtdz0g8lA9gCWMO/iwBDzADLI61MhRvKnyP71QwX49kMTFOwJpij0W+2O9d22QvdnOkb1oLAe9EjPwvGPBWL1XbCC9bP5tPeifjDwYfRe85EaCvKJzBD0ACwg8cDaYOw6gHT2CQhY9MD8qPbD6QL1sJL08GG+7PEwI+7z8SP48mG5AvBmqXb0Aqta7TA+OvRmqhL3SlE099Aw3vDVdJb3g5c87HPIkvfABd72gFmc7AE+HOQS2gL0cRsI82LSrPAjNfDzHBSq9yvQZPVD5grsuKl69P46NvVStkbzG8Bk9/BaEPLDM17v4qUM9Ac4WvYAET7yILAw8ANpsupQK9jxc6Ci88DxuPVDFgLyfSH29qjWIvFiJBDwChQy9oOL5vLgJXDxwjXU9AJ8Uu+z3dj1gAMo8pGluPZR/M72AfGY8J8Q7vbw7xzxgCtK7AJZuO/IACj2oVBA90PWfPDA/CT3flWq9EH1dPXCBOzz0QsE83tYQPcwPNz2vxR69NxwfvfBd+bvMPyI9BLDDvLeyjL2paw292D9WvJBgBjxFbwG9uqlHPZBkezwMQms9lCZYPRbbiD2Ebd48GHkVPc71CT1g2pg73JASPRjWhLxCd4Q9wNjPO+BrqzxifhU9+gU2vRwpFz0cDEa9G3eTvYI/FD00qEG9kgoMPVagG72UveE8DVYXvdANi7xQkH49eMl3vFOgS70KPSk9sv8WPbSUbT3mA469zKfvvHSsiz18fpK9AAPOOmxBlrxSqCc9QCQwu0xHrzzmzWW9wK6guxTZYz1c+4c8SLQqPeyKQ70I3Bc9FTkfvZBWlrxB3oC9YJEhPS74Y724Fs68MJmdOxKEij0Owxq9JNfYPH3YIr1i3329AEGvuzAJiT0YJh49CNJrPRCWZTzeQjE9bss/PQIgQj0smW89/ovnvN60db1Altk6lSdrvXZ8Oj3YQ/C8FS0fvRa2BT1eiZE9uFFnPUD93zvcT1Q9avsIvRDmtTwy09e8qHOgPDRfOD0QmZI9KgEAvU7zVr2UYwM9/nCEPRzYHT3EqR89sgKKPSgE0rxa1Aw9oAZDO4YUorz1/Dm9DeKLvdSEPbzy/Gi9QBzDOwDfqDnwVAs8WgRCPQAx5LsQLpa7oDJMvapUiT12CUa9vICGvPz24jzfJo69RJaAvYjtQj0QXvQ80HynPKCHxTvAcGG9dDOCPbAUKDxcaR+82AwJPTDI1DzEUi89FOmovHBQJrycA+S8sDS4u2T1szwKKFK9SFxBPAAjoDxgSds8BiwwvWghtzz7r3m9YFy3PE/6JL1wnzy9OIn5PPDuijuYZhC8SNwpPVw6Krxc8VG8YGAevEBEyDxcgma9/EBiPThH1Lxtn3i9nkJHPejKVz1ENaI8KNGAvaJjhj10+3+94YRHvaDDYj0kEMG8Eqkfve2Uar3wJuI7FYcavQqpiz0AJgI7TFfWvCBIRDvbIwm97zFlvYD6dTxg8Hg9/E1rPdCHVz20xJI82FnSPCyOaD3Ch1Q9EGeUu3B5OjxIEls9cEyFu5Sd+7xoC2I8UopuvRIQMT14AH68Mhr7vC4oDb2UUdy8hhKKvTpMJL0eqbu8/P0fvDSarbwwWMi8IN4Uu4AaRzw8fB89cjxfvQBolTkchjy8oGkXu7o8HT2c8Ts9xM8kvSBZgzsIqvq86jDRvFTXZD0UQsG8BLWQvXarHr38SwM9dG5+vE4WkL0+co89MIy7u3BZDL04PA68AM+lu9aRhT10cic9BEsQvUs7br28/KY8LjMbvYQijT3wIGw8YHwPPYBc+LvQkf07t4+NvZD7aj2CFha96sAvvYBFT70CLYU96HkKvACAp7qXwRS95t+NvMCmuLzAa5q8ZCBbPcNZhr0oIp88sIt+PNw4cD3A4MO8bFw+PWxrQD3ygkA9UuCKPfBa/7yYGsw8gDCzOyAAl7xUDH49kI+HPXAXFT0f4YS99vMzPcAYkrxoIrU8/oBTvd9yLL0iho28UBUwvCyZV7zmFwK977JLvfSfVb2oIFY8IPaHPcbuEj3Ac4476heIPTYtlrzWQS09tHqavCE5YL3MSzU9eGc9PcE1B70YBBS91hiCvVhePT2CifO8iG4HPOgdOrykmnQ98nmLvW3sCr1oKle9/m6SPbx8lTxAOyq7IgoGPWBryLu11wO9APduPUJilLyA7Ow7SM7oPFJugT1+dYG8VBihvPE0Bb0Exfq8CDqnPGhnGLzoY/c8WBIBPXCQlTxgy+S88G2PPcDlFLwU12Q9rF+NPdawjL0kJxc9OEGRPH0zhr2AhI494JloPKeEib04S4s9OmM3PdP/ab24P/e8iN9APCzQ0LzwivA81mqGvCzhaj0KdoM9cLq3uyZSK72sEdI8PBb2PKhj6DzEvLU80B8FPW4QFj1WgD69FgU4vSoSkT3EK3Y9wDWAvBbRFT1XtkW9skMCvbqx8bwAUnc9gTITvR4lz7wF/C694MHlPBQY0jzqy8+8cN7Ou2zdfb1kioo9aCYcvKTsib1mbIa9VNm7vHhnTbwguYG90ADxu8SohjzgRza7QkMIPcDx1Lves7W8WD0tPXiQMD2wiPq77Bc3PaUJS73ofts8ppORPQApKTsASs088DmOPbkfg71OnKO8SggMvfU/Lb0+z428QBjZumwdKrwWIiy9bDtjvXTjkD0QF8m7w1GMvcQWk7xY4o08cNmzu6ABjLsi9Ji8IM3KvNMvA71KYY69TL6gPNwVej0QRPu7zfcXvcyqWLw2XUG9gJwmOlTZS724Z1u9rGFnvdDGRzwmgNi86CP3PCiipbyi13y9CJIIPNCLxbvSpaq8bh8lvcD7LT1IckK9Q0o9vdhTHTwgVJc8sK4pPMC7Pj1A9Sc9UKMVPKCyiT3QSZE9QngHvVBCXr3UcE097F13PQAFET2wIDw9rLF0vIgKRjwEqQk9oTCFveeVbb3qYAm9/rgFPUzhRj1qkdu8KI0fvIrFPz2sabS8XMyFPTqB1LwY9xC8NKpwPRm+bL2aozi92gFCPbu6aL0UFCi8FEiLPczpjr3kwps8SO74PEDkRby0jgi9Ad9AvUIgxrwgwFM9MrhPvR5ZYL2wQSk9IHLQO+KsDD10dds8IlM5PfDSnLzQVo295oyCvXfiCb0ANge8QKoYPTvRG72+JlC9pgc4vWvlir2YPY09AIogvKXYNL2aHgU93tJ5vYBOPrvEwNG8JHyRPLxZ2TzYE6M8cD6IPeiJpDy03n696M6YPDhEnbxqObS8lpOGPZqgSD34fFQ9s8hgvVtZfr3CxpA9pqeRvUAuFzygjfw8qFjNPLDv7jtwUIo9WrxvvWQvMr3Y3nK81p8jPfgh+7xsj5G9xL1VvWSFUbwgC2A9kZsKvTDeiD1YduU8rEA6PcCrG7u0yoi9SD7fvGBuSz3u/JC8Um7EvJC8Kj0af8O8bKgXParyJz1Qi/O8H9sLvZb8AD3qKRq9HHslvFTAij1g7P+8NYeMvWg/R718Hfw89GolvezJjzxH/A+9flOOvQQaAD1UMnk95+wWvUB5TLxCmYm9A9xFvaCTsTz0PWw9rIVcvRKhGz1gAYg8AEFkPeYJTb1quLu8x0QOvVze5Dw+Vb68gBAaOvgOQrw9OHK9IfonvSLmBT05vY29/la7vDDHdjx4BFg9sOehuyDRrjwdkVe9/M5vvJhVSr32PYM9UJ8LvBpoRL0gN229ncZdvbEbOb2llA+9dIEdPfiEeLyywxu9laBGvVAzR70mD1m9qvQRveiCGD0YU/C8iKWEvaCA2LtAv3Q79ZAGvZjxWb1wSOM8bACKPCB8rzyIghk86h5LPWBYHDv8rKm8aVJ/vaxEcj26OYg9iVGNvSggcTy4eFS9AikXPez9ZbwsMHI9Bnq0vPaccb34ufC8mnhEPXe7jr3YOQm8wMOrOlAhcTzgUAc9ABBIONKvBz0AEty5aFVAvEhs3zx0e8U8RLEWPaIFGD3qfi+9CryyvDRBGz3E0gM9UEU6PSy68Dw8CJ88SlqSPZu0BL0Mqfc82EafPBB+sDxohc68YLYQu9ber7zP4Sa9JzYIve4xH704nZS84B6HPXRcRL1QpYk9sIe/POjeAj3wFfa7AHAduJDtJD2o5kS9YJoVvSDY4jtAqZi7MpATPVB+77u8pfe8TuolPc4bG70stYs9mry+vHiWjrw4OuK8EO8cvPg+ZD0WNbu8zf0ZvbhmU7zQf/47xGSdvIRH5zwEGlm9+F07vLiGWj1ABYI9ocyKvQCmgjk8MI09mU0LvbymhL3KvNq8O4gEvdapk72gKDA8Mu+LvVSyPj0A2q86mmERvdR+f70U+1y9uE1BvWLpFT1AgHs9yMG+PJhi7zzktmU90HXTOzgOZz2YSl081zxYvSiOA70qeYQ9FjUEPZzfqryutLa8mlzcvIpFWD1AYuS6CCOBvfA8az2823g9iL33vLnWHL2wUDs8usAzvRBd2bsA7li5qCMDvYg7MT0w9ms9CExnvdiHSjyH2HW9qFoFvW7d5ryE3KM8sBs9vaQYNj0cmHA9UFCGPcAqVzwsCME80nRPPZwxbD2G51U97qouvVdpjb3/GJK9bLiqvCjOOb1Agtg66oNNPdhwdD2cG9o8DsG7vMhIQDw8ywM9gNDYulpp/rxSCj298rwAPXBghjzJF3q9hrpSPXWBBL2ki6a8g04AvQLkJb1Upf48vBxwvcS7t7zILiy8iBFRvPAcRD0UuDQ9JGw3vU4JTT3kpXc92LSMPR4JPL1KfJO9+N46PTLKHD0slni9CMUjPGi+Pj3ggyI7EvSCPd9hJL2AEkU7hDpfvW7ANL3CiTq9MGyPu/XUIb3Afou9riYWvegdzjygh2U9iIhIPRhlDr1oXzg9uvs9vbCYRb3AYt67YN3Qu+hW/zw022Q9uFRivcBHcbzwsJg8yL9LPJBQez1D8I699FqgPHSqCL0wFOc8N+0RveCMU7v8rA09Z8EUvfQCWbzjjXO9YCMzPYboHT2Q2yI9NBe4PBLreb28bUw9TZKCvaDjgD0Z5Qi9aIeyvABq5zowzw49+GQePQB4xzqumoO9bIL1PEzj0zyiO4C8PJHxvPSAij1kbm29oLzMuwAbfzqA3II6+ibWvKYppLw4xbo8wH5nO9oBiD0Q8HU9FBFHvCTLZT14+ro8GJE1PHAiE7xovSg8OH4rvWgPfz0k7y49YoaCvRCpfjzwkYQ9Slcavbg/izzAx0O7zC+0PBSbJ7z2lIO8QB5FvbAplTwoix09oApuPBC0vLscf9G8UIuPu9dxA70ZISW9BqEWvaIrR73AaQQ9e8xxvTieYDyYFkY8xC6APebXRb0ArIK6GOsQPWbIEz3Q9PS7rCM8PcApiDrMIgE9YEx9O/wm+TwkRFo9aEWUPGTGhzw3gja9XI5uvV7x/LxowQI9EPnxPLIsLD3+sVK9gCTDO0Kc9Lwkn8U8pC99veEzkr04coa9oEAAu8R+abySYUU9MWyAvaDvG7yaLUo9oNiRvAQ5kz3qcCM9KHGBPQ0Sb71wVq48VLDtPADGJrtO6zE9FNuvPLhKK7y0NDS8EmWBPQVzG70o7Fg9mkeKPaZjC71cB908KnZPPdTd8zyA7gq8orIUPagSrbxARlW71DsLPefhgb1KlfS86tmOPXLfIj1QlBC89oqzvNhr4jzyHZW8IrfrvJLWWL25hQ29llQ5PeD5D7zUbzE9ILQUO3RCg7yUw6E89JXOPF7nkT3AssW6sNQWPWR+iD24q3I8oLjvu0AuRrskzw09cA3Vu4UdEL2eXYA95GdmvVCJujxkU449cAAcPFbBVT32s0q9hIQqPUQvDz1eBWO9cO8JPNbkv7yuCka9iMaPvXhtDT3P2Yq94DwbPXp8hb0QTeq7WyKKvZx/qDxECCk9JrpLvQqoKb3SnMy8OAfiPLbtOz0w9kQ8ZlyQPQ5KW71KVB89CAJMvQRw0zxO4wu9RBBLPRDDtbt0YTy8s7wEvTTBirxAT5C6GIBePYzcLb3Y/kI83M2EPJiOFDxgJ4E9tkIiPY5+d710i4i8wHQ/uywnGb1JcAi9YGbTO2y2XrxEeXa9fGu5vJqwg70Yx5O8NrPHvHoML73ilSK9wMkjO+tjMr0UeYm9yOd6PWSXyzyfDTG9/q6LPeEEGL2sLfQ8njQFPSgbk71gRXc8kPzNPHLy3LwYRoE93soLPTYWST1EiYI9IXqSvfA8cj3qPlY9dBhivZgTILyUFIM8rHpHvDgNUb0gdna9nfRUvew9cD1IGXI8cD+MPWB+lbvg0jG79N6dPMfsir3+cIA9U3NtvWkjkb3GckY9/Kt5PXpMl7za0E89rHRtvPxkSbwFSIu9qoZLPfDt+7wdC3y9MxoDvfFAh70yGQy9IEDhux76E72wZla99DMxvdDpcDx4TLk8awFovS61O70WCaS843I1vYJVgz30E808AFY3uvTbrrzgNJK9ttSAvXBVgj3oEsu8J6mBvYDKADyYrxc8k1YvvXBJz7v+WYq9Sgc/PQDnlzk6O8G8BCiQPfTQbz2Y2wC9DnoAvbrThL0oiC89zJ1rPYQkkz3WuNe8RJhqPTyvaz0UDq88GKwLPfyLkD1amE+9kLYkvAC6TrpsDbG8W/OEvYKH7rwAsGm6qlEUPSkJNb0AytA6l7sFvTJihr3kzAE9ADOSvEBWFbzs/Ok8UOUzPMiwzby+ESQ9qvMbPVCnWj0A4Fa4XuaRPQAiRrnCLwC9b4OQvcrASj20d6s8sotOPYzyij2y6pm8XDpjPQDzb70oSog8wFnRuwAkY7kgFyY9okAgPVCYuztmiRe9aKTOvBS5pDyvpQS9oFqSPZDahj1Gg5O9bFx7vYww4LxgPuW7qM9/PQwkpjzsfoO9D/IDvSBTNjviiyw9XtlGPVaiML2W2BY9CtJDPYCNBTwAG167UEdpvPhOIjzomxS8MN/OO5yPMT0Kq4K8y0uQve5Ckj3mwWG98PfSO4oHw7zuHYs9sMPZu0zjtLzAilw9EtmGPcSETb2K0oa9KFAGPDCudDxUJYE9gH9DO0xLzzx2nlA9whzevHi3CL1Q4JI7RHDVPMNuGr0g2hq8GLEavUDXvjtpKHe9Iq/evCKNXr0EwvO8EoTLvH+Mf73AElM70PrOPIp6kz3+hT29Kh5XPRwKhT3I8489ANH9uUi7DD2Q0fs7cMM/PaAs+juwJ0C9gn4fvYga9LyofRg8iMamvDR+jDyw/F49DMxgvRLfj7y2vOm8pEWoPIJUkT3Av0Q8kN/gPEB2gbrSatW8KGTKPG0bgr28amk96Li/vCo6KL0gvnM9sYKLvZP+B71eqhG9lF97PQi0aD18wuw8PKAAvXBT6jv4C5I9fHcmPSygCz3AeU+9huYUPcB8Jj1M+rg8zkYWvVPjGr0Uvxw92NsNvAfiT73yD4C9dF2+PJTiRL36u1M9w+NfvUBCOb0Yu+E88H+zuyh+dD3g6ii7OPcfvQwn7ry0Sgm9EPWLPIi+MbzAcoU73XYcvYClIzs68xc9gKZPOkhUhTygOIy9aIlTPTSljjxQU4g7TKdtPRQLiD13io+9QNQpu1xTLL2gBtc7JIL7vISGWT1gNcI87NBZvbgXHbwQNRk8ADhgPRJPQL1Y5cI81g6KPSIrLT0IzGg9tIXbPKfshb0A3pE9wCnLOqgDLT2GO5e88pz5vNgEwTxvClG91FNGvIAaTzq4J0Q8+H+RPEVmIr3gs1A8mHkFPPAOpLvYv3A9y/gmvTBxoLvMibM8LtMevYDCYr0y1zg9BLg8vCQKwzyYP2A94FMRO9BQe7wKb1+9KjRAvXvuYr2XyjW93EdRvGjFZL2ItJa8kKtFvJQQXz1QdGU8aOtPPOR9Oj0Olx+9BTlTvXo6hT1IRfE8EKo2vQZtlLxAP189wBFRu3DYt7xI1Ty8RBJ4vRbQIj2OzDI9XtEivaa4Oz2Q8S88uDF+PM4OBT3AbY89pMKWPDXAdr24r4g9FOtJvPTfZLyO55q8rO9cPYCOOL0yO4I9YNWPPWQtkb1aYIM9wLaRu/DmHzxZrpG93/QdvbAJlbwAVPQ6pYYFvWiBCr3MEqq8uORdPcyuXL36JoO8mFaHvABrLLtjVXO9WHlHPW+PFb3ONE09lF1jPSBFQ7st8IG9/saIPf0chb2Qz408BGaoPMgogj0eify8zOXUPNDgTDzhpYG9MNnOuxC0fT0usg49kK0qvTyfZj3GZUe9gDt/OjgHgD3yHia9dCYoPcA8wzrYlBc8PuBPvbphSD1Ez3o9MlLyvMbk+ry0qeW8rjUOPUDAgzo0wns9kNQzPSjE1TzqCi49SJsdvMSwID1wBOK8bgMcvbdZSr0wESq89FIDvbFGA71WVky9gH9wOuwQQrxaNj+9OM1LPID+cbrQDH48/k8nvUSqlTygWqA7UNWTO7SPkz2O6cy88MUMPDgvZ71MFhU9WCcPvDvvF714oM68PGE1vVyK77xgoRu8oHXFu2oJIz0g44Y7MAIIPcDx2boGi4q8oC3pu1/VN70Gk7O8gElTOya1bL0AoAY7QCZPu2QnvLyg73c9wLUaPVh6I73+UZG9QDpcPDCYzDug9yi7PNNcPTT3ZLwwaEU8dAraPCwXgz1GEsm8dpbwvMqWZb3Keo+8UkR/vazOnzxAmSy74GoAu1qvJr0E2Aa9BIGHPdCmorvEg708QEf+uwhOeL0k4Yo8mA3vPBSfb71Q6J27ki0qPZyaWj06JYa9oOxsPf8wWr0QucQ7WLcxPGbakj3ioiu9CL2IPOBHJz1AjQi8hpZvvSAyOL0q/Xe9Uo8/PacMHr0QinY9PYYEvcJDAD3s9fU8YBtAO+zSpjxyuEo9cyKCvaLmTD0Ql927tqsOPWCpRbt4A6Q89bpDveSkOb08ams9AGJautxnfz00s0C9YmyNPSjuLDxgVuA7AGebu8y63Dy0Gly9LFXePJDEgr0QrHI9fmM5vU0Hg71UTRk9QPgrvABYf7z2bzA9oHWzO6RHXr3iDok9EBebvMyebD3qDZq8hH+APDM5Fb0Qms88HnsoPQJs77z05RK9oNAnvOz0rTzkgZ28zHlTPRIvLz1spHg9CnY8PWwinjx4cNA8DApTvShM1TxwsIS83MisvC7fl7zAfwc9gHW/u8BdCrtoFek80D2iPDqWGT20zl89KOoXPPiHpjzOswo94OUvPRoDiT2OHbS8MFH+O+SpizwoEW69iYEYvYa/kT0eIX29IDTDPPzL+7zQwc871NSlPHDg9bys7Ne8YHODO2rljz3qLze9MEWlPDB/vrxIxNA8NGxFPUgLkr1Ih209uawevYhJ27ww77c7qKUGPJRGsjxdlBG98AStvBwy0DzA76u7bObtPESLUb3Srgc9gFqzOzhnSj10G4k9gmGkvFhAhb2UQXW81lkJPfSA8jyotFE8Ej1JPRhfwzxcgIM8x410vWRA/zzcPTS9WvlPPewMg7yMVQ29LjWKPQBR+LkGGYK8PReAvbxhqDx2syw9QsxGPYo0Gr223mO9p3EQvbRkVL1QmcA8Q19jvSCDZLtkTAg9+pHKvEw4rzy2ghC9mifGvLAxXTzrrYS9UMZePYB6bjxA3rm7OZmDvZoHhz1KtTo9ZCqlPHB0XT1g+ta7Xa0HvWycaD04xtW8WCrfvPxUJz3SBHi9igADPaCwLTuwCoq7nhIrPbCSBbz4WwG8bi4yvfwOgj0osr68bAVwvQARJzuEdi09068PvcC3i7o4SI09UIizu/bZf73A8c+8OJEAPMDNLzy0goo8/skkvSASZr30/2c9emY5vS7rCr1oaPm8/FQ9PWZQmLyAEAW7DCNrvAyZZrzEBiQ9GvfDvHDlWj28xII8SKtrPTYHkr120gI9REXKvFDUej3Og4a8YkTsvFCF6TxE8S29wJetvHKXKD1ORhI93K06vcjqRzyiCYQ9wBOhPOrBYr3rqI+94i2FPSzOujwOXLO8hzoKvaIYND268O28HIF+PYiPHD3Qp1299M1qvAjC0zzG2ba8nGaZPH5BVz00afs8NAP8PFA3h7tY9hS8oDJHPYN2gr2Ql6E8ytqHvATWkj1cAZ48itfUvD7ugD2Iyy49CagAvUAr1rvzt4C9mmcovRiL2jwCNW69MG7SOwDAiDusmBE9sEw3vAJLVr3UTxu9fBx0vTH+Dr3QU848VgQivVhhhDyULI+8iooNPVq3kz3tUl29KiA2vdJmTD2AQi69YD8oOyBYF71wrf88xtcZPQpg+byMFgU98FcJvLHseb3A+pK8wIF5PRATADyIvg89X+IsveYa3Lz8OrS89hOhvPReKz2wpAY9FP9+PWDhh70Ny4C9mHI+vO4KOz0OIVa9lHxQPTye4zys/yu9SGE+vFztaz2upKS8fK7fPIDYhj0ADto7PPwHvSieWTx05mc9TF6ovOIMhz3gPV27UDUVvcK/RT3U4Qg9DsIQveQSeD1YnYU98BXvu3x08jzchco88FQ1PN8GU71gUqS7gLqGu5AVVzz8Cls9JPJGvRDSCzyAXIq9zCkmPcCCjr0wpWg9ohQ3vZC1+jsYfQS8NKV0PSixkTwMGnM9rNldvS72TD0UD129PBl9vXisIjxSD5I9YNtFPc++ir3s2WW9IIjCu/oTh7y2oQg9IPE+vSwJkL2Mmoe9SC4bPNgurzx2u2q9QEfBO6gTjDzc1W09ADFoPIBkOTqc2bA8HGmpPLBJzTusJy493Ox5PQCmq7kwo3E8EBBUvOSn7DyodIk9ACxbPZ5Vg7xqpzy9ykw/PfD7y7uEpTi93JU9vUg4fD2EkSE9REBgvWwSHT28pXm9j20ivThbYb1iFjA9QiqyvJDxnDvo/ZQ8SKY3vYzIij3IKYg9juGEPYgMBD2Aol66ENEwPOBdfLuwuwE8ULmeu/Ijkj1dq3y9aMvivCbjsLyCKQQ9ViSSPVxRkj3+y5E9oKIuPU/aVb3YXtu8xCliPZyOy7zyBEy9RfCDvXY79rw+hFG94iEbPVDwcb1Aobs8wCDrO6BzQL1CWYs9FGxkPaiDkz3ceo68EANRPBWDa73GABc95Nn0PAA3aT2/+CG9iPm9PIAHxrpEpoy86ERzPLTdTr1I+uO8jkNUvWSVTrxoyrM8uNUQPICB0zvY52M9IMYQO6M3UL03M4C9XP7JPMqkPr0bjGK9MRsYvR/jOb1EMbE8hHONPFS3ST26R3G90HNtPSDoRTt6PXi9/KIuvaxwP7zkjN48biOPvbwYF702SYg9lPdYPZpiz7zWbQE9VKcuPWrQ1ryEPSe8sNl2PShtmDx8r6k8Lq2OvDBq2jtQdb67INAyvGhyajzs37G8rJlPPeBTCbsk0Lu84b2CvWBbHryML2c9uowAPaQndj0QILI80o8hvRY2gD24YXY9WCkBvZQEYbw86BA9BGGBPYTjdz3C++S8zNRuvYQ+AT0aTCM9wwySvcJ2EL06wYO90kRevUqgD70jrCy9OI5jPABqI7q06d08jJ50PYBfXjyL/Hu9Gqs5vUD91zxYzR294MGaO0uLgb38v3i9BPnpPC69SD3EGhQ9miM6PfUoNL2czV49YNCCPObgZr3eSTM9VmIqvTzGXj0whKe7iOXoPKBeeTzc7sM8W2I8vW7dx7wwVc88wMvluyDWID2pFhW93tbLvAISjD34km+9GuqCPfSrdD0AfF89kQN0vQhXV7wW1yC9RIjbPNDu1TxgnoQ9yXaSvTz6Rj0aOg89hlqHPcBpu7yQTF49YNwnPEjlZ72alk29PF9gvYRIRT2ARps6Qn0QPXSqPj2K3d680Pvsu7sNf70QmVE8vG9mPdjJzTzlqQG9TmrpvKnGCL3K5Ig9MJ/HvDSTLb1Qf4e95EqyPPN1iL2SL0w9WyZ6vWxDGj0woSs8UJSfuw4yJT1KxL+8Gp9XPYxqbLwgBc27J38avdh3ETy8uoQ9MGf8PGr1Kz0sA2w9QNVBu7KPSz10XD+8bexZvYCWaz2A5Ds7aJeMPEyFGb1QALW75PoDvaTvXz1MLpW8Tsgwvbh1eD12zmC9pvFkvcToQLyYRtI8jCgfvVbbgz0aggw95cKAvbC19zx04jq9vxBzvcg2XT1uUIC9EOhaPUw2qzx4yNG8HnQGPYJBKT1oUnk9PlKcvKN4Yb14rQU86AUAPfzNaLxsHPs8fiA6vQDfmLotbBG9SKgiPAZgND0CFPu8ApSMPaCkRzyM/YC9zLSDvSKU6bzE+qi8AAOevCK/kT1YWIu9Iv1LPUI4dr0s03o9DC6HvSTT1rw6mDe98MViPUpeDL2oxxq8APInu8jk0bywP2s9wFeBO0Z/uLzg2UO7eIqAvT4mgr1DEQa9auvLvMquO70gB5E9EO2JvLXBBb2+4d+8DrOAvOXQkL1cizG8Wt1EPfA6BD1wk5W88FQHPeGPDb38/yU9yl2JPQAKmTptz4y9RlpkvYZIhz1cOZc81rmAvNRmbj3kEXk90NeJPZLeNb1q35a84DyxuxhkyLyVvGy9gL0MvIrhKL0IfPQ8PCH8PKzZZL1A6qK8buoWPUSyiTw4FaA8lF74PPRuMr14JgU9TIALPUpNhz0g21e9NO3IPEgL/DzumQM9YPlrvTifR7wgTY69oBkQvOCa4ry5oxa9YLPMPJJ2Cj2Akh48pDiIPdwUS73scUw9mzwAvVzwtrwktGm8uK0LvDzdF70SFzm92A6nvDrO7LwAaKY74PL3PAiMFLxmJQo9SJ+CPVXWDb0KF+i8Ho8TveRPTz3Ub3Y9uHnkPEj5ObyIvzU8xKIkvRjEGz2iFS09ADy7uwgn8jygd7W8TA59vUjkfbxQgOc7D3eQvbC+zjz4pfY8oziOvXAP8bwYZ128WBdoPKwygz1rBJO97vwwPXr1DT2A3U69G7lYvUgNEDwMtSc96Cr3PJQWfb2/MIS9qHzWPGJpTD0Azrs8cCWXO84Akj3wca87sEVrvF44Tz3SPPy8xIWFvZyqdb1ZfJC9HM59PQyi+DwcMxc9x68zvdBRizzQiZm7g/5vvaRxS7xBKJK9QIjEuj+cP72aeh09tHjQPBzfEj1Aa2+9wjVOPeBz5zse5zU9IN50Oy6CXL2WYJ28AODwOix4qzwOhfK8qoshvT8udL245SM8mMEUvKq4ij2k/1U9gNV/PNcEB72mKwK9xIlxPaCkizwaKZM9YpKGPZy70LywKG48joSXvEAAYb32yoM9YDRgPGC/Wzz8t1M97PurPExNNr2IPb888MjMPIB3przw1Wc8Aj9HvQHCOL2uNPy8bOWCPfBoeDyIOLe8KN8NvXAphb3kP2w9tJLJvCI5Tb2uDSY9rPhsvQIQRj2ka/Y8rPORPWIqlrw8vnk9PCuEvQAU4rpAqrW6hPGLvf6/e73AsDk7+HmRPQCz6rw6hg49aOlkPRAGD7wAMBc8hijPvMB+wTyMvAM978aKvUsYMb0wJMK70DzRPHSe5Txk5yO91UULvcb0Kr0WJBU9TP77PFw2gj302zK9aNLgPAzJhzzPVyy9AC5KOXp8gLyAQ4O9BjyPvRqEgb0Yzio82MmSPWJDZ70AVoO7NtIhPXa8PT24pEK9UIPOu1x0pzwcU2+9dMSFPKBwjTyCn0K9QFjpuycgWL0zikS9WEG6PPih7ryAS1k9ML2RvI2cb73yp4y8AIJmPfDPbz1s5ds8ABiGuWihCLxIh3w9gndJPZ91dr1eWA49jm2BPXWjXL1CXAY9QNtvvFfbF72OERW9lpcyPY5ej73EIUi9TNDnPMC++LryU/K8k05lvZCDVT0vk4+9tPDGPLcHgb0Ayfi7wL+MPXwWkb2GfE+9bOJGvPXHAr3Ui7a86OhBvLibcD0C5Ra9UkfnvN7hhL2uMky93h+LPfwIgb3UKUG8BrxQvf08R73YU2I8bs6pvAwHMj0YoFg9jsKIvBDs8zswNdk8MHedO94I7LyPs429ALc9vfjiWj3YJNG8AiZmvcTLijz+RUe9lAaQPSSChzwwd+M8rBqwPPjdaD08zyK8rpFHveSreT0S3oS9BvEivUjUHr1iVP28vDYGPZppSr24MnE9GUlkvdZ0jry6Hpa8JRt9vcJ/Y73Agxo8MqkOPUB/aT0S5RA9NJ1pPXj5ir2m8by8YCu2vFT+Nj186ZY8pB+yPHYs7bwaNQK91FPKPKph4ryg8Y+7lmmavIp0Lj389uw8AIumO+58SD1QSIs9Lu3DvPB4z7zwz1i9jvqzvIi18bwOLXi9NUSTve45ab1QPOI89BpzPameer2c1Sy9tABtPZJGvrzoNSg9LCg3vABrDLuAZ3i6qm5qvTbf87zS9uu85pbGvOE6gb2gR0W9EoTOvKCZTjsmME29vnwePVg8qDzoqzu94hKIvAKNeb1o7Bs9PEqmPBd5PL02xvm8gguOvdaHCL0Oka68IbEkvd7WAz2i7W29QNUpPOwwZT2AIsc61Oc1PRJjb71xqo69sIvkPEB+fj2Me4691U6JvcAecDvYv8E89JF0Pci6Obysd0c9qHRbvFZYP720/b085C93PbRWoTwY9WW8uI7QvMfdkL0JkYO9MKOZPB69Sj2DfYS9GJX+PJ7rubyA75g7uJ4uPKjBkLyYvPc80H6CO1jrIT3Qkpo7fFarPKD92LyAT967dAs0PTx9az0pRmm9QBiXuja8E70GNUO9QCMWPdjiAzzS+X69dNCRPdRqDb0FenK9mAHnPEJGDL2YFLm8cH6CPSXAXr0MFA69oM8IPBD7bL0QWpE90LXpvADryDngZ8G7oJDoO64zN70qrk69iv48vTAruzz4jme9wE6iOiDQPjuZIIy9HlvlvLAKxbuUXrg8nswBPYBtPrwNVoW9BH+BPJJRkr1cug+9umlXvZt0i71o3Is9FAePPcyPrjzA1ZC9KOVXvfCQez2uRTW9TNySPYACVjsIRxU9O4wGvf71gz0Myt48NGOXPAAXxLlq54C9lIWUUpRLAEsgS8CGlEvASwGGlIloAilSlHSUUpSMCGZjMS5iaWFzlGgHKGgKQn0BAACAAooKbPycRvkgaqhQGS6AAk3pAy6AAn1xAChYEAAAAHByb3RvY29sX3ZlcnNpb25xAU3pA1gNAAAAbGl0dGxlX2VuZGlhbnECiFgKAAAAdHlwZV9zaXplc3EDfXEEKFgFAAAAc2hvcnRxBUsCWAMAAABpbnRxBksEWAQAAABsb25ncQdLBHV1LoACKFgHAAAAc3RvcmFnZXEAY3RvcmNoCkZsb2F0U3RvcmFnZQpxAVgPAAAAMTQwNDI3OTI3ODk5ODcycQJYAwAAAGNwdXEDSyBOdHEEUS6AAl1xAFgPAAAAMTQwNDI3OTI3ODk5ODcycQFhLiAAAAAAAAAAUHL6PBhCOjx6fyg9zDtzvHxQUj0MJC29mMs3PAAiQboYlnE9KMThvEQbXj3O8Rs9QBxnvcvrgL1An0c7lCgyPQB3cbrYBWG8QJR2PQwrPz2ofEU8DGeBPSrVIT2Ia2s8eHJZPe6XkbzSzYI9UnozPSAyh7y4aTu9kgk+vaCmLDyUhZRSlEsASyCFlEsBhZSJaAIpUpR0lFKUjApmYzIud2VpZ2h0lGgHKGgKQn0EAACAAooKbPycRvkgaqhQGS6AAk3pAy6AAn1xAChYEAAAAHByb3RvY29sX3ZlcnNpb25xAU3pA1gNAAAAbGl0dGxlX2VuZGlhbnECiFgKAAAAdHlwZV9zaXplc3EDfXEEKFgFAAAAc2hvcnRxBUsCWAMAAABpbnRxBksEWAQAAABsb25ncQdLBHV1LoACKFgHAAAAc3RvcmFnZXEAY3RvcmNoCkZsb2F0U3RvcmFnZQpxAVgPAAAAMTQwNDI3OTI3OTAxNjk2cQJYAwAAAGNwdXEDS+BOdHEEUS6AAl1xAFgPAAAAMTQwNDI3OTI3OTAxNjk2cQFhLuAAAAAAAAAA/v6QPT4AIb64RN28CKElPZoc0j3weUG9JcYrPuZ8n73B+im+qoHzPcDz87wZbAw+Sjj+PS40+D3kmrW9cPSDPLbQ0D1aIcM9qsyqveAyi7yWuSm+F80wPsD6zLuSJf09Pg6NvdASdjwlWCo+VlzCPW47+z0IJA49GerjvXvCHz6Iv+683aogPoBT7bu0O/29+GODPKLdIb64RUS99z4CPqw9Aj2ARaU89ekVPsIc+L0TOQo+QnDcvc5hsT2X6cG97tSpPbhV5rzN4Ji9R47PvThbBb3Sxei9EIJUvPZe/z0SkY09oAI6vX6Wvj1KktW9AqufPWFUBz6w3zU923bRvf+Ywr3gzuO9oh7qvTHUhL0Aw8W9aC+OPZDsEj30piM91lD4PfXBML7XHiA+elnIPc90gL0g05I92ywMPsKEC74z3Sg+aj3VPf3X0r3XBLm94aYQvrBnWb09TSQ+OPI6vUik6jwY6Sk9ak36PU2hv70Ab/s6qEsgveakZb0A8oK8iPy6vYs/u72Q1Kg8pZ0mPgoppz0AIN84spiXPRzrRj3QFWc9Loy+vbarij3Tjba9idksPhLaoj2kbwC9w3kKPrgHDb37bi8+pzTmvawCfD17s9e9ofravUHmKD5j2yg+GEXAPE/6Lb5IxKa8IB6QO0jclLyu7N49NEgmvWD30LwOe8M9ZTUCPp6e7j01Ki++6H8Fvmjja73AQfM843cPvtrlrD1Pohk+28ibvckTr738gyS+NBQUvioovD1i1y++92WrvcB4yjtNaBO+oqLXPcaZgL3ICg++gSvTvVa3lD3u//A9v9QCvs3l5b1vVRU+iHqRPMfyFb4Y2Cw9MabuveaNCb7WTxq+l6EDPqDJIr4AdtG72JliPY4rpz1oExu+mmDtveHFLz5T0Bk+0L7ZPHi/lD0ALp29zKddvSBsr7v8JIg9vPtVPdC9AryAPm+7EMbZPCSlL71Vax4+6FY0PQCoaLoLIhc+W2vPvQ+wMj7OMiq+CCOUvfr4B74AdYy646efvYA1wb0ShgW+CDZWvRP6hL0iIt09IFPVvaCLfTwuMIU950q2vWGXKL7MhGA9WCITPQFgHz7sR1091jjSvaUkBT44FDI9DJrVvb4U973nEQs+zaMzPsCyRTxSurk9LVgXvmyhKL6GEQe+hFhLPaqfyj3+Gaw9Mj9wvTBMLzyUhZRSlEsASwdLIIaUSyBLAYaUiWgCKVKUdJRSlIwIZmMyLmJpYXOUaAcoaApCGQEAAIACigps/JxG+SBqqFAZLoACTekDLoACfXEAKFgQAAAAcHJvdG9jb2xfdmVyc2lvbnEBTekDWA0AAABsaXR0bGVfZW5kaWFucQKIWAoAAAB0eXBlX3NpemVzcQN9cQQoWAUAAABzaG9ydHEFSwJYAwAAAGludHEGSwRYBAAAAGxvbmdxB0sEdXUugAIoWAcAAABzdG9yYWdlcQBjdG9yY2gKRmxvYXRTdG9yYWdlCnEBWA8AAAAxNDA0Mjc5Mjc5MDM3NDRxAlgDAAAAY3B1cQNLB050cQRRLoACXXEAWA8AAAAxNDA0Mjc5Mjc5MDM3NDRxAWEuBwAAAAAAAACZkhc+EultvVrj9b3aLMw9OJJRvRjrqr3gKf28lIWUUpRLAEsHhZRLAYWUiWgCKVKUdJRSlHV9lIwJX21ldGFkYXRhlGgCKVKUKIwAlH2UjAd2ZXJzaW9ulEsBc4wFY29udjGUfZRorUsBc4wDYm4xlH2UaK1LAnOMBWNvbnYylH2UaK1LAXOMA2JuMpR9lGitSwJzjANmYzGUfZRorUsBc4wDZmMylH2UaK1LAXN1c2Iu".encode()
    weights = pickle.loads(base64.b64decode(encoded_weights))
    model.load_state_dict(weights)
    return model


model = load_model()


def agent(observation, config):
    col_num = config.columns
    row_num = config.rows
    channel = 1

    state = preprocess(observation)
    prediction = model(
        torch.from_numpy(state).view(-1, channel, col_num, row_num).float().to(model.device)
    ).detach().numpy()
    action = int(np.argmax(prediction))

    # Action
    if observation.board[action] != 0:
        return random.choice([c for c in range(config.columns) if observation.board[c] == 0])

    return action
