import io
import base64
import pickle
import random

import numpy as np

import torch
import torch.nn as nn
import torch.nn.functional as F


class CNN(nn.Module):
    def __init__(self, output):
        super(CNN, self).__init__()
        self.conv1 = nn.Conv2d(1, 16, 3)
        self.bn1 = nn.BatchNorm2d(16)
        self.conv2 = nn.Conv2d(16, 32, 3)
        self.bn2 = nn.BatchNorm2d(32)
        self.fc = nn.Linear(192, 32)
        self.head = nn.Linear(32, output)

    def forward(self, x):
        x = F.relu(self.bn1(self.conv1(x)))
        x = F.relu(self.bn2(self.conv2(x)))
        x = x.view(x.size()[0], -1)
        x = self.fc(x)
        x = self.head(x)
        return x


def preprocess(obs, col_num, row_num):
    # 状態は自分のチェッカーを１、相手のチェッカーを0.5とした7*6次元の配列で表現する
    state = np.array(obs.board)
    state = state.reshape([col_num, row_num])

    if obs.mark == 1:
        return np.where(state == 2, 0.5, state)
    else:
        result = np.where(state == 2, 1, state)
        return np.where(state == 1, 0.5, state)


def load_model():
    model = CNN(7)
    encoded_weights = "gASVgMgAAAAAAACMC2NvbGxlY3Rpb25zlIwLT3JkZXJlZERpY3SUk5QpUpQojAxjb252MS53ZWlnaHSUjAx0b3JjaC5fdXRpbHOUjBJfcmVidWlsZF90ZW5zb3JfdjKUk5QojA10b3JjaC5zdG9yYWdllIwQX2xvYWRfZnJvbV9ieXRlc5STlEI9AwAAgAKKCmz8nEb5IGqoUBkugAJN6QMugAJ9cQAoWBAAAABwcm90b2NvbF92ZXJzaW9ucQFN6QNYDQAAAGxpdHRsZV9lbmRpYW5xAohYCgAAAHR5cGVfc2l6ZXNxA31xBChYBQAAAHNob3J0cQVLAlgDAAAAaW50cQZLBFgEAAAAbG9uZ3EHSwR1dS6AAihYBwAAAHN0b3JhZ2VxAGN0b3JjaApGbG9hdFN0b3JhZ2UKcQFYDwAAADE0MDU2NzAxMDM4NDExMnECWAMAAABjcHVxA0uQTnRxBFEugAJdcQBYDwAAADE0MDU2NzAxMDM4NDExMnEBYS6QAAAAAAAAAHGAiT6Gv0O+gcSZPm2Ihz78joC+Gr1lPgAfyjwGzFg+ON8JvivylT5QMZS8AAHFup6pdT7T/Z6+IK8aPdpzhL5W+g8+hofIvUjTaL5kIpU9oj9rPixIor1s4vE9lMaEvv3yhT64qTU9sHOtPdByC77gVg898hpcPngbAj4i+38+cl5sPsPIdr5hO5A++1ZpvrCF5Lw4NQI9iEsXPms+V74gYcg9bRWnPhmogj7/4Zu+4MB1PTzNwb2jM5k+/E/WvQNVk77oBgK9sMC/vMCQGD3QLPs9IIIpPvyx1r0xuZA+QGXQPPj6CT5TvSS+mKRDvsawgb6wq9m8FpCnvjZdmr76Uqm+gwIPvkM8XL4MgKW+wMCqPKThmr7lRYw+UyMHvjAixTzwZZA95r8fPhw6gD25R6c+Khk9PqC7Z7xhEYA+ADXcvHrlbj7PzJE+kmahvnj1Tb32QlA+XUaPPhKRUj7AzbY9MMvXPEBDlzuAiqk9cF3rvZAzir0d1oA+xs4OvrkEiz71Z58+TOrXPTtIkT7yY6m+QLKEvNojQj6yvzs+bfWfPi7WXT7AGI49fSeXPpp2ED62Fhi+ks1UPhgBV76eoWS+5MabvcRB5T1gdRK8XsKCvmmVlD72ai8+Z7qpvgBeMzpWC36+sJXpvBtRTb4Ix3q+XpYsPiBphT1YXIu+0ALcvEDtqjt7jwW+uDxfvpi/ez3rtaM+AFHVOgDyPLyG6y0+Qix/PiaUZj7PW6i+mDRdvsitTz1BD6E+8zdevpSFlFKUSwAoSxBLAUsDSwN0lChLCUsJSwNLAXSUiWgCKVKUdJRSlIwKY29udjEuYmlhc5RoByhoCkI9AQAAgAKKCmz8nEb5IGqoUBkugAJN6QMugAJ9cQAoWBAAAABwcm90b2NvbF92ZXJzaW9ucQFN6QNYDQAAAGxpdHRsZV9lbmRpYW5xAohYCgAAAHR5cGVfc2l6ZXNxA31xBChYBQAAAHNob3J0cQVLAlgDAAAAaW50cQZLBFgEAAAAbG9uZ3EHSwR1dS6AAihYBwAAAHN0b3JhZ2VxAGN0b3JjaApGbG9hdFN0b3JhZ2UKcQFYDwAAADE0MDU2NzAxMDM4ODA4MHECWAMAAABjcHVxA0sQTnRxBFEugAJdcQBYDwAAADE0MDU2NzAxMDM4ODA4MHEBYS4QAAAAAAAAAGWClj4AM2K+ikpqPo4lWj5WXXk+gjZaPhTOlL4IznA96GlSvoj8jr7PIJo+RiYPvohBSL5e/ke+xkBoPpjFqb6UhZRSlEsASxCFlEsBhZSJaAIpUpR0lFKUjApibjEud2VpZ2h0lGgHKGgKQj0BAACAAooKbPycRvkgaqhQGS6AAk3pAy6AAn1xAChYEAAAAHByb3RvY29sX3ZlcnNpb25xAU3pA1gNAAAAbGl0dGxlX2VuZGlhbnECiFgKAAAAdHlwZV9zaXplc3EDfXEEKFgFAAAAc2hvcnRxBUsCWAMAAABpbnRxBksEWAQAAABsb25ncQdLBHV1LoACKFgHAAAAc3RvcmFnZXEAY3RvcmNoCkZsb2F0U3RvcmFnZQpxAVgPAAAAMTQwNTY3MDEwMzkwNDQ4cQJYAwAAAGNwdXEDSxBOdHEEUS6AAl1xAFgPAAAAMTQwNTY3MDEwMzkwNDQ4cQFhLhAAAAAAAAAAAACAPwAAgD8AAIA/AACAPwAAgD8AAIA/AACAPwAAgD8AAIA/AACAPwAAgD8AAIA/AACAPwAAgD8AAIA/AACAP5SFlFKUSwBLEIWUSwGFlIloAilSlHSUUpSMCGJuMS5iaWFzlGgHKGgKQj0BAACAAooKbPycRvkgaqhQGS6AAk3pAy6AAn1xAChYEAAAAHByb3RvY29sX3ZlcnNpb25xAU3pA1gNAAAAbGl0dGxlX2VuZGlhbnECiFgKAAAAdHlwZV9zaXplc3EDfXEEKFgFAAAAc2hvcnRxBUsCWAMAAABpbnRxBksEWAQAAABsb25ncQdLBHV1LoACKFgHAAAAc3RvcmFnZXEAY3RvcmNoCkZsb2F0U3RvcmFnZQpxAVgPAAAAMTQwNTY3MDEwMzkxNjY0cQJYAwAAAGNwdXEDSxBOdHEEUS6AAl1xAFgPAAAAMTQwNTY3MDEwMzkxNjY0cQFhLhAAAAAAAAAAAAAAAAAAAAAAAAAAAAAAAAAAAAAAAAAAAAAAAAAAAAAAAAAAAAAAAAAAAAAAAAAAAAAAAAAAAAAAAAAAAAAAAJSFlFKUSwBLEIWUSwGFlIloAilSlHSUUpSMEGJuMS5ydW5uaW5nX21lYW6UaAcoaApCPQEAAIACigps/JxG+SBqqFAZLoACTekDLoACfXEAKFgQAAAAcHJvdG9jb2xfdmVyc2lvbnEBTekDWA0AAABsaXR0bGVfZW5kaWFucQKIWAoAAAB0eXBlX3NpemVzcQN9cQQoWAUAAABzaG9ydHEFSwJYAwAAAGludHEGSwRYBAAAAGxvbmdxB0sEdXUugAIoWAcAAABzdG9yYWdlcQBjdG9yY2gKRmxvYXRTdG9yYWdlCnEBWA8AAAAxNDA1NjcwMTAzOTI4ODBxAlgDAAAAY3B1cQNLEE50cQRRLoACXXEAWA8AAAAxNDA1NjcwMTAzOTI4ODBxAWEuEAAAAAAAAABMSrQ+iyl6vipwjT603ns+fS6JPhXnfT6DotC+awoHvRh72L136Du+WeTVPkN1kzxCaIW+Np+Fvnwqgj7oYKK+lIWUUpRLAEsQhZRLAYWUiWgCKVKUdJRSlIwPYm4xLnJ1bm5pbmdfdmFylGgHKGgKQj0BAACAAooKbPycRvkgaqhQGS6AAk3pAy6AAn1xAChYEAAAAHByb3RvY29sX3ZlcnNpb25xAU3pA1gNAAAAbGl0dGxlX2VuZGlhbnECiFgKAAAAdHlwZV9zaXplc3EDfXEEKFgFAAAAc2hvcnRxBUsCWAMAAABpbnRxBksEWAQAAABsb25ncQdLBHV1LoACKFgHAAAAc3RvcmFnZXEAY3RvcmNoCkZsb2F0U3RvcmFnZQpxAVgPAAAAMTQwNTY3MDEwMzkzMTA0cQJYAwAAAGNwdXEDSxBOdHEEUS6AAl1xAFgPAAAAMTQwNTY3MDEwMzkzMTA0cQFhLhAAAAAAAAAAMH3HPC2kSDwzUkM8NHGpPJuEvTyEoP47L//1POJwLD24POU8xJ0FPaFJAj3ufWI909+bPBZFpDyRoXU8T47NPJSFlFKUSwBLEIWUSwGFlIloAilSlHSUUpSMF2JuMS5udW1fYmF0Y2hlc190cmFja2VklGgHKGgKQgQBAACAAooKbPycRvkgaqhQGS6AAk3pAy6AAn1xAChYEAAAAHByb3RvY29sX3ZlcnNpb25xAU3pA1gNAAAAbGl0dGxlX2VuZGlhbnECiFgKAAAAdHlwZV9zaXplc3EDfXEEKFgFAAAAc2hvcnRxBUsCWAMAAABpbnRxBksEWAQAAABsb25ncQdLBHV1LoACKFgHAAAAc3RvcmFnZXEAY3RvcmNoCkxvbmdTdG9yYWdlCnEBWA8AAAAxNDA1NjcwMTAzOTM3NjBxAlgDAAAAY3B1cQNLAU50cQRRLoACXXEAWA8AAAAxNDA1NjcwMTAzOTM3NjBxAWEuAQAAAAAAAAA2PAYAAAAAAJSFlFKUSwApKYloAilSlHSUUpSMDGNvbnYyLndlaWdodJRoByhoCkL+SAAAgAKKCmz8nEb5IGqoUBkugAJN6QMugAJ9cQAoWBAAAABwcm90b2NvbF92ZXJzaW9ucQFN6QNYDQAAAGxpdHRsZV9lbmRpYW5xAohYCgAAAHR5cGVfc2l6ZXNxA31xBChYBQAAAHNob3J0cQVLAlgDAAAAaW50cQZLBFgEAAAAbG9uZ3EHSwR1dS6AAihYBwAAAHN0b3JhZ2VxAGN0b3JjaApGbG9hdFN0b3JhZ2UKcQFYDwAAADE0MDU2NzAxMDM5NDQwMHECWAMAAABjcHVxA00AEk50cQRRLoACXXEAWA8AAAAxNDA1NjcwMTAzOTQ0MDBxAWEuABIAAAAAAAAy93Q9egYYPTzxgL3WJ5W9ivWLvdTnmrz7TUa94t1UPdK4CD3g2Sk7hsXLvFB5Qb1bSiy9flpgPYDIu7s4bRY9AASqO96QLb2A3Be7a5apvboVYT2DPpg9AxCfPXPnFb1ayKi9UAWju3Sw2zxqvkY9rq02PZjGJr1Q5Pg7gKp+vVorUz0gkry88MHVvA4mTL3F8489kklIPfPupL3MVuK8IE17vHUtoz1flqK92k8UPUBkhrwwNVu9K0mbPfpqQz3/5oU9E7uDPZBZEr3wisa7ZmPlvKOaib3Dlxm9rndoPX7Ic72gZhY78J6iu/sPpD1yGz09HGuWvMDo/7wqDEY9W2UcvZtafL0jPYE9LsMUvfxrjbzLV4W9Gqx6PaDPKjxZB4M9tYObPdD9uTyQKfE7YOeOvTAVwjy6Py09PndBPfLrLT2JjZM97hNgveSHhr0rLAO9vYWFPYi0l73at0s9OxRGvYuwl73g7gm80JLLvHxjjbzwkeU7OGo7vPYLKr36Nks9CLFrPHHDnj100YO9XsolPRbvh72S3z49s8ukvRpFgb0YiD69nhYhvX9YlD2dYoA9WAKNvYhZU73AVaG8mbSBPYDKXDpI+DU8QlIwPVsdkb3zGxO9cEqju4R3wDz4TUS9n8+IvQAuJTpXRaQ9UzgovcrkfD1Q9tG8iFcNPew6mDw72i29wNPCuwCxxruAWWQ7yAUgvViDpr2gqTy9+uIyPTBn3LzUpYm9uC9GvJuxab2h24Q9PQ+IPTBzmbzeDDc9TO2SPNKjNj0IhzO8wIKXO9jBQTw7qZW9EIfrvG60Ib3izGg99MGZvTsNnL2rExO9ACTSvEjufb1+fiw9FHuBvIb8ubz7exK9wAe6vCpQUz2RMZE9sBfVu8dSlL0TnYG9kMPxPJgdCDxKLDU9FuFFPXDi4LwYoWK88DQ0vY4mHr16oQI9mCIWPUjvFz1rbKI9e+6VPWBUbzyG+zc9CIQMPRz1vbzQzsA8AAKzug50o70cDYu9vlkIveyIjbxGdx+9+0QcvfYDw7zNo5M9Vn8fvbbbKr0mu9G8bAazPJYtob2eLw690pI6PSJ0BT0D8oK9bvtWvRu3e72SIaK9bAzsPK1ulD0A9u08oAYyu6p8ej0gfVE8dmllvSjBDz1AooI66LtnvAMaDL24lwa8oAKYvWq2fj3QjlC9mEF3vDOZE72gw2U8nN2DvBlxkD1DGIs9qC9avVCaH70saae8aAsRvdCkeL2QFac7NvusvOqJcD1d+509ALMXPcnxgz2gNSy8WLZyPBCEh7zeGk89xmkjPbl6pz0coLw8jux0vZYKeT243oG9nA2SvMCGl7y5pYk9qndUPZ+nlL1E6Ig8e0BSvcDDQ7z6LkA9/PC6PBxaz7zgRLS8QPxnvQHclj1whtU8RsdtPYgGbrwn7qA9BoLYvB1Pgj34IyG9oNehPIiYTjxQxIK7WJR1vLnkpT3Q5ze9VqoWvSR+gbyrHRG9ux+OPUBppjvWJuu8ZtV1PeR3zDxSiqq93AGRvLoxMT1SwTc9rPWQPOxUj7wwzKC7fnQ/PQPth70Ah/O8MI7tvFO/h70AOca7pGHBPCpkFz0YBGw8gLUHO2zahr2YPzQ8GMEOvbTLrzzb4Em9wrakvaJGPz0HW5C9ljigvXY5m712woy9up0nPdhODD3gfHQ7Js/cvBbQxryiQWA9IAl/PHi3cjxAfdO8xmgbPWiJMrzMCaW8xsZEvZ6cPj1QubK8NQuRPdBtrrthup49wW+IPSibUTy4SAK96cCaPZJcLz0he6A9xm31vHgLE7yA1j48FayYPWC2IbtwGB09/KKHPIxT3DyLEIq9hjYyvfOWpL0J1Zs9sAujvcAZsLpQZOc8kMHLO3CNB733SYk995uPvQSW9Ty4xgq812GRvf+ilr0pX4U9aAduPNikMLx+OgY9YOxrPE32qD0TyxK9GKFDvdDKqzwUp948okWEveDrZzzQ9vq7fG7uvDdmqT3cW6a921kbvRMCpb0YISE8aT+JPegOTL0yp2Q9DhBsPRrApr1eAWc9bhxSPUxE5jw2PAq9dvlaPbOaDL2Emqm8BtdvPTKKgr34KGm9Nt4EvUhpdLyQbNY8tJ2FvPpBdz2W//O8/O+2PMIbGT1u1l695NmgvWBMfbzRC5A9IJbwvDs4S73gJHG97TWePXbJYr2QpwQ9RixqPSNgcr3TZ5u9qSSnPcb2oL26O2Q9PgNxvSdOlj1ABxk8NfqJPSoVVD1YZXS8SaelPdJtgr22D1O9onNDPYaJaD1oeWe9RvRfPTDPtrxLUz69qU6lPZyOszwS0wc99pHfvNST1DySEH09xWuhPWvDdr3Imyq9rb+KPXZ5Dz0OBGa9Q6CPPXCoor1bsIW9a20YvdBofr1urD49gDN0vWx4gL1Dwym9kJ+gvHPoA70w0qC9wrgtPSGpmj1AZqQ6kMnxO3JQdD3jLiK9xgI+vQwm8jySPHs9rihUPVQKhrzAUY48FcCpPZBotrwmIJS9QIePPNJkYj17Hm+9ML/JPIDhVjtw65q9TAOFvRZXjL0xf6k9PuhVPf7Ldj3A2oQ8+mJOPQBZ0LvWdmk9o8pUvdCTmL36I1M9wKaYvPBJtzw8n7u8/J6TPLTwhrzzdXu9vOm4PHv7Gb2Y+g89rjg1veBkX7sLMXW9DsE/vZDugb3a6VU9afyRPRbPXr1utRc9YGkLvXF+jz0xbaM9goF+PdaOMT3t/Jo9M/xzvaejlb2jHaS950mNPXj7Obxz5lC9XCXIvKW2oz1MVK08lrUovdu5hT3bjJu9+HR1vKjRLzx8z7s8zDHQPNRUl7yHQ5o9uhh0Pf3ymT1JloE9rMWvPHZBGz0FSIg9rO7+PICM1LwjMIs9cCd4vaAgwbwFa589gMIrvWJIgb1c9Ke8Sr16PRSYibzAM+g65vRSvUcogb2eO0A9KF5lvDVuhD343Tu91ro+PTYe37wAyGW8eup7PXaBsLxbED29ADfkumA6JD1WY1i92KhtPCimczzAu8C6i8mIvbQ+qDyyC1A9hjBTvQBIqjsqlmA9cE4hPaCVlL3btE69qGp/vJUriz1HgJK9hr8UPd+1hr28m9O8tqA7vU8wlj2eCT+90CLGvMaKwbwq9BU9Y3Kqvd7FBb2Wo2I910yVvRIhXz2DBEm9U2g5vb6Bn71wMh+93j8lvermZz1Jjp89orFrPZ7aUr3Or1s9bi4NPfDEDz3UKb88k4aLPbDurjtgGh88Z9KHPQCT77liO4e9uPFQvRACgTzAZoa63FDMPDriUz0gqAm9/z6QvbTS6DxgN668K9tPvavrjj3AAa070a6lPUBNxbzQ5u07VvMvvWO5gj3XjaK9MNEQvWa9ZT1wgN28PHb6vOy0sjwAw/q68FG3vIKfJT0QY6s7HOSKvCW4iT0wgby8mi1iPXC007vQN7I8jQeLPS8Dhb0M8eg8qBdsPIjNBb0n9Zy9UF6+vK7fQL3WQFM9lQOEPcaVYL3esoa9PsZdvbr3Rj0IDiI8wiU7PQBq87uzik696LlVPLjXVrxBlZg9RvhyvXkKnT142lK9mKokvRb8nr3mryS9dDSlPKPOi71z6pA98DuaPDawKT1mJri8UI6AOwpwl702N3a9R82QPaiQn72TKm69QoI1PVT0mb200Ka81pBpvWDnUrvAV/U8QKyZOuAfXDtscpW9Uqp+PWyL/zwYS1u95ECWvEH1gT3zYXq9jA6vPD4rHr3V95E9TNzWPAA7ibzw0pi9gNMJuhJBAD0PUo49ktFPPSwK7jxojDy9MzZsvUh5Y71hm4A9AJk9vZxGxjzA4oq8BtZ4vU2Qlz2rzaI9ENqAvURHibwDUKY9Yl2FvUu2hr24TkC8k5t+vaOghb0gVl29gpcrPYqlQz00fPM8ULl6vTvMqb0cUIa8IHmJvSrfVD0+gQo9Ak9cPRTY2DzCp429nvlAPSjBGL0kJ5c8nnV5vUz6ujzdfqI9PN+jvUJQXD2GUWk9YIXUvKezib1rbJG9tlZIvQDoerzAsk+9lu4cPXzGib2h8qE91FfqPDDHID1e4I69MsOJvbCPar3q9HQ90EUiPcL2Pj2ryJA9WzemPThtHry0c6K8nFa0vECp0zzb05o9jiFIvfebkz31UJE9po0sPZA5kr0Pa6G9+4uNPUgsdTyOVCe9trttPVpnLD2z+nO9s3KMPYfUp71spvS85I+SvEqBDD3cS9K8nEeJvHb77Lz4R2o8sPOjuwSulbwDq3O9UllJPRaHBL0iuKm9e++PPeC/jDy2MxY9BkEbPXBfeb04nDg83DG+PNGphj2+bx89hBmhvWKiPT3woIw7I4wWvRrccT12/ea8chZsPZAYlDw23Z292qOKvWNroD2izVs9s81OvVzzhL2ZDYM9OOgaPYMfI72mwPC8Qj5sPSBaDzyApFu9EOrMPMaIar0AMZc8nLOavfDh3jtAK2G9eeKiPbOiob0ivyM9qOAaPNvzmr2OjDE9KMIUvfq1ID0A7OY4wzspvVbcND0u5zo9H+aDvSDdibyDZaS9VDXxPAMfOb0mXlc9q4cyvcNVoL36H1Q9QKGLvDavN70cqOy8ZFqIvTC/xTxsR6I8SHBvvQqfTD1+9Zy9gH4JPMiVUTwGZyI95pn3vNjAeb0eP4u9Dg0MPQDydb1CHxQ9XY2ePRzzsTzj31m9cKaJO5t4FL0UZaC8olwZPcQnyjxIGUK8buiDvbQ7ijy47Um9SfqlPTirOTw4oCa8ICttO6qLBT3Rz6U9mFo/PAXIlD2ytpK94Li9vAEMnD24YQg9Jl4MPdggCj3gMkm93qIoPRDOqLxAFaC8vOeovRjiCr08Dd88gtdJPaqgFT0A4jq6CHccPUBBJLzG6Ge94T2jPRTIyjxM+si89MP4PIBRRjt67HU9sBmwPFTyizy4zHo8M4UZvdQ9jb0Il0O9EAWnvGIeIz0/0pk9VBGSPAaPRD020xe9bnJ6Pf18jj2bhYu9kIT3u2JQXT0LcC29fo1qPWDVQjxgb0m9uiCXvZP2VL3wqru8RudcPWDWQDudM4A96PAmvDDxhzze8J29CMkpvXD6dr3kc4i8SwwqvYAHRzpA/ve77LzHvBRhgzzAKZS8noRwvSzhizzQ5J67YthcPT2qoD17uo+93ECTvHFohD279wi9jEWGPLxOqjwzhKe9YzVZvQCv/jkTAwa98HmVu/7VjL2OOFu9wDKlO7HUhT3sl6K8Ey2qvSA9Qzvo+wg88mpWPVuYG72grxq7mm4PPQJpTj21N6M9YPwFPIDUr7subz296GkbPFBt5zve6Bu9S2YlvQsamr2Okh892nF1PfQe9DyYrBM9eplfPSgqHb0A1Me5TvGnvSdai7243ya9WSWSPc6an73+/y+9gD72O4Z26rwszZw8tKWNvRAgorxLMz29SSqTPSiwIj2v2oq949x5vUSDmDyWx+m85NihvAQT1DywxIS8puvmvPwV/zxQxqA8oqJBPdaadr2Cd089/vx+Pb6YVL1WezO9IAJPvWj8nb0ACN68bJfKvGuMkj2Z1IA9bHmvPCAwaDte/Ts9MmAlPUgdEr12xEo9EBvSuzjjVryughU9GksJPWBllr374aC9cH/VvNCVmDyA6aY8ehJXPcR/7zw4Yme8pvrgvH60PD3TmEe9QJirPNTSrjwOU1a9Nqr2vK4SVL2Afzm64MdJvfY1Ej1Isgy9qJARvDi/ZrwYjgi8ouQ0PbxavDy+USc9s1OYvQCCRznAP4a6RdmHPRPpnT00Ypi8QKxIvNjLZjzmX3k9fQSVPVYFLr1W2GS9cHi+PFy+o71qOpm98+1ZvQwR/zzS5g89qDoPPZLtdD1oOA08bnZTPVZJHr3gBv08wDzXO+akkL1Ndow9KGIjvMCkqjtQrBm97D/6vEtbWL26qUE9JrzTvLwXhrzAoGS9mTWdPYA8U7zwacA8UiJePSXojD3f3om9sU+EPcquCj1gHcA8Mn9PPVsLWb0rEg69ExpFvVPnor2M7sa8aANYvAD76zzcyt28DRiRPeh8F72noJW9xF/RPHBqu7v4cg69XhMPPWC4p72L/GG9EJ6PPARHrTz4Wkq8VTiKPVzko7wzZEe98TyTPUAaBjxp5aE9QPVNvDY2HT1I+0W8pM+ivWmHkz1D+2G9iy08vYvpmD2QuNC8lvvnvOTYsTwQyNu7KE5aPDwT3LwE2uE8nwSYPchuTrwAPl07c2l1vXmehj3oMGO8CEtqvV7YSz2ChAo9/GyoPPg/Hz30ZZK9Zvc2PRgEb70kRd48EHexuwAxuTwofTo80G4xvXX2oT0uiTg9IN20PBYad73ANPC6GFccvb4kf72ggsM8uHYHPHm9iz2s2ok8MIxcveVRgT1YrR69g+FDvUfgoT0KYi49GjuevfY6i71Pg489QCb+u1Dhq7vdYqk9zOfYvPgDir2Uu5e8WyArvfoDg73QLjm9OGRYPKAhaTts9sy8sHebuzjvgr24S3i8ACxsuyMogj3CMY69X5OXvVk+kz2AJY28aMM7PIZiIr1obDM82GgTPOqDXD0Sqam9mjxOPabHHr0Vyoo9eMuFvdfilD0wqYC9LpZ9PeZAOT1g8la7MOU4vRSsgLwgdWA7dhtLvRCb8juim3o9hrUhPSgypL1ieo+9k+OePSYlVr3S/QA9d5eJvcTzkL2gfEi88yJ5vXAKsbsym2k9DLX0vO6LIr25jYU9hjBBvTvCL70gzGW7YLtJu2I/NT1MKe889tlEvTzsm7yjnyy9gkddPdinKT0Wdk89hjAtvVy1kLzQ1O08HGqdvTIODz3QTdc7TIX9PIyTuDwslKW9xt1DvYgWCT2weZ08WGc9PPXPgz2Ygma8PKPdvAYj2Lz4WF28nGCaPNwbnbxzspW9TTWKPSBPNTt2nWM94K5Zu9ihPzz/GKM9FoRlPSCFIDv4i3u926WSPTBM3zxrsSy9zMWWPBCNvru6uJy9wDeBPAhnFT0yrYC9Ckw6PYShgrziXpq9cF6MvWCeXDxrdh+9QF36O3xE+Dwi6Ii9THvQvPhKEDyuUUW9HNyrvHcImL0w5t07Ql1WPfoIOT2MSZ+9FB+TvROUlb1w0+k7/j0mPRL8n73MQqC84Gi4vP/kkL3IqEe9oGLDPMbWjL0TNUu9xsUVPVA99zvD8ke907JCvSU3jT2QdYO85hArPdJDIT3YdxS8WvehvfBJzTxGUrS8IC8Eu383pb2EWoy9OMlaPBAHgb1SOoi93BW5vIOtW72YVwa8E40kvfDlWr2ygTU9MLLqOwA8sbwA7+w5ipkXPXQ+g70fooa94CI5PDtvgL1wLIG8QLKYOvLHOD3H4J49eONjvLa7sbygIoC9nPf3vNwspTzE4om9VGrpPK4hDz2KJEA9MOjJPGCuP723cIA9Sxl9vdbhML2g/w+9gJtOOsz/8bwcL+w8kz5rvQjaNzxoPE28OJsIvfJkFj0bBm69AFH4PBNSjb1G+RK9drhWvTgpZLzMN+O85ntdvQD5kDoQEyK9LkhavXXNnz3+XSI9fIymvKDSrrzAAKE8JkA4PWBwML1G5Pu8cJXWO+JgLT3J3Z09AJesPIbzo72ueT+9UI7cPOi3Y7zWYCw94TWNPQ4YDT00ld88YN4COy69Bj2+zG49eN8nvRJUeT3gpVm8YlMxPW01jT2usRy9PdOUPZ4BAz1cmoQ8qO1avBBg3TwmeK68VntjPdDemr0o4As8i6FkvWlMmz3K2RE90IdEvbBS17y8d7E8Iq57PcAPb71zJhy9zu6FvVjyVb3S7lU9hDGmPJT4hjy5EJo9iM1BPEvUYr12dl09DFiAPBOXH70QS9K8gE29vB5qob3sQL28wBafusr6cj06WS89BqcuvTTWhL2uc3g98GAfvUZTqL0wm0e9iB8RPDDZkb04iX29TpmqvYntmz0Gaqe93PinPEBRLLzwSdm7LhlIPW7rSz2SaCg9wFx5PFjefLwmopG9BMXqPBQbqb1p5ZQ9u1FZvVjIOjy6NlE90M3cPFzRgTz49wo8/tpNPajITrwkXpi9wjhpPWUPpz2G+La8ULKlO2C9GjyANRm9EDuOPBCYxbzwD9c88tRUPWktgD3+W2A9puJKPY6Im70ZYYs9gApmu24oPz3sioc88EHSPP4Whb0odZO9zMelPCbOOT0AZqi9p9GfPVb8sLzG0cq8D2WJPSKKIj2Abm27Z9qfvYDsnjyVKY8939qoPdVykD2A1gW6PsmOvTZQ/7x+E2c9fGSrPOiMXDz2GvG8YgIMPUN9ir29jIQ9yHCSvRBjiL123Dm9FBeUPKg1PL1Q5ww9mGtkvM4ceb0Rf4k9rfKoPeC82zxAofK7GEGOvYahbr04k3q9FNCpvUzH3TxAWoe6MLuyu6LsWj2YuXK8/eCRPZxa3rxaLAs9w5eGvVw5zLygV1o8qw11vau3mr0g9Vw7ut6mvSB8GDugIIA8/GDzvIA1PbrU9IY8QDPGvMD/3bv/oYE9XiIkPXIMZT37QnW9wM9oPNqnRj0jHYo9B4OVPVaxEb0gcmi8hkCgvZkAnD0EjIc8WpVwPYO0jj2wp727xSyfPYCfLTvLYlC9q1VTvV58pr0gNik7AqYuPTCahbtv94k9BkifveZk87wU/aM8nOKgvZgjfzzz9J49oI/bvKN4QL3gopo8CD8pPX9rpT1QdYe8QkhZPWOKar02gn89TRGDPSiWczxw6eG83BjWvHPlI71A/T08OWSdPRX+ij3G2na9YMRWPPJMCz36J5u9hCWpPFhOHL160KW9qCEePWj0HDxY8xw8MlVlPQXPgz1g1Rk8f/uRPVBM+Lsn4Yy9Cw+avWJFTT0iGJC9ozAwvQ3Kgj3YZW+9CB9TvEBXlLrchOc8Yj8ePeDAKLyAK6k7VUmZPVs4k724+2a9AIWFOyIfVj3ISC280n1bPSYTo72X8Yk9KOkEPSzDnzywLtY7oLsLu7qCir2w5bK8WJuqveWqpj1WJg69jt8/PQ8+hT2iCU89K7wBvbfehL1Qnqk8WHckvaBNPjyU2p88rLfcvONpbL3YdVc88sMGPV4hET3M+dy8DOqcPMC6hTskZ+o8GpSZvSZKZL0Aahq6sPXFvBzslbzkZpk8DNWZvA+6nD2AvUO7SkqDvQiXMLyi8lg9k0WCvRSWj7zqsVs92w1KvXAVCr3+GAg9D+OEPeDHd7zwTXm99K+iPAsRj73wBOg70IaJvPJIkb0AZ6Y7n5uiPeFdpT28qas8Qis+PbSNmry2J9u8D9qHvcCY5zokepC9JoNpPSqlh72Mefe8qKkOPQpYJD2En808JYmKPdpdhr0ANba6InU2PcAYl7rBx5w9UEvZu1e+ij1LJ2y9fCyhPE4aTL0NL6g9Bgo8vXuEY70w79O7qBsEvQqZg71ghUy94ImbvJ7XZ72ALOU8AJrSusDXGbxGT+S86AM5vYCaaTwW1Ju9gY2hPXAesjtuNWa9tjiwvKJnWT3QGYy8p2GlPYTThzyG/Wu9vGqmvVOYB714ciS9i2iFvcCSiL05RqI9D9mNPYI8HT3ROpg9QPzJO7KLej240gu9ec2WPRt/Eb0Db6M91xOdvaI5Zj0KJz49sHOXPMAqdjxkNKI8PqekvZpDUz3wcAE9FFfGPFO/A72wFdU7N5aQvXQkqb1j3Jk9ILVOvcAllr1HMoI9IyBTvSDscr1mAfC8gCS7O5BDlb1M7cK8Wj9SPcLXOz2GS1Q94ocsPWCUEDymAeG8sCb7u7T/nb3rWQO9cxYDvVx/wTxwXNC740eKvaOZnD2sXMc8aIgHPEPfEb2QN767u5x1vZD0xzz2Mji9I/gIvb5hkr11RZs9MiiGvchvqL0Mvom9WAEbvKZ767wQvZu8T/2KPaDMKL0pj6g9sLGrPFJToL0ANu+80C/9O8RU9zxUfaO8iJMyvdHBmj2aHTg90lE6PcCtsjzB3Yw9RaaZPYZ7VL2oJwK9FQulPSAlLrz0FYC9uGUivVa/ED0KCgc9qDw0PI0LmD1sUv68VDTqPNg1TDzw+No7wN+cPBxj4DxAtKG7OgksPbC7c72SO1Q97lMzvRDbmrvAupm7CmJ2PWAYcL09bZs9QN3YvGjTLL0I3mG8cIW3u2AUlbz4MWi9MsZkPSY4L70SMp+9TPGWvZ8ahb0w8Ia8VPbCPJfJhb2IW1i95pXDvDxFprzQ9q08q/2DvYPzQ72WFPO8HA/UPJBno7v6km498puHvRLrSD3m5cO8XO+jvAr/PT2cso88BDGovf50TD0A9JE72NscPSdGgr1i1Sw9/B26vACFwLxoZDg8mGQjveC8QLxLFZ+9qM9bPH9ngL3mfVs9tCDaPA7ULT3c47m8HFucPACFJL2qTSk9eHJ1PODRaDsuyg09cErovOuzpD2E9KO96/WhPSg/iL3cMNw8S3l9vb4DVb3gVXY8ZEKevU+PqT2AxSG8ysptPSDEiL3ycTo9iq5qPfBU2rsiRlw9AJxXvQorbT35m6I9gF5wvGgKTbxg5QQ9YwMmvZjVADwg/zq7Qj8tPbAs0Luoo5q9Nl/BvNTOpby8kd08KzWbvSD4YjxQQpo8YG9IO7rKo71Md+A8SLIBPQIrej2jW0W9GF5GvKDeYTu4GiO8wvk8PfPMjD1gooM8syw6vW5cKD1obU29YpicvXXEoz2WklK9k/dmveVYgz2Os329jsBAPYPcZb06xCs98OK5u8A5Bz2+JwW9ABjQOZhPPjx0Dqk8vv1+PevgNL2HxIC9FWamPWckkT0gEQ88EzaLvUaYYT3t5oE9u0FGvfbxm71my2G96jydvdv/kj229Fg9BnOCvY5iIL0DnVO9Qa2nPfgcc7z4IUy9YlkJPca8H72AO6I7iGg2vaDqKruQAkC9ymQ6PZrjDT0iNaq9hvBcPSuHmj3gEl68LpspPfYXHr0Wf3e9uCAwvMAdo70YsEK8HMfhvN7+fb3NfpY9MDcVvZ6lpb2zUZO94S+JPf2gmj3cZuu84dSMPd5BWT2Gszo9sLqkvGZBYT3Atpu6sHiKu7IydT3bt4i9C1EnvVy6wbzg4iO8sJTdO9Khez3GtlO92EBAPHxeoLxW1WY9oKcSvEy4qby27BQ9wFXcOpkXlD2g8V47rJHmPP3Unz34uD28gKISPPwSlL0AO9s5jsOEvcardL1YYTu9spFYPQ65d70AZFQ64CZ4POwSvzz4bmi8DgkjvZADsTwo2y68ADUgvVdqib38WZ08uFU7POzc17w57pI9X9SdvYCgiru4JRi8kDV4vSgARby+Dh49YBRduxi/ET0tDo49weucPf8Eqj1gr2S8gJuTPFN1Ob1/iZc9piFkvbteeL2Qlt48VAOjPGlvhj0AaEG6EGnIvEDtxTtwvqy71yKVPchfWr1TmYq9CCB9vNponb1Ay4O80EO+vKBTOLyYrHu82k8+PdZ6fD1KNX49YrZQPRoWEz302pA8AIWnPKRxszxNOpw98tNZPT5RaT2cSPq8Hks2vQaocD3Af8I7DHWdPBsrLb1Ork09EKbevHjXIbygB5G9Fth1vRtzFb15SqI9qnkZPSoLLD1fSKA9EB6nO2BE1DyT1Hm9LtpRvZpJYz0juG69hvP+vFixJT3cRcM82CQNvcz29LySSIm99xSVPeSS5jx0jIe9agyjvQjJOr1oTQm8/wCDPaCjBbzwG+U8AGDvOFBDiDwgj0w7HBjbPDKoqr3oBES9W6I6vZikMr3TqyC9pgIwPagCDLxkLJ28H8+pPVDrab17iYI9I2+DvdjdHz0DKz+99ZOZPel7kz0ggV69wODtu6B6Kj3JSIU9s3ifvQBTWjyQn5s7wI2JvZZlFz0K8lg9+vlMPU5rM70AVoa7MpxVPduDiz1KwR89DjUJvaATQTugUkU7sl+TvTAkDj0E9oS9WE84vGZwsbxDXBq9wuA4PeBzcDyfxp09vomMvZPyRL2AuAc8G+6evdaySr20x5w8WMYnveNQnr1GYba89P2kvbxJiDznqpk9ut1sPRAxiTz8fPa8rOyzvJsGlz0OWX69oFqevTr8SD3QRMA87TOGPfCaqjuONWu9C96LvYAUi7uOqDE9qVGRPfWLmT3kgpm8/CmZvGhgTb2A5je94JBNPHqEcD0AbYU7ENblOytYor3rmj69QIbOO54dFD0AgLs3EE9FvYj6HzyczIC8g+CQvXpQND2rl6U9U1AbvYL2Sz000pe8CMpRPAqLZD2DWIO9XIGOvKjUS7x8HYs8iDcuPGhmH73YSRq83ls5PR+wmb0Q4uQ7TaefPUQZojyPV4O9IAyWPG0llT2ezyy9b/eGPXqhXT3Co1Q9E26jPYyejTx0yZm8qDpFvABPiDzI0ii8EF2fvThNar362wo9BxGVPfw+67x+lk09UA8zvZXXhj0hx4s9Sw8jvWDeNDyUDpK98scOPTDlxTyGl3494E67vEmfgz1cXYO8i5GSPbx31ryg0wS8YxQpvZyek73Aag48y4savTY/Rr2E0NA8EK1KvUsghz3AqaG7cRGKPTadIz2jbIM9AP2uPNDgrTxreKG9aiJGPTA2ursjKCW9FkNkPYDxrbyM6aS9z1ufPcDL5TqGE0i90ICYO/RF6Txo+Bq9mc2nPXJVgL1SjT49w3wkvVDZZr3IpTq9kBG5PAibc70PCY+9bkZAvRPthj1QcKS9iv4ePeAaq7y2dmi96AATPJ0ijD0aM4S9VQiEPQK1Yj3Dxgy9sPCRvImMiT3gj3o7orujvQDAsTaAoik7QNc3PDO4j73AaUO87utevcYEjb0orY+96soNPXjDVTxAyC+9y7wrvQxs0jyQa4C73MDBPCpMSz1Cip69N3epvRJTRj2A2OE7EhJoPbzyoLwheoE9gJr6OwBtmDlj0Ua9hBSDPHouEz1ANNA7QNuFOi5WZz28rvk8QfehPYq6TT24VBw8BkSAvUjRPTzApug8paCWPaW6lT12NFe9gMEEu7L6YD2Algu6qu2WvS4wUr1FzI89GmUcPax2jbwKRo290gyBvcCB0rxQPJK73tR5vVwqrTx4XVU8PqEGvftGl70AAEQ2IvYOPQaBcD0GKEM97mFFvfNlAb3CNpS9g3SBPVg4SLzcFZk8001IvYD/MbpC6CI9emJXPYprdT0YeyM8DgAVPTfWob3YO369fuAqPXj+cr30Jqk80/cYvfY1bL3G+kM9bDb2PGUBkz3AINS6FJXtPDYURL2ea4y9K4ifPQAA0rlbXTe9oFP9vIDuGTxVMpI92DiXvVTi7jzQxLC8MDUUvd6nEj2AZGs7yDgYPRt1Yb0AmWe8XKnqPCKFGz0AFUo8hhv8vOouRj1YrTq8QLgKvcAFsTpYS6S9ueOnPZz9nryL20y9Rp4wvS74RT2qR2M9rweoPQAgUDvaGZa9SrdRPZIGPz0WzuC8mLVQvDBAgDxre5C96BUgPJSRgzxeb5O9gEH4O7CQGj0wh0u9Z8OSPaotND3RTpo9LqZlPSA6x7x+BQs9gMqTPNOUJ71i3Fo9Qo14PbtoNr33BIG9sLqkO2wVrryEEZY8JHScvHJdWz0e0289GFlbvCtcdb08mZS8ciGYveKzpr0qwCo9xn5RvWhjh71Id048buhDPcgjQb1yYxE9sMOgvLAoUL0NHJs9CBBUvcZOj73Eqt487JG9PFJrLz0OGku9wIaAPCCuBLsNiYA9aMKPvfBbmr2WM7i8CGgcPbAWmruQ1AK9xhAmvbbJaz31SZg9kGn8PGCrG7vrPoW9MEG1OxuRB73+tI+9yu6lvUgRLbxLPpu95rgWPcBJmjzwHva8AEEgPQIudj1Mrti8m0McvVZKZL06XgQ9+J13vbwT0zxsWo48HDOivMJqdj1uxCO9pvBTvegan71kMbQ8psosPZhOPrwmaCC92S2FPbrIfD1A7p67yGw6vBCV+bxgH/a88IUhvWN7kb0S/UY9cN6IPHvIjT3Q/Ru9NiHWvKkOjj2QCsi87NXHPHDS9bvw2+o8Wy6KvSBM4TzWlFk9bpd3vTc3qD0mvmi9KAAoPRL+fT3scYq97t2FvVCsk7ycp4y9aGNevMBCNrwLBTy9gBoMO/oZRD2KtjQ9jkZZvbheFLwy8no9QB35O4aGpL0A5CC9Yp0MPSQlnTywuBQ9eKENvBAhJb3iylE9OA0AvCjDabxA2w68AHFZOzyD87wPBqe9b/upvd8wjD2+cgO9Mi12PR6/IT2grgk9NnVyPZZCeD2biXi9atSMvWPBJr0AROM89gspPYv/Wb3u5TE9Eo2NvcQnrDxXIqA9+l08PScyoD2uagM9WxhDvZ5bF73AnPY7IZCTPUndiT0qaQo948mgPYAFFzxGL1K94QCVPYaoVD28lsq8jgkvPRsBoD1unC89YwdHvWDTGrxYYCi8mH1TvGo2Dj2whJq8Rj3kvF62L714JCy938aPPVlziT2r/EK9ou8oPViLYL3cmee8jHyqvej2WL1Y2EG9ygpUPT53eb2LfZg90oR2PWLnHD0IyBE95amGPUoPZD2+wA+96HAXvYs2G72g5708dTuZPaACfr3xx6Q97j1qveqjRD0g4iA9QN6Euyg/JrxAXNi64+aUPRITGz1GP1y9rVeGPda3B73acDo9pEygvcyO2zzGUn+9sKYbvTbshb3gSS+9wMCivHB/6DzoU0m9wA+GvICCWbrSXlQ9ljvDvJB8jTwgvoQ8do8uvTZ/PD3ICjC98O18vZYeDr1Ql927BdSCPTAPijtGHvi8CD4YPAAwnjdIYUi9sHbRu+bT97yNHKQ9/A6kvRuIkL3gBC29mNmWvZAHzby4TGU8/I/qPIa6u7xMibo8Ex8VvftqXL2MV5i9e3lUvXDhl7zQFfg82F84vSdVl71O4zS93ptzvawL3rym2T69CLk2PBg4qr3mnSm9mLJrPKYGXz1bXYA9kNbavCCy9zx898E8aHhvvIZWiL0AHa46AjmbvdaZRr1QFiu98OnpO4tNgD2A1+E7QOJhPI47Jb2ylqm9sNSrPB1Wjz0E2pM8o9RtvQZoPD0wgJa7IXalPWawHj0ACAs5oA8NOwbmgb2oexq8DR6APbuCgT1mIri8oP8IPFwG07zAB867iA4HvExulbzbpCS9MDWyPJhMBTy6agg9tSyBPWHdmz2AsgO9ABXtvLI0Qj1Sj3E9cOqLuwDP1bsgamc78buiPYhFQL1IdGa9xjVCPYAyEjxI9Ak9sCvmO56JcL3QGpG8gl81PfFsiT0Qm6C7nyeNveA9I7u+sVM9mhwZPfARQb07zFK9y9sCvaBwdb064Fk9mNNGvDCkcL1SMTI9QCCQuv6VPz2kCIo8gCxhvNyZvjzAuh48vVGkPQDsPTxgArg89lJpvUhvaL0euSy9it6Ovbzw6rzyzSw9wJEZvcGNmz1rn1q9CRaHPdjKPL3P1pu9fIfBvAA8M72EloO8WBQJvdFJmD0bZAm92J96vbzdhrwoJxQ8mmgTPegoFT2a6Dc9/FWMvSO/hz2gqnK9AKfXvFq+PD2JZoQ9QLFRPENTlr1Yki285u88PecGpj2w9ZM8oOwlO/bUX72X04W9YHeIPIjno73bcmm9G+gbvXLEcj0g9mm9qh+BvbojZz0cFIe8ULyWPFb4Or2w/cM7Mu9fPVL3cT3tT4w9sJSPPHjNDjwQrLS8k+ILveBm0TxdPJY9wGskPE8Zgb1OqYy98Eo7vbLNbj3YvjW8tJ6qvXEVlj1lNYU9WD01PAeaqD3C/Ew9z6CJvZ4kcb1cV9K8SgJvPfqMHD27bai9HCDCvGEHiT2AMn26/e6HPQD0hbvQe+I8e6qQPeX4pT3VO4Y9QnBGPQgjML1Huo49HTiNPex/vDyg6gY9RDOkPAD59jqOaGO9yLOevah3PjwwTYs7blp4vfBGpL2X8Jm9QptQPZZdVD38s529xzqAPWs1Br1cCKe9KyiqvTPfoD27+jm94wZpveC8wby75RC9UriTvZ1xjT3fApQ9AHw1vMuNoz0Yex696J9QPNvJNL0uxSy9CkZ7Pf0Ugj2ZgJU9gHAtvZIGYj04v6K9+KUyvOZnUr1D+AO9MopsPZw8pL3QlCK9MGTUu0o3GD2WeHS9Hiemve4YQL0rt169ACNTO97uQr1jIAW93VGkPcblBD1uKpm9tDGjvb4naD3rKUW9htlPvQ5Ng72VhoY92Id8vKFipT1gzUk8mWyFPQBYoLnb5wC98gU1PX9Mpz2AKpQ794+fPap5Mz34nBY9+3mMvS7CAD2ANQO8zq6SvUD6hTxCfU49sE3eOyYiHL0gBHE7lUyDPcAPtjwAU2y92ppOPY2jnT2SOpO9qKUMPcKKNz1d1Jg9TtZXvRP5R72Gj+i8SMeZveR/szwgdeq8G9ZdvXDhy7ugHQU9WI2PvdrFED3oDGU83n4rPfCBkbsgfn07bgFdPYzp9rwoJKK9phLbvHa6VD2ARTW6RkBOvQDohbo2z1o9SEdCvPREpjw20Fw9Fr4fvbNvGr2jCZM9UHiyu1gjbTy16oU9hn8xvfofAD1gJQq9wPzAumgvnL3AyoK7g0I4vQCacroDvJW9fgUIvTD2TL18e/e8CEOWvXuLlb3oNQM99ibLvACYfDowg+C7AITkun4Gjr37ZKO91CKCvTRpqLyyFzQ9APE9O9RNsDxYZF08QwoHvYiVMDzC6kk9m1alvWpiPj2KGDM9o1OXPSKGeD0gTCu9s9eePQOrF71Q8AU90MqZPODiJDuGVik9+GlFvXrHMT2H25E9QHnQu6AMZjtIsUm8dnY6vZ4XBL1ZoKA90PLwvDLxbz1kbKm81ghNvaZ1Lz0x2YM92/4cvenlmz0sNpE8K2w3vQSwoLx9P6g9DfuNPRAo5rzwcfm88G/RvMpSbj31KJY9lq0RPRBDPb0rWYC99A/QPODAKzvXC5a9gy2jvXS+ujwIe1+8YqNyPUCVv7o4kFu9BcySPTrBWD3qKWw9CNE3vPqyDz32cBa99qlyvQyEvTyGtp69ciJdPfrEGj3OQzs90MGYu3T0kr1oxYG9oH9PPHR6qDyAwxg7SPgLvLg/Fr1IqxQ9gKNOOy8Qor0Was68wgxSPSHxkj26LEA9hKaXPPgkJ7zwCoY8EC/8vE4UXj3IVz88jcmUPbsOoz3a4EY9iFZyvIFlgD1paZg9K26SvWaXIT1rFJ49dgYhvYhZdrxyqGQ90jhiPWCcY73cToC92FV1vFDYHr2/M46943ScvTCykbswVyC9IolHPXrBhb2FH6Q9IOt6vIdEoT0ODBE9gBtavHAc9TsAs5u5LyOUveQCvjxmb4K9CoFTPWPTB70QCpO7P2KLPXijDjxxjJM9AADmuZIsFT1Q4pW9ZOWVPIBifr3Wfha9qDlevb4/JD3AM9Y75lQwvdB7Z70UlKe8EdKCPYqOPz1QLba7MJmru0CLHD1YOHW8NDL2PJ81jj0TG2O9APaYusYCQb3bKg29XnxsPV0NkT1sH4M8ptW2vMifBbz663w9WBJdPJjVKLyxKYg90NbZPMS3hTyxq4Q99GeqPErvLT1i/l89PNHKPFrHhr3wyNk7I/NxvbDBhjvouA09G9smvSYkGb1IESM9gBFrO7Kfcj3ydEs9kFfyu1PfSb1bPAG9UWiUPROlC70AUYc5ug1cPXizQjzIxCC9DrRcPaNKar06BnQ9KvdVPfBF4jv7cqg9ONg0vL5Bg71Y7o29vop/PXLGib27MHC95stNPfJ2MT3DyTO9M9KlPZxdgb3AqCu9qBUfvQg2Er0w1J+8gHdfumBSmL1il3I9Y62EvYKgBj0ASnG5sciRPaNBHr3A3qK9Kw6SvaL+lr0WKSy9ZhOKvbA54zxgSCe9gOr6PML6Jj28BbU8bhZuvcT86zwAtyq7Lmd7vduVGb0IBwY8sg92PSa3Rz2YcX88AJrSvFC5jL3WrWe99qI5vYRvqr0CFZy9U7kXvXBWnzucha08iPR5PISlrDzrHJ29n9SVPUD+zzpMQYk8jngBvfbt2rwh0Kg9lIqMvdRWlr2Avlm60JbSO3ClXr0cGKE8Nr8IPbD537zpnak9lLGDPB4LND3wmPK8EAa/u2vEU73AqlO8IilZPQBN8rrLFJ695MSnvbh6MTwKumI9B/icvYqffT2zxEm9gU+qPSAAsTy8BdY8so5pPfSjnb1A4ZW920+DPZpBQz3HMKW9wRqNPeuUab2YH2q9oMs1PKQKqjygehm9WFIQPKhlS7yAlx46amFBPUCb9boUn4W9LxKovRZWsrxgBnS7xocgPQBcjDtmBg09C7qIPcDp8Lwgtie7UJ7dvKXxmz1AXJ66sEeKOzl7lT2t1oQ9gtcJPTLKOT08CIu9WHcDPS7OOz1gGnC9e9uePf4cXz3UgY08oGAFvPcRlz3SAGg9MweIvRiTQrzQ1AE9HpoovRLAeD0bjqK9sUaQPbgZHLww5sy7rsdWvfCZkr0L/1m9pYuGPXurB71AX4U6eg4lPX5QGL0Taow9QZShPVx3xzyw+ZE8NOCuPJUbkz1q9kU9/AGGvBwIjL0wm9A8VMKQPBqEZD0Q6Ay9HPzKPBR31jzg2BW78PMbvbDH4rzouUy9ANmevOKcLD0AHcK8g54TvchyWb3WhBk9EAkpvZBOOr3WXdK8khdJPcawu7yIPFK9YEd4u67JKb0AgrM6HWOqPUP/Wb2ogBy8SL0cPXZVgL06m5G9eDM8PEz/mL0+fBA91vdJPR5UUT0k7qE8QVOdPQBkEz1LA1a97M3JvJhIlL0ek3g9SKoSvAhtEb1e3Ye9rCfkvKDXjDxDkV29EXCcPY57KD3oXWG9AK7tuqd+gj1Q8wM9tjmPvebrXj1Ab9q7mJVwPD68CD2QPri7dPajPBidn725rIM9w1SAvbzpwry7o329ELTYu+DLN7urLV292FcFvCAQYDvsHoo8QitVPY4bMz3UAqI8+C5/vVJzfz243S486OgRvbM/g73mDiK90BEKPZi4WjxqFWw9p2GmPRrBFD3OBDo9jCOKPPoQOz0m+IG9EMz0OwZjxLw8r5m9XMmbvDCzA70IfAs9Pl84PcBAOLy7oAu9phMBPdNKk70gbWG7iKh/PO6tZD0Azxm9GP8wPLt+Z70G2uS87gBqvdiUY7xrcpO9mn5gPQB5B7wzy5i9gHoRuxFhnj0Ib0G8gN6hu+zokr1hnak9TD6RvD6/B725sZY9ljMiPSD9CDyp95M9ZB7nPEBx2rwGf/G8ZDGXPHCZ0rvW/AI9KCRcPPZQMr3x1Yo9f4iDvbIaGz02RRw9gi4mPTkJpz2r1449yEl4vc8+jj2EivA8m4yMvSGMlz2lQp49HspnvYYGqL3aR6q9sG7tu45GiL3JNYQ9/otOvQPBqL2zxk+9Hm2lvQIdOj2w2KQ7rN65PASnvjyA6LE82stwPa04oj3j0R69C9BHvdAPg7v3HaU94MAhPMzA/LzyiDM9FucgvQATUzt4FxC8QhQ5PY5PKr28H9o8E+KZvbbxDD0QzuA8gKWevLM3Db2Aqdk89J6IvNL2j71cHsI84uBPPeFpoT0AlmA5kLsMPXzCljwdCo09evstPaCMEDysU6C8IBPmPAA0aDqAwv07mbqKPbqaNj2GzBQ9SM0kPMLAej3tG6Y9gL9oOoAB3DuABR26DvcNvdaJqL18VeY8gX2aPTSaxDxc/Lu8ReeAPQI9ez2OsTW9UgFwPbb0O70F1JQ9WUmVPQsdBr26zjM9OViKPa6eXj2baps9QDubvNAOu7tOMGg9wHbZOnMnVb2gP4O94B5aO+DffjvwOpI7gKUoOkAJtLvwFFm9Ct0HPbsAn73corm8E7B6vVrzcz3g/ty87kAmvZdCqb02SiW9bqsSvY8Dmz0Am5O8NRmGPUQ57zzsaLm8ogRBPekrmj2iki09kU6NPR5JXr3CRZW9zhlRPcg3djwkj4i85+ynvc2rhz1zlFG9ACpWunM5hb2bq5K99bifPZjjE73bnpM99DXVPLNbmT1yU2c9UFEBvbhmg71yf1U9i1EHvdNwJr1mTbC8+5wDvQh6E72G2ze9Su+OvRyUxbwwFfG8efKIPaL+ir01voA9gEmJOyJkMz1o9Gk8SG9+vfX+gj075Ju9Jgs7vWiebLwG6Se9go1CPbC3sTxlsIE9xr84PVwFq7wvIaA9oEUvu94JN71YSTw8IJBZvFw97TwY/lK9sLl3vSLTFj0GnKy8WnNKPVu0nz3fOYA9SvQwPSz1nbzQS4w8gKBzOxDX+TvS/Rc9QKnLulu9LL2gbve8oH9FPLpXXD1ysoe94BaRvGgcWzyUXoC9BQ2mPcFnjj2sKrw8UGbjPKhmgr1+UhE9GIxXPGIJcj1Wcdi84Db9vEBfSTzQJ728OqwiPbBIfL0N2Jw9RhtWPcwFzbzc5Je99pfEvFvWRb1wrd47p0yavUP2JL0WKj+9AnNPPcDvirrLG0+9l5KnvYzkwzye1kG9c8M6vaqIcj3A7t47gCAEvPYaOr1Us5K9gGU3PM42l73IJ0E8wOr5vFwfh73w0RY9CK4JPZmUnT0uYy89+jZBPVa0FT0q4nc9xtMmPaM5ar2YdGI8+s03Pb5lPj1Vop49cD63vDDHCL2/XpU91K7cPMxujb1CF1A9CNN+vKOqjr1A+l68wfiJPSlfmz2DWgS9Frg/vcB3SbzyZ4y9iHmTvbPNM71A88s6wkp1PUMQN70bCRO9/eaHPYigZr3E9Yq8IFcbu0DFlzokI4I8CFshvQD+Ij3jC1299k27vEWknj3EQZO80k86PQZfDj0ae3Y9PqUWvYDmT7yFv5Q96o+qvcB31DyokAA9PAm0vBIQaD3SumQ9y7eLvZALIz3UiJW8/MuCPBieNr1g9Tc8gJsDO5TNo7wQDYu7ETuLPXsHO70zmVm99nV/vaiCFz2UtZI8H0CfPb+rl70C2Zi9cLinveOkcb2lK5M9XX6qPXAV/rwmsjs9gFYLPDYWZb3JK5I9KAURPbB5o70ovBS84KUaParmQj1QYR+9MLudvTRgiDzI8Ue9VpIDPfLwID0k8Iq82H0YvLAIir1eSYi9igAWPdBeprs4rVe9kaeVPequmb3aolc9Op1YPR5Xfb2GH3e97hx9vcCZqLzgKye7YNq4vJVcpT3AQMm6RlrtvJh1R7x4xCU8JHigvGrlUD0Azh09v2ejvaYFmL36dzY9cBn4vOb/VT0G/ks9LF/fvLz2zrxz7ju9QBEIvD6TCr0+0oS9wjUhPVggZLxirCk9Ay8mvcnmjz0CMzY91iBPPU5zMT0Iex+85BOdvF5iGj2r2aI90I7lPAgfEr2A1DE8YxgjvQLxSz1AWqq9m/2fvdV/nD1cIby8KT2kPcMshD1+pKC9APovupw50LynUIi9HNfdvEA30br4exa9MOygPEA74bo6sXE99q1AvUChDb2SOIe94JoVPYQb3Tz6LUQ9pumIvRLmFD2zJGe9UoNBPRucLr0aulc9+OdMvZgwUDyQF+o8HCO1PNG/hD1TgXK9W2RGvRv5oj0QCvO8qA4JPW5Mdb2gShg8wJTVvIB4LTzYqVG9LsxCvUP0Ab3Q5ca8FrucvdAxpb1+1jG9q6EKvYNPBb0+bE29pBPuPAa7YL0+4Uq9gPZgOwBIVzuDRkq9apKKvcNwn72wBx89LspdPZLuTj0aAUg96NRevZ0EqD0mRv+8sE8RPXYNQb1gHWs7Y+5EvbBM/TuUdN08y4CpPUj3P71gKgK9AEdcO4DYFjqCN5+9a4+EvTN1Cb2AvFe6mqJBPb7YVb2wvgo9zB+XvVG/nj3LRou9xT2QPTD277vmZKG9Ww6KPdJ1l70A9kY78HDYvDhVW7yqNmU9mLF3vHtmfL02Xxu9UMyLO2CfijysP5y9PHStPCyV7TxAGE+84LSoPHjjiL2MKoo8GBABvfIFaj3IIR68sbWGPSSbhTxSukc9BFCTvHb5hb0KGgk941szvbYwRT3Ps5y93ISWvInxmT1rdFe9ikBFPRivP7xQkNe8ChhOPWtYH70JKZg9K6EDvbQlxzywKsC8AJAovcWWkT0AFlk7xoYJvdRfob14Gl+8QoxuPfjlfrzsbaq8b8WTvb7WY72gpia9bLy/vAOeNb2ecJC92x0PvdTLkL12ETW9oxiqvb7kUz0vYIy9KCMYvfF+jj02NDI9IGEEvY+koj3YrXq9NnyVvZoMTj1wo+m7o6N6vZa68bzoFTa94EIjPDAEoztq/mw9LCu5vE4pND3PQYy958aIPb/Mjj31hZc9rMmnvLDisTtNBao94Ah7Oz1kkD1DPmO9iKF+vTbsKD3A0ti8oHeDPFb1dj3QiMY8iLwGvVuRNL0YkX29vm50PUoxBz1yslY920iJPZM1cb0Aoxg7WBEBvIQeyDyIXqa9WPdCPAXplz2ItxO9lLGlvcjIjb0w4N87UwpOvVAD7DutDIA9PAC9vBVopj2shc08IjiBvRDQlL3x5pg9KO1kvAA+YLoee269AFpmPJXumz0acDk9Kps8PV4MHL2Kd2c9qP0YPEA+ZTyskom8646IvTwftbzg6uu8DhcyPfLcHj00QcE8c72lvZjvAL2eJAw9c6pLvYTz+DxA2dE7osgfPQAAOrqAPVk8gLZBOptIGL0Qa8w7chGgvT4Bg72TM4+9vBfkvFg0Fz2NTJw9y/+KvdACWr1Yl2689OmTPJZVRT3Iigo8ugRRPQYLPb2Gv089OG0+vZAthrxguRG9LqEbPYDAwjwPp4u9otpVPXr6ZD18sKS8ALggPUxsgL06NCA99jAmPUN1gT27rkq9e0ygvZqXBT32UWe9UyFrvXX5oz0MDJ69Egh1PdYaGb1+XTW9Zjs1PYDkdzvND4Q96VCGPRcugD1Gc+a8c/OFPS/npr2KKIq9HCSgPOYp07yQfCY9wqNrPcDvrjz+u3c9HA6rPMDe+byexjO9Pv8XPf3npD2ZfKA92/SGvQhxOr1MLpI87/WevcS8lL2ipk89KJMOPehUKb0qn1Q9Kj4+PSuRf70pv5c9JGiGvHyfyjzaYpG97Dv4vFDFE73gLQU7vyWGvYBFS7rYNiW8Lkc6PXBjML1w2747ldadPVFRnj04EzS8hL+EPIa8dr2a2Tc9IFrPPDyugzwsysw8ocaAPTPqiT0MhIi9ITSSPWCeO7tqkXE9YgWevVN5Fb2+Bz090G2MPKD8oDwKZS09Gko0PZS7+jyAlky78TOOPacmhr2mOsq84AjBvJTGjL1Bx4Y9g70KvUDzzDwqqTI9wNEevQ7pML2Ml5E8C0qovUxRqrzb7Ta9wHmnvAFpgz3E+pS8QK7LO7cykD1ALHa8o/svvQaulL32Ycu87hsLPVDrqL0RrZ09fb+HPWDlUrwQe+K8IEeBPPjvILzA1vC8mYSAPZAolLs+ZGG9SEGkvbjdQLwQdr87rq8lPevKfr0SpBo9EA+fPPBPtjzVeYE9kd2iPaHKpj0coq28xoowvTJJjb2aoHQ9wDeuO4ilUb0bcVu9mOwePTivG7x+NzU9aPFzPKCC3DzaEzY9gBC4vFRA2Tyk8cQ8CHNavNO9eb3elmW9AIJ4OUDihb2CYFk9W/tTvcC71LoSoJu9vFDtPKadCL0IJYG9Ol2MvWwr27ztAp89xBqMvbx2xrw4QB+9u9NQvZiRZb3K5AY9AAF6vECU2DsobaK9IFBKO7gFJr04HCQ8YXyAPRrrKj3QMxO9wFNzPNDioLtPNJ09KuRdPTq1QD0oDHE8+1gavXaiXT1CkCQ9eNkTPF4aR73M8ci8dYCVPYSUkTyi0S49H36PPXhJeL2Awea8gJSxPGxXxTxcI4w8+491vcM+lb1sxb28fMHjvGwkgL24xFO9tHbUPDlioD32jv28w/KGvRCfqjvXw4s99JnNPNjkB7zAFKy7IiVLPQYgHz1auU09OMyUvcOne71ww+w7TgVxPYtcDr2wVIY8Y9YKvdiFDz12PFM9xtIsvRDR8LwAnnW7DJvVPKCTPTtSVXg9WAQkvCR1lryp5Jw9ULG3vPY0ID24wqC9jU+hPYYlBD04BZK9qFkfPHDd+rxsa588UqxmPbTVsTyjKQq9eB5FvF3Xhz3AqYO8L8CPPXCZ7Lzjzy+9WC4AvJBUnTuFAqM9kEPMvJUHoj0geOk83txavYh2OL2zcag9q1aFPaaBCL0AJ4u9OIMMvG79ib3wwoO8OomovYxaoDwlsZQ9MIqYvOnWjz26mG899uhZvd4iQb3Gxv68gql/PfyQib0Y1A294GYWO24mEz08zNw8xAffPHtPGb3Ak5a8yIk3vLxVmDzCAkE9bp9BvYZBBz321GW9QBTFOw71Bb1IO1E8MH+sO2CZ1Lyw3pk8x2qcvfRT2Tyg4+s8APU9vcuxAL1wO4E7AOzMOtxO0bzqSQ89gCTBPGB3TbzQsmm9/kY5PQAqtboc2NU8VqxfvUwq2Dw87ZS9aCFxPE6RKT2Nx4E922aEvX1RhT0ijBg99qCMvZooPD3QMyc9GEoivQD6ezneTm89Xs2gvcT4qb3MZfS8MIz8uzZ3Aj1Azp+9GysMvTrMjr2g2Ui8IJASu8RvnLwACg66QE/DOwCOT7mATjG7UIX5OySsjr3g2fi880NJvdgTVLyUhZRSlEsAKEsgSxBLA0sDdJQoS5BLCUsDSwF0lIloAilSlHSUUpSMCmNvbnYyLmJpYXOUaAcoaApCfQEAAIACigps/JxG+SBqqFAZLoACTekDLoACfXEAKFgQAAAAcHJvdG9jb2xfdmVyc2lvbnEBTekDWA0AAABsaXR0bGVfZW5kaWFucQKIWAoAAAB0eXBlX3NpemVzcQN9cQQoWAUAAABzaG9ydHEFSwJYAwAAAGludHEGSwRYBAAAAGxvbmdxB0sEdXUugAIoWAcAAABzdG9yYWdlcQBjdG9yY2gKRmxvYXRTdG9yYWdlCnEBWA8AAAAxNDA1NjcwMTAzOTcyMzJxAlgDAAAAY3B1cQNLIE50cQRRLoACXXEAWA8AAAAxNDA1NjcwMTAzOTcyMzJxAWEuIAAAAAAAAAB87/s8gK2jOwBw6jlAxdm8C+wUvZ9mjz1iVWI9qJRlPJOvIr2Ao2Q7uOoBPQBX87vvkI09UBhxvZhMFD2oWxO89u0gPdfcp733AYA9FBKYvBN8NL1wnCy9dEjePIByZ7qJg5s9Jl2+vHx/7TyY0jy8OOIMPTMMSr2A+Ua7SOd7PJSFlFKUSwBLIIWUSwGFlIloAilSlHSUUpSMCmJuMi53ZWlnaHSUaAcoaApCfQEAAIACigps/JxG+SBqqFAZLoACTekDLoACfXEAKFgQAAAAcHJvdG9jb2xfdmVyc2lvbnEBTekDWA0AAABsaXR0bGVfZW5kaWFucQKIWAoAAAB0eXBlX3NpemVzcQN9cQQoWAUAAABzaG9ydHEFSwJYAwAAAGludHEGSwRYBAAAAGxvbmdxB0sEdXUugAIoWAcAAABzdG9yYWdlcQBjdG9yY2gKRmxvYXRTdG9yYWdlCnEBWA8AAAAxNDA1NjcwMTAzOTk2NjRxAlgDAAAAY3B1cQNLIE50cQRRLoACXXEAWA8AAAAxNDA1NjcwMTAzOTk2NjRxAWEuIAAAAAAAAAAAAIA/AACAPwAAgD8AAIA/AACAPwAAgD8AAIA/AACAPwAAgD8AAIA/AACAPwAAgD8AAIA/AACAPwAAgD8AAIA/AACAPwAAgD8AAIA/AACAPwAAgD8AAIA/AACAPwAAgD8AAIA/AACAPwAAgD8AAIA/AACAPwAAgD8AAIA/AACAP5SFlFKUSwBLIIWUSwGFlIloAilSlHSUUpSMCGJuMi5iaWFzlGgHKGgKQn0BAACAAooKbPycRvkgaqhQGS6AAk3pAy6AAn1xAChYEAAAAHByb3RvY29sX3ZlcnNpb25xAU3pA1gNAAAAbGl0dGxlX2VuZGlhbnECiFgKAAAAdHlwZV9zaXplc3EDfXEEKFgFAAAAc2hvcnRxBUsCWAMAAABpbnRxBksEWAQAAABsb25ncQdLBHV1LoACKFgHAAAAc3RvcmFnZXEAY3RvcmNoCkZsb2F0U3RvcmFnZQpxAVgPAAAAMTQwNTY3MDEwNDAwOTQ0cQJYAwAAAGNwdXEDSyBOdHEEUS6AAl1xAFgPAAAAMTQwNTY3MDEwNDAwOTQ0cQFhLiAAAAAAAAAAAAAAAAAAAAAAAAAAAAAAAAAAAAAAAAAAAAAAAAAAAAAAAAAAAAAAAAAAAAAAAAAAAAAAAAAAAAAAAAAAAAAAAAAAAAAAAAAAAAAAAAAAAAAAAAAAAAAAAAAAAAAAAAAAAAAAAAAAAAAAAAAAAAAAAAAAAAAAAAAAAAAAAAAAAACUhZRSlEsASyCFlEsBhZSJaAIpUpR0lFKUjBBibjIucnVubmluZ19tZWFulGgHKGgKQn0BAACAAooKbPycRvkgaqhQGS6AAk3pAy6AAn1xAChYEAAAAHByb3RvY29sX3ZlcnNpb25xAU3pA1gNAAAAbGl0dGxlX2VuZGlhbnECiFgKAAAAdHlwZV9zaXplc3EDfXEEKFgFAAAAc2hvcnRxBUsCWAMAAABpbnRxBksEWAQAAABsb25ncQdLBHV1LoACKFgHAAAAc3RvcmFnZXEAY3RvcmNoCkZsb2F0U3RvcmFnZQpxAVgPAAAAMTQwNTY3MDEwNDAyMjI0cQJYAwAAAGNwdXEDSyBOdHEEUS6AAl1xAFgPAAAAMTQwNTY3MDEwNDAyMjI0cQFhLiAAAAAAAAAA7AwCvo/0eL5SQjm9WDuIPfZzH754DSa+autcvi6sGz7+ilq++JHIvnnXTD0wM8A8MGXNPKxTkb5we9i92lv9vXU6Cj7/SZ++LSpvPYi0Ub79Ay++6C2KPDU/gT4QiXu+h0yBPRVBTj5pH/u8sGoVvheb0r4fxh28fWu8vMgAgb2UhZRSlEsASyCFlEsBhZSJaAIpUpR0lFKUjA9ibjIucnVubmluZ192YXKUaAcoaApCfQEAAIACigps/JxG+SBqqFAZLoACTekDLoACfXEAKFgQAAAAcHJvdG9jb2xfdmVyc2lvbnEBTekDWA0AAABsaXR0bGVfZW5kaWFucQKIWAoAAAB0eXBlX3NpemVzcQN9cQQoWAUAAABzaG9ydHEFSwJYAwAAAGludHEGSwRYBAAAAGxvbmdxB0sEdXUugAIoWAcAAABzdG9yYWdlcQBjdG9yY2gKRmxvYXRTdG9yYWdlCnEBWA8AAAAxNDA1NjcwMTA0MDI1MTJxAlgDAAAAY3B1cQNLIE50cQRRLoACXXEAWA8AAAAxNDA1NjcwMTA0MDI1MTJxAWEuIAAAAAAAAAB+SqM9AjzfPcXrQD2dgHo+swiZPdGy6T3lNQQ+ffwSPmER0j0kmYQ9ttmYPYbK0T3S3ao9qmwWPpPK5D2XZVU9oRmJPbi0tj1kMIQ9fpNOPd2E0j1zyy89lHHLPRyTWz7P3qg9smz4PWWihz2tSqk9iRIvPp9Cjz1GkAM+ffaCPZSFlFKUSwBLIIWUSwGFlIloAilSlHSUUpSMF2JuMi5udW1fYmF0Y2hlc190cmFja2VklGgHKGgKQgQBAACAAooKbPycRvkgaqhQGS6AAk3pAy6AAn1xAChYEAAAAHByb3RvY29sX3ZlcnNpb25xAU3pA1gNAAAAbGl0dGxlX2VuZGlhbnECiFgKAAAAdHlwZV9zaXplc3EDfXEEKFgFAAAAc2hvcnRxBUsCWAMAAABpbnRxBksEWAQAAABsb25ncQdLBHV1LoACKFgHAAAAc3RvcmFnZXEAY3RvcmNoCkxvbmdTdG9yYWdlCnEBWA8AAAAxNDA1NjcwMTA0MDMyMzJxAlgDAAAAY3B1cQNLAU50cQRRLoACXXEAWA8AAAAxNDA1NjcwMTA0MDMyMzJxAWEuAQAAAAAAAAA2PAYAAAAAAJSFlFKUSwApKYloAilSlHSUUpSMCWZjLndlaWdodJRoByhoCkL+YAAAgAKKCmz8nEb5IGqoUBkugAJN6QMugAJ9cQAoWBAAAABwcm90b2NvbF92ZXJzaW9ucQFN6QNYDQAAAGxpdHRsZV9lbmRpYW5xAohYCgAAAHR5cGVfc2l6ZXNxA31xBChYBQAAAHNob3J0cQVLAlgDAAAAaW50cQZLBFgEAAAAbG9uZ3EHSwR1dS6AAihYBwAAAHN0b3JhZ2VxAGN0b3JjaApGbG9hdFN0b3JhZ2UKcQFYDwAAADE0MDU2NzAxMDQwMzg3MnECWAMAAABjcHVxA00AGE50cQRRLoACXXEAWA8AAAAxNDA1NjcwMTA0MDM4NzJxAWEuABgAAAAAAAAwcVw8XKd1PSzNbT2guQm7kIfouyCBC7y04iQ9unzkvHjpIzwwplw9fsUmPcbFGD24fWk9UJQ7PCllCb3AmL26/HZBvMLzhz2K9Pu8AHlevFCKaD3QuoK7ylSQvVACZT0uHFO9jCR7PUCS57w8i149HBGLPNx1XD1M1EG9EOyAPVwDi72cXY09oRIMvbhBDzxJOZK9PF21PFTsej1wLfs7c12RvXAzkb02chk9OglhvahQ2TykKm09juHTvFDoBDy2q4o9QoakvMhVTz2qODQ9yJpuveodSL3EeoW8gD1+uuz0iD0w3008QOmeO8gLV73K44g9sCHovFStKz1A28G7SVJEvdiFbD2Ihjq9CHWFPPCBbz0S7d683F0JPUTlpDwMtLU8NJZyvYRyzDxQYIE9wKprPRhAgz0sek09+PM+PaY4wLwuJEI9vIt7vXQ19jxAR6i7LGVhPfDNsjykLCC9rpujvPRCcb0I5GU9AFAWPHCVnLuQrRQ8QKvGumayTj3AaL48cf8wvTCrb7xMtnU91HuNvXdCLb2Q4ve7AOt2O4CaX7vWoww9uqiEPYI8T73gnSW7ANBXu3RJZT2m9oU97smDPUAQyTxYZPg8h+ohvSiURj2oNXY9FIMLvaNfIL2ARm67dN+OPc3oKb3wF5E8YjAZPbgNKTwIDTe9BK9UvHD7vLsW/ka9QBrNOuBZObsI86Y8TLVjvc7QtbxAaZE6tHpIPXgI8jxUvz28eBa6vLCCXD0mezc9gAziOm5Iubyg7yY81KUDvaBiELxY8lU8goiZvAA2hjygdku7QN0UvTI9iT0Ot0i9GORBPZweIT3IK088oL4juxrrHD3Uc6Y8wjGEPV4pHb2gt4o88K0YvBAg3TxWH1S9aOgHvVSiQL14FaY80EIoPQDMBbsEe2i9qe8GvYjD67ywY7Y7DvQ/PWAWEbuYS1Q8dB6DPYBobT3UMGW8AOj/uie9bL03jju9CmA/vZjmGDyfYoG9DbeCvfDMLz0/fEm98gOSPSq3bb2+f5+8YKLtu8CQRDuuZGG9drBWPVhszzzgNtU8AI+nudodobxMtWs92kpUPQZfKr065gu9rCZTPQkwIr3kRaa89qDvvJb8bb3E72M9jq9HvaiZSb249g887AxGvCC8FrtcR7a8sHdWPNC4Nr1Q7y+8VLLnPBx02jwgEoA7WPNXveB8SL1oIwc8y0uAveS8zzywGHs8RPMNPVBVkD1GJVe9DGx8vVwddLzmwmK9RnMQPczyfD2sqUW98JC4vMW/Mb0oyE08aseLvURnwTyAzJ+6eIg/PZhSyLwG+zK9+AVePQ5blLxAYfu7SCSAvKqiAz24o1q9QvwPvZj59DwAyHk4cN7HPIjNZTyQ6Z47AA5nPCxlCb2qciw9AtV8vdzgjz2AWVG77JBqPTHsfr1ojR28+KcbPEQMb73WIJE9TRhHvUzKpzzgQzg81gCGvGa4kD19WhS9APMfO60Ufr3s2SA9fIYGvdj2EjwjWVW9PE76PIizCT3IRZY8DrJcvfy3kj3mSZK8QNMEPFwXdD1Umeg8RDZXPYCZIDwQGTk8NgnYvAAIk7igrmC9mDxzPR6vDL2ETsc8BHOpvEbIEb3iCYQ93O0EPTQo1Tz4lBq8/oYbPYAbQzoW7Is94Ok5OyRJsDzgysY75psEvYgZIzzaDhC9EiZDvZoASD1gZSu9Bo5BPb2BRr1+AM+8YJV4PCkLDr0AKx286C88PHZsjj2oyDQ9QOXUOnhBYj3kW049jp6FPUQ7br1IfJI8JyiSvVw7tzyQ7u684PMdvBxT0rzgq9c8HIDhPBW+Cr1XlC69eqGXvD5SXb2UwWa90ijWvABrGD0Mg12817SBvbgz4zwaWgq9BIYyPUDTezv0jAA9/JcLPUiChTxK9lm9ACurOU9MkL1EF3q98Kr1u+BrHD1bCE69usCOPeLaEL0D0wq9uAnHvKoYPz3wssG7Ti9hvdKMKj0aXji9fGh3PfuzPr0idTM9T0MlvVTwgDwUJr68VKdqPeMaT70YcMK8zqaNPXb/nbyAcQO6qFDvvPhbKz0Wj4m8XLYGvQB4gTzs92U9BNb8PAUWib3LHpO9fGEyPZKlSD00bX+9TCk5vXDWjD3kNFQ9YFGHvXsfIr34b2c9XvCGPc56S73MLns9g6AAvdjNXTzCGE29WK++vN5nbb1AxeC7mWsNvbSiyLxoIhC8mOaCPC4jSz1tjQO9psqSPfykfz3krEk9AOx6PN5fPb1MhMa8SOIovQK+MD2Q9jU84KFPO76ePL306CU9oPFuPbhVOT267qm8AC0QPViimLzso7c8wPAYu2YBBj1Yadk8kKE0vAZEjz1snmg9R+0rvSDz9Duwzxs9HGl3vcBIUrzwfCc98chSvaIqSz0kCoS8RBMwvcC9ij3e7TG91IAfvTfXi70Emhk9MquDPSj8Rj1AS5w7xh41vWQygT05zIu9wMVDu0qBr7xQSF494M7vOwwcNbywSjQ8tEMZvaQndbwIgIO9KFdnPHieYjwQemo8hks7PfgSbz2IRYU9KjwMvfxtLb0xi0S92BTuvOCVjzsAemq6mKQoPAQZjz0Qw447AFONu9Yip7y08wc9MCjHO8JGlbzFqAO9BtUUPfr8F731I0i9QDbhOgD1SLq0PT+9YAoMvEL/a738avI8Z4IavfxbFT3wbk09zqo5PXgBcT2Gb5A9GIUYPYqwir3KsoE9OaFUvdBufD1AdiU9tCNLva5ZgL1oWL88gLqMO92yZr3MkIs8RJfDPHyKCD2MMW49mMxsPHpC77yO+BO9IBRcPQB4D7xyfRQ9mbgWvRg9/TwsJPs8wFtNvECqYD3OLAk9mngiPWwCD7140hA9ikSAPYYsc72GHAu9rCjsPAwHN726q8q82FbWPAa7s7y4Vxk8QhhYPUJpgj1WbUw9W7UcvUhVMz2A2dU8KDGCPdzmgz0kJcM82HUCPYC4yzxr8ou94HArPBCfNL3qxt68eLKBPSircj3AK6S61GDcvAYKgT0qCRQ92t+IveCsLb328CS9DtYOvUcLTb3e0IC91w5jvTDSa73AmF49nv8OPWAORj1srKY8YC8OPPL1xbyaUYQ9ogZSPVLZAz2+Kdy8Jm4IPRgaWr3Yvxe9kIDwvEJM3bzICq08kAmDu4DTGjoc/x49IBcnPFMwI71OMIm8VhxavTz3vDxIMAk8KHirvMDDLj3sp409Gv2EPRDluTxCzsu8SkRsvZb2c71gHoM7Sn06PWe7Lr3oZQC8lNVPvbAaVjz6cZu87C71vBI8Mb1Kjia9TreEPTZ8i73AzFI9/PbQvJ6Mgb0ELEo9fB1aPcA55josDIg9nDT1POAIRzvIs2M8wKnxOpArZ7wAPQU8yi0FPRFhfL0QZNe70IzYvFQqyzxQhJM8Kl1FvfCYqTteNmK99B6LPF46Oj1Mhnq8HEeHPMH0Qb2Hn0e9VHxUPYJzGL385ow98FWYuzgrJ7xod0s9H15PvVxKcryimRI9LBaMPXyL3Dz4wUY9GJhKPLwnorzYtFw9nIAFvf3fkb3oN8A8OF+KPGCt67tLP3O9Y86QvXE0jr2gloE9wAcjvVOojL2It1M9+gprveA+obuemDc9ALaiu2rfOr1MKvY8WJ19vdCo6jwOm5S8J3h9vUDZIDuQVZY7Huz9vFD0Tzw404y9TLt7PfyNq7wQw2W9vLlhvV60MD1sjSS9UAOzO1y22LzgYXI8QLmEPcqrJr1AM2Q8QBg7uzjBu7wKfgS9yjAqvSwVS70KNSE9uMMtvLBOR71MFpo8iA7rPABTCbx4HMo8iLdlPTQ45rxflEC9p6A4vcRkNj010W29RGqQvGZgq7xv6k29qBeCPW8Qj73YDms9jLJ8PW6xsbxuNoe9v9paveRub7z4iII9mCaWvFKm07zc2L881gPwvEDjsztMdf688JhIPLjyYLwIP5E9upRDvXiGCj0ARXq9+Zt7veS+dD1MoVo9gkANPQgrkD0o+Fw9YBHVPIiBcjwMBYw9ACAePTJ5jj0IFAc8koRFPQzlez1AQFK7lhGsvID037rEulU90PpcPAzVeryAJV68AB+dOYZUN70GzuG8DGBaPVDqoDu3U2O9+LjZPCTF97z0znM9Gl1Bvbg77DwAYk48oO8SvITVRr3oVhO8AJeDPN4ZCz3VF4q9RI17PRiylLw/QIC9OP/lPNCRYzzrXXG9QPHkPGAkeTyA6YU9ciI+PXRsZj3ou5M8IG1dPaSiLj2o9RI9oMn/PHRCOz0okmc8g7FCvQJcKr247Ua8wn+bvFyVFz30XAY9YMT2u2j4Lzy409i86GCGPSBiWDs0Rlw9wG0UPcCkkjsYrTi9kKamOzgqyjwAfCS6APPhOjCstTtWXEE9ARFXvdTopjwQYZk8WAIEPMJyWb00eLu8kGqdOzhqmbwcYIG9UFtfPThYYz10vcO8COw2PYPfeL34KMi8sWiNvbTiQD1SETw9TGf/PLyaFD3EVmE9sEUSPJCQiDtsqmU9LBL/vGQIij2uV5K8QP6BOuP2jr2IPxG9odAWveCbBzsgBQi8ypwSPSC6p7vKvko9h7hxvcIKKj143sA8RqiKPahabD2wQY69iJlFPJx/UD0Uioq9spEEvSQlpzwM4Wc99rVFPTAC5Ttsth49cD69vNxHd73013u9LPFfPRoFwrxQ36S74nomPVKMSD0AZts6SRiNvUD2/juwVE49AN/UOVEHgL2s+/480HKDO01Dhb3ZUA29imuDPfMMkL2Av3Q9mLlSPGpc5rzhaD69To3kvFyFWb2AZlO6QAqiOwgmib1eiQK9VuqSvXx8Zr2+HmW9kIPMO4B/Rj3N+Yq9hDB7vCzHUby73QG90Fk3Pcy0WT00RWy8ABmlO5L+gz1MpZg84HSSvHgFfT2QXNE80LkFPGAna7wwPAk84H2SPZWhHb2QhpS7GpQ4vXGukr3g27O72FHMPFCWzjuqiyY9MpRrvRa1sbwktjc9AFCku95Oh72MjXo9EnY3PWS2Xj34KyU9XL9dPWwFaz08JlA9XSl0vUC6NDvQuIq7YK0Du0gELb2kK5I9C3oevf4dX738Smg9cvcJPZi6VzwwbOM7yHd8PXhm6DyI9Ti9jKZZPbsFgr2Cble9C+0rvTAo8TukUWE9QNqVOpQBwDxa9Ry97LIfvL5Wjz0q4Iw9lywwvZJqib1YEVs9xNVlPb7/Tz2KEo28XmBavbIPPb3Iyb48NHZXvJgCzzzKyZC9RBZEvMsQXr1Alq66YLJ+u8AjfrvgrCu7+SeGveBKqjtIAGy8yLp/PNqBkr3M/ZI9djySPchUqjxKzUO91r+GvY5vfb26HEK9+EgIvYBpBT1AWl69t7+JvYAwWztuKAa9gMVFvCyEbz1QG3k9wMhKO9jQuzz/ExO9IGmNPXptCD3iloO9XmJXvQCZM7xaHCY9ACVROnwPWT0XdJK9Zh8uPdG3Wr3YoH89bAuPPU6WgT0mW4C815mHvW5SRL26ZCu9op/2vHAQKr151HC9AEulux61Lj0WDnO9gOr2OiAuFzwWi8e84JgyvLPskb3pyCa9WDC+PMRpjD32a8e86jlGvRgHeT2cYmi8+PV0PIoG1bxI0168kEwbvP4xk7xrBVK9kZOSvTweZz02ENi8OFpkPYBurzycZd88PlxYPfA9mbtG52K99IeJPKBSpztSl5O88FTdu9wxpjxYpYK8QiMoPaR5mzzAncc6HCXfPCTqTD0Q3Xy9kCx8PPgyZrxCESQ9yNQOvCCUCr0ouBs8sNkcPHD3cz1Zp2y9NgG1vJgicjwEm068nEW4vGBSh7sUZ4495JD1PIAqTj3IznE9VjiSvYQ2Vb0owNO8AEMEO/yCfLzoevE8fIeLvWBAFTzIxwk8Wzw2vbgyoDxk0yS88+WPvTD3i71dQQS9EJxMPaP2cr3GAkc9ySd/vTLkh70wVgw81iANPf6LNz1sBK886NIrvZwSib1knki9uP+7PLAx9DycZB+9U6srvWgyFDxgQdm7Jv47PcCfkb30hx69GB4UPdjyL7yy7Xq98pGAPZwzurzwKxI8aucSPRBBnjyaABg9EGemu9DVjzv4n189ZAWSPeZ8AL0WbWm9eisrPZZDzry6sCE9oD6JPYA/AzsA4PA5eOUvPeQtgT2I1Hy8CIJGPDg6sDxyPy091Y9ivS5fZb1YAam85X81vbBKAzywO2u9OC6LvDCqiLvDSCG9gOY9PQQfbz1atY49/AqOvNAIr7uKSFg95ziAvXjVK7zqowE9Ri76vPYAeb1gGSo8yNEaPFCcKz1Ai3S7RAXcvExgU73QsKa7+GeKvOj/q7wAJw89wFYTPJyYbD1oxIk9iC8LPVDVE7wgbh09QJPVOkDMUj0gkrG85ogBPbzZMbxAQzi9ahaDvXy8wDxiSSs9jOsQPUR2NrxejOK8AHgVuvzrjD0A3Oo77KjwPMxhubzILq48jQ+PvWQovzxulDg9RFA7vF5jkz1IgMo8VJgyvbiqkL1w2KE8qDN0vRCylDx3wXm9RAW9PGglbj3YX1S8ygKDPaD7KjvGJB+9lk5WPU6t17zCEmq9IO0WO2D4V713NV+9wCyTuuCE3bwg2L+7Pj1VvdrdPT0UoiE9B9KNvUQUlDzs2WY9bpeHvapw87wdDiC9aEQavKDNILueKDI9hsYaPRISkz1JvVK9IAU8u9b9Pz0wvLu8pOO5PMBCmjssS3E9AGEVPIiiCr28S5C8gBmGPABNNDri/0u9r1oevT6jh73qQkW926sdveiDcL0jFZK9LkdMvYbrAL2YWzO9jHuqPDBH+jtYBDs8Vg2AveZoDj18Vfm82oIHPZ1PW73o/ZW8PMI+vACWKT2MlIg9vhsAPQzo0bwEB508nlJPPeS6hzyQp0k9XvFTvVwihTy1Noe9+N6JvVhIpzyfqIi9lJgmPQjtbzy4+aI8yAfxPA4dpLzitXu9sLCvPC6eZr0ShU69sKQ+vdCz+DsI+vk8c9Z+vahNMT1YD3M9zR0qvdGhkL366yE93+IJvTjhwTzCqxO9nE10PbjFHLw6nY09UGhZvNkzib0aAJG8wMPuPOQeSz1LP4S9gIiPPFSkIz2YZhA9NNP+PCjJ7TwgPwA7ZNSaPPBmij1r3V69Vr3mvNj5ITzer449QyRFvYiCWDwApYE8fCrkPHAziLsoEiC8StC6vNQKzLxUNYC9ZhIgPdgkvjxApLc8JrPqvAObM71163u9OOBgPQBC1blg4n08TJAcPfvNc738EVQ9R9Btvb/af71njI+9zGUgPSZGS72iMbS8vLkUPUCFDjwdQm29lAcOPVwgwbx2YoY9+GDAPLRKVD0UplI96suCvJACNj1UpWo9bi6NvChgeT1WLiY9oPlSPKyh+rxSuos9LiYPPRAV6jycQ4c8zGklPbhMEL08CgW9wIRsuyDjNT2WxYo9nMufPEhHaT0wZrA8zMZGvTNRC71UUtA8+NYtPRg1fj1sXpg8SGp1PaA7NjyKMIg9OsxHPXTTgLzkk5K8XJrFPFDw9jvW/D49UOuYO1XGdb0Ql/I7t2QcveCa2rv45848Mx+PvUqb4bzkHBw9TG5ZPdiwWTz/9JK9MF/1PJIVFz1Fflq9NsQ3vdCHYbzMokg9fLYxvJw6rDzej4c99bMFvZseOr2++gE9cpsxveAs7rtgkVQ93oGFPbDGAbyghvS78HZBPYMeNb0aKIw9fAqQPeytRr2ElJA8thQHvR6ehz2M/0i98HgaPcCn0zwAsJC34kI/vawNer1IJTq9FE7NPBUQiL0EkL08aH1NvUS8Eb2kIHA9MzCQvdQLUT3wFvw8YJyFOxReBz10Nnw9R/khvSCLt7w7Kxu9KARLPPAYVrxYBoc83n0RvaRm9rz80T28rDvPvBwDdD0A7iU7sMMIPP4fWr2DX5O9AE0YO9xrizzgOwQ7CoImPXA3w7tMoao8sPFMPGDyfTwUlhc9gEMFO3J9sLx1Bwi9yy4WvcAOFj1nXS+94GTeO/QKsLwOKmO90I1tPBzwZj301Wc9SnePvIhIHDwmuD+9aPh8PcjIZb2+EgW9GocavejGITxSe009Pgc2PXLaj71Yw+Y80puBPQy2UL0s24c9YVCMvWwvZT3AWVY9azaQvQSBKrywZws8cK3SPIw4Yj0obL88sspBPV7GZb0iCk29gOo8PKCrIL2o1oQ9Wqo/PWhRLb2cVI29gHE+PRDPGr3GmbK8oLDxO5xNgb1NUVq90Liju+BPYbsollo8Es6kvOQdXj3woeK7QCqROu656LzFYI698P8tveB79jxwH0k9fGQrvSi5wLyocoq9WBJ7PQB5GLyk+t489mtovQDivzs0y4m9OZ0FvaB9hDxy/7S8vzRjvbxUbT0IiYc8zFeEvCzBjz0UoHq9cGazu/+YLr1NSQe9LMr0vAB3gz0ArhU8tRxlvVI5jz16W4a96F3cvHAyXDzAEa88cOaGPefBDb20h3m9+IWcPJgkcDygBB27ACZ4OtLAgD3QKOg8L2hhvQm+X71UnHU9w+dYvauqCL1MFAi9hBYIPeX0Ir2ar0U95O6WPMy11DzAfdM8Ng+CvRAlzbuU+XY9lupovVHhFL1EmZC9qE+hPEPvAr0qD4Y9CECHvTZaLz3IRXa9wHOFPQACEjrge3c7gF8PvBwjfr2yTZ28CHtGPNAROD02aQi93Ic5vMyUab1AOt26iMhbvWe0hb1IoQ68++Qjvey0x7ykRM88iZQ2vcAvYD2Aqxa6GGhPvA+Uar145Vo99N69vDQKgj2mvKy8AEIyPWMkOL1QMcY8did2vXy5Cz15PJC97KDOvACAK7vHMAq9iyMlvaBLUjsMcZI8xUoEvVwKEL3wojc80Jw0vJK1Tb3+IUm9LqksvbySlzzl5Iy9SAgFPLwijj2gZnc7XBQzveazsrygFR47wCsDPQ4SVz0IeWM9IsI0Pcg3BjwtJ0a9XLjbPEaPED11ziO9FExbPaSXCT3Qzx299t0pPXxoWz3Q1lg9zLfsPKiIiT3CvLC86L9bPVbRkT2cOWI9Rn5tvUAnKbsY2es8WIcxvUprNT1ec4W9YAaOPZzCE72agJK99fpJvb8ZjL2skX+9EG5/PQhaXz0MewU9SIqhvECybj2UaCa8bIKMPc5vPT20vxU9YBSrO2jweDzRJiG9gCJKPH7oJL0oq5K9AJVrvNTlAD3lVIy9DKwVPSRRxzxwLeI7MA4UvWhGgDw6G4U9wDSCPbAjgLwEhPy8eLD8vEiuNb0os389BM9mvcifUz2UZxQ9PrFDPcgk+jw6SIo9Bum9vICd2zocqc68vEJPPYQxjj1+BzS9bLOHPBr8j70IL2c9oFZDPJBByzzqCQ29IOdVO0Ap7rwAl+68I1cmvThUXb3m1GK9bjVVvSyQTj1Ch229+e+JvXBdXrzCC728smcwPZg4hr3+i3a9KDQcPApSkD2aHpi8qG48PHRCj70s13q8DIktPWB3nrtc6ZC9XKaDvXB/wDsKyC+9nOmbvKZ8Tj1DVQ+9MiwwvchSjj1EWz89ALadPLglcD3IGuM8wPqAvfWyIb1GMEK9/uKFPax5Wj1WOhS9V/g8vW6OnryQDf+79gJjvUx1Yz3Y9j29yOULPISDHr1ENEe8qAN+PRItDT0CXXS9e/eAvfpmorym6lU9cJLuO3Dk1jskAzU9t4COvT4lKD2mBTY9ShALPbE7Cb0gNzi82Nd0PeuXKb0bNSG9CIkNvUgJzTzM/8K8WvLwvK4cjz1cl3U9wu4fvS4xCD3E0Em8GN73vLJbQz3gXBG9jJPePLiliDxaM8u8hoaavL3dkr0Y4wI8jGNWvWRCIT0cx8k80Lzhu54cBD3wchy8IFgfu+lGg73kakE9kIAVPPkjCL1eQtS8dhVUPSoYpLy8zcS84kWHPVVBhL18kS49jtwaPWZTZb0O2xG92GgUPLIsgD2iEIU9y9htveBcDr3+NJG9GEhcvQ7OCD2kIJA9gF4yOwztKrzKjoG8FFtGvLDFBLxWXgK9AGlTu4aVij3Dh5G94C/5u1zzdz055xu9qt2pvETY3DzEU7o8LPfGvGAOCjzgk648rMLlPNSjiT1e8om8q7VxvWa5Sb0eJ4A9wgOKPaKlgrz7GjC9SKCPvCCn37tm+Ia97O2CvPR0zrwmzjo9+ImuvIB8Xj3olEK9DPU4vajqsDzQyF081gOOvAzWfD1IXlw9gPSFPbrhgr3gt2i7muiPPeB0HjzMoxu9XrIWPaBlZj3BAHi92idrvSYIpbwGmQ494F5bPBYzML0aSjW9YEdpPAr+iL3wwsI8EmJEPcgSVD3YCnQ98F+zuwRS4zymEle9CG98vLBHkb2mzYs95EiEvHRdpTwEYbS8QFKvOpzEU73MHkC9OeuAvYSSPby4eSa8YPbSPKwfJz2Q1oA8lpHUvMNJOb1dvHW95BxwPYwIizx8gdw8cPcQvMx/c734Jje9XMCKPMbtBz1qXT+9QJX1O8Jp4byMi4m80+t0vbjMSzxQTHa8nuYovYRZWz2w6oK7dDpnPQAk7DhwgP48YzSSvYBUDbs8C9o8CMNVvJZGRj2APZK9YDQWPfCBqLvokEc9GsmLPVB/kz3+fEw9M7VAvUDMej1cV0g9xAW+vEB4zTo04So9WFIjPIKO3Lw8MRY9OM44PSR5abx0uMQ8SoVXPVXXFL1+VBa9I8BfveCrlTzAT6I7bMmRPIDYuDwqzkG9TdEavcCnurv8TXY9y45UvUIBBT0weJU8EJ4gPUhWNTyQ6Yu9nhkrvWa+LD1wll+8QKqbuwRedbz4lmY9zOuBPHUAE72uGU+9HhEuvUDe5jzNIgW9/XSRveBbW71wF3Q9gDANutKFhT2IRkG9GDZTPaL6Uj3Y+2C8vHIBPZ4Nab22fBQ9FwIivWooFD3aZDa9YAuYu1iij72kCGc9Uog9PfCbnzuQ+Is8itgdPbLvvbyMcrM8YmiKvLyUBL3gvkQ8WuYfvU5fLL2Wto49xGhbvSKqk73MxjO9dK89PfiKcD3EL4g9DCLlvAqMLL0aXii9KAIQPGwjeD1ULRQ9GMf3PNSJljzFTgW9IG7ZPMB8cz3Cbze96uZHPRYBz7xWh1A9gq1VvcijhT3+jtm8gI1cvRofUj1gAjC7QFbsO3Ijjr0wru47sKhSPevNAL1ERr88iBIwvXY1TL2Afos7Q7RyveDLCb2+1Hm9EMNyvEeXTb1stDO9KyKEvV8TQb08FCu8kLONPBAr+DtNQiq94E0dPTJQkD3Ebnq9qCcWPBg3jjzQBO480FzFOzXCWL2wV3O99LtcPcDGxrxf8Q69PShcvZDZYzyqu4Y9yLubPKAtLb0A0mY8gHeMvE47xbxgAyc7AA2PPEoBAj2m54A9uD9wvGwue7xYWGI9YMlRvKB9zzxsFI89hLlOPeDzpTuEolW8gGyiPBEPcr04SpU8gKlJPegknTzALIS9OikyPchrYbywqVw94DRLPRY+NT38iGQ99U2JvSznFj2GQS09qOQXvGjHUj1Cmo09xANwPYA6lrui3jc90At7PAAVvznAE628pgiDPRZNRj18cI489/8jvfhFVLx6HoO8QJH8umw0yTxQZ648OH5MPCDtLz2KGHO9EJx2PSdMk73Am+m721dwveCuITsEZNC8AB3pOsIrz7xQ7k09cFBpPa+uGL0eH3S9+DTfvHSlcj287zy8bE6cPNibJT0Mp1K8SDuQPEBqHDwQCly9OElrvUriHr0UsZQ8UCrHOyBuID1pX4+9xj0XPa7nHT1aW7q8HG2FPbZpzrxYNnu9DROPvXQLuzwwcg68QFaVu5oZ47ywb269iHxEPcP8kb1+/U09GCo1vVnPB7147o492N9yPbSnTbyoNW49YF+Wu5D6EryoQ9g8gPkoO9KGJb3QW1a83m8wPXzYXLwvBxm9mJEMPCaaLT1kWe08+gAOvSKsf72gZSW7KfyAvcNpg70KVnW9qHiLPYI8Tb3wMx89t0UKveyERT1o6y88DrSNPcbkLT0GyAu9LLdzvNimLT3MFDu8ZOONPdOLib32RI89rJILPZFwh73Aw4g9PgUjPeAdZj0aPoA9QHotPbjMIT0zHWK9qYtsvUj5VD3UQoc9bGF6PfAzj7uEPpu8XBw5vRzLp7zYK4Y8FOiFPWqfar0U1D09xzEUvTjX9rxHKSy9nBUbvZSeEr32LDE9itjivHRPWj2YFmK90GhdvRjhgDyNMx69QEdUOxzCMryDT2S9EEBavUjidL04VRI8cASdO3zm7Tysd328gGBtPeS1VL2Yehg8qNQoPJ47Qz0gWOQ7tDYmPX59PD3tQ4G9MI+AO0rzCD3gN747VLjfPHD7PzzslQI9wpkQPfJhhz0CRKC8SmnHvLmOkL0C60i9gLseOtRGfrxiLyU9yBGLvOo3N716dJE9QuHlvIDREz0kN+q8AMRgupAuwDt4eOm82EHQvINTab18aU496UEdvQDP1LsOGhM9zxBBvbyibT0SBeG84PhsPWsANb10Chk9FMeDPcyGdz1Q1Wa9HqwPPXDEDDxI/K081iFevUis5jwaJkQ95HLOPNAqArwG1JE9VB87vRLJ27xOHZA9s9ICvVLt17wg9TO78F6wOwrygD3ATTw8XNpjPShEQz0+Zde8OKrbvNCnkjw04We9WgCDPdgKbTzkZNc8MkSRPdbekb1kjG89svNuvQ7/RD1st868knuyvJCXFLwQBA69ZNZkvOC1wbw26zk9zFTjvAP4Q73YaDK9/MuGvfpAobyICCU8jPkvPYAIrTygjhY9WGXdPLwnbz14+T09jBc+vBBCI7wneTy9qhSkvCT+hb00nCM9UDDMO+j1mzyw/F89fFwrvIq5Zr2wHIa9uBhlPYB8P7vk5XE9QPPKu7jGsrwgk7Y80FXYPGBjOjsIeVo86sWOPeSrAj3gZVC7MfSGvbcAdb0gTYC9Q/J/vVJ2Z71wQtM7WumBvbLoOr3AuxO8c6YyvRC3mLvcFIs9tKrPPGXDLr3wepC8AJOkunKbjj1mhjc9JK+SPYIBAL0YEVc9OuSJvHwH3TzUw3o90GIEPVSQcT0Gb3y9mCyQvQ4+iD1c+ao8EJRKPez6gz2Wlrm8FGQjvQ7GN70W/DQ98mJWPaSKKT3iHee8+JcRPISNCj00X9E8y6MIvcA8Qj0c0hc9bNgEvQBERD03UCa9EjnLvKx90Dw6dRI97D6uPDAeBb1+MV296ozqvNQBiT1UvWs9q7cXveI3CL3Q/uI8MNjdOzz99DzEE2U9HiIxvVztRrwQEOg7c6UQvXuxFr1RX5K9sE7DPHL27bxKrUS9YI69POBSsTuc7NA8sBUHPcw2ez2j4T+9jp++vNz0Wb1ACaA62I1fvaRKbry6ODk9YIQhvTAmjb0k8YS8GIA7PaoyMz3Q4Pq7rJlivMx8Zj14wik9QB9XvehsMDzW8Ac9KIv4PGAdbj1c0ua8gNe8vGyHdr0Awq464MJFO7a1Jb1OXsa8a91PvVBn67zI6ig8GrWPvGgxuTwg5Ek7GMx4PK0fNr20f249sPSLu4hrGzyoskU9+K03POrmhz0w2uy7uKesvJwhk7wq8M68z2BnvX/dfr0EZHo9eA4oPLDRzTy4fCa8lmNSPVBsgTyd9Sq9JsNNPaCjMDvmkn29qnyovNoHgbygUkQ7BAtWvMAsmTsQuwo9GjO2vAzPzTzoB4o9AEgxPRnPcb0I5Fu98tYGPYD8nbrzzhG9+Gd3Pd4Hjz3WMok9G+wGvdjKjL0Y6/I84B2KPXzOgT2I5Yc9KK0NPAAxKrogoPK74K4bu2AG0LyZYHG9+jOEPaiJS73WfY68XewZvRo4vbwImFc9sO4UPLyj6bzPbXe9hia5vOghhTxk2mI9jCgTPU27dr1EgHm8pjSzvEBeg7rSpDu949qRvQ6+PL0oi/s8cKw0vRAOmDxGTAc9YK+wO7xewDx88LQ8vC4RvUwggrxYvOs8uv1LvdIPRb1rd5G92oxgvYrJSD3wgNc8SL9qPYiydT1YjvE8NO+/PEY0Iz20u8c8TxocvaChdTs77nG9KGnLPJym2TyA6lQ9DDVsPQLegD1UmNc8DI02vQ7Hgj14oRy8JM9fPWbnubxq1oM9dONWvJDNuLzICji8SMUoPbi6OT1ZSYi9GlM8vXQcXz1mJxg9uNFNPWI2iD3Ivz49cPSTO0jEeD1gbUY9suBWvTY7p7zehFI9FO2fPKil7jwAzF07OygVvTg4gb2Utoa9AuNWveCJdzvgdk894BvzPDANzjsGyh890A3QuxQfIz2FqAW95euCvayNGz3ABpK92huRPRRc9bww92+8ydaPvRDcpDxkqEW9NAKOvfJ7a70y0rO8+IQqPfYV0LzoOnc9QoB6vTDeqzxYj4C9RG1KvODNTTy21IQ94OgoPEjXzjzwwjQ8oNg+u0ILrryW2Bg9wCw7vdT4Jb1Uadg82FtOvSjsJzzASvk8/LvuPKIYKD3Axhk9SAQHPQy0bz3QU3Q96veovORT/jzkeXi9+gYFvUTagD1oSEY9AABkNRxZi71KoH29lI5APahf+zxusR09MdZovS2ePr2YbEs8cIaJvHr0o7x+HAs9QLlxu9i2g7wAtH28DFcjPYCwSLpMgBQ95VqCvfzbAj2frGa9rQF4vcj3hz18viu87jCAvcV5k72AimY6GD5rPMYtVb0awoc9qDohPGrbGj2FMAK9qYMgvS6NhL2g7+08wG/0u1DMpjtw4aI7SPNEvMizETwGXRM9sFLlPEmWkL0E1gA99qEsvUSJmDyEkVA9EGzbOxbEhT14eUC93Mk5PcKPID05iYO9v8VcvX5ckD2ukIG9cBVvPKAreTtwH7q7/Ad3PQJUhz3EQ788DvStvGi1ADw8WO48hvVDPRz6ubzS7gY9W9knvXitKT2ozP48PJU2vBSBmrxkccS8+BJ6PIDM1bywBKS74pgwPSiXqjzIGFw9XIDRvOeFaL26zJe8MJQPvFipM73OIuG85I2XPIHyhL0AgGk96EcKPPA0/Tzq7gw9wADau+QqurwskYy91q2BPYN8gb2kun49eN5lPJDR1bt2mIG9NdOBvYzHjL3uLWW9dme2vFIhkr3NUHu94KNoO5yq/7wAbEc90HH7vGC8HbzGgpI9NE2ZPDPQGL2kNmo95FiLPORaSrzkJPQ8iMBuvAIokz2YZyW8qP1hPVIFFj0i5zm9CuEMPZBq/DyIAU88MMUYvHQlfD2csB09RJw8PVBi+TziXlE9tJpBvd+9jL1YPHI93v1PvXjSnzwYZyc9ENppvUxZ5Dyo35K90FtlPKBesLsyQzy9zvWKvSBbqbvgMxk9BvWNvKgp+Lw0yIk9oA4cvZA6hrtcMNK8YFCOPSiGU72fa5K9b3h0vXAdLzwyY1O9MF4SvHQ4yLy52IW9in+APVMJgL2sYYA9dWQ6vVGCYL1UmCU9hm4kPelKYr1utYM9lMPbPMAXvjpQZH891OylPABqoTmiPk09XnRTPXkAar20dpG9pPl5PYJ0DT3skZI8XCYxveQn4jy8Eco8oFQVvEpUYr1uBTs95ggdvbSe7jyk+7W8oNljPdDauLvS6hw9k6wxvcwvCz1oDvc8GEySPTbxgT3cyFK9JVGLvWwWkjyqXTk9oVyKvags57zTtYS9wt2bvJzOhbwbeY+9OPslPB7RAT1naCe9GScavThaM72KCTq9fB5DPRCeDT3Q/vS7FPRwPRA4nbyY0lw9fNI1vaDHej0N32i9rueQvRDanDvoPC280IvQvOI18LxIZVu8COR+PNbwgL38zJA8jDmNvNbNu7xyNhw9YvYePZ7XEb0AFua71klevXRoizxg5MW77nNtvbKHiT1Skdm8wHaqO7w0UL2mcRa9UNxwvfB8C7y0iY89uT0AvZIIQr2EHQu9kCV+PW+8Gr141ng9GNETPI52Hz3JdS29CtVfvThlJD1aJN68/4JXvb5cgrxcI4Q9EEqRvehgfD2bpTi9mo14veA/rTuwOBe99JSOvA5zND1mCDq9LEBjPcCvnzocoHs9rmRfvWAnXDzUA1G9kpSpvDA1kjyWPTc9vJpFveKzHb0ApWM8wB1mPWAm0zw8Cg49otx/vTg1Yzxg+z47wDgKPALOjz0gd3w8TB2BvYq5ir38aWw9wMAgvZxr5DzwH2A8/nw7veiTND3v9H690NzuO5AxNL25MIy9JMsFvazshL3Sqks9g9VKvQjbdzzk8No8uxCAvb44gr1IAGq8NCyFPQYp27yKbBO9cGN+PQDn2LmMaXS87Nq1PNxamTwmMJG9wPBZPXhkgL1Aqzw8gJZOuxSscT3Y5yU8TN7FPEr3gbwc7I68IOcEu1Bt7Tv0oHM9wAi5O85sgT2ak0U9uJQePOJXCj1QENE80UR0vYABFLumfsG8WLpjPMJgsryT7wG9wl0GPUFEhL2AsQs8zkWMvXz8dr2OuZK9XamIvWyQbj2QzOC8+kBFvS5tkz3qhk09hz41vfUVY73wDjE8AJ7kOyZfMr0A7r+5qpmKPURkXz1EvfA8o+lkvYoXTz0U8rU8xKpcvP6JCL1zLIy9+CWMvMFZaL1U/mQ9fEHPPIBZfjxo9So9uDtvPCImiT0AbiU5jJVQPbWQDL14JWs9NN9wPaIqPz1E94G9J6IJvXY6Nr1Y9BO9QAscPECBxzw81XI91nJjvUjJFbw4knY9gzGMvYza+zwcLDm99mohvdGhkL1WiE09eAT6PC5vJj2cLTi9gh2fvFCqhLuwH2Y80vWQvWJxnLyM5QM9TxmEvYIgir240tI8fIdyPfh0ZL3ujY89liwcPcyJPD1umy69+JW8POB0hTzBQRm90FIoPDRWwrz8RIk9GL2SPAg3gzz0p928LAyWPKjhdDyA3ZU71mfMvK7BKb3Lqi29sNEhPFax97ygcBE92OVnPTDlWjyiJhw9cGX/PJBmbDzI7xc9uWZivVzgNLyiN428gNQzvVSeIr3gobo7bHxOPVDjXj0kMmQ9EN6mO9sCKr1mpYy9dPmbvNKkiz2ASaC7dqdWPehXUr0cDfY82hf7vGCzIj0XPIS9/nEpPfRkuDy4HE68APYFuvAkaDyAMuG8TGRNvPaQvbxujCA9zuAlPSRikD0wkl48wFm8u3AXaz36dFq9LPuOvcp/CT209em8FDFPPexYSr3AhZK9SDgGPF5pTT1eF4w9GJSKPC7TED0Ukew8z6qKvSQiXL2a4Uk9eFluvdqMer0lFJK94Nk5O7S9eT0g+VE9boGHPcCX9rvsT0I99nKQPXiKXLxdMBy96qMHPcRnz7z9twK9DlEAvdgzJL2G9Io9eC4zPYxVZb3MuFI9/AXGvMgJs7zhZIi9fGV4PYAI8zpkQmU96Ho9PZPlUr10Slw9QDv+PDgPh7wYEms88I5vPGCxcTtAYrE6oCpkO2qtibxoLC08dS56vfaijT0ovAQ8JIhlvEDEuzsQuSY9sihyvTdCJL1A8IS7mGyuvGpeiz3orfU8yHbiPMyRCb083cQ8HLVXPa6shT34oX89ZHgdPVxFijzaFcm8kBTQu2AnqLsAXo271PRGvXg4PD1Rh3K9d5ELvUb4kr3aoou97PAdPSyMMLy+X6i8QO7Yu/CwfD1dMHG9erMoPeeQXr3q6oA99PU7vNh1Y73UBtI8AEfaPEAlPr3wPuS7ZP6PvVSFlbxcS2s9kHbuO6A5l7sA4I236Ha8PALnYb32X4a9e7GJvXvrh70GTru8YjNlvZ5PqbxQ/xU80P5NPIQuUz2wim29QC32OyxkqjxOiFC9IjoovbwZ0bzeKaS8c0EavQDoObye30M9cH1lvYS4bz2s/zC8TMIsvKa0QT0ARAY6VE/hvGBCg72Ycmc9AEFnPehuhT1wBp47MJcwPEzbLT1gr2C94FeQO7GScL2+PmW9lt0qPSe0Pr1AqGy9SZ+QvZCjdLxwJAM9eLNqPG/jZ71cEdE8zo1QvVh/lzzGhse8oAEuPFgkFj3rUCK9sDyAu/XSIb1Ys2c9JdwdvTgxYTycmkS9mB2fvIBIrju4nDW9wMi3ugxrWz1wsM88DB8kPTxabT1Ui0I9YH5cvBAIh73kePQ8l3iTvfRjcb3eTSw9R6Meva/2Db3Kfkw9xBcRPfGkcL3OhSu9CH9VPLxJGz0i8Fq96I5cvJD0pjsuAaO81BJsvMgLazzg6II72sglPQD9b7rcpX095E7yvNAfjj3Kkjq95XBevUxebD0BBQi95H0LPZzw+Lzg8WI7yNb8PCB14Lsx7229xpyKPVg9gL10Gms9+CtmvMpeNb12lDs9xMLiPHgxcDyrQJO9giaIPXCsSj2hrT69IATQO8LOSz3E26Y8sjAMPWDyZzzS2i09ADeGvYKT9rwMvDC8uK5lPaQRWT0v14e9rmKEvQB0nLy88YK9kJdDvHw1Q7wEczW9CMOWPFRopbzwelc87PhxvURpZL3YZHe9rrcpPejCajwi5DY9HMbCPPQZcz3c3ai8f1trvUimczym0IA9AExxOiY0N73A1EY9kKXfO/4OkD0DNyS9oFfBvFBs0DxwSRe8ajkfPRipcb1KR0Y9KoMqPYDl3Tt04yu9wlwgPfzHtTygAks7wL9aPYwPkzysrGk9nC2RvIKDTD0wYug8CkdJvej5Aj3zKwm9GE42PBpjjz3kSiE9cAOKPVx8jr2504m9MCK4PMgaujyCzOi85x2TvXaAHT1oFug8kJA+PdgrdD1ggjm74rZFvYBRLjztPoK94NGAPJShKbxwfu271AJ6veaxhz1oO2W9cLQxPTg0mzxe9zG9TLuPPbczVL1gDBg8+vcePRDlx7sk4Bs9gCAMujwaYj10MHG9TPiFPeiXHD0aUVc98PYCvICmmTx8sf28ChAAPXDY7DsYqlM99KsZvcjlDbxa8xg95OK8vCBIgz3oX4u8+EyNvVTkcD0uOZ68pLmPPc5hUb3A+xO9UATGO9pDOr0Ye5E8SCpaPZgxHjwEV2w9IAGtOy98j71a5iC9uq4HvWSfvjzQ2fI8ANnKOzhlDD3g3hU8sHa2u0Cr3jyAJT69Et44PU4J2ryUt1I9KTZhvSQ5gzxzji296F+ZPHSBlzwiXzY92TALvQyiAT1Epke9+spAPeynojyINTQ8voAZvbCpgzxAUpw6UXoIvRREiT02TR89VHh/Pd0aeb3IU1u9ZjmDvWKKtbx+kT+9l9d0vUSqgTxEuDY9QDS5O7AgTL3uboi84KPou9Bc1jyuX2m9xuUrPYBZ87oU/H89vwUAvQQHZz3cgPU8+KCKPSKxQL1cjhA9ptqMvNBTbb1+1MC8qtoqPb7BVD1AMGq780AuvRxrqrxYzSq9QJGrOndgAb1AWIS8ZIE1veRc8rw03mW8gGoYuniHoTxOjzg9e6ZeveI7JD2IVso8pIKuvB61Qj0Y7Oo82OR4PHnbCb3SlhW9uW8svVC8kDu06Fo9Dhl/vexIqLwdPTi9HIShPA5OM73mmoI9HGocvTy6TD3gfBw7qndtvVKEx7wafsy8hplYvfcxer3qGAw9FnMnPXyTPj30xHI9QM9HO8oTOb2wGTM9QqwMvWilYz0AbOc4mKhKvKA1jDvEuYu98fUxvaJC57zK4dq8Kr7GvAzJZ70amoS8U1o4vUz2Wj1UlWA9VZhZvc+TbL1Ed4O86pOPPbghODwgxwI7TOz+vN4vPD0xsBm9YHFwPTbJHb36k0s9YCR9Pfb6Rj2WMo68ybmNvcKmd71w0WM9ThxRPZRJjD0s7Fi9xIxCPQrCFj09SGG9gPUWPXK8Vz2i3le9sEWIvUE7d71wcDk9wGvgu9I4hL2eU7+8ZN6DvVh6XjyujDc9qO5sPFYpUT1d3gK9CPlTvXhZPr2sgEe9QMiqPKxIlbwUoiW8SM+GPRQHNb2otUQ8cEwXvFAun7tI+5k8kKTTPAApVz3myty8BChEvc7OHz2Uz1m9wgskPQQndbxGIVu9yLB4PIliLr04Gjg9oFSoPFCrArxwl/m7sNj2u/gxaj3qlUI96gxMPYisoDywT449PHIqPWx5mbyulJI9AA5ZuUAyeLuob2e9mAcTPWGRG73grrQ7HJVuPdwm+ryMr8c8YLL8OzCUhT0xJIS9VBXovCC/YD3Mg0a9UgADPUjxAr3sl8A8yLEcPPAu5buq9+G8N90AvSBTRj2AG/C6Si2DveACuLv8c309/EzaPMhCAz2ARbs6DNa/vLRgIb0KN409kAG7vLQrMbzmdoi9GgxBvdqOwrygsIM9rs62vACSyDxczxg9vAG5vIAOEr2AzAQ8TtopPYgGbjzsc4y9UFWGPAIqAz2baQO9MGFBPfCDJj2Adzg7/LmVPFECb70uTRY9MCA5PTRh7ryYj3s8hHFZvMQDA70ZD2y9eKpfvQRXiL3sIf88o/Z8vbIBSD1C8YY9LszjvDcjir1cVxc9YI5pvWarNT0S3DO9BOxoPYLt5bzHmVy92KLxPJRi2zxk2iM9JPNavOYlkb3Sm229ABINOtZWJj34jzw9TngrPXxfEj0I+o890Iw1vcyNBT32LBq9gGfJu5j3xDyk63W8l44pvQDl8ryKxDs9RHvCPI7EjT3CshQ9HOoEPY4WAz2MdgE9iIDHPJ9WI71CfZA9hDYKPdx7Xz2u+oS8O5gNvTb6MD20AWo9LoynvPx3TrzQ4m091TsFvWD5P7t6Ww69fIkfPWi7kz1V4Sq9vr2HPRCulztKFIQ9vwBtvY7BlLyIZnE9KPmKvTRKHL2nkCK9uDHYvOB/rjugr9q73IJqvPxawjwQBv07tHHjvLMrWb3GdoQ9MmIjPUjtATxmNhA9RjuSPer4iLz8jdE84LgfPRTwDj2A4v07HINBPcD9SbuAsDc7GdJ4vZgvFT12RFI9RjuhvPw3gD2fZH29oESwO1QoYj1acoG8OlwsvUKo+LzgOXE8QL78ukM2Fb10xHw9D4tHvQCdmLpFhGe9QC1oPVRJqTy37CS9iZpCvfTrar1kR6q8bPFnPXK3Q70KtpK9xLKiPDpck72cpBq94Hi/Ozy4gz1Abha73FRYPXZ56rwIV6k8qJqRPeD0yrvEUge9hZUTvRqECL3gjnq9Yj8kve4tOD2YsV09GuscvffDAL0AXXm7NsKEPZRP1DxIfR092thdvbZQhT20wTC9oNHpO7z/hL0UmhE9eYd2veyHb71IPyG9OM5CPcS/Kj3cpQa9wPtYvaQUObzocQm9dLWWPP9Rir0ADn87DDkzvHRChjz95C29Y5QUvVangr3owxW8gsqSvcmpDL1gc8m8ED8pvACRKrwZeAC9tphOPdAZRD3MZk09XGHwPJ4Vjr0AliU5RjXFvOqtgD1niDe9rOCPPJpgjz39W1a96lDXvKBAiz0Yx3A9Cppnvcf5kb2qPyA90JLzO3jcHTwYmP+8QKk4PLTUuzwGSz89CMkDPcCdUr22IwY9lIJ4PcAGO7y4S3886nEJPThv/Dx+j169zN3BPHZwUr06Hay8mpICPRHkg702Dcy8/lsFPdhIYT0UjIA8pNlavFqcLz2Ukw69iXIcve/ekL1AaXs7swOGvWCEFz0AXHE5wEySPUw0Wr32SY09iIrfPHgMkzwo5389rfJ9vSDSTrwGyIA9eIfavLzpUb0YsEq9mryJPZgQijxSMoO80BgOvAC8srsoV7Q82KJiPZxkdbzQiFo94h89PbiaJbygtjs77LmxvIAh17qESNM8aPpTvLyNlbwAdiY99hCRPTBWGT3cJHk9pC7EPA6NsbxYy2w9hHvRPEpPHL0QiMI8d5g8vcBfhjoCvNa82js9vUlHhb2oC228qtOJPRDCJjxItF48DM5vPbzRQT0c8Fs9RovqvJwUgzxK/Y09gKc4unrSLj2A2q46CMZNvSD7MryQHqa7PAYCvRgjiz12HpG9Nh/EvEiHYT0YCQW8Gix3vdiJE7zEZ249EBKWPBAQET0AGAo7bDttPU54iD1inoA98QRHvVKxzLwCyoe9hL1kvdj2Y72sp+s8SGoZPNppgT3uSzG9inMSvWgH9zyWT4y9kOf3u0qLsrwMQ0y8ND1SvbLsjD30NrA8pCFTPcEaRr2AyGa8gMsgPXqqQT2AEcU6mr8XPWr3AT3A3IG7gFoTvPxhsjySkSI9gO6ZvPEpA72kW4Y8/R01vZghDT1wSus7VKDWvIjrhT28EY49KNGsPID/qrswMnE98BHrPLKQN73wl5g8AFmpOmsHNr2wKQ+9VqIBvUA0Nj0swcs8uSKTvVTVED0WrgI9eBKPPRl8Xb0ABV06IN5Iu6DIFD16dYG8GBsEPUYEiD26Q6y8FIsbPWB1dz1g6807QFUtOxB31LuMHDo9sBxOvTU3hL0H+H29NBF/PTLnjb2g4f+7lmeMPThJLzx4P4o8KFMJvc6aPr0qGym9qDdbPcAKFLx5T4K9WArhPLpQFL2GaCo99myavFP4c72ox8U8AahQvSBQVjuscZO9QquYvGCxA73Y5ly9TPKAvcDJlTy0sVg9DpkEvYKE7rz23CE9JTYmvXxSwTzDGYa9zGyrPIACFTwoMN88NLlDvK+Ikb0uyj09580rvVEzab1kP408/1AFvRAoLD0uZry8ZOOxPCh5rTwQhBM80LiSu8SHFT2MB3M9cG4TPOjVEDxYU4a8rPP2PFibxzxgg6s8jpUPPVykkj2gE2G8gA6nu9Z4Nj2EFjy9UH54POxK1DxQWmU8p7uSvdDwNb1sOos8uM8lPErFVj0YrV08bsKfvJTaFT2RwGi9Uh2CvZMrZr1YYmY8nC9bva2qEb2sBic9doYiPXTKdz2cW1o99gIOPTkzgr2gk4M7LIiIPeDadz1AWC47/itIPZw18bzYLXY89EOIvVyppTxmCYS9+lWLvFRbRj2izig9gudSPWBnMDx/tBC9IABnO2C/BzyYIXa8nMHePAq8DT0AUWq7COJ7veiLgT3EuXi9vuSMPYQyx7ygK+i7GFAGvehh7jxcFoA8PVQhvQRyvzxAPA27NWQmvQY4LT2gjQA9eNPyPGiugj2YiYG89rQVvXIFSL1EB7s8eFHwPAjyMrwfzgu9wMuDO2DEbL2bPJK9Zu8FPQCPVL2Y5N283oz2vIZwKL32NUE9olEjvVCGDz36N4a9ZJJwvCNqEb0rwFe94FmrPGB/fL30Hzs9SK/iPNYM8bwoJWA8ELATvLxCT7wlIWS9yMpMPP+Rjr2EIws9AFi0u2Uegr10FU49tIEePRL8Jz06ePm8wkNGPcqRfb16+Yo9CAxtPPwbTL1QFmI98BXcvDCc+TuAw8q7WkRTPUx/cL2Accw8+NeJPKmleL24C7Q8GBJ1PR7zgL0w0pu7fqSEPaT5bz1U+tk80PLrOyTWsTxKaDM9Iz4ZvZBcer1cNmi84Bwgu7CXALzw0jq9cCOWu2LZKb2mBiW94PsQPYBobjwAeoc8QEJWPRfsh71Q5g68gEGoPMwUh73sqKK8KPOCPArvLb0yk4Y9mCnaPPjcSj3gmT47NBQnPQyRUD0yISI9uFFfPY1WGr2aZqa8tb1pvaS+PL0mz1y98Jyyu+K22LykQKe8Ipp6vQqdjD3MVso8rE1yvVzzHryEo5a8Kopdvf6ViL1A6988DgUovVipGD1gWjy7yMRUvUivy7wocIC99J+tPJIgKr2rWI29PS+RvTiSqDxk+P088A2LvMhaeT3+FbC8WBfPPJw8jz0sVm89yl09Pdj6bDw/Zwq9qKOpvJgH1zwEbY+90CzFvODixjtyi5a8OZ6QvQoleb3oB3s9XD9lvHys/rxoaI09oN0KvGvuCL28rDm9YKgPO2SMfj2ytpq8IPxjPCxuaz2oDmo9AAMvvJk+kr0wUgQ9BfiIvTTJUr0QirW8BLhGPVxiaD3m7EY9pYVuvfOmib28sNu8IHhnvEKvVb3yFz49RIZgPTYsjT3ALVc72IWxPHQmAT2oonw9GFY4PAsGSr0AUeq6oMZ/vHmECL24Z8e8gEzbu5iOtDzQOpk7SFiaPAmdkL2EAo28Si2xvH//Zb1T6UG9rPhhvTDPID0I5iE8/H8pvACof7xg3Uo95e8HvQBUBTyMRzE9fPL1PIiuDjxSiY09aCe0vAGSEr0aEyI9KJrZPOLrhz2AEXO69EUZPVCxAbwAAjw8800tvXgqnTwq3JE9iFmFPXgyZT06vko9qFvLPPCb8jwWX1G9EOSBPRtRer0Ivx68qA8RPWB+aD3iGk09gDV7OryzyjzcCoE8Eqh4vWTFgr1pCxO9SB5pPRjkLD22CYc9GOFiPbACCjzJbi69rnHDvC3ucb0kt189bj8SPbQQR72gHno8IM/NPCbcLL3CzI49YZRYvUzYmzzoFwQ8+PlUPQA52brERl891BlsPcqaHb0AcEu7bLaAPWXrhr0m/4Y9BAqGPVB6rrtQK/m7jrVPPdTz6bykc0S81DgCPfjHtDxoGV89ftAcPcjARTx5/3W9SsJOPSyptDyYwGQ9KJhPPUpBXb2mG7y8pGNxPdBV4TxcOKg83OqCvaRQGz18Tdi8ZlhovSrFib1cN8o8mv6NPXhZZDyAmkk7nLTAvCYQJr0Q0Fa9yEAzvfDEYT3A5wM9EoSOvXBRXzy8oMU8ALUcOvgwbDzQdJ08XGfjvOqThrzykEu9zkoCPRlMIL347wK89BR4PSjGZT2GfCM9eGxFvZoG+Lxg9/C7rjc/PSqVvLxAXX87Bos8vZIb0ryScRA9Vv6Pvd6uHb2Y7Sy9WNEGPZ41Nb1g6mo75hKJvZBSjjv6O568iId0PIon1LwO8Oa8GLmPvbzkID0A9Zy6IEQFvPb9Lj1AKhs9IjDBvAzn0DwAGec7ygnvvBIekT3wJvY7gMHTu+SOiT3yz428xQVFvcw9/TwAQ6y6Np+RPTS4Vbz2bme9xqsrvc6eIj1sWi29SDqzvGTdeb3F/BS9aD/yPJRDkDxpyRK96x9ZveBKZ7z4Fyg8jo5YvbwZ0zxE82g9nBuMvdhPgj1sgI89CIGOvWDrhL12A5A9nk2IPZbZBT0rvw69wPaBPXDZhzvYgx28QMm8PIBIkTqIMAg9IJj3u4g4FLwsPfs8sNt9PQw6FD0KDQG9ABvqOYyNhz0qNSU9wos/vYqJtLykqpM97tUbPWAWRTt+od68sI1DvU15g71k8WY9qG46vTVsir1lvSG9lMcQvewpAL0rDIe9+N0GvTiUs7wc3GE9jjO+vADesjtIdIQ9QLCAPABKTr1UDdY8eHoOvEA5x7sS2tu8rsBrvcBhBrwaSfi85OqyPICnTboeUj+9LnqTvADYnLoAHh07xmEDPWhWKr0g7i09zv2KvIC1VDwwv388fNeDvWJNLD0iUWq9sNWRO4A30Lx6OX+9MCplPXDxqjuoMxA9/39dvajUYTxUaqM8ALkaO5AaKL0jdWG9QGEBO6iYLrz8Fc08PawVvRZpgz34RIQ9E9sHvYoue734BHs9SqgXveAbLTu0KG28oLwgPODyzbskE309wn6EPZzZK704QfW83g4wPTAkxztiHRI9uFeHvRrIiz0AElu6HD/5PPQmIj1wYJk86KIMPJacX72IXm49lrcVvXOEGr0I9Wy8gIm7PJx8Bz1+0VE94mhDPW7sBj2QInG94LNaO7qxgD1IcT49IN/4vDzz2TxJKYq9dEg9PdDk1DuMQCI91nwDvcAOETv+Yr+8hInjvCALGbtEKWY9HAtgPXp4Y70Q3BI8yHF1PDr657w6jq28MkoYPYauz7w0rHU9qsAXvTjFkrxShiq9VLX+PFD5tDuganE7AImQPRBieD1osyi9CpmevPqLUj1vy5C9Pk7BvPCq3juuY8a8gOilugTLXD1g4Ge8ppQ/PXjAMzyZTYq9WLPJPBAPpLuYrvy8zHc0PRQfMj32eL28tApwvPAEvbsQrSc80MTAO0KLPb1atdS8znc0veXDJ710hI89xAZ5PXCH2zy4qWs87r4gPfysmDxasTy92hxovUBii7wEoPQ8Rn+1vOS1eLwAoKA85p1/vZAtoTw1lWy9OOImvLAtgbvEuMW85GvsPGBGtLtaB1I96kUDPayP6jyAS+y7uE2KPd6aGr0WaiS9ynqUvCwbQL2wtjw8TPx5vfBnYzxQaD49+JgAPPu6fb2IYG08mnoRPdSfXLwGdma94NxgPXiJB71wqzu8HPlbPUAINLxwh4Q9wu+SvMALc7sKiOm8ME67O5iXljwwcYI8+P6rvC4Nj7yFuH+9pPA4PYgzMb2EmB093EN5PTYHAj0c/lk9cDt9PUJ4nLwCQg490+5xvayiUj2k9II8dDBIvJJW1bxAbXm9bmtRPaQ9Or0IaRy86FKuPCangrymOdG8gKO2ulCegTsgdZu7RuYWPduxjb1o1Se9iAljPUD7obr0yYA9UNq0vLz3+DzbrIO9Yir+vOo1CD0Q3AO98ID4O4ADrby4VB09mpUHPdzINj04yMy8IogQPYyudT1QfsA7YMtfPXh4rrxtaW29vlmPPQDkb7pA9sE6JIFbvZjbuzzI3g88OM4bvEA0Lb1Q0j89gKoJux3GjL1YzHo87OpaPZj8Kz04QoG8cnmPvV5YVj0oSdi8MNmAO+RDtjzgk4c7jgCIPQBAFjwzU2G9ZBRwPTq2gL29aAW9SJ0avMRPsry0kXy8FDQtPcwaLT0+Qwe92DRvvch5dLzAe0+8YO9wPScnh71gaxG7YMMBvF5jOj2IBIc9LCRoPYDZET1wajw80rWRPQAsJ7nECTS8Z8UavcCtnLwiQoK9WBdqPLDxUDxEQpK8QsWQPajMaz3ognc9jxhCvVhKqbwonY895kW5vMDwODsdTJC9AJllvUxG8jyY5QA84M9QO7JuHT0Mknu8gNAhO7omLL0i9Oi88C7RO+x06jwUGca89kVKvTCyVzwYbSg83FFCPdguFT0A2DG78otAPT472bzn6XO98Lg2veY0Ej06lT09QCyzOtzSML0k/268WOkXPDkvCb3c/jG8cE0LvAbkKr1MpIq9dLVsPQyw5jyyMHK9vstCvcy2hT3EFis9pMzsvGD3bT1aISe9KHzTvIZZMb1k94M95mKCPdCkWT2Igl49gDriu4C3/7pudRC96HX6vBzR5DwUEX89PIF3vciu7jy6l0K93PwIvQwhJ71PGzS9gNDUu57wn7wE6NA8iK9IPTzOkr1UVSI9kDdjvatcTr18irc8VFpoPU3Kkb0cuXw9pbEcvYg+cz2CD4Y9fIWJvOTWFD3gyIC9XM6fPAAIu7pAXYi9UJqWu1TGCz2YsPe8ClR8vTTcrjy6PPS84K5HPHWMbr1EF8M8gIBOu2AsyztuSD49QDnhu4CPHTyWmUk9srA6vcoTab0KhCs9/u1GPbjJLT2u5ZA9RjQiPR6hGD2AR++7vPZAPQ8YJr0W1iE9GPt1PCCmuDsoAY69ijNjvTycubwYPw69QNbSPAy7Xz3apBo9V8KOvV5uEL3kFNg8qPdvvOj5Pz3k66s8wFOCPGBOlTxeXp28ViQxPagPITw85WC96D3qvOB8ebxAjzm9cJJrPFYCKz38z8a8JLdivCBq6zzOTxs9jptCvbAwI73kVJi8aFM7PAjnuDwQLh08sBGOO9OUkL0YkHg9gCTVOthIDD38l3k9L/ICvVDEhTugshw7ZHgRvVqjBb16XU29ELsvPABcX7vV/oq9dt5mvSbrQT1wyqa7Fs9XvVLtvryAFdY75BSSPFSJ6zwm3Xq9YFPRPBggYT1Mw469E5AivRhDaj1wDts75dMjvTDWcj0ouoQ9UCY0vXChGjzYP688ooCQPRjBCD1EwA49tFOMPViDkrxAc5m78O5lPVB3Rj1Q48e8ooGSvHccTr3cZ329BqBTvZidzjyKsSY9GvQoPR40OL01you9EIeRuyDwmDyukCg91lYKPXDbjLtYv0c8HFRkPfKVkT18GY+9jL1tPShfXT0Qhz297N+ZPBxmxDw8o4E9LLOsvKACaz0WWp+8DlSpvIM9Ir20o0W9SHA2vYgyHDz8Ui+9oDYGPPR0U73wCBC80NOePPIUfL2Qvvi7ELzru+BuC7uiwh299L71vI73Nz2oFy09oEFkOwzMaD0sfL28QFXXu9RtXb0A4YO9RsRmvZQGg70YFWY8wGgtu7wFtTz0zEy9G5SDvTRvbT04Oxe8hKhEPdomar0UBPm8eInVvJCBLD1AazW7YH1Cu8hbhzwOmR49kImRu3hxST0ciPM8SKxQveTSWD1KJkg9ViqQPXaCCb1wzB49QkgMvdBpxrzKPRK9gPrWPPTOCr2E25A9pDR5PRo1Kr30ycs8QIJyvIy1ar3sq289wKbZukDH47vgTNE7LBWNPJ1oi70c2h89QIrpu+L+KL0Mq7s8XjwWPbbGUD2qqV69pNoQPbh4XT2AyH07yNB1PJgcGbwQuAs9dIKQPGBc9LvYyD88ENBcPEyhAL3ANJI7yq9BvZToBT0KFzM9OHQsPXC/SD0K9lI91PxePUbbYr1ezjY9vvCKPZCA9TvNdSm9cKOeOzwmFD0AS/m7gL6SPUAgRzsaoxw9yq+NveShrbxY+Jc8QDoIO+6C5LxYPUu97KqLvSDvODzsTEQ9IH5rPHSGjT3W4Us9Vp9DPTPABL00dUQ9vK5/Pb7URL2QYlI9uuaJvTQ0Cr36KpO9DJWOPPD1Nb08UMg8JK6CPbJksbws47S8yPtvPf4M/LwA9aK8BEzzPLDj0jxXVD+9kMhbPSzWpjwsPzK8WcwQvZI0ab2JcSC9LIFoPbCiLDxF4Iu9cvXFvDqr6LwogiE8rNxjPbBNBrxgCeA8NqeQPUBVgTz0Cz49IFRQu0BXlTs0oai82KrfPNTXhD3YUHk8GCdGPa5B6rxU6Sa8UKc8vISEKr3Cd0c9APZvOfIXmLzbCRK9LBZ9PRLxVb3wrjg8vuqHPdD+8jzFJXu9hAJIvZQkkr2Apb679w+MvRBLQD0C+Ea939dGvQTMlDy0Xoq9FB3ePJaOfb0McMA8IMj7PICtejxuQAU9SrFFPaBFn7seg3W9iMUFvJC1M70Ax5e7HNFCvYBul7uIZnM9KPxlPaz3yTxkunM9mHELPDjEBTzAYpc8kKQ7PDBSmTyUwoc9YoujvDy52DymlAy9IGgpPI4WjD0sD8y8YDx/PXKggL2V2269AORvuyzsszx0z5o8QFmAPB6Xp7wTlIO9Kq2PPQa+jT2g21G8lcSBvcS1hj28JT299AFiPSAfdj1dPBq9jFsMvbICjD3Lq4q96M9LPYzR6rww+X88lEBdPfY8Nz18yTc9HPlcPfT32jwABwy6APXJu35/gryGEgs9oB7FOzAYKr20XJa8KBoSPCgqMTyUSc08qJVxPX29S71k6H29WiFZvbieozxCX0g9Lv2ovBifgzzaNlu9oFGJPPQpez2hclO9OPpgPYZHQ70gMNY8jHu/vKAsXbuKfoA9MNMqvVpqW72m4Eg9oDRPPIRL7TxEEoM9YYRpvWaKjD0qigU9lGlBvZxilTzQuYA70G30u9Iqhb3JUSa9RsHVvAge/zwQW5M9gIWcvGxi5LwgtNu8bmZTvWgaaLx4BI08vOWgPD5yq7yuyc68mlAyPQza3DwKMYo9l4QvvVjmfj2A+iq6+OWgvFQbh72KWUw9NM6EPVrXgD1wr3890DaDvPrrAj20ZRa9wFN0vNKdOD2UyLS8oKk0PEiuEDzUgFw9pmqQPTC9ojwsBCy9mKY+vEBWZzxkM229dKrbPO5BLD0CDMS8TO+AvOAhRDxssGQ9b+uSvQLvhT1o4nM9gHtoOqBJpbscyIo9iEalPOT8Fj1cz4G8EOqaO/Z4Tz3G6PK8ZGZ4PQbIoLxE5OK8UEbsvCjZW7w2eDc9uGb+vBBE5rugJH49jAEDPYDHAbykCFg9dpMjPfhpHTx3HUC9SP/9PKCixDwgcle7IGLBPNglAzxwgzQ8JJCqPNgpKb1ApqI8oDgxvdSfMT3gOy67DPx2vCAsVDwwHWM9RCwKPZBfhz0uFSs91EjYvCS5aD1QLnA9opkoPRQjozwIqX08LPOUvLD5Zj16v1G9bOaQPfCfi7wIDvE89duNvQAut7q0poE9oGhDPbTqYz2w/AS8ZFelvHLxR72gI+u7cOXkO5DmWT2g3l87APzBuJ6pKD3+Xku9srlEvQjgVbx0XmI96IOxPIlfib3sVV89xJtAPerfDL2W1I09xLMGPTAWOb1NaRa90I3Pu2x2Sb0AO4a9pHUrPYBL77ywY3g9W1uFvQJha70wbEI8UFYzvKIgHT0Iy0q97KjsPJm/IL0gWos9JnlavUR9Zj0QxfG8hMQ7vD7YVz3MDH89Wq6BvTgBWj30nVC8JGXZvOSZQLzUqEA9BFpqvA06Mr3c+IY98B5ZPfQFjT3WaHS9SGLQvKQxsjxZPyS94KlcPAyPi70b1oK9lD39PEglhT0UdKs8oFo7O8PdCL30ura8sM6jO6DXALzAQk49iM2TvEjXFbzq0tC8UHEnPQgzET2qnLG8QiMPPTztFz1lIZG9gK9luziaqzzkADu9cIYNPGPUg72e5fa8pvqSPQDt8buEZq88GBwvPeD7A7s5I5K9Zv4LPSxH2TzobMq8sG96vbDUtjywdtU7yDyFvTBlkT1Dkie9GLE7PTD1MDyIZgM9DJr/vDi2Y7xANp665NSQPAh6bD30eYY9VAC8PPxhwrywPy88YIM/uwDODbtwCjE8Xqo/PYLQQj0ApvA8uHIVvSDVPj2kwnO9UL9bvDoqRr2A36G6bAwMPVABjLyQccE83m2SPRwbjb0j/2i9ag0wPazjfbxcjG49fM0BvYuLBL1konk9nhrmvLqZkz16aJC8Ln1PPZ6KMj1En1S9FKnzPMBE7jyoDz68zG6TPWbWJT1onxk9WmlLvQGvib0++I49/EyTPAgyIDwAXiS5tFeNPZwmi70kucc8uMpfvQa8vLxwzsW8FlpPPT9bbb2ODog9q3I+vThLbT2QYG+9aH5rPburA73KgQ89yIO3PBhiSD3YK2k8XG3aPBTOgz3+nSE9TAY+PXjYkzwAIa08hnYHPXC8Yz1+f0W9PBhMvRyCtrzsxyi8nivUvG+1P71opoq9nC1bPQqmKz1QbjU8+nG6vBWoGb3UyaI8rEl5PaBuEzwWuJa8QE3zPKbuGj0AgPY2yiZ6vSCjf7sgwo+8NpuRPUoE87w4FUg93/MbvVAEfTw0eKW8hDAgPVbohT0aCYs94KZAu0CFmrqYBYI8i4lsvX74xrzozwe9sEonvKUKgL1Ivo49Xlk0PQCI0rowA7U7Mk1FPeVsir0AoHK90l+HPdCQeT1IcRw9XOIpvTCyBbz8ICi95OhUvNDFVb0cjYs8/GawPAB6wrr+FCk9oKJkPKvcAr245ou9bUx6vVjlSj00Y329okfQvICpcjpEHYS8IO77uxl2j70G9UG9WCLXPHzEFL0IXIm9pkC5vA7Bib3w7qM8IKQIu5iPDT2UzDu9ROuAPQxvFj0O/iM9EBvSu3Dd37vqo0+9IJjiu+95ab3YRQ89iLNePS5ISD3ew4Y9nFQCPfDbCTxMHds8BDxoPYLCXL2+0g89EpXPvAgWfz20RaS8fKkhPTiqhD1aW3i9eAwuPbSm0zyYvfE8rhPbvMZnUb3mwAu9hMl3PcZyFz2MN2A9xNiMPdJVQ73Wh4C9ZkuPPbC/WrzOZP68xWkgvRDHfz1fZ1a9BoDhvBIbgz1SnEG9FjMmvYUnU71t+xS9cBZVvEiRdz26YA89MuN+vc41V71SmXm9SPw9vAChAbqgFqK7sKErvDhHEbzgaww8PJZGPYBWm7osoVc9oOn8O67nij3gKgG7NB2BvY9Rbr1kLUU9a79jvbR6dj2mWQI9aCs6PaidaTxI6bQ889FwveAqGD0Km+q8QLjmPN65MT1O+I49aug6PQQFEz38LJg8EBjOOwB++Dq0qXY9Jr1KPQrESz1gVoU7EG/3u462KD0MZnM9ULdoPfhFYj2Mp5M9alxEPQBp5rtM8G28wIiqOuOEYL1ISBy9nKpUvMT6Nr3KgzY96AxvPTOGcb2g3Rc8FP8dPTb3hT3GgrK8fJI2vAZuTD1EMZE8hCh2vHTSWT1yvA69ANXrPGyxVD1CQ+C84GzEu2IcHj0uOJW8xJfFPGReZL02s5C88kuMPVyQpDxEzTS86FOOvNUVjr1NNh29it0ZPXwwX704uKY8EhbPvIHig72A80s9YI84u3r5Oz30IRU91F9mvCUNc7264Uq9mMpYPXj4bLz+cvK8+Z2TvaBMILsSlo09aIHZvEAQRTtor4Q9+U4bvaTzpzy0Ytw8FPV6vOzhmLzOtgE9BmBavXhVUz3CTrK8TahpvXXbi71YLjK9ItwMPW8Qbb3m/oG9AHSYuSAGJ7xlvUa90bYGvQoqkT0gbk+99sA+vTAx0LyArhc6UEimu+guer0QKUo9hRM6vUS/qTzGFC49sB1fvWXfeL0GnwU9ABSBvXDVJD17zlG9RIwTvdRY8TxksBq98rSTvJJKNT0ojRu8rlJWvQA4hboQ+tk7cC/SPNTv2DyMx+i8wAwqvCacgD3MNVW83uk2PWBWsDsg0ww9cDi3PCBSR7sqCyI90IqAPVycEr0AxYY918eAvSrDmbxw4eU7QKekOkciUr3ADji78uh+vXocd73gqHq90gdivSgGZz0ah7K8AIjBO6D88zw84ze9IAOdu8Dhqzse1yQ9Uk1CPUR24LxcImk9kBuRvRTU7jymflq9vK7XPGBn4bu4HUC9luDGvID0LbvPnoi9Mg2ivDCrf701khu93MyQvTCPtjxW8kw9nw+GvUAqOryUhZRSlEsASyBLwIaUS8BLAYaUiWgCKVKUdJRSlIwHZmMuYmlhc5RoByhoCkJ9AQAAgAKKCmz8nEb5IGqoUBkugAJN6QMugAJ9cQAoWBAAAABwcm90b2NvbF92ZXJzaW9ucQFN6QNYDQAAAGxpdHRsZV9lbmRpYW5xAohYCgAAAHR5cGVfc2l6ZXNxA31xBChYBQAAAHNob3J0cQVLAlgDAAAAaW50cQZLBFgEAAAAbG9uZ3EHSwR1dS6AAihYBwAAAHN0b3JhZ2VxAGN0b3JjaApGbG9hdFN0b3JhZ2UKcQFYDwAAADE0MDU2NzAxMDQwNjY4OHECWAMAAABjcHVxA0sgTnRxBFEugAJdcQBYDwAAADE0MDU2NzAxMDQwNjY4OHEBYS4gAAAAAAAAAAzUKryws4S8Sn80PXD6x7vunCo9zOd7vVgBPb0iEFu9WlGBvO56RT2ARvw6bi/EvNpWHD0QiBw92GNlPKFLhb3Q59g7fMyePGD8N7skwzc96JobPFgPJz1Yh9k8qIDYPExTYb0gmG094F4SO2zBwDxKFRm9KKYHvb74jz04fXQ9lIWUUpRLAEsghZRLAYWUiWgCKVKUdJRSlIwLaGVhZC53ZWlnaHSUaAcoaApCfQQAAIACigps/JxG+SBqqFAZLoACTekDLoACfXEAKFgQAAAAcHJvdG9jb2xfdmVyc2lvbnEBTekDWA0AAABsaXR0bGVfZW5kaWFucQKIWAoAAAB0eXBlX3NpemVzcQN9cQQoWAUAAABzaG9ydHEFSwJYAwAAAGludHEGSwRYBAAAAGxvbmdxB0sEdXUugAIoWAcAAABzdG9yYWdlcQBjdG9yY2gKRmxvYXRTdG9yYWdlCnEBWA8AAAAxNDA1NjcwMTA0MDkxMjBxAlgDAAAAY3B1cQNL4E50cQRRLoACXXEAWA8AAAAxNDA1NjcwMTA0MDkxMjBxAWEu4AAAAAAAAADNRgc+oDW/Ox5f+T1wbBy++re3Paxm0b0ETBK94IOVvEcK/r3cYR09+cQuPmbl+D0Ay4Q6JeoHPjm/uL2gEVi899Iyvtk9FD7Gl5U9uC5WvSBwozwozqi8MwGlve81MT4PdeG9j7EAvq/jBj77PJW9Vf8rPjuzBD5w8ZO8HkkWvrih+DzcgEw92wvSvYIi3z3/wiw+AHjNvB+lHD70giW+QJxWPEApAjyWn/o95mCsPSB/bjwfBou9AJsKvjKc4j2AcOE7YCI3vUCxqrs45fG8nd0mvtO1Bj4Aecq6Wq+0Pdjam70GwZw9xnnlPTJ3yb3e9bS92XzIvU8Fy70+lny9LVgkPuBTszzAc4I9cKsHvvmtHz4SrIC9QgCwPdh8KL1o6ie9627hvfTXib2njw8+Gr+lvbmaIr63i/O9YBMLPYzmJ71gshU8hdKCvSiP1zyys9E98KIJPUNPBD7Qnpe9/onTvQarer0nhRg+kNCNPUDXLrvsPAg9jO5lPUAJa7tgz9Y7nUYgPpIp2D3WqxO+bBucvXYaoj2Kt/S90FuVPIDLAr1wJps8YtruvVSe0r37UQQ+ny4wvkB7jjsuPxi+MDp8Pe6Q8D3oNcw8+HOgPNbExz0GouU9rHdsPa4K3T06bBS+neGTvSqbnz3THC8+mHMXPSKWsz245sa8hdczPnhb+zwtFaO9UXHjvTTUiD20JEK94Lj1O6ChxTyFDSE+IKFUvYRvCL0DPBI+GomxvVZG/T2pqBk+bRgjPhGVID5BHoa9JhrQPY95Cj4Zgx0+cnWxvf8lED6ZQB0+yhy6vVxS7b24PyO+Ebkrvi7TpD2Q/Ye9cFiVvJv65b2cnje9eQ2uvQa79D07sjQ+1dkIPpyZND1A62+7MH9VvCCSnTsqU+A9pr79PbBNmDyVUSQ+EM3FPGiLiD2sthw9swYdvr/qFD6o5Ck9wXkdvkTZhb1Q66q9ApTBvcjT4LxIleE8HZQnvt68GL4ukdU9IJkEvhEBGD6wi+G855UKPo7gjr0VfyI+iiXuPbn6173g1ey9zUQmvk3vnr0mZsI9nMEmvnzVKD2AUIE8areHPRWhkL0JOie+YHbmuwAkv7qClPk9yerYvV4wqj1ciUK9yCpLPZii5bxXzce9uLwDvui41bww3ye9EIs9vICEdbuoCKq8U70GviIPG75TTqi9QHDcvJSFlFKUSwBLB0sghpRLIEsBhpSJaAIpUpR0lFKUjAloZWFkLmJpYXOUaAcoaApCGQEAAIACigps/JxG+SBqqFAZLoACTekDLoACfXEAKFgQAAAAcHJvdG9jb2xfdmVyc2lvbnEBTekDWA0AAABsaXR0bGVfZW5kaWFucQKIWAoAAAB0eXBlX3NpemVzcQN9cQQoWAUAAABzaG9ydHEFSwJYAwAAAGludHEGSwRYBAAAAGxvbmdxB0sEdXUugAIoWAcAAABzdG9yYWdlcQBjdG9yY2gKRmxvYXRTdG9yYWdlCnEBWA8AAAAxNDA1NjcwMTA0MTExNjhxAlgDAAAAY3B1cQNLB050cQRRLoACXXEAWA8AAAAxNDA1NjcwMTA0MTExNjhxAWEuBwAAAAAAAAACcJq9gA+dvLaS3z2isrs98khjvU9qID4JJSi+lIWUUpRLAEsHhZRLAYWUiWgCKVKUdJRSlHV9lIwJX21ldGFkYXRhlGgCKVKUKIwAlH2UjAd2ZXJzaW9ulEsBc4wFY29udjGUfZRorUsBc4wDYm4xlH2UaK1LAnOMBWNvbnYylH2UaK1LAXOMA2JuMpR9lGitSwJzjAJmY5R9lGitSwFzjARoZWFklH2UaK1LAXN1c2Iu".encode()
    weights = pickle.loads(base64.b64decode(encoded_weights))
    model.load_state_dict(weights)
    return model


model = load_model()


def agent(observation, config):
    col_num = config.columns
    row_num = config.rows
    channel = 1

    state = preprocess(observation, col_num, row_num)
    prediction = model(
        torch.from_numpy(state).view(-1, channel, col_num, row_num).float()
    ).detach().numpy()
    action = int(np.argmax(prediction))

    # 選んだActionが、ゲーム上選べない場合
    if observation.board[action] != 0:
        return random.choice([c for c in range(config.columns) if observation.board[c] == 0])

    return action
