import io
import base64
import pickle
import random

import numpy as np

import torch
import torch.nn as nn
import torch.nn.functional as F


class CNN(nn.Module):
    def __init__(self, num_channel: int, num_action: int):
        super(CNN, self).__init__()
        self.conv1 = nn.Conv2d(num_channel, 16, 3)
        self.bn1 = nn.BatchNorm2d(16)
        self.conv2 = nn.Conv2d(16, 32, 3)
        self.bn2 = nn.BatchNorm2d(32)
        self.fc1 = nn.Linear(192, 32)
        self.fc2 = nn.Linear(32, num_action)

        self.device = torch.device('cuda:0' if torch.cuda.is_available() else 'cpu')
        self.to(self.device)

    def forward(self, x):
        x = F.relu(self.bn1(self.conv1(x)))
        x = F.relu(self.bn2(self.conv2(x)))
        x = x.view(x.size()[0], -1)
        x = self.fc1(x)
        x = self.fc2(x)
        return x


def preprocess(state: dict) -> np.array:
    row = 6
    column = 7

    own_mark = state['mark']
    baord = state['board']

    assert len(baord) == 42, "Board length is 7 * 6 or 42."

    board = np.array(baord).reshape([column, row])
    # Convert Own place to 1.0 and Enemy place to 0.5.
    if own_mark == 1:
        return np.where(board == 2, 0.5, board)
    elif own_mark == 2:
        board = np.where(board == 1, 0.5, board)
        return np.where(board == 2, 1, board)


def load_model():
    model = CNN(1, 7)
    encoded_weights = "gASVgMgAAAAAAACMC2NvbGxlY3Rpb25zlIwLT3JkZXJlZERpY3SUk5QpUpQojAxjb252MS53ZWlnaHSUjAx0b3JjaC5fdXRpbHOUjBJfcmVidWlsZF90ZW5zb3JfdjKUk5QojA10b3JjaC5zdG9yYWdllIwQX2xvYWRfZnJvbV9ieXRlc5STlEI9AwAAgAKKCmz8nEb5IGqoUBkugAJN6QMugAJ9cQAoWBAAAABwcm90b2NvbF92ZXJzaW9ucQFN6QNYDQAAAGxpdHRsZV9lbmRpYW5xAohYCgAAAHR5cGVfc2l6ZXNxA31xBChYBQAAAHNob3J0cQVLAlgDAAAAaW50cQZLBFgEAAAAbG9uZ3EHSwR1dS6AAihYBwAAAHN0b3JhZ2VxAGN0b3JjaApGbG9hdFN0b3JhZ2UKcQFYDwAAADE0MDcwMzQzMzUxMjQ2NHECWAMAAABjcHVxA0uQTnRxBFEugAJdcQBYDwAAADE0MDcwMzQzMzUxMjQ2NHEBYS6QAAAAAAAAAF7mcj5IdJW+YFF3vcCyej1x548+Kjh/PtAKGz4gkSq+jilgPhZt8r3LaRS+qvw3PkrNYj70ktE9tsJjPiapRD47tnm+6od0PvnlpD4AQzG96+FTviTXtj1GeAO+kCSjPGbBxb0TXG6+kn8CPuCzDzwAjF+73DXyvb7Kc77o/Qs9YKsXPrruZT7Igh4+AG0TvhqlKj41144+ABeeuzprfD422/C9mdmXPsCL5bw2vLe96lpTPqBxUrzIvEA92pYvPqCLpr24tVO+ZMioPRhtEj4X8pW+knehvkoDZT5BK5s+KzCaPtwJzj07jI8+CodePvaVzr1v2oQ+dpNsvkbxr72yeHc+OXaQPkO2or5OWWU+yKF4PYWdlT63aIm+rtp+PoOGF776Rn0+WE8MPWAoXDzYe22+hqSsvdCI2z3GpCo+7d6pPtJwWD6wl52+koRXPug6Eb3W/KK+i7dyvjWFnz7YLkA9TEiCPfjwHT1O2me+nCegvYU6nT5YoX6+RPe2PVj5NT0EKcY9rr4JPuggWL6+z2O+3ip3PjK+Sz4AKFc7CFsqvUE6iz4Asi08dyyLvq4oJT6+9m4+rCKgPerHqL7ginY8vCvZvdIaeD6lbaM+YGMVvUihNj3sRY6+GD8ivpDU4j3AYa27yz2VPgnfpT6uZCm+0ENEvty78b1QhyO+Wnk1Pr2Ihz7pHY4+iFcUvuZzaz54PFi93sg/vhAaEb78q4C9YziWvhikcj1PII0+IdeFPoM2Ar74Lzq9SJB3vpSFlFKUSwAoSxBLAUsDSwN0lChLCUsJSwNLAXSUiWgCKVKUdJRSlIwKY29udjEuYmlhc5RoByhoCkI9AQAAgAKKCmz8nEb5IGqoUBkugAJN6QMugAJ9cQAoWBAAAABwcm90b2NvbF92ZXJzaW9ucQFN6QNYDQAAAGxpdHRsZV9lbmRpYW5xAohYCgAAAHR5cGVfc2l6ZXNxA31xBChYBQAAAHNob3J0cQVLAlgDAAAAaW50cQZLBFgEAAAAbG9uZ3EHSwR1dS6AAihYBwAAAHN0b3JhZ2VxAGN0b3JjaApGbG9hdFN0b3JhZ2UKcQFYDwAAADE0MDcwMzQzMzQ5OTc3NnECWAMAAABjcHVxA0sQTnRxBFEugAJdcQBYDwAAADE0MDcwMzQzMzQ5OTc3NnEBYS4QAAAAAAAAAKuFcL6+5mQ+6pNfPka1XD6gp0894Bzkvabmj74IYGS+RAfGPfBBnz0AyBw+s1ouvuhnd71D3V2+ABiPOirMPD6UhZRSlEsASxCFlEsBhZSJaAIpUpR0lFKUjApibjEud2VpZ2h0lGgHKGgKQj0BAACAAooKbPycRvkgaqhQGS6AAk3pAy6AAn1xAChYEAAAAHByb3RvY29sX3ZlcnNpb25xAU3pA1gNAAAAbGl0dGxlX2VuZGlhbnECiFgKAAAAdHlwZV9zaXplc3EDfXEEKFgFAAAAc2hvcnRxBUsCWAMAAABpbnRxBksEWAQAAABsb25ncQdLBHV1LoACKFgHAAAAc3RvcmFnZXEAY3RvcmNoCkZsb2F0U3RvcmFnZQpxAVgPAAAAMTQwNzAzNDMzNTAyMTEycQJYAwAAAGNwdXEDSxBOdHEEUS6AAl1xAFgPAAAAMTQwNzAzNDMzNTAyMTEycQFhLhAAAAAAAAAAAACAPwAAgD8AAIA/AACAPwAAgD8AAIA/AACAPwAAgD8AAIA/AACAPwAAgD8AAIA/AACAPwAAgD8AAIA/AACAP5SFlFKUSwBLEIWUSwGFlIloAilSlHSUUpSMCGJuMS5iaWFzlGgHKGgKQj0BAACAAooKbPycRvkgaqhQGS6AAk3pAy6AAn1xAChYEAAAAHByb3RvY29sX3ZlcnNpb25xAU3pA1gNAAAAbGl0dGxlX2VuZGlhbnECiFgKAAAAdHlwZV9zaXplc3EDfXEEKFgFAAAAc2hvcnRxBUsCWAMAAABpbnRxBksEWAQAAABsb25ncQdLBHV1LoACKFgHAAAAc3RvcmFnZXEAY3RvcmNoCkZsb2F0U3RvcmFnZQpxAVgPAAAAMTQwNzAzNDMzNTAzMzEycQJYAwAAAGNwdXEDSxBOdHEEUS6AAl1xAFgPAAAAMTQwNzAzNDMzNTAzMzEycQFhLhAAAAAAAAAAAAAAAAAAAAAAAAAAAAAAAAAAAAAAAAAAAAAAAAAAAAAAAAAAAAAAAAAAAAAAAAAAAAAAAAAAAAAAAAAAAAAAAJSFlFKUSwBLEIWUSwGFlIloAilSlHSUUpSMEGJuMS5ydW5uaW5nX21lYW6UaAcoaApCPQEAAIACigps/JxG+SBqqFAZLoACTekDLoACfXEAKFgQAAAAcHJvdG9jb2xfdmVyc2lvbnEBTekDWA0AAABsaXR0bGVfZW5kaWFucQKIWAoAAAB0eXBlX3NpemVzcQN9cQQoWAUAAABzaG9ydHEFSwJYAwAAAGludHEGSwRYBAAAAGxvbmdxB0sEdXUugAIoWAcAAABzdG9yYWdlcQBjdG9yY2gKRmxvYXRTdG9yYWdlCnEBWA8AAAAxNDA3MDM0MzM1MDQ1MjhxAlgDAAAAY3B1cQNLEE50cQRRLoACXXEAWA8AAAAxNDA3MDM0MzM1MDQ1MjhxAWEuEAAAAAAAAABewdm9bbCwPrxYMT53L4I+EC0lPmrTdr6IBiq+DxYKvoLDWD7e4OU9gKZrPocUIb4h1Qs95GNHvi/gNT180gQ+lIWUUpRLAEsQhZRLAYWUiWgCKVKUdJRSlIwPYm4xLnJ1bm5pbmdfdmFylGgHKGgKQj0BAACAAooKbPycRvkgaqhQGS6AAk3pAy6AAn1xAChYEAAAAHByb3RvY29sX3ZlcnNpb25xAU3pA1gNAAAAbGl0dGxlX2VuZGlhbnECiFgKAAAAdHlwZV9zaXplc3EDfXEEKFgFAAAAc2hvcnRxBUsCWAMAAABpbnRxBksEWAQAAABsb25ncQdLBHV1LoACKFgHAAAAc3RvcmFnZXEAY3RvcmNoCkZsb2F0U3RvcmFnZQpxAVgPAAAAMTQwNzAzNDMzNTA1MjQ4cQJYAwAAAGNwdXEDSxBOdHEEUS6AAl1xAFgPAAAAMTQwNzAzNDMzNTA1MjQ4cQFhLhAAAAAAAAAAF/9OPXmwCT3LJDo8Le1TPENZBj3pXiw9Ho1zPR/HhT3kS7Q8EIjePL2IpTwZ1588rvLRPEarvTzzj4c82VixPJSFlFKUSwBLEIWUSwGFlIloAilSlHSUUpSMF2JuMS5udW1fYmF0Y2hlc190cmFja2VklGgHKGgKQgQBAACAAooKbPycRvkgaqhQGS6AAk3pAy6AAn1xAChYEAAAAHByb3RvY29sX3ZlcnNpb25xAU3pA1gNAAAAbGl0dGxlX2VuZGlhbnECiFgKAAAAdHlwZV9zaXplc3EDfXEEKFgFAAAAc2hvcnRxBUsCWAMAAABpbnRxBksEWAQAAABsb25ncQdLBHV1LoACKFgHAAAAc3RvcmFnZXEAY3RvcmNoCkxvbmdTdG9yYWdlCnEBWA8AAAAxNDA3MDM0MzM1MDU5NTJxAlgDAAAAY3B1cQNLAU50cQRRLoACXXEAWA8AAAAxNDA3MDM0MzM1MDU5NTJxAWEuAQAAAAAAAABPaRcAAAAAAJSFlFKUSwApKYloAilSlHSUUpSMDGNvbnYyLndlaWdodJRoByhoCkL+SAAAgAKKCmz8nEb5IGqoUBkugAJN6QMugAJ9cQAoWBAAAABwcm90b2NvbF92ZXJzaW9ucQFN6QNYDQAAAGxpdHRsZV9lbmRpYW5xAohYCgAAAHR5cGVfc2l6ZXNxA31xBChYBQAAAHNob3J0cQVLAlgDAAAAaW50cQZLBFgEAAAAbG9uZ3EHSwR1dS6AAihYBwAAAHN0b3JhZ2VxAGN0b3JjaApGbG9hdFN0b3JhZ2UKcQFYDwAAADE0MDcwMzQzMzUwNjA2NHECWAMAAABjcHVxA00AEk50cQRRLoACXXEAWA8AAAAxNDA3MDM0MzM1MDYwNjRxAWEuABIAAAAAAADCNHQ99IO4PLgXVLyT46e9P/uAPZeOlL0jdIs9yA5bvbqWOT2opnA8YphXPUaKu7xYGpi9FmfuvKipdTwAuYY5qG15PDyuwzzQ9pO82BFRPGoui73K1wo9ZrGyvE0rmz3G8Ck9mwSXPfxU8bzAOMm7gM0TupcAkb3WTNm8JGv6PF3xlz21+449rWaKPQr8kL2MDsi8a0B4vZ4Ynb2DQE+94P0Gu3XLoT2ebV+9r7WKPagHBj22Vxc9nrEQvYKFUT3G/T89Bg8FvXP/HL1JkJg9CwRdvYR4oLwovx29wDPjvEDqijwQgK470NKiPFVckj37D6c9JGbwPKPAmz3mBkg9AL15vWCNZr37oGG9+RyTPWqkXD2n7Is9BYaiPTrLUT1sifu8aHlnPFg+QDz2dGy98PzcvEtejz1wRLg8Hv90PS5dbr32biq9AN0cvCD9+rxM2Kc8rOrsPJxJgb18LPM8mkhdPUJtpr2ckoM8gAl3PED4/zx4pAA8w8E9vaaQf71wEZA8eIkBPTDNr7w48g2988GSvTsrl72TgiC9MO6XvaApxbw4vge9brQ+PaRHjbwnF5Q9XkkYPeS9nDzjKk29GxlbvYj0k71Qccu8ACn9uRDgir3SlkE9Gj1XPX6xKr3iUjw9TG+XvbasLD2/W6g94ZCOPVN+nz1t1Zw9QDO9vNZ9ZT3cfc28i958vThjQTy0CKK9emd/PaSBzDzeeX2915yOPbPehD2BaJM9mAkePcxM0LwAqWE8gOBgPM4FGb1VWoo9AC3WOlLvMz1rwpc9YCy8vIBteb2MGuC8iEMEPajcWTymc9q8nhMyPcCl1Trmfpm9IBoJPGByYjxEyIO9reCgPbHgjT1ojyw8aXmCPVAJmjxwPuk7QAmwPACM6rm4aFa9AOAtOEDAjL0TgpC9YJtFvHg7OzxYdF+9NvN9PeDjJr1i1E099xSoveQfgTysjpe91l5CvVa5cb3gS6a8DObaPKp+bz1wlPi7NplMPYBRirzci5e9kxBnvUjzQrzKLl095jVuPa00pz2mUEE9s2QgvXrIfT2ohVi94FU9vFrUUz1i3kA9AFAUOsYkd71j7Ki9KcCEPf0tnT0AJfy7avccPbVYij0gMBA82i43PQgyML0OgkA9cCK6vO/Vj70e7jG99I/jPJUVkz1puYs92+qEPRRmkrzwZs47jnthvb4BJb0U4tI84LIkuyXrpT1wr6s74DpyuwD7yLvuQCm9/sN4vZhDGrzEgf883ZSJPZhzIj3AygM8XdCQPQjjZDxX9Kc9ttIfPXBivLuFvaI9xGagPOIFkr243Qs9AP8cvAGToj23UIM98HMaPTsZML29nIU9GHw4vTR80zyg4Ro7E+g2vRD1jrzm/ti8YHbDPGyzgDzACey7YJsOPMp/aT22DP28TL6lvaCNX7yejHW9KCtXvAeXjb1wf9k8lJ+2PKAsA73jdHq92qJrPUxclLx6HkI9Gk5pPaAroL1Ehuw8Wz2bvZwtpDxYmnm9Li2Ovc53PL3Gjfi82rsFPVmyqD0oSmm9/7ekvYsUfr2yt6W9OBpsvLV+kT3+AzY9/Jv/PMbVbL2wboS9EKWGu5yjp7wqolo9kolWPWumir0MUYK8TFTwPNZZsLz4PKq9PgAVvefBpj24GhG99LmfvACqQzuQdQI95nyevSBjIj1ydnM99mAkPdDllzsATj66ogdTPWhrNTyGRkm9CmpMPequAD0OowC9KgeBvZS+oL1aZx89cB3kO0DGibpy8wI9sNDcu2jOLL04iYu9NEKEvTi4b72kvOM8QBHSOia3zrwoExk9wvdSPTiycLzKiVE9p7mlPatfYr3mh109trdQPZbpJz2Y8l29HYykPcYYu7yAAeA86BcHvJRMxjxIMmu8+3mZvRJlRz3Q88Q8BkkLPcwll714UyO8pE35PPo4XD3rmTG9lJqAvOCH1jxwOYg8SGpDPPihQjx+4Ws9qhCmvYIjPz1Q1Di9nN+YPIB25jwQCJa9+CmUveWsqT2qUWI9skpTPfIJXj18uPC8sJSJvZppYj0+uhI9FvFbPfaGUL379Ys9SgBjPQA6cr2KZ5q9YNJxO/rLej14REO8GJ1tvAbveT1wJ+i8dKT9PBYVAL0CuCk9WsVePUiXEj2+EzC9nMuivZs1j70Ayjq7S+OSvQB+ObxQU9s7xCOAvdetmD3AG/C8APtBu4DqCr14yAK99/epPVKYpL1cXIY8jvl/vbh+X7y+kEw9kuKovegkXzymjze9QBTTuhr6g70Slpe9Fv3zvJhAXbzGqvu8APsnPJGNoz1Ezbk8RBq6PJxujb1Ich29MjVUPWBKf7y4i2O8MlJsPUQH1TzIPhc9aywlveKQPz0ivI690K6cu3wppr1s1q28iv94PT+/k73/OY09HMOTPNACvDugMFy7lw6iPVKweD2QU9k8oM4hvaokRT1DwFO92JOfvRqeBj2g42q9nMzMvFCs3jyB8Zc9AJKuOlwFxLzruKa9aEAvPCZ3bT1ckPa8dtNWvTCw2ry48DI8Wn86PUyKg7xgyEe8QBmiun/GgL1ppqM9TvFmPebqGb2eBRY9jlh3PYbO+7xKogA9K86jPfYMSj3/LIS9ACVfvJY4wrxdH5E9DF3jvN3+nT3QBNu7sHiYu61VqD1l/ac9jwqqvQAlYb1+TTQ9bPvEvIt3cL2mxSa9cDLMu4vig70yf2w9KGQfPDz5hb1IvEE8Enh3PYyFmr176YM91CGaPHCQor3i1WE98HyjPB4AbD2AWg08gzFGvcBGTLxmQE89K1KPvT6zOL2MJdq8eLEQvNRqqb2cHYA8vwiiPQy9sDz4bXm9wEvpvBD/QL3WECw9SN8lPYZlob1IkTC8tHGAPCobcj1WJB09bsURvQC6GjmAPEO9wO2WPJA/fr0A0O26RxeJPRsJS73+31s9Rrf4vD6efL2r8ZA9SYicPXxCjzzB4ac9gxwRvbfAlz2PlZq98JHHu667dT2aWDU9+OM2vFpTdj1uOxe920h5veiuG7zAhWE8vtZSPRD32jvjQYu9oIRKO7sjdL1Dtqc9vw6Avd8UkD1wghi9OGVSPJ4fRT3AWmg81HjMPADHyTsh55o9OxE1vehsGzxrhC+9vKflvItpYL1Hf6M9qlugvf0uij2eU3W96uBbPaLtWT2gB728JkIgvXg2XTwAQeW5QI+HvDgrMzxjClq9txqGvTNZBL0J2J49AhNGPWp+KT3yrVU9A82EPchkGr0w4A+9HZibPShFXL2470U8q1OivdOYTr3wwRY9CA5wvdA41zzKPlg9GKQ7vHNKoT3siKq8U4yBvehkTbzbj5e9HdCOPcYS5LwK9jI9kVGpPaBv97wAtT+7JkhzvYpkBD3wndq7PHbpvNYlRL1MT6w8rvdAvcOsB70YhVc8uO4ZvImppD0fhJu9VHa1PMA/wrtcUoW8GIkWPfS6rDymcMy8EK9YvSfxnz17+zu9+gg9PYI+GD1LGIC9uLIqvYAqObqDAaO90USCPRiQYL30XtU8cIqJvROIgL3AqKY7gOpzOhKIDz10SKc87AScvQAGMToYX0m9jfOgPXrSlr1qITw9h7KYveDvHLtrqDe9JX+EPZ9+kD3oa5G98E1kvWpQST1gfhA7TkN5vcqypb08p888PAPxvNAmiLugH0y9ZLaTvF4zQb2ol0s8gqtAPUsmDL1UdKK8LjlHPUCfCzxy0yA9yGZkPLMhJ71u8WI90TqkPYzN+bxXlqO9qqmpvcy11rwlsI89JQ6VPfPbeL2gziC8EbOJPbgMIL12mhi9qEt/PDxDgL1rhi290plOPTbI8LzgeZi8uFtQvW2npD1L55i9dLqKvDYHUj2weM883DqQvezT17wAG4653AiZvRAmwbuuOhk9RlyRvWA/yLwwPvc7UGjuu3vaRb10qYM8ToIgvbZMwLyoOTW9NCCTPGxOljwKP0U9au5mPUBskTuAq9A8O+RFvSgIU7yU3aQ8ri0TvUiYqL1Qa+68oP0OvJYsBr0+plo9poTrvGbAR71EGKq9+ExivRBu5zwaYFc9IBYNPcfnhD07/FG9onYlPeYbOb0opAu8SrgKPV7TGj3GA2I9gMAROsBu8brbtnu9GA5xvWgUVjxO4Sa9AvY3PXk2lD3qCk89JV6XPWcPmL0QRq48hYKUPeZbbb2GSS09gh9RPdO4TL1GKt28EEnLPJ4+Vj3Asai9zvBlPT92gT2sMJS8uJJ5vJtQC73D7Se9cHaiO4zA5TxAc848h9+FvY4OUD1GtQS96gyZvcBj5rymilO9QGvDu5XZgD3iISw9XpY6PchxEj2gC7w8GBWdvezjpjySJBY9pkEcvTUkjz3T5KE9QGL2u9Y6Uj09sIA9MKumuyaEWr3ueh29W21xvcZHNj1uhzG9eIM+vI5Qdj0QxQo95+OQvbCpmbx4fAS8zEOYPID6BjwdHKI90AHwO8jlNbysZ+S8aCk5vRbtG72h4489Hg1BvWAxHbvGlC09IiGkvezJpL1qWEk9CxcmvdRw/DzwQFi9AA7suh6SNr0h4Zc9nuUKvUBiO71WNbe8WKdQPNzo+byu8FU9cDmPPKAYKTsThYM9YJnWvMSEkL2y9g89SPZvPGMQbL0KeDc9CHtJvX8fiT1slJc8wRqBPcAk1jzuJFo9AHhgOU7pNz3mpjq9haKXPShkKT1g61k8QC8SPer8Hz1c/rM8Aj14PRpjeD2tNKQ9UL4Evb6CG73Rlp89G4kUvd6faL2NQJ09JrvWvNpeDz2lJpw9olx8PfPJnj1A86I7kBgivZABqzsgsQq9LTCVPUAcCz2AfQQ9WXqMPS1PqT2a3EI9PSSOPcCk57xy2SY93A+KvGs8qT0qrHg9qBYxvGLbNj09h4E9rETRPILwlL1MMoU8CxKgvVBz6TwDAwy95vr8vISgxjzQSZc7gMKdPD+mhb0rvXa9xJmwPKA7Jr1Wb2g9v5uJPTUlnz08mYM8c5OVPeCmTLsQ40y9jklrPVCd0TtKjZS9gFUkPNoXJz3ASsC8YICuvJwk7zzeFmY9QFYDPNB+uDz2iqS9cBDKuwbsaT2K7oG9JCyHPOCFbrxDeUi9gJP1O8eNjD0Q+fq74lQIPWp9UD1TEmi9UFyVvCnypT2A/me8liE3Pe3Viz2A15S9du3ovFBKtbsKml09NADmPJzCjb2wt0+9cO2RuzZ+GT0fpJ29/NOVvDCFpb2uiBU9u+tbvS4lWD0Ln4s9mpWhvcCvvjxsMrm8XqN6Pa9Gmb1w6+A8ADeoOiCtrDwQyvQ7Q+M0vd5Kh73YTYq9BTGlPXhsAr38cYS9uIohvR7rcj3MVeC8dn3DvLTQmbwzf1O9+7+UPW44YT2uy1m9UOC7vN/1ib1iUYm9dFizPBmuij0RdIo90I+WPCAWHj2IBYC9rPD7PFVEpD3C6Gs98C+8O5hRHD0KyJ+9tqJEvRBF/7y6np69wMFjvZXogz37+wO97XKPPRLzn71uvWa9QH9JvYAtnb3nXp69UyU8veughz3rhga90ROMPXogmr1OHam9PEPGvPA8RL3+VGm9KH5+vGzMqTy8IZ+9mbiDPYAGBb0qV1A9sGDhuxj1JL1IAUQ8cOjRu1a0wLwOxBm9cyecPaeplT0iUz09dA6EPLWhkz1O4Ay9EEBbvaDXFrxzewq9IG/9PMNua70Y8US9wLpovfigPTzolhY9hJKCPES/4jyAJI27AK8LPbBCm70mWeK8H7WbPcthGr2YSCC8y3KjPas5VL3g4xe9gD5COwhkEDyKABc9QAH5vB1Apz2Ka6a9gLYcu/xVpjwA0fq7y0hvvQAEHzqjN5a9gzIbvdirar2SjzM9Oy+YvR+OpD1Y3TS98FChvDlwgj3IeAy8SMUPPaCzEruo6HU8gLgWuv3riz22+Hi9YDKevPZdWz0FV5E9ScyXPSpbJT3icg89MGWQvcoATT2AGF08FwyLveCoHT0Mf6O9os5bPQITl70d1509gLMXPYQtkb2IS4y9EGrBPEyrrTzwNf07zmx/PfCxkLvocwe91oXLvMEEgD07DTK9uzclvXAM8rvDrYs9ZYmZPRR5qb1ay2Q9AGAQN6uPAb2ALXu71AmuPPvkoT1mWRI9nnwFvXsaPr3cwsC82KQxvWzvhTygPeS8buVHvQJtaT2gDA49ANfoO0wS/TwoZEe90pVePXtDDL2wDD29PISePIs9p716E3E9/PGbPDSQwzzeiA49+jc9PQAGkL0UFfI8wh9DPUxwnLw2FVE9ziNUvUiSHzxmhCC9gG4cPDDIzzx4rWM8e+x6vQBYirkw0/M84u8rPQDhjTosQuK8zKynPEClabww9Ic7TreKvTqMYD3oHGs8uUSOPXGqhz0ek0i9Xjmave5yJz2RcKg9zyqRPf42JL1+Eoa9QRinPT6nlb0TL229/lExvWS6hryS7A09OOZIvQSbrzzU+q887TCcPYxOnrwcM8y8WE9CPBhYPL2AGw49nUSWPdB2yzsrToo90KqkO2C46jxrP4s9s7NxvV5UJT0Ce0E9wBmGPPRmgbwltKI9NtA/PUtmWb3sE6u8UHjBvBIwED2wr5S7Gnc/PUCqDbxmcUe9OcGaPTKMjL07n2+9mSSiPVikETwqXqS9+iqHvZD5ybuwMe47UIXGPPZlKb3IrTS8sOP7O4B94byy/6W92LSWvUBeALx443o8AFTvvDieIDwAlku9jrg6vR8Zmr1P5Js9kNK3vL1+jj3+VZC9SCh/vIPwgT1ol0I8dRSYPfJDRT1Ax5y8Dg8DPWxvzryA4wq91iBqvdJvTz3wD5u8wI4mvWTAmLxI5gm8uJ0JPfAl1DssAbE88PeYu6CNhb0YME+8e80LvcBR3DrV1IA9EKwDvXg3LzxkIoW9jqlxPcYr1rygGTm76tF5PYjxNL0vFoG9KDsZvN/chb1Eu7c8V6yIPeCbFzwLXSO9POL0vAAP3rxi7iU9NDvrPPZ0yrxahgo98BumPCiVjL08wcC8DFXZvLGzij18GKu8TdCHPZQ0hrxAuY69+UqUPeADcbtoMlW80kcgPbN+TL1WMzG9AKG9PEL7bz1jLyC9hvZjvXZ+qb1JdIc9dKyQvOS0yTx204W9G4RIvdpdDj3Hv5a97EDHvOhUYTxQlzC94l5HPfAm77xYUlK81FyMvOK1OT1OPnc9wBt+vRIsYD0sCJE86IsJPKCXDz0wJYO9gLHzvCCGmDwftIO9cC6oPIzTvbwSGVY9uJ1hveyYkTxM5Ms8UIGsuzkSgz3kD6m99lMNvUa0ML0AVdG75BzgPIDzHz0vYJA9m4YwvapMRz0uqBU98FbqPHzYjDxCmFY9APeeuZiXcryYt2o8SpZiPUalSj1MDtE8k4+fvScikj121+S8kJgpvQAXw7w7EqM9RGicvABUrDgtjag9wAPFu+ALE718lJu8wp1/PfZYzrz4PRg979CAvdjPO7zLOp+9kianvbMxnz2OMk49SFsVPG7BGb2kVpQ8yTWgPRQ52Tzoxkw8pjCwvCgVKrzB54Y9UL6VO+AoSbtaH2Q9yvVwPc9flb20rqC9Y34Yvbm+lD1GlWu9DqOXvZZd0byW5Cc9Xox9vcrESz3gcUu9AJDRu0psOj1GXca8TBW2vBCnzLwIFg098FgdvRBQkr3Qtuk7hm6hvWASVrvWnjS9NJnaPJRpujzzj0S945pgvYeZkj2Nm4A9VvsHPavVVr2DMIs9mhIWPQLmbD02NkI9/P+EvZt8KL1AmUC8YA0KO5cDiD2obi08fG2nPAC4DbtQ8e48SJ0QvNTtj7yO+1q9WMJ8vCCV0DzsTbS8EkJQPQBDnDwAat86jn0zPf09pT0QMoY86CkevSC0DjyTm6W9/6qkvQjaNzwOEzM9IHWrPJgLZ7zImGm8Ey09vctZHL1ATKG8BjgQvQufW71Weis9INYrPIBqILxw7428DpicvZSS1jwW/r28OB9zvJ+ch73Yd3s8c2kRvSh1pL0DAiq9DAyePMoGRj1ihUw9qDxPvdjxQTxvjoe97a+XPesyqr1QRbI7+VaKPRsejT1JsYU9BilIvcDJRr1tSow9mMMVvSuEjj3uYiS9F0mAvTRv9Dwefga9Gr46PWakz7yDSFa9YIcCvLqcYD15XaA9onIzPfpwaT2XUJu93OO+vCJFBT330I29AFvTu0Aj4Lwxgo09LcyEPftWIb2CEn09zsIuPTqXJj1rkzy9XqKovS4ik72wc4G8+yRLvZSsnL2IzmC8o42mvUunDb3TQpW9MDTMu9LFAD0DVCC92/8LvUzrjTyaZAQ9RJaXvMxAozzBpKE9mztrveyIp7zLrJ69lIr1PKOlRb3gIbS8UD3gu1DcsLtIZXG8hiwPvZJ4dT1KpRg9OVCKPT7WMj1gPSK8kIvYvIg0TbzRwYc9HMzCPM4OTz33Eoq9tqtmvW1BkD1GL1Y9SA8pvV5dCj2QiLg73XOpPb4Qbz1bDD+9IJv1vMg2LDye4EW9T6mqvciBATwR3589kaOfPQTZwzx+cyc9gYqKPbzusLwmGYi9u+1MvaBeRbwgSSC8OvgSPbh2JT3LxhG9pE/QPA4GG70yjjU9gLluvVDI8LtU+L08gkI1PSIPSj1rl6Y9G8N+vZAeEb2Qn9E77k4jvT1fnz10PJq9xmGFvV5UHr3GMWa9YJZdPFSJ5Dy8I+o84j+dvcD57brKH149wFEiPICAdDrWBdW88B6RvOk3oD0y2I69QCDzvNam07xA7fs6oBw/u3VSjD1APQM9NgOLvSViiT263l49wDduvEiaGr0APg666uE2PcC7fzwAs9s6z5uQPcDnQDyY/w+8PmwHPVAx4bwM+cg8iGsePDkyiD1SdVE90FYcvb17oT0ccMm8I7pgvYb5Pj3VLps9vweMvVDtiTxQizG94CQjPN80oT0+6o69I6YOvdoEeD01goo9oGiQvV7COr2utoi9PoCRvSCdbzzGsEI9NvutvBZzSr3qUKq9Lm5dPYC2MrvzjjK966c0vYqweD3EN4q91AaXPKu7Lr0LL449SJsOPDAtIj1IyjC96hoNPYYhTb2Z3ag9nKWEPOSeg7y3KZK9YoIpPca4Pj1ACg49ER+ePcC9yLzWPjG9Y1ONPW+ujz0QVVK9gmlEPQBMurhgUT07uC0mvUB8bry7S6E9JmvavLL1Qj3G/YO9BtwrPQBber2j5pK9UDaAvbQrhbzb3Wu9ELG7vOsaQL1cgou9gGuaO4y89jyoUnw8qEsGvGn3hj22/Q29Quo7PbTFxjyI8wU8CD8EPAoeib1Qa/87muF3PWC0ZzygeR68AJEkPTAN7zzBKJk9gCLFvO6kST2bPSG9UrBdPYYFAz2+V3E9TgIRPeCwz7xw3JW9QBSiumBxezv8V4O9LB77PJotgr2Orm69+GVHvMK8WD0GLHY9eGATvMCRKzxAtre6u/p4vfJiMz1G7tK8AL5zOvb5Yj3uFCo9oOsEvd7AHr0s5o08igVePVRnpzzgYgS84VSNPe+cj73cLKC8wwQzvV6/Xz189IC8I0sGvYCSPLxr4pA9Fnc5vfVTqD1ANac8trXwvCDVrbxZY5Q98FkjPYC36Tu4yHY8iAxzvShzCTwWbHg9ENqnO0b0Hr3ImhK8DG6MvNCVY72TvIo94KlNvEmZoj3mtaO9fFmpvbhaLDyg+Bg94ElvPLRX8DzwrHG9DQuCPZisl73iEoO9ZvxvvbIvSD0wYja9JuMePYDy4TwwFiW9Tj1sPZ77NL1VTYQ9AEKSvJXkkj2QI867jCyAvPQXsDxUJbw8+I8vvQCpb7vCGk89AIUBvITPlbyi5jU9qHAtvYirN733E6W9oINvvaQzqr1l9YM9gqSYvQBm0jsKPpe9UL+aOzLYVT3cWpS8oN7PvLazWj0u1nw9ETKaPRDler37i6m9zucivewW1TwwRsu8vuE7vXYS4LwIkwA9KiFJPYB6SDyggC29pY6CPRezpb1r6Tm9AEDitkzW+zyDh4k9uI0SvG+Vjr2iy0g9W0QIvcdzpb0dOZY9msSjvXpAfz02vxI9pPehPFqhjL0AgCa7hoE7vXrbnb3gViE9Q5MkvQP8IL3tco89HmEDPXLEaz3QjYq8cFy4vEsVHL1S/Wg9gI9MOrmSiD2JEpU9jfqlPcC5S7zm8n89RlZJPT2enz18t5S8AiI4PQ6YGb1NVoM9rUWgPeOVoj3AkIW6/JDvvMDL0LyAvjK9H6GdvXOEX71woL+7AAjCuohHHDzn35y9qH8EvXLGSz2wFMC8zlc8vcy+orzwnJM8/DHRvL6KLL1Xz409Wts6PQ6Ta70RI4E9fwejvSDdbrxY01A8VXSpPf2tmj1Ju5s94Ekpu/geTzxYXBc88NGIPN2zjD2gjvo8MkxIPTIzfj1XjKC9AGZhOZFgjT1iDRA98wmWPUAe/ztwFeU7ADz3OZ1omj0SzS09AAqcOiDhITxrgUq9g4GXPUD2vLsPZIc9yNYQvFaVbT1g7Bo83rIivVg5oL20oKa8Hjl1vfgPfLzCkC091v9PPUBVwDqGXVE9SBajvTAnL717ySK95I2cvQCmLrp+dnC9GyCEPTJFJD2KSDM9kFZjvUCv8DoAYFy4W1RsvarxHT20VLc8Lr5JPYrbCz0YTHO8JHSVvK3qqD14uYS9QFloPMBW7zvkcZS9Frj/vEhcEz1YzQI89soKPRADpjs28Gc9bHTFPGBJ/jweLVu92aeDPfJKaD3WMFs9UPCcvXBy/zw7LUG9VwOHvQoFND3c5cU8bnoQvbeujb3AKDM8DOaLvbgadDwmvEU9UGCYOyDaMTyAUgW66TeMPbD+Qr0YCFS8jmcCvdNKpT28B4s8KEpNvdCWFz1cG5U8bKG7vEae5LwoyY+9ev1DPTB2mDzBYJw9th7DvHF+nz1E+KG8smR5PQMhi72oySY9/k1MveACVb1w6/88yEVlPGrUaT1KYlE9Vox8PYACb7tYgAI8MhJ3PchMIDzZkZA9kjAcPeAoE7yCP2Y9VhwlPYMTGb2dI4U9sIutu8CfAD0/46E94F9Mu7i+A7ysR7m8mhcMPYq8VD1mSZa9Oh99PdTOhL0QUJq7kKOyPGTzjTxupAw9sNIHPZwbqzzAP8u6mFVHvXiLNr3b50a9eigSPaDGEj0AV6G6fwqTPUMqNr06gyY9482GvfCi7Lv5ypU9o86YPTawAL1RU5I9OC8ivIiTVDyuJhO9Z1aavS8DpL3w5Zc7wBKoOyLOLT1YAyE8XuwvvRHhmT2uJE29MIajvXgmWzwM5b08AOZmO90mgT07+ia9fI+BPKaBUL2BfJk9912VvYs/XL2WVTG9+1ZfvV8hoj3AJJI7aO9jPNKxIj3ZZI09T9egPa1HkD3gfkK8oYagPfJiVz3QE6Q85s50Pe6BBL1TPVK9agB4PQDo1zwWdDM9eA6SvRl9oT2e5hE9y+qTPWiUP7wb1n69NB6bvNYKTj0em3y9CAtDvNi9RbycMrs8FESUPIoCfD0gKz28VuM7vcBoarwePW89AF4duWfvkz1qJms9qJQBPYRrqry6Ews95PqCPENTMb3Q9cc7qPxovD6ci71gus68Ym+ovSknij3YelM88tZsPZ04pz2A4+E76IJdvaofm71Sdoy9QEhdvIDTFToSlWo9HzmBPQBO2jzDelm9AK6Ru1bDRr3eK1A9vTChPcvfVr3ar3k9CgKHvZZSX71+nkc9g85ivcBR6Ds0so29sVGQPfB4Tb004YY8LJOlvYhENLzANam6g2sFvfl+oj3AB1S9QSyoPVqZPj1CQz49UL7ZvE9jhj3bLBe99NOSvRi5E700IZU8EAbnu84OcD1QHHW9NXGSPTqVor3GUqK9AAA5O0AT3rotWZM99SOoPfQc5jwTGJU9SMcwvVn5kj0H5Ki9jLyvvGICZz04R3887jaAvR2Pnz0wV+88cDOku7I0OT3ibFw9QJ7jOqg4MbwOfSG9HLWXvErvdj1S+yA9QEXEO7DGiztQw9m7XObMPABLwDweKY69cH4+vYFHmz0DLIa966qMPTi4Ij2w05c7GFAZPGYmrrwAENk38E0WvRqmTj3DK6a96SOFPak5kz2tP4s9LmUKvQA5abtgkWa7jLjrvIDoSboGSpK9kPg2vWDiK7ug6iO9foyQvUfxhT0+gBQ9D56VPQOkBb1wgJC7ULq5vOopVT1CgRA9NqpPvTTwnrwIuDg8oMIeu8C8hbpgSm485FHBPHO4nT2hgZE90/6nPXCZ0zs60C892J6IvUCLWrxmB1q9qIMyvSh0p712Cyg9d3iAveTtjDweMj695gJUvTCxujtWpmk98+0DvVzn5jyiTls9TNXsvEBiBbzqcgo9ALHPvGYnRz3oH2s8d8mgPTJAeT1mj7W84KsBPc54ED0Sm2I90CITve5hKD3AyOK7vKiKPJNnjr1CfzM9VKydvEARN7yOEQe9f7aovav4gD34kXc8PXCHPSDhNry9hZg9K/4/vXSWl70/3Ze9vhyVvdQ0nzyIIlk8YOQxvdZIUL2CQVY91thlPUhvErzxqYI9+Co2vEW5nz2DckO9U0Ugvf5Hob3CV3s9GLwWvMLUHz1nQ6m9JuNZPdSI1TzyMGs9emsFPRhCLr3IwS68lfWXPSbuVz0A9no7Ue+BPSTCh7wgEjI7OzEQvaUNiT1cMO68m+UGvboCMD1g72I7F0+iPaCRQbzweWC92G4APFhDFrz7dkq9aHcjPEZfIz14q088q4ukvUvgjr3YPHa9pZqbPYyN2bzAt6O7ANWGO147BT3OBj+9qNdBvHh8Jb0G/xC9WduLPfabir0OZy29mi40PTDH17yYtVM8+DNFvRZk8LyLKye9Sm2IvUSSqrzqq3s9EAynvHx4lb2aRKa9IISyPH0uiz32XY299i0UPYTq3TwSoUg9oL4SvQBRMjvCUR89QwU6vQBOzDtuykm9wvUrPRYeDz16gEA9AwYLvRzVo716km89oKpmO4RUqTxIZwo9+4yPvbaMyLyIOEW9MIigPIhUUr0BRJk9HWyZPSCJ7TyoXFu9c7MvvUQHijzA1bU8DKGNPOsCAb2Yh5i9nj2JvRDUhTw8vau8nZuBPXqecz0ubQi9VeeSPS4zeD0w44W8NxyMPVtbXL3opGG9PDadPMIiVj0YJxo9wODpOk8ziL1kdaY8Fq7dvAxD5Dy8uYC8WauKPewCj7w7qJ49U+JkvZyEhjyzwyu9Z/eWPdZjCD3gUjO8gyqZvSuUZL0IDCQ8yVSqPTM6dL0uikY9vAGDPJYaXr3w/SS98B4APeJabz0KSEM9kDqEvWhWDz1EDf08shGTvWCbXLv8JpS9yb2lPfhTpr3sQJC9sG22PB/wqT32G0G90gIqPUDGE7zoeGM8ZpZsPcqAJD2AKvu7B0CLvfu2Xr17MqI9X1ypvXdPhL1IkBK8LAXjPFhxNTxuWAU9JLKWvNBV9LswBKu7IsSTvfbLqL0j5XG9gMIQuyQaobzGSyw9+BFDvNCqnTsFr5k9U7yoPdy13bzINAk8KKdNvGOyoT08m5W8RhFnPTbSYb3QYA49pDaNPEcXkT1fipG9cAzwvMATV70weQo99lJCvSzs07wm2UO9C0mJPQLzbT0Kep29BhwAveEAqD0G1nI9tjlOPRONX70aBkI9r/mevaCTl70AWTE769ejvRRw8TwQU9Q8gDivvH5rQj2cf6Y8/iNAPdzry7yefFU9p7qIPTrAQT2TMnS9sA+KPDgBcTyiD1o9ekwbPQgVS7wCtQU9nGOXPIPYLb1wTsy7VnXOvO2Hmz0Ydz28VxyLvRBwsTvApu+6JBeiPJ16qT1nY4i9EEnfuxTKwjwTbRK9gkgjPVwMz7yuJhS9rvArvV1bjD2zZ3O9PDaIvIyR1Dw4aQs8udyQPSB0LzvDtDy9pNKlvWC8Qzz6Zpu9ujt2PZ7bO71MX6K8NosgPTgTkr3AmXe9pCqEvKAJ9jw7ZA69a/lNvSrzXj2j8Im9ExuVveBVkL2AJHy83UacPS2Bqj2eWVG9lB2bvDpHPz3QV988IGzUPP3ahz2cm5g8whZxPUBPLr1vb6o9WNwhvBCyhTyFq4w9eKUoPNkgoz3ui129gBtJvYaolr2MJ6u8gGEfu5c9kb3w0aK905OEvRX8jT35EYI9IgxzPXZGDD0AXeu8Ei1APUzdqjwARc+5yv1yPTVtjj3wdwy9MAYKvbDOtbuzcmm9rJ3GvNxBn7wLATS9vReBPR+Iqr27Cmi9Rj9NPboLfT1fb4y96JFaveNlk72jPm69eN8tvTCzubxDs3K9vnBoPXzRsrwoY0S9KKY0PLd7gb02aIm90+VRvRjaAz2yk3c9hj49PTpILz0QypE7wP/AO6lNiT0hW589TbiCPUpHaT12AXc9sFb9O8iWjr22mU29AKDQOEpcTT0gZZy9AOIovYgGX7yASmy6YL6MvOxE5zxwfaC7699NvRuGoD0A9wC7oFsnu7vYnT3yD149h5eMvescl72UUPo8QLzKvAoAaz1cMrA8rPzkvNDf+jzgY7m8FOmevTqgGz2F5Y898n+XvQxr5Txc0sy8vgWUvQCTqDrYeh28shUPPdOEnD2+kyw9Y5KWvWUGpT2esyC9m1aZvayPjTzGiFE9SwsCvQyGxDy0lKi94fqoPS5IKr2TQ5U9O+eFvQQPn71cGc48bYyHPVArtLwAIhs7ztY6vQ36jz0Q2Py8XlBvvdD+qjsOKWe9IsNgPZ4mDj1qqSU9+vFxPZBEWr2EnZW9h9uZPWDBBjtIB0K9yQWhPfiKQLyuyYm9i4A2vehnGT14djM80NavOybr17zgrMS8uj87PRx0q7wAGlA5GVKoPTppAT1IWo69GB+CvV6EWj2C4Ki9+I4MvLwxpb14QC28IvAgPUL0Kz1YqpK9xIvpPCTtlb0Tqyu9oFBIu0LBID0saeg8AB5gvToTQz0ctP68QHztu/Zynb2SbBs9AEMZO/h+JTww7qO9/pRHvb0omz2APX46RPKNvEDR9Ds+T2Q9dl3RvNhgIrw6LTQ9hpotvSKpbz1774U93y+GvWB4J710QaA8DNKoPEj3Lr18ss28ZmTlvKC06TyoSga9ONMsvOAXnzxyW2g9ytGkvbIzeD38apO9UBihO1DPirx8Dv68qPObvahIOjycB/q8hHOGPMFHnj0EtZk8HowPPfbpRj3Lvii9pX2bPSwa67yLOJO9M3EBvYivg71noIK9KDBePMZx07wUyZm8WjgXPVkqiz13MIu9jBy/vKCPJz0WTb+8uxFAvbPofL2QvAC95q/nvNaUBj041ES8YPoKPCmRkz3rsxO9OCwTvPZkbz3wLFm9KMpIvBzrl7yma169CGBiPF45aj3QT7C78jgfPTZJPL2YzQ08ClY1PVgAm71gi0C9jtxUPcyakL0D9549+jiXvb4rD72MG768SNQmvDU+gz1g+TI8QtoaPWThijwlEIo9pghPPYYSEz2r/YE9gN7XvCh/Lr2XpKK9dtnivFsPqb1QcZw8UJU+varYcD0AYKc6QFcfvMsJGb3mxMG8J3GMvRTrpjy2h/u8IgdjPbiRVr2AOEC8Uos2PYvBC72GMGg9aqpCPYyd4rwAuei8nFr2vFRLujxwo/88HqNovSAWdrwoeQk9ALEdO8QKoL2YKAE9YCWxPPofqb2VgqU9IEWmvQg9Ejw2cma9MOaAO21Ygj0e1SA9PlhzPaAQgLzAt8c64z89vZKzHD3ADY67u4VGvRMjRr26tXg9CW2YPeDobTvAMeE69uZwvf4OUj2wNA899jgxPXDtubxKoo29cNKbO2iNQDyQTYe78NGbvb64g73Wv+m86PaYvdixEz0gPX48QK/IO5eciz3oZgk8fKyKvIBzYL2Mk9y8gO+sOymvoj3yXFQ91AuLPJ4ZNb0GpXc9fLeDvFi+NL0DzDG9dJaXPIAA/7vgtNG8vnYLPUmmqT3AUTg8tN2oPPXxkj1I6nk8hhYxvU43UT3AXmq8xD2VveIJPj0rlHm99mlrPc2IlD1Ir5S9NMSQvSGXqj0tlaY9Z9ekPXogLj00OII8gFijvNAHNb0ozZ29/s8ivSBozLyOhT69psdVPWJLZz1K5DA94LsEvPa8bb1yLGc95tQ9PS6lgL0qFhk95xSXPYxY9jzjjka9e4YtvQUUjT0Gi569G759vaBdir3dLY096vQrPexhhzxAVYc7bQiQPYDg7DwaFX09CpBKPWBsbbxyF4e9rZWAPVMQhL2QZaO7sd6YPbBwnLuTUai99uZpPUvinz289uq8OOFEvOf0n72MN5685oTvvNzfpzxQ2Zo8nLGCPODUILvjzGC9MYSfPcKSFT1gWja9UwQovQoMGj2Y9gE9Ytp+PfPTOb0ipX89QN0lvR2Voz2aZGQ9DoR3vRDUxrzP3pY9IJU5O2p2QD3UpaS8YcqIPbLaoL145yq90l8/PUATYTx/L5W9Mkw1PYGslD3faYK9yTaNPa2Ljz0I4F29cgdxPWI+Hj2e8hq9AEnuu/Qxpbyu0SK9raGOPbe3ir0orWi9sQSRPUExmT0IEgo9QPu5PF7ZQr34hjk8RuaBvRa5cD2KnGA91uprva6Blb3QYoQ81nHhvAxP97zufQK9WMVBvQPCEb2YfQi88+SAPRcxkT3kT6s8Dj2BvSMEmj1z7Jc9UJucu5tTdr1eeFO9wKvcuiLLLD1ODj+9JaejPXOSXL0AM4G9kN8/vRyt4LyJ8Zc9BibtvEA93joP8oY9oKMivN9jqD0WKhs9Y8OQPQu3R73Sbnc9ZsQhvQCjrDu42FG9DPfvvAA/YL1A+E69wDTRvJnxij24xAw8eJcJPBgmEbwxN5U9kxQ6vQh/A7yYaFu8erhJPTanPL2cv888AD4guXLXZz1YxBK8ACf1OXiuJzzW99e8KGEAPU7YeL2DYQG9dNfiPBd9iD0gdb68EM93vazfszz+tG29joanvcBigTxq/W89GjN/PSPZBr2c2qK8njBQvdZdDj19LoY93KvkvKR0nzy2UvO8APqjvDBslrw4hFe8IMVqvbLxMT0zrZg9fIe1PBMVOr1muJi9gBqMPAZaSz1M8aU8K8tBvVD2N71w41+9jtdjPYRZnjzgdCq7TYOWPa0TlD3YyQc9AFznOIBfJbywG+e7kBuzPEzPmLzJXJI9JsSavWhJKbwckYk8XdKWPQAKCDmMdN484Nx9PB7YEr1ECPQ8B0GEPV7gCj0AaB84k1VIvTsgh706kZe9ODtCPLCin72W6rO8GlaNvQAmo7xqdVE9O+eBPdKgHz1awWw9w7hqvTxX9jwtOYI9Mk2ovXGiiD0c0Lo8wKvNOmsEdb0wHvY8ANAKuujZPTwwUoe8ll4RvZoBOz3EsJQ8UJSjO1smTr3/sKm9GKhuvM4zFz1mJyK9gDkUu1PWAr1aQZC9qlhfPfA8hrs49zm8pipzvVjAYDz6yEs9OBN5vMB5hrowEPS8De+HPSzJjr0JH409sG0WPXXYmT1Ivl08XPb6PAKoJT3A7I28gH42vQCeQDl48S+9Hvo8PeyBr7xA11A8vNXovFN0Cr2GX0+9wCcvvXeymL1Ym3a9uqkSPU1blz1oW5u9IKyVPNtSN70q0I69eoJ5Pc7Mh71CKaK9vOSzPGX/mD14YSQ8LmFJvREHpj3dgKo9Fk88PW09pD2CjUE9dLWkvXImPT1oLRK8Cuw1PSYi67zW3e280Pv8O2tkhz1eqE09/vlSvYCRLrwQ4oC88iBiPZmXnz02OQe9iON0vEm1pz12gNq8LwaDvXhui70gl6S9NgJ0Pcq8fj2HtKm9HLSuvMY3mL2UzJU8YmCRvfpbOD0cGKG8wFnZO+TEqzyR04Y9IHYxO5CplTvcWMe81CH7PFCLRb31KJg90gFlPW6aar2+vWu933iovV6fcr1gO0+7wPLzPKAp9Dw2BYe9Kph7PeA+RrxIiwk8joMoPa4MJj0rEj+9yms7PYA0VDugfji80cWUPWA4tTyADF07DnZhPbAI1rz0qMI8CldJPRIFXT0DK6k92TqQPaRd0jw0j8U8wKedPDW4pj1LG409Mk9QPaYdKb2oowg8CNgYPAwU6Lxsfqo8/2Scvc02jT2Wi++8JA6QvGCt0ryqmVU9SQaKPUDOv7qTTo49WrFWPS1umj3QxVa9sn4OPaD05TzJFqI968E7veDngr3weuO7pZ6JPQP1WL1gtRY84gsuPW7hRb065HM9So56PesPgb1c0qC8ao2UvezahzyBKZg9QFvqvLKmMz2QK8i8gxWjPdrXOz1C5KW9a3VTvRjRVbxY4Uk84GYSvKhJBD0Sjjw9YrdJPeBwszyMc+E883+FvYbuGz3GRH69ebePPb46Br3I+qi9aauEPSDRXb06l2E9W0QEvVgvXryI1qK9JrUBvUY34ryL4nS9Xz+Svfmilj2Zv5M9kLfgvDsdPb2In188uq53PcaIaz1St1c9SPs2PC9opD2mh2S9F8SQveY8mb1MOZi8XmVaPb4gNj3boWC9I4lFvc4GHL34kFO8SaebPQBUl7225ii9BtGVvYS3jL3sUvI83rSAvWiZZ7xQfd083+2SvavoDr37QDG9OEh0vaCRuLxLole92Dg0PPtCjj0B4IY9wI7nOuaKkb2oMB69gHx+PDCp8zskoJm8C3SlvYU0gD0g1Rg9uLM1vRqCWT2Wgm+9AAgUOOjJBj0ohna8CLMRPAAcdrpT4F29uH5evQDx0rkwt7s7msQvPTwauTyuGDK9tg2DvZjURb1nraA9AHNIOzb0WD1ki5M8MHUYvVC+n72SkVI99Y6cPQiHQbxYixc9RWCZPc2Jhj2LUna9GCtwvfJVLT2AAi86sI0TvQBXpLnAKX+8lrsmvdYler2DzVG9gDIwvCBwwzzqWmM9ABz7uoZ5FT1MLbq8FFuHPHDi7LyQn+o8BzWZvcILRD2eYlw9mAiRvf6oYj04vGU8TBP4PI+TmT29iZo9IGJ1vBiZVr1+hpS9TGiFPEsRYb3oECi8ApI9PbidAr2Jm6U9hGLZPC3OgT1Ye2S8WM4iPFD2zLvwnyo9HK/tvGUtjj151po93n+cveO2W70A0Go5WEIBva4SiL0A6+q8qLltvHC+Cj2q8S89JuAHPRhnMLywCbu8pAzJPLUsoj3gxNg8IG8RuwA7Wr1ghxE8KCghvKxLsjxGwxQ9sMOaPOaLGj18ps68x9OUPf3olz1zlG29a4GWvWZmvbwmDjU9IEaJvSjaJTy+62o9RI7aPCDAGj1MO4C8owM7vRxcgLxqJ1o9iCIHPZD0tjvfSak9cmskPcbeT72MIcs8FR+jPXBJj7zdBYQ9wBSbPLTHg7ycwZW8mCN8PHgUb73+GCG9me+ePYCM/7ve8JC9cB/zu2ZnUr1wYvA8OH+EveyR9ryg7568bGeQPGgmHDxi61g9MisyPURVsDzifpO9Rpk4vTwx/7xA9uA8lGvaPAg8ALzgF0c8pJKAvTpsID0Mk9e8NgwGvSgqJryZTYo9a46evYJETD0v6YK9cFcMPSp8bD0+0lq9oItsPM3AnD23Tqm9MIHiPFOWc72QmKe9glw+PbbMcT3UEts8wQyaPYhQQjzQ5q4768l0vaqZJT0SrEU9QOq8urBw67wyqIi9fyaqPaAsGzuQutC74NDUPPQImTxfP5G9sBCWu7qpDD3gO9A8qqx+Pd6OOD2w4rk7QKnMui76Fr2zFZw9+4+GveZCVj0gIy28/LW3PJgsabyXWJ09UNa0u9/Njz3IuTS8n76SPSgWQjygTSk7owsTvRwDjr1GnGS9EBf8uxAM1Lwg5bO8cMMyvcCRgrq2RQ69AMJ3vGZQr7xglWc7yzogvTvCmb1IoSE9Es5RPduJWL1wiOA7zvA+vTyHojzMpta8cJ35vEN8PL1NJ5w9iK6DvYBimTvr8Ie9kXyQPZDrIr1wVJ699O+lvcyZqzzAn5e96OQjPFgjf7wHuJa9BEugPN+Dnj0AaL476ZaXPWssd71qlhA9kQSWPZY4XT3aTIi9qwCfvdi7ZzzWcxM9SL9svUmUgz1WAwI91POOvfOdlb0qCaS9I4uWvSb5Qz3HS6U9FjVnPcAd2zqooYu9QoegvYqmAT1krJa9voWRvaYWU73rNak9SpOavQ76db0m/++8oLy2PFYa1bygrBS7eItvvQARh716Lj49A0iOvalJiD0ag0Y9JoP6vEu8mD1yZjU9+uIpPSCTrLwXw6e9nJzDPBGIjj07w4m9q8KKvcCQfrwIXji84K+mPAxVzzzIy04855+lvbUmlj0Sj2c9IKgVO4nbiT0wXvs8AJvYOsNdg72AjvC7kO32u+LYmL3RZqI9M2OfvVjEZTx4g4y9vrwhPcSPkb0WFWQ94Bk3vYjzITwcCuW8OPgdvcAZpLo0N+U86i07Pbyd0Tz2b2I9LSqWPQ6vGz32Q2s9KbySPVkTlD3BCZg9HHCIPLvWSr3GGuO8EOjKOzL2Vz3rEUi9FMWCvZyhor3grCO7oCUpvQB/PLstAY89m2qZPfs7Ir0Yjyk9JOeMPFi5Hb0uMAu9ICgdu9wM4LzTGZe9ZeKmPS4ak71edzu9wDXoOjA5jLzRP409EBjJPMCrnLtwboa8ErwePShVdTw9Ros96C4svEBeBj1Atzq9bwWJPa4/BL0g1CE7QEE7vPhGob1/JZI9ighJPQKTfT12Kw69wOUzvLrRaT00o4y9IOeEPKX6oj3gdgg7Zt0cvQxql7yYpnE8JkMfPVtCnb2M/bi8HhEyvUBzkDrAare6LcqmPclvlj3G57C8aqBMPWJtaz0DPKE97yCiPSOMnT0gzRG7X16VvYYDdD1gny67ANGpue7dKT3Qs5o7rOi2PJqgST1AG/s8OLISvXamTr3lU4Q9PnIRvRAozru0QKs86DR2vCa4dT3eIgi9/LPaPEJDST34j3e8YP4RvEhWBrwrjmO9Kjx5PftJdb0eUCm9Uh8rPbATAj073zq9EJrhPGOfnz0gB/M86GYaPZYZBT08Zr+8UDCvvF60Ij0AjGg7ep9tPUDE97vyxR89yLVpPII6MT22ytm8xmt/PWPySb28dNS8CCwCPKwFo7ycn7k8FkvxvNg0TzwAT1q9NQyHPYBgArqbBGm9hl1UPcDXs7z8yoO8oJNsvUjmNTwgbRu8rzuQvfLnMj1u2my9xR+DPa3AiD2cobm8/kwMvT5gVb2d5pU9PaWLPRx7nL0Iclm8OgFaPTp5CT34IkW9UzZbvVaD5LwQguQ7ur+mvTozbT3ES/w873KTvbYXRT1YLDe9kkFcPXYHbL2wvfA8uGdOPGV4gj3w38887EjMPG7Qkr3GPN28oo1zPZLlQD2AHHS7YFoePEiDXjw766c9sqFxPQAvp7sL/pu9IIIROwEfpT0JxJU9c4ZqvVDG/rxkq6C84M5WO7oaaj0COCw9nsF3vYTPkjxQle08+QeJPf6GMr0n+6C9wPpyvaTosTwYxC48Hrl5PUDG4DrQJbQ7Do0PPZqIlb3OzW89WM0yvWRUrTwoFV88UOO6OxNgiD2IITG9wDWHunSgibwm2Le8d5apPWaZDL0wc4K93t0gPehDED3gSWc7+vuYve/InL08p4S9XtAiPYMRG70qM2I9uKJ8POhFcTyGwAY9cAfAOxZuLz2YIx68ziZqPYgSeL2gv/E8QJo9vCS1ijzCZ0Q9i/mdvXwAlLxDj2G9eYmpPVj0Cj2G2Oa81mBEvertDj3OShK9sLCUO5PRQ72e0o+90WGAPaZ4HT0Nh4Y92KYTvLg9Dr1IqKO9aIVivMv1Xr0MYYA8QBK9OxrKMj1AfgC8MMmPOwSlmDw8C6W95m11vSC9XLxMBtU88ox+PWk3iD1W8s28gHM+Oq5OHT3Yv3O9KkiYvZ48D711mIU9JqvavGw9sjxRjqM98D+jPMAAmTyG5cW8HshAPTN8AL0gwwE7gA/0vJ58aT2CGXQ9w3F4vTjXXbxD5ye9bm9jPcsqEL0AlmS7orNDPcqjcD1ePFo9QvVpPYabC716RqW9oA2YvDvBor04iEi9OHQ2vMxM1Tw+zk49AMfhOgX8hD1sVJy9QGH1urCyDj0jIaa9iWyNPWBF+LxcNvG8r72IvX6jIr2Wvx09oNsnPXhQmb1Knwo9CDhyvPVMkj12msW8aHFzvGsKoL3QgdE8IMNcPIDPbDqK8lw9Hg1dvWR7sjxgzpg8Pe6pPapGTj0oqUu84DFnOxOFQL0rJjC9j42FPQALUjugUDy7vvcxvcAci7pfRpy9jno+PbjmebwS4pq9UEv3OxCGvzsiZmU9UoVVPXA2xzxaJYK9xid7vcJnPj3eJHu9XDONvQF1oD3cZ8g88NXovJypib2jGTi9tkVGPRjBCT2AapK94MMovH6IRj00rpC9QCDru1otZj1wTLK7kCyJvTHmgT2Azhm85JedPCWzlj3WDpa95Bv8PF5RmL0zbaS9440fvf+uhr2cb9g83ZGhPSzpwrybDxK9MPxCvQDzvTzg+/u8hhTLvHwiijwLDGO9guYdPbHXpj3b3IO9UuOhvaYSfj0Lpz292MJ6PKbq27yuMw29Rl47vRQZgDwiNEY9wJMNvSg4Orw6tAw9M/lVve6Ln72wP7U87up2vU4VaL2gzGK74Gxcve2kiD3cheQ8Ekw3PWZvZD36CWQ9CCtUvFqTZz1glUs7BqHovM4rQL2gRo68EFiiu6CAS7tvrKU9Z0qAPew9i7zQeYY84E0uvTyBgLz7+4m9cE2BvatnCL2MLa+8WNM0vcLjob3AcQC9mYqOPYqaAD3iT6S9oKh9u5iHEryq5Tg9nGiMvJoXMz1gr1S7keGPPbF8kT1q32g9I1qOvSKIej12Aw89VjIQPfuDVL2Oklc9ADuQPHovLD25nIs9suokPdArgrx2xms9bLHkvGTCgDwz1ae9OPUyvNLxqL20w4k8k16lvb+hmb1N1aY9K/wcvQBqLzkT+UW90Nv9uxIPOD2kS5S8oLvmPFiQZr1gu1q9ioKavUanGz0ttKk9XMv2vOj/KLzwgJa8eMkAvXh8MTygHD+76l5tPWq6Nz1ut3c9MDLFu8BxHzwehFO9DqAGvaWmjT3mTUo9qw2HvawOl7yurQy9N6OUPWrxWD3y10o9qk1yPfCznbvGBqy8LlkUvXxo+7yotZ29wJKavYBSIj3Ytlu98MVFvQBOKTmOEke9kNDau2ALz7xyFlU9KHsFPcAxHjxg9Mo80zoovXDl9LziRSw9UO53vdrucz3RwaI9AORJvMQJgTwSYpu9hrI2PXLSez14VYe9jODevHbFP71K5VQ9DPSJvK4EQz0ORmu9I42MPYXNiD3oAhO9zcWGPSb5+LyOYyy94KikvURRkzx7DqU9sFWfPD74dD3fzI29C7ebvbDf47v7/Dq9MuBxPaBhmjw7dqG9Bu45vW5rX73mVUA9tcqFPXwx9Lwogyk9LiBqPdM5kj34Kzm8lK/LPEt6db3eqgy9yluHvT6KTz0m/i09/7WhPWEtoT3oQ4+9ILfRPDgBJby+pB89WGlNvb7+KT0wDJ68sPu6u3bx/bzwB2K9AEi+OWiVd7y9mY49wDe4O+xH8zwoh3K9/AOdvEp3n72oony9QAG9ugRHj7yufUM9jhMkvVbCLz32UtC8AA4AvT7oSz3gv0g8u810vc66ir14bz68QI7Cu5Hcjz28qI48FqwOvYJIjL1tEok97sBIvY9Lpr2o9EC9sJsAPfq/ND0H0aI9G3SUPWMtlj0qgWU9KnVkPWD6Djs4tR+9cqOWvd+Ym73MJY48jKvCvEsyS70ht4w9uXOnPWsCer26f0Q9yDkdvOvINr0Mi6I8HAjOPLD+ET3M/pC82Lk1vZCi9zzwcZW9GBkSPQbBeD2aT1o9DodKvUA0+zv9aJ49Eo1ePTNlML0nrZu9lqNMvfMPBb15oos9KDACvV5+RD1ZBZ49DJ3wPB0IpT3uSU69+l+OvQya0TzAnA49eFqDvRdDoL1X25098FWnvNEZhD1gVs+84CRkuwj7cr3RBYY94Co5vAJMYz2bfHu9WwyLPfYmpL3w9+G8xiwyvdovHD2gNBm8WnAwPatmH70JZpo9NpjevLBmnr0AqzE7+RCqPYlNlT00Qss8DJSoPMtzmT3U7YM8a+Z3vQyW+ryKV2o9pod/PaAxTzvgD4G8InccPVjfkb222iM9gLe7u8KESD0AOEY7Bvk3vayVnjxbVSK9uNxyvP6HKL2a7FA9VgpbvRDQOL0c8aS9wLK4O0Rw6TwUDaE82mVFPUADuDpIN5C9A9UCvXjeID2ielI9lsR8PQQ6iLwAvNS49dKRPTgyKD0+gTm9SCxnvYioQjw0wIk8i6FNvf4nFz37o5Y9doDEvCCehrwI2yw8izEBvYA0lbxGXWw9hCanvLBO57ySiEQ9aI87vDzjqjy7/VK98Ejuu8YgHr3ULr88IKZYvKqwWz2PV4E93NLIPAA0wbwYgH+8Sh2XvQB6dTsOoUw9UE+AvKmPhD3gp1276xksvZ6sG72Ca6C9jnxtvcxztzx9iqc9TjRaPah/Kr3aw049aiN9PWgyI7yUd568IISiPIjXE73D4J29PuZ+Pbuccr3acAo9hgjmvEb8or2UhZRSlEsAKEsgSxBLA0sDdJQoS5BLCUsDSwF0lIloAilSlHSUUpSMCmNvbnYyLmJpYXOUaAcoaApCfQEAAIACigps/JxG+SBqqFAZLoACTekDLoACfXEAKFgQAAAAcHJvdG9jb2xfdmVyc2lvbnEBTekDWA0AAABsaXR0bGVfZW5kaWFucQKIWAoAAAB0eXBlX3NpemVzcQN9cQQoWAUAAABzaG9ydHEFSwJYAwAAAGludHEGSwRYBAAAAGxvbmdxB0sEdXUugAIoWAcAAABzdG9yYWdlcQBjdG9yY2gKRmxvYXRTdG9yYWdlCnEBWA8AAAAxNDA3MDM0MzM1MDg4NjRxAlgDAAAAY3B1cQNLIE50cQRRLoACXXEAWA8AAAAxNDA3MDM0MzM1MDg4NjRxAWEuIAAAAAAAAAABxZ09ZKufve/pj73pyoE9x0eBvXLnj70Gokq9BtEsvervaj0CySs9BzuOvW7fer3e5029swZEvQy1lrwQQ6m7YMd9O3g/HD1zd1m9TSaVPfuTfr1u5DQ9Wc+kPby8tTyCInQ9rkQ/vSZHUL32J/W8FrjlvGssqj2Ijho8WAsNPJSFlFKUSwBLIIWUSwGFlIloAilSlHSUUpSMCmJuMi53ZWlnaHSUaAcoaApCfQEAAIACigps/JxG+SBqqFAZLoACTekDLoACfXEAKFgQAAAAcHJvdG9jb2xfdmVyc2lvbnEBTekDWA0AAABsaXR0bGVfZW5kaWFucQKIWAoAAAB0eXBlX3NpemVzcQN9cQQoWAUAAABzaG9ydHEFSwJYAwAAAGludHEGSwRYBAAAAGxvbmdxB0sEdXUugAIoWAcAAABzdG9yYWdlcQBjdG9yY2gKRmxvYXRTdG9yYWdlCnEBWA8AAAAxNDA3MDM0MzM1MTY4NjRxAlgDAAAAY3B1cQNLIE50cQRRLoACXXEAWA8AAAAxNDA3MDM0MzM1MTY4NjRxAWEuIAAAAAAAAAAAAIA/AACAPwAAgD8AAIA/AACAPwAAgD8AAIA/AACAPwAAgD8AAIA/AACAPwAAgD8AAIA/AACAPwAAgD8AAIA/AACAPwAAgD8AAIA/AACAPwAAgD8AAIA/AACAPwAAgD8AAIA/AACAPwAAgD8AAIA/AACAPwAAgD8AAIA/AACAP5SFlFKUSwBLIIWUSwGFlIloAilSlHSUUpSMCGJuMi5iaWFzlGgHKGgKQn0BAACAAooKbPycRvkgaqhQGS6AAk3pAy6AAn1xAChYEAAAAHByb3RvY29sX3ZlcnNpb25xAU3pA1gNAAAAbGl0dGxlX2VuZGlhbnECiFgKAAAAdHlwZV9zaXplc3EDfXEEKFgFAAAAc2hvcnRxBUsCWAMAAABpbnRxBksEWAQAAABsb25ncQdLBHV1LoACKFgHAAAAc3RvcmFnZXEAY3RvcmNoCkZsb2F0U3RvcmFnZQpxAVgPAAAAMTQwNzAzNDMzNTE4MTQ0cQJYAwAAAGNwdXEDSyBOdHEEUS6AAl1xAFgPAAAAMTQwNzAzNDMzNTE4MTQ0cQFhLiAAAAAAAAAAAAAAAAAAAAAAAAAAAAAAAAAAAAAAAAAAAAAAAAAAAAAAAAAAAAAAAAAAAAAAAAAAAAAAAAAAAAAAAAAAAAAAAAAAAAAAAAAAAAAAAAAAAAAAAAAAAAAAAAAAAAAAAAAAAAAAAAAAAAAAAAAAAAAAAAAAAAAAAAAAAAAAAAAAAACUhZRSlEsASyCFlEsBhZSJaAIpUpR0lFKUjBBibjIucnVubmluZ19tZWFulGgHKGgKQn0BAACAAooKbPycRvkgaqhQGS6AAk3pAy6AAn1xAChYEAAAAHByb3RvY29sX3ZlcnNpb25xAU3pA1gNAAAAbGl0dGxlX2VuZGlhbnECiFgKAAAAdHlwZV9zaXplc3EDfXEEKFgFAAAAc2hvcnRxBUsCWAMAAABpbnRxBksEWAQAAABsb25ncQdLBHV1LoACKFgHAAAAc3RvcmFnZXEAY3RvcmNoCkZsb2F0U3RvcmFnZQpxAVgPAAAAMTQwNzAzNDMzNTIwMDAwcQJYAwAAAGNwdXEDSyBOdHEEUS6AAl1xAFgPAAAAMTQwNzAzNDMzNTIwMDAwcQFhLiAAAAAAAAAAg1bRPsqQa70FwZC+RQGRPuMYZr5BRoW9hA29Pql/Cbt1tDk9TBzxvH+4873IL8u9RCuovWR/Fz70vwM/AqzqPML8Bry6e9k9yaqGvvk6tb0L3CE+xHYJPiNcgD15Qxk+yp4LvlzOTL4fiae9TSGPPm4zMT5jyF6+gwE0PmVqYj6UhZRSlEsASyCFlEsBhZSJaAIpUpR0lFKUjA9ibjIucnVubmluZ192YXKUaAcoaApCfQEAAIACigps/JxG+SBqqFAZLoACTekDLoACfXEAKFgQAAAAcHJvdG9jb2xfdmVyc2lvbnEBTekDWA0AAABsaXR0bGVfZW5kaWFucQKIWAoAAAB0eXBlX3NpemVzcQN9cQQoWAUAAABzaG9ydHEFSwJYAwAAAGludHEGSwRYBAAAAGxvbmdxB0sEdXUugAIoWAcAAABzdG9yYWdlcQBjdG9yY2gKRmxvYXRTdG9yYWdlCnEBWA8AAAAxNDA3MDM0MzM1MjA4MzJxAlgDAAAAY3B1cQNLIE50cQRRLoACXXEAWA8AAAAxNDA3MDM0MzM1MjA4MzJxAWEuIAAAAAAAAAD6OzA+/eKmPUsJhD2bdtk9dXUYPu/AnD1Vkw4+EXqdPcf8UD2gRak9zjaOPSKeez1r81o9ScubPXPkJz5SckE+fD7KPb7Ynj36M5U9VsR1PS+gCT4shos9q+CPPoottT1SWqk99XOHPYeumD6jQUg+A4EZPrkOeD6nL9k9h1wjPpSFlFKUSwBLIIWUSwGFlIloAilSlHSUUpSMF2JuMi5udW1fYmF0Y2hlc190cmFja2VklGgHKGgKQgQBAACAAooKbPycRvkgaqhQGS6AAk3pAy6AAn1xAChYEAAAAHByb3RvY29sX3ZlcnNpb25xAU3pA1gNAAAAbGl0dGxlX2VuZGlhbnECiFgKAAAAdHlwZV9zaXplc3EDfXEEKFgFAAAAc2hvcnRxBUsCWAMAAABpbnRxBksEWAQAAABsb25ncQdLBHV1LoACKFgHAAAAc3RvcmFnZXEAY3RvcmNoCkxvbmdTdG9yYWdlCnEBWA8AAAAxNDA3MDM0MzM1MjExMDRxAlgDAAAAY3B1cQNLAU50cQRRLoACXXEAWA8AAAAxNDA3MDM0MzM1MjExMDRxAWEuAQAAAAAAAABPaRcAAAAAAJSFlFKUSwApKYloAilSlHSUUpSMCmZjMS53ZWlnaHSUaAcoaApC/mAAAIACigps/JxG+SBqqFAZLoACTekDLoACfXEAKFgQAAAAcHJvdG9jb2xfdmVyc2lvbnEBTekDWA0AAABsaXR0bGVfZW5kaWFucQKIWAoAAAB0eXBlX3NpemVzcQN9cQQoWAUAAABzaG9ydHEFSwJYAwAAAGludHEGSwRYBAAAAGxvbmdxB0sEdXUugAIoWAcAAABzdG9yYWdlcQBjdG9yY2gKRmxvYXRTdG9yYWdlCnEBWA8AAAAxNDA3MDM0MzM1MjE3NDRxAlgDAAAAY3B1cQNNABhOdHEEUS6AAl1xAFgPAAAAMTQwNzAzNDMzNTIxNzQ0cQFhLgAYAAAAAAAA5XlAvXDFBjzOMQY9RN7APACxJjvuiIC9uGx0PU48P71wcjc89FMlvMTCXLxwQpG77Ay+POZHGD36rcK8wMBHPekUkr0uZos9mP8iPBDUjbuiGxg9EKFZPbB2Pjx0DrE8LAt9PcpAOz2o+3Y9loN3vU4WjT3UG8w8St+OPULsg71c7H49wue2vLCTA70MnxQ9aBDWPBp50Lzwp1M8HL4+PRHtDr0gDuC8mJVlPdjkRDz4k0G9kFVJPZwP3jxAmMC79DuTvJgmtjwq71I9KhJMPXJ4Nz0ktq88SDV7vF8vAb3o7lW9/O7nPNQqgr3MxI+9xhQqvaB28rvh0wy9ZOBqPRGyCL36ueS8MLwJPTIwtrxYObW8L8eQvc7m17yQF1Q8qNmHvbTci7wQ8r08dIArvJCb47xFEUG9gONjPNh4j7169zW9uNrYPLxqEb20axo9GAOGPbxyIT3oDYc92vUDPYy3Bj2eisq8DgQZPVBYVjys6bc82GVFvBjrmzzYCuW89KXBPB5CGL1ozUc9cNCGPbB0OD3k8tI85B/KPGibvLxozTa8gDuBPChjY7xiCSM9xNItvczXq7xg8DY8+uRFvR6bkj1Yj6+8cMiCvVD54Ts8WyA94Lchu4A6zrsgmMW8Ro2DvVRqpTy+SBs9TE1bPSUYib3ABaI7TpuPPZA0DTwqG+68yJYlPCDpXLywaLg8NA5NvRh6GD2ksJG9tCeJPMAR9js2uwS9UK8xPJguMT3oVCw9WLY/Pfqnkb0YBJk8SnU+PWAKcju0gMQ8Y/qJvd+ngL0kmX892JKOPeZHgL12LY+8wKtWPVAKQrwQqRq8DtsDPVzngbz4cxa8fNwvPdAF7DuQ3qo8kH4XPAxvkjw0p2g9gILTPJDWiT2AgOS8gDhju0LVR7343yc9XHKSPeRrkL3A5eE6yPZOvD1xhL3E6dW84KKGPfAkfz2wQrq8mCGSPeS/Bj3YEEE93G7dPCQRhjwacIq87JVBvaBfbz0A1Ow87Cx3vfAvkDxQPvm8CGcYPL1PJb2k2Sq8UAWQOwCNyDmwTOy8RXk7vdAMtzwAZ2k8CE17PWMxEL1TFka9+Ii6PORCLj261Iq9weFZvfpQN70kpTw9APBUuZp8UT3MpEA9r0xdvWYvMb0xbBi9h2iLvZqWaL0Hpk+9Je5svVQwcbxAN527ctGOvMQBaD2EdnM9kOLXPLo9Xr2lFEW92G6OPSBVTryaUoc9AJmdvGQJU71+sAU9oH4mPWZMhbws+cC8NCOHPGRa2Twat3C9vMDSPJYOM72LeE+92kBtvSy0tbwoQhC9zFlYvQovTr072z29yCMePUoxFT3xr0G9OkWHPeCaHzuoBHw9KHSxPFqTkr2iLoo9AHIYuqB3ojwg3409z6STvasJIb1AUm49nCb2PEA1TDyecyY9AFDfPJTGW73O/Ig9lpmJvZJoUr20yaQ8jMzRvB5SHT3oxmY8AFJ9vMhMTr2tkia9JDygvAjwCD2MbL48Y8sTvVo3jT2beia94AgdPNLHhz3chNw8JHjOPAACJjrJ2ze98IhvPFEEh704ITE9UGvYPN6KhD0MC+U8+uJIvZiDqjyAxHe6xCJ1vJ75HT1G8HW9SjPhvHCzDTzYMNK8DimhvBRchD2SQFO98GhavIQPs7w+43O9cHnAPDiXfz2+KkE9GCf8PCtFA712Pzc9NO5mvYIz3LyqfiI9CBYFPYDA7zsQsIW8LEs+PeIDA73GwT09I0sivVhLPjzgytO7HBySvJDEjD1igE89lrYivQQJqzzGCxk9dNlcPf5ombzCsIe9QvQ2PUB7YbuI2Xo9ThqFvaBEmTtg7+M7sN4XvEBixDzOKVa9cmMwPcyFXr3AoRE9YNkzu5oUFL3qRB09UAY9vfh697yWHEa9XiUBvTAFsDuM67W8uF2BPb5KJz1wAP08kI6FO7M1i708lmQ9pC1fPUzDZz0GGo09TkIpPe1bDb3q8Aa95s4tPc7QAL2WgJA9gJMjvO52d72wv3M9PCrfvPB+Rjx4ptc8FHJ2PdIaCz3ixCu9xMWNPG75/bwSu029msNVPa7qQD1cwoA91AhvPYjXcT0cxlo9jHUdPbKjiD2csTA9vpROPYKB+bw45wq8U7odvXFUjL2QqrY8YCivPJinDjwI/WS9JBpRvLz3tTxwznI8/pUkvZgeFDz87l89svcTPdCh1DxUT0m8cOtZPGixOb1IWU48kk8jPcB5Czz8nm49QxdEvZQjiL34Lom9YyhjvWwqgT0NNS+93Py+PPiABj2g7xe71I/WPEiwLj0CIEi9UEwyvQBgrjgAeFm4GPc8PXR1Fz0O7UY98CkePaC9rDy8iZY8rJpJPSYoRb0q1Ju8GIRAPVZO+rwChoa99PISPQh1FT3l70W9ALycOYz1P71wGJM9iKRnPezKPT36jES9JHVivGAfRbwAMas7mJPsPFXbj73s17g89S1cvQHXT72UJOm8SGCFPNfPDb0cCd28qm+yvBDJ0ju45LU8+M6EPNhDZD2Yxjo9gp4ZPdAz1rtFN229NAhjPTA7Tzxg8V09WhTivJy2fT3qevC8WqOWvIAgarzUZlo98KNVPaQWhD0BCQ+9xMfVPADFdDzAVVI8GMGLPKAMNzsMgy498IirPCPLPb3Otoc9SMI3vdB3gj380Pc8XA9cPbCvxDy+U0e919yOvRZlgT2ALdK6DDL5vAIaR700OwM9bCdqvDSEID3Qy6k7wEi4O4+ojr2QiUM8gGB+uqawjr0S0QY9MIVsPL4HOL3gDZC9KAVcvfECfb2hdpG9EFh0PGryC72AhWu7niQuvV9bHb1aFaK8itQwvWyfb7z9jYu9SP7FPKxRlDyYfSW8gFr2PKB3Qj1sHqG8wOZ6vWKQoby+6YQ9yamEvQjWKLwoLyQ9UhNhvUjZ7Tz4/1s8siMvPZCSCT3Ixic8hMxJvTSHWbwI7cI8kLMCvHiFYD2AiC467m0TPSUvFr2gQBI9NKzWPCHpX73CQIS9CORzPahIaj3AND87NueWvChrz7xYZTC96s4XPQrTTD0syom8tMqRPZBY/ruUJyc9LHVSvaf9Bb2QOcO74iA7vYBEAzqOfYE92nyRPd6wxbywme47XNimPADHlDm804K9wcUMveybRLzA1U29oBt8u6ABDzugAGQ9ypdPPQ5TjbzCLnG9UHIMPaDyHT1AUWO7nkM0vbl0hL2/4Cq9QESbO5IrhT3WoVa98gmRvYDFAr1s4ba80AOSPTo6uLxcgUM9kIyjPBYlGD24QBG86XwSvT5drrxeIoi94AB3O2TSxrw4yiu8YIVnu7xbJLzoniW8ZGNavIlXNb1Awn87FMILPSqj1bxgQ+o8jN0ZPXy+Qz14EQQ9kysMvURwrDwQmR09SCByPKAcgjtsy4085HM2PZRCSj1YVGo9tGwqvKctUr0gSAU7kgLuvMbrhj2Y/k88qn8SvcClTjtmoVU9KPtWPDr8BL0ILPE8Um5ZvZTl8rzQI5i7YE8Uu0omib38nVA94Btivap/Y73Aeq+7hCyIvAwZLz1y2SI9NCmMvKi5ED1+91Y9oMItO3aex7xCiT09dh8qPey6nry6VJG9Dj84vZwK4zzE40y9oPhvPRQoI7zogtM8pLhjvVDqbDyXeZC9/o3lvJBqDz0Ejmy9QUIovdS3bj34e/083tZovaAGrjwiF5M9YGcbu3DqSz0U8mU9UJHsu7Z53Lz4Bz68gJFIvexecT14C2Y9WlpdvSDd4Lz1xl+9htUDvVBfzrs7XI+9gO1kOqClLzzAziy7gIHvvCBQsjsw00A9WmeOPTp3Dr0DQg+9zDWuPK1VTr0o2os9scw1vcAgQ722pwg9ALGxO6j8Eb3E4GG8MAhQPHguGT1AZco8+IpwvbCGVbxH1Bu9osfgvGQWrjxARBg9ND0oPXVmar2g/ae7jHhGPVgCSj1ah7G8XD+QPehmAb2zg1a9uLwPvDJR8LwUOSQ9f9oRvVhTqDyIzlE8TGKGPR2OdL1YuF28VjM3PUqh8LxMxQQ9BN6yPHh6Cr2sqb08CKs/vdisbbws00g9uVqPvccuQb1IcNC8gNhQPChZiLxsIss8YIXZO/hW8TwCIki9qBAavSxOpDx+gQK9OPrxPPSEKT2Kjzq9YHwtu/zOjT1QzH09AnqRPYbgDD2kH3A91BxnPWjJajxmXQ89TnUxPZA/ELwToTW9uATrPICsIjwAgu86nr0FvUBug70ABXg74PviPPD+AL1e5Sw9OpYQPaCZsTtYmTK9cJsyPXZuij32V3e9PggiPWAciT3P+BW9xABrPSbkAT1IWi89K9aHvX14Ab2W75I9amciPeAfODvi7Vy9kHKmO4DOJTxtGCG9sH8DPQxvZT0UOvi8SKeAPWA7ljyBZmu9/BCIvCD2KTsshIw9WKcEPMbHfL1erMG8zFUrPWgqF72AD3C8g/ZLvfIyXb0ZaIO9sIZCvcjxfz3APuc8XxY9ve9ROL3EqW+9NyRqvZKkNz0wdoA9LJy0vEaRNT1ormM9mMNjPR11fr0cUos9pJXdPL5WqbyCPvG8zmorvfj1hb0MU9k8cE1CPKv9E716DzA9IIgKuyMgkL10CpK9BlUXPbBPNTw+CWe94NnKPON6J70kAtY8aJ5lPU1jhr2sxBG9qOPKvHmYR71aGBU92HWNPEClNrwY/we8F7+AvQAkdblG/YI99gODPdzrw7zuJoy8NzaHvdgFl7ygHkc9Vip+vaidTDwoCrM8JI+9PDzBdz0WfUk9JFAPPTyxtTxSE4I9KvAgvW6rcr2qejg9mI8XvNiP+bx5KRC9bKr/PNwJ87xgHxu8gH71uoCM17zgAYU88OuFve63ND3sOgW9lP9HPRGwQb2mI3u9wDEWO5j6cLzIvua8+G4zPJBoSzyYy309wBTeO5rgPT04DHQ9RmtOvRhd1jwwPsW8sCOGvezLir2V4oa9tAsavfeNj71Q7VQ9uMMmPMoVjj2+Q4Q9LXcWvYaWMb2w15w74BrbOzAwAz2uYlC9BIuRPLBKib0AjC+5nuUDvd5kgb1Qni08KPRFvD6CXL2gdI+70klDPYYI2bxunIw9oPqmu34UgL1GrZS8LD6QPLii7TxGDhu990B3vTCbtrtwEkW98Ew6vcalFj0ApWI6ACZrOryniT1EJU09glqOvbP6A70gMJM7wElfvIBjALxSWA89jG9WPag5dT143X+97ssgvQYfLj0g5oe7DEJNvWFjh73gYWu74JSgPAxy0jxzqo+9QOU3vAg4gL0i3rC84vtJPeqNgj0gXl68wH2eO+72E71GZqS8os4cPTDlpTygmnO8cH89PT7vh7xGQoC84Ki8PKwXhb2AmUM6jNOFPTadP71iA4M9gPuKvPAOfj2Sjog9QCkuO1RVV70Yn4E9CE55vbm1Ar2Astu8uPrzPOyqgD14TVO8iME2vdZAibwWQdi8CDdePexCgb3wczi90LR7PODs5LvASs08xiQsvXT6P72MDzs9oMhwu+RFrLyAy9Y69rccvYgOQrwwDIk7JgAFvciXWDzC9Mq8FMJIPUruirzI3sC8gEGcOwA52LtQM907Vp49PRAz/zukAZA9FLWNvGjPGr3mqSI9Vq7YvAzm8DzuPNG8IM4cvKhKBTwc1Ik8ANDhOqiOybysNio98BX/PDiQyjw8iWG8ZBhCPV6hyrzkQng9CZiEvdAAkL24nz08MlGGPXDl0DsSByy9QA6Uu8BGjr0KXDY9yMkPvD7Sjb0sBIA8MhopPahVaLyEAqQ8wOvWO/BNGzy02aO8sDiEO2Af7Tts1/q8gA79u7y8jD3+NBA9CrorPUX4hL12CIC8tIkHPUIFjLxAfeI73ALdPEoF7LyAvDK7UcWGvQwS0zwUmA89SC8VPRqVgb0GcAY9sSyPvXZGhz0QGoW9wqb0vJ8eKr2gk1U7xh7YvN3Ngb1AteQ73AUpPVTvBj0D84G9p0EJvWiqBbxAQ6c7f2qQvUuLjr1kG808Smf9vEDTArxdTIC92m2/vCDEHjx4I2q9dP8NvY9EI70nYWm9xueAvGjDVr1mE0G9wkcoPdK2P70grz+9ZA95PUDKrTtY0Qs8sAIZPSCXHju81lQ9ErxgvbC6g71gv/i7ouxXPdgMAbz0nn89ZzI/vfBhKL2ueoE9OKBFPHqUgD0URX283v7/vHwxdj1m9kk9fn+BvXY1kD1IpQs8PRCRvZQDWz1gFK47FIUfPUGyer00K3W9kCFnvbDDPzwYNWI9VC09Pax81TyE3X49YP8lPEiIArwCo8K8/KaLPOjhXTwsEHI92PXMPG5897wMuTY9gDpju7AH1bseRG+9eKjpPJS6Aj1misu8pNMpvZCauTvHBHa9ohRnvcQauTyoBKI8/idBvUVAaL2u9ri8gAljPPTtYT3viXK9DpIRPchcXTyLJW29uA0vPfbBUD3EBnG9rEv8vMAWGT1mdFY9fgCDPUoqhb1sUME8qneTvcBUTDzwrW49uLfcvGDWDD07CE69bC2PvERh1TxbYkm9gO+aPICkND3qDQ+9mHAEvFAQ+rvgw7u8dFANPUapc73ywmC9ut2+vN2QD72cSiG8Zr0WPQw0qjz6jSe9dMpxPQ6O87zIgDe94CrUu5wM2DylRoW9SmYuPcLWTT2cpuy8LheCPYxvbbzgSV49KJTiPOi7mTxsgKu8+P27vBDQLbzbqiC9MAPgvEi6cDzAJ087wusaPfZwIT0w8HG9nBiAPPgXPzwGf7e8AFtrPFQdaryuZ0u9nJf+vM/kI71saZG9ZMNjvFpWdb2QizE9bHSXvGim4DzY0oI8GvIxvbLEJL3IoCs9pHltPSQofbw6lwY9tPUiPZyxqTw433U9ONxlPSQZND3ke7+8TeyOvd7PhL0EF4q9TvkEPV6yQj1Ye1s9VK6JPaAPW7xzexC9YK71PCYBi71gaTw9Kk9UPen0d73ADds7SlqKvGAqkz1Y2Es9OCkoPP4GDL26JHC9sGXqO3DAKz1gziU9JsILPSmFir1w7Jg7xOVIvbeGT71tyVy9JCM0PQkxX71wdOM8QHq1O96yLr0EnhM9DLuWPIQDLr3oJFw91sAvveD5Vz1QS/Q80l/LvAwzvLzmsqm88AAkvd5hXb1wQbA7IJMCvD4HJL3EW4U8MFWNvDDonTvJIJO9uHzKPMoAXL1GYQ49NaWTvcAEPL225C69JacMvXIFFT14IHk8oMMHvKAuuDxRJpC9TFlnPXxqir0KSF+9VMyZvMTeqjxwps28oFwYuz7Ykj0AahS7bWFgvQSIYT2QTpC94iJVPR0OjL1wi1o9wEjduoDV3boWBtK8GOZvPXxdRb2Akeg7JCxfPRAMibyqiI49cOGAvJx0Xr1DhIq9/7qRvaxwSL3m/Y09PCHuPJbvzrxIchy8TEf5vF4WBL0gIPO8hOW5PADF6DvEZo496jIxvYx0CD2Ednw9eME+Pe5CiD3i8J28yItJPYC0IDuwnII9qLgsvcx1wzzYkUQ81H4XPdigc7yYFHs9Mjn8vOzoX7yuNRw9wNh/PQAiGzyC9SO9B4ksvbwIdb0oI3o9meJ6vaa5P708fV69tP3bvBSByzwYaks8GHI1PIaQAT1uTIw9IPWBvBzOx7wUGI894HQjPeEwW70g6io8bBUhvAAFZruQI1W8zjYuPSJqiT2AKWQ9oOa9vCCdQTuwky49RGbrvADGCbzgzyU8is8NPXSuCD0gS8O8gLNXvRI5X724xbE8tPLTPKAkI7t/Q1i9AGCAN8iSQzzoGvs8/SUmvek1fb3iDi69JHxkvewFET0mZFG90Mp5PHBnuDz0jkO9glSEvWgUt7wclIw9hM+RPRzNjj0ghRa8+IaqPMM6kb3kldw8DteivICHRTx5OI69mMlbvEx+S71E6Ww9Xgu1vObN+7xcL0a9LtNTPa4fLT2YegW9QPQiPNhrjj1YAka8TnyPvcBLtbsgfd88p3AFvQMvQb1GUCg9tHrFvLn7jr3glog8uH8ZPUAHPrzY7YK9aCqPvRjvgjyg2Yq7pClWvdDOZj00nZm8umQ7PcxlNbxCQy699NWgPE7LFj0kAIs8X5AfvehsBzzKwfy8DOZfPSioDz0DhC29riLRvEdyhr2gwIm7rjYHPc1okL3Mgf08lqyBPTyaMj3wmIw7jtNXPZeQS704Ty69YUA2vfiDwLwcu5K8jkpAvYgQQz1qG+68tA3DvAD1kztwBek8CJBaPWonGD38ATM9AProu/wf2jxQ/1o9CFUgvUxcXL3opTE9aLOgPDNkgb34IwE80CZUPJ4KS708joQ9VtSrvIhEA7wYCtI8uqlavWhInDxer4k9wDrFOjbkND0AqqO8qM1ePFIQjbzsU5g8wOkPO7xgW7wkigq9NAfnPO0hB73Cs4q9FuGOvKCG17tglQu7HpWMPQA2EzqvCQ69rJV/vQAnk7qmvhQ9DlsQPbgZ1Tw+OFE9bG+MvBAuVbzQCNS7y6WPvbLb+rzD+4W9rJ+4PI1tgb1waxw8ZJWIPFC9Hj1YIZ28aIS+PAQDU7y0J5A9mBTTPBSu4zykKoE9vTqJvQjtaTykr/g8GOALvFZ8UT3cqFO8MPCIPY6XhT2ylcm87CwoPTDo6bv8JqM8gCgPOzqcNT0YLJq8Roj9vLgHULwtLha99MHOvDwViz129jQ9F/wdvbdvB71KDcC8BzyBvWDlkb2QCRM9gN1kPKMPKb2wqow8kBiJPRBFID2A8WI94pRlvVi5rbz2mIc9nJANPcCQmDxwJIo7oj9UPTCX+buwoUw8c5aGvYAObT3qWIw9NgE/PVPseb3oZmA8OIgxveBeQD0KHAw9eQeOvXrDIz1Y5dA8mBLYvMDHk7oy5ks9ToyBPTTrfD2yFjo96HBbPcB0WD3gFQq9ouKEPbZ4Yb3AKAO9a/lNvfIhWL36CFq9btjcvECLzTwY/UM99GcRvRDgNLwQ9ae70PY1vaQX0jwsv0g9SMWOvaieKD2+ODI9gOwLu5j0cj2cchK9pFKFvIDMizpsUlS9hrCMPWBPijzMqWM9gLJoPaA5KTsF0lW9nhuKPayqWj3bjyG97Dl1PQTrfLw03G09mMprPeV9CL3wXUm8Ni2UvDTVVr0Qydc7GDsaPBCSjrvz0HW9EJ29ux44kr0QnMG7/L0yPdoVID2mCym9wHsvvei5UTzz8YG9sjXLvPKajj1o+cM8EA9jPUBmeDs8kHw9mQVpvRyAP7ykcLO8iraFvFoFBL2AVoK9+DD2PAhlPTyzS1C9CM8gvU4skD3IQn89WCx6PB6/4bw4lxy8J+wWvQAUXT2Qg8e8SmkQPWhlhT30xfU8lNjivIzqg70wN648/hE6vaB5LTuwHm89FAd0PW0JkL2Aiww7ZNFLvfOGT7267C69ns3RvFBdFr3w7pc8APYDPbZ6Hr0k8W29uAFfvSz8LrzyP+q8AMETOwSsKj1WOIE9WBr9PIil6zxzLjG9Ej4SPX2jCL1EBIs9JI5hPcBrDb16yj898vvUvNm7kr0uMtS8REJwPZBppzuWjxc9ICdzPCwLhDzEVUw9nC1bPejUcbyh9AS9oAOQPG5Bprxgg0m7IP3eO6zj0Tyw3k48oBP9u0IJiD0ajpI9znv7vJEDQr0AZO06ABj0OaiHX70Oc429ikFavXbMKT2dWRO9wBzcO5ARpTyALk694IHXvH4vCz32ZZu8+ABQPeSJ0TyKr4Q9JOG5PCCiQrzwcT091LZ4vVj2x7xJRUO96IOUvI7uPD1glQ074fw9vaB1HDyAIB26PHuKvCL7/7yIuRA8apoDPZAXYL2exCw9yMCGPdy2sLx6zla9oJfhu1h70DyAoV868FddvJQBT7zKhho97rWSPT6zqrxgkmS8fDqLPT484bwXo4K9eJVSPTPgg70gwWQ7zhOTPQrjx7yefji9OaQEvQCYhb1il1c9YnRJvVAY77wAk0O6PDZNvfG7A72XZFK9NLICPRhbvjysVl09hmFQPXddH70QhiS8LnyAPSp9iD0qDz89oL2DvNCvk7uIpyG8/jAOPfTmvjywpV48cA6Cu5APTjwrJzy9QPhqPeOvT712u5+86FyLPMYDWD3rjUi9ShSIPSimJjyOgCm9yGJQPGh0SL3gSEQ8gKLkPNRqbj3ES3a9osCHPZD8ezwAbrw67BXLvHZeND2ASxm8SG7EPJVNh704PD89U+8QvdrZWr2M57o80Nf4O8hHZz2AMv68YOhRvNWNT724r3k80HwSvcCSYL0atTa9IvvrvGgZBD2sDd081JSDPQAUejy840+9iDTtPBTwhrwYk/K8gPsWvCj8ODx0JF+9iMMYPJptk72VIHi99TYjvSSRcL2YH8+8B8qQvZDd+rvPEQK9XBSEvcgrYz0GTWS9GKRSPfuOA71oIo49iONpPZyShD2QMi09sHBrPGDtYzvcMGw9kMFoPKxDILwwtO4749wdvYTzPr3S6Uy9IMxPPEC8Oz0gjIY9+CEmPKLpa7382ay8QK2gPJp7LD0OWFa9ULWiOwTajLxg/CQ9VPhnPXXaWr1AboI9TGT6vARQYr2E80q9YN5dPKw2FT1I6kU8ODimPDhW+bw0GS09OnFBPZLhVb0cFjw9OCKFPaEgir2O84K94EEzOyBgJjwAiWQ8EjHAvFqtkz1Kwkg9rE0gPaTZ+LzfOUC9KNOhPODzeDuAbYU9tBTYvDbLjj2KCuK8Lj8EvQDdQbtIkHg9guCBPaR+fD0U13i9RLZIvKUnCL1WjYQ9xO2hPPq54bxg3Hk9hoQPvRwaNb1iMmC9ZNmUPNTpfD1g2yw9knYFPSjllzzg7xO7oL0rvIiLxTxY6ya9+JerPPwXjDzy0To98GxfPDPzJb3B6GS9Yj0gPQrIDz16lH29KFQVPLw4jj3QgA693RkxvSwcgj3gcVA9eGvFPBgjPzxkSpM8Jh08PeYOT71+eVE9ueAHvag/0zzgCo47AtiPPbDzGzx2AHu9TLPGvBTedbyQBCY9UPaAPDn5Rr3YrW296t0nPcimHDwwKge8TKNLvOxDNL2Ew5A9TnNrvTT+6zzi3Bo9jW45veuFZL0km7Y8/ExlPWiKeDwyDo497luJPRpLGz2yfYI9WJJvPYBLNTuoQeI8ZKvDPOONjr3uToO9QIJVPPRncz0g9h28QGdyO3z+ujyWdS090KCvPIDTW70K0yA9YKh2PSBddjwQM8w8JpUfPcTrI70FTAi9u69KvVxLkD2MJT69QCSNPX776LzEmH+88EX3O5iuej0mDpq8ohDEvGgTaj3GMuq8MIqpO+7hRr2sarM8WEhjPSCGkDsQT4g7/GEoPSh6FjxYoFE9ZPRpPRVrj70I81e9xORzPdbMHD0mPCg9sPGLPIDsEL3Q4gw88NZHPf1hWb02EoI97AC3vOKDTD3LOAe9pMt8vQRPgD3QyfU88MgzvQDXEDzSlSQ96+xfvfpJN714zkK8Zo9XvZJarLw3RwS9Hi6APQBFvLkg0a68gA1Wu+Tz1DzSBYA9/huGPb7fg7wAgqi5lE/3PNCWy7yAZf88MCCHu6ykLrwPw4m9UvyAvFyy17wwsdw7gLQHPfSVt7ygh0g8kO0PPGzqYz20qow8CBcgvH9AEL3g/X07IBCrPPdJjr0XEB29vQUXvdy/gj08tPW82haJvN2bOr2gxey8qJ1+PTbFiLz+Z+K8equNPVZWhr2Eane9C6IRvcC/ATxYvZA9mu72vMyojb285LI80ZwcvaRggb1slyQ9QWcgverCi72+CYK9Tkg1PYLkBT0mDuW8eK/vPNmRj73Agc+6gHftumhd9jxgbCi9SNR2vfjtoTzUDZM9mFaIvED/97uQDW49EBSSvP6qkT00skO8zIWmPLD5vDt6Ozc9PMgtvLB+t7tADLk87G14PaA8iDw3qAm9WHWDPZAocDzktr883JJEvM3/Fr2ERts8QG2Juw48Rz2HQ5C9Io1KvVBxLL0AeGI9FtMMvRxb8jyurga96CtkvTgTZz1gfVe9oEHfuwgJJ71KsiG98HsfPdslQb30sks9oAqWvCy+i7yqXks94DyEPAAYoTtuj1I96HQbvMiunjxo1Vk9QMziuhxHTbxwvkK9WAwhPFanwryhIkW9IOUwPZAF1DxgHt67TmcIPTT7kT3rNga9uAn6PJb9BL380Yo86GAPPYQMYz2qzVq9QH3pOiob7rzunJE9VsgsPRBffL3A1sY7gHQxvcAGFbuA+9U7xn2HvUZ0fr2692K9pEc0vDyvnTzs+Ha9VHlmPSgOHbyuO409FN2FvDIbEb0oZmE9POGAPMMyfL3cwCm82ZGGvcidOD1bSIi99Hk8PVRBNT0Yudw84zt2vTTorjw07qw8tAohPUAeibowcEk97D16vDSI+DyAMUq8sD+ou4bojr14CE08fObCvKhsgj22igQ9kg8mPTQhHz0Ejo49EGUnPKSkPT2AqSY8IHgZO2T0Pr14kYk9KJiNPHB4t7xTeVe9tykLvdRGSD34U3g9iJlIPBDlVj0S9wu9HW6SvZA8bj2wNpI7q/BzvQwdRz0QqdE7Lhm8vFizcT3IqYU8yrWQPSgRcj2whoK9dFvCPPYciL1AIio9EBnqPPDxMD0CJeO8gGHHu1z1Jj2jRli9EH0UPU7tIb2ZZZC9GInzvH52Vj1ocgI8LPIYPVhwE7xysDI9YLhdPaDP2TskW748nDRxPSiKK73GhWO9QDZoPWqdMz2oY7884E3FO9iwAj3iPgY9DtA9PR4EDj3AMkU8YDGMvbwkI72sMK68AAZIOWZvBr2PyYS9Z55YvUzQXD20Nx+90PNePTgmuLyidQ09DpwnPcT2hj2wJR48LPV3vWyTYD2oOSW86AlcPQTyYD2AJPc8lN5GPcU0iL2IJ+q8aJ16vVBikj0EsgE9EPgEPYTqzbzg6cI7gJl8vYTcfLx4Uis9qpo8vQjOQDxglBC7QL2FPWPfkL1A0me7AGR0O4AcXbrYtoc9wNZxPFy6Lj2wr2Q9EDknPTgosDyVRR29oLUzPGCcl7um+eO8DqpIPTCgxjx6MPy8rIDxvFZOX72Cwh89R6yFvQBTvTxWSje9QEoMvOo1mrx0sHK90HTiu6A2Z7sSC8G8j8cEvSrZOb3AKGE9gBjXOiCv5rtEIv68PFHRvATHTL0YvrY8QBpLPYqPWr2sqvo87OqLvdIORr2QJDU9pWqDveX5M72gPy08AA15OgBDTTpakxc9phUHPWDENzsZ+Ai9NfGKvQjzgr3o93i9vApbPanugL1S+Ie8anZpvc5iNr24AEE84KUhvLvbH7203kC8AP9MO4zrhDxan0M99NBbPeO3f73a9ny9hKoVvb79ir0A/Z88uDhOvYjjC7wmbFC9NGWTvR4qiD0Ydoc8Ut1NPQQPRz3KBSI9sGAsvCiDqzyewIC93NWLvTifaT2M52s9mIoWPORB+DzowxO8kF5tPcLFOb2UBu+88IrGvJ5laL3sG1k9wqFLvXZrDz1gB/07QGC3uiAMCTzNzFy9JDpZPcA0Kj1A4IE9XpxSPaDsLTsvEIC9IML5PDQnkz0Qc+o83cFyvRC/5rtSxby8vOhyPQgSWDy+nho9IA0aPZjQI72AEEW6RGdjPWjWJj2ATI+7pGqsvFoUf71s3YA9rpeEvczFKrzQbmG8EDVNvDycojwIKJM8eKBvvFzt/zzACrE6vP2RPeBhar34XIs9h8mTvYg3Ib3YRL88ymwtvYLgiT1dQCC92yIHvWBfMTywNkA9PML2PPaxFT18EV09bhNsvRgJlTyhEDa9gPxdPDYGib3+J469Bm5+vaiwJTwaVoW8Fp6CPdT99DxVIo690CbJu+C1HjyysI091EW3vCITV70UnsE8aKWqvDKxXL24ZVc8CHgnPLRtgD3wBag7KJ/TPBxXZbxguIo9EO2FO4AP0rymN0899DGkPEBvBLtqWcO8gv+VvKj2z7ygzzG7aPcqPSgCdD1AS/Y8AMYKuiASZjuwAIC8XNtpPaBCfrughTg7gKdyPQD2aD32EEw9gMoOPS97S71goO07uPUovXb1krw0Bdo8qGgmvbQ6oTz1RFa9pGV0PVcDZr10X+g8fCmRPXbLGb2cqH09b6klvXJgprz8ENo8ZEogPeTnDz1EMzi8ghuSPfDf/DzQ+3k9CPd1PTzTIj1qNpE9YSlIve6rTz3Yr4+9JGvsPHAAVzzUGAS98DymvH54Lr0g3ge99OV1vUYJk73AfIs6IM8qO/CvVL1sOgk9FCdUvbi4BrxIZQQ8xueDvG4vQj1Q3Pq8AFdSvHhWcb1dJ4u9lu06PbB/5Lu4vo28qfeGvdGcj71E0PI8KK9kPayHXz1psTK9gENHO4KQiby+to+84BYgO5jHxjzOMFc9YIvwO3BeIz27V429eN4JvFC7Z7wONVc9Dp0XPSxNmjwEuFE9sFJBvYyhYz1IY4+9KLVqPaj6AT2sJ0Q9EC5+PYMpHr3Q7HE9ADYquQDkv7sgk4+9N4+Dvba8v7wcbr88gE0ZPVDeFb3BfoS9sLM6vAw0Rb04hmK8EuJNPa/vjL1qKY89a6CTvaRBfj2ERLy8KoQIvfy3gT0wMYc7IEvBO2B/2bsQynG9fJzIPLwhET1AneA6SOZRPPQVYT0A9+o8jbxZvV3oYr0o4wE8dpMgPUKcpLzAi/i8hPK8vFi6JzyYX568wKZ4vaisJ70lA2m9nCBJPVANizyurpO9cDRcPODL4rzQWBo8oElFvSY6y7w8VYk8B/CPvSREjrxkjIW8gUcovU9iUr2Eom49lGzOvA3rUr3crtM8h3IcvSRIjj2QBGc92N4iPbJpFj3C2W+97pG7vFzcWb065XS92HHRPICUzzsAAg67aYgovawliz3A/1074LrKu1zziz0gU+u7gLgyvRDU+TsOiSw9zuJEPbAgArycLKm8bD33PLBpVL2KlOC8lJ3zPCo817xC8Na8nmOAvYKPgT1wNEY8iltMvTaYPz0+5IU97IllPQDSBbm4+gE8pqePPZCFlDt2bUw9yHJKPTA5LjwIQn486iKYvIy5jr10dWc9AO33OwCIizppKRy9J42RvS6RkD3MuLq83rqKvYznibyU5LO8xp1fvbg+D73Qz4s7CMIuPVSShjz+rYA9fFYUveb5Vj0MQNc8vjiQvfZiRr36Vl29PBSvPNGtgL1QCPa8Z9WKvWALrTtwK7+7EC9YvVQbcD3SECY9sLtZPSh4TTxg4Bg9ZJHYPLjBF72Mob48FHiHvOiJc71Asnu7+MJkPMJbSD2AfgQ9WnpwvbmXk73a3+u8gAlRPMTXcj2IhVG82CQTPPAGgDuw4Gc8ENcKvKGMIb3ZyAG9opiBPZBTv7yATUo6ssCGPZBZZL1cP/q8+AhwvSyJfT3UzeM8eGH0POAtZj0ezIA9vOrXPCLbcr0cHG29OHVKPVY7Qr1+id68woZOPboeY70aRha9MFiZPMScUb2mJhI9AKgnuiw2TrwkbzG8zNFlPSALpzwY5389oI8YPYAnZD23xFm9cCKBPXgQiz3uyee8DLBvPdiWWjx9GU+9wEAePCZiCr2+5TE9aCgIPaBHzzsAB1S7sPt9vT7Zg70cGd68CIYpPTiLbr2IU+g8sMArvRADZTx+jhM9hF/PPJgcxDxmYVG9IGJtu4qVHT1KKAo9I61CvSy4pzzCXlA92MoqPXREkjxQj8U7etT3vCgafjyonR29RpDSvEexd724ml89EB90vG3LfL23VIS9kN4xvKica72ooxY8+bt9vdwSgjzJunO9mI6ivGgaKr1Qy9w8ru0NPYoNirxY3Xw8hno6vZCp57xMKNY8hndTPV4MPL1YJ3886Dh/vWwte73EJU09SEpCvZDTJL08sKo8mLSkvAQ4v7zQx1k9AINsPMC4cTyE/Sm90NCFPS4WgrykKwc9jAJqvKbEkj2IRLM8dnSMPfDKaTx2PEK94o9RPQIaNj2qfDQ94AF2PIB6Ezs03ki8TH14PdZhjbwa3C+9pKVRPZyJrzxJB3a99BMLveiOmjzX95C9RmvbvK8oh70g/uG8ZEcEPUBGqLzAIwo80BIJPLB/5LzQHOs8JI/ZvAg83DyAdDI9+oswPegLXj0EPVA9IDrCuy7i/by0kck8wujgvBT7ir2ob4S9QBduPa5oFL04/Hi9puklvWAYlDvM6GC9qnczvdCMvLxyWUi9SLRzvNBKczx0Dhy9TFrGvLx5A71IiBU8UJ5jPBjYGz0SGwa9Un6KvUeeJb2AV3e6mOtZPBQ78Dw4j7U8kiZqvY87ib005nC8Si5BPeBixTuocIQ9QAfqugYwTD12jwg9wEQGu/TxiLzEFki9BhKOvQxFTL2AQ8i7dAJxPeIvTT2YI5A8UH4NPUdIJr3AxSa8sAx/PewbdT1QTuc7cOL0vMpEiT1ojzo9QqldvYgnh72Mule8TKPwPAAOR7oofgY9+uVIPXQDhT2eE229+kKJvTYpar3UorE8IDCjOwScujygB2M9oIVsPYwRED22pb68fKYvvapE3bwID4o9/pdNPRA+HD34IWa8AMIXvTbBRL2LwpG97tWHvVDkpTwAG1e9oPuIu/qxkL2A9o26Aj0nPaAnUT20ydk81LEGPSCEULsCYhk9pN2PvOi7kj3w4Cs8TtxPPUZ83rxcKh49jFFkPQwHKL1A7Lu6ZgACvWBFXjzuk1c9/Kk7vfphkj2p/YS9UA9FPRwO1DxIyB08Wr2tvOAIQLzwAOK7zmhHPYDauLsMRic9QIeFvGA/mjtwwOO8aL0hPQDIjDiACWk7yJ69PBqsPD04oBA9YDYzOwTdm7ygdCQ8XHpQvBCuDLyEUE09OP6LPJ7bSj1Aqii8flEiPTqL4LwQZqG74LWGvdiRpTysPeU8TJCWPIwlJz2MtWO8RkPevNwlprzyloW9PA2EPKC6G7uckI89fM2dvDBVTTzW18a8likvPbgC9by0P/o8ED7EuyBDwrsuhik9MNyEvBwnBL0gGiE7pOu+PAhUATzAgHk7xEKDvWC7UzvALK67uBxEPKBlx7s8WS09kOEKPZxBZ7yPFyu9QBB5u8pTgT2ogPg8JAENPVxI2jwGaNu8dN1ZvfbHGb0Iy568521ivQgJgj3cL7A8cN82vT/3kL02EIM9kJwXvZA7/DxkD448wC9MPCQuTz18+to8355yvQCWIrowNuM8vL1tPcC/JDtYi1O9CGtsvdjqXrzsNgg9NA+QvUq4OD3EqTy8ooCDPW/ABb3InGo8HqWCPSjLwzwAVVi9RkS3vCK6Pb1gYl47EPDcPOboJL2go5M9gL/1uz5WLz0AMQC7vmRRPTCdTb2WBcO8PC90PfZyjD0Exoc9QDvbO2wd+jyQsjC85JCTPRhwCbz6aos9TMZyPTBl1LuAn9o6XKpOvQBbPDqgJ6u75vIuPRhEFz1wIFA89assvawJEj2GJgS99jVTPXy7qzyQr+08rtU2vVBMTLxI+d28rLzGPKAsSDtMvl89DrVNvaJBUj0W6DO9cycWvU5KLr0oCcU8F3uPvVZFhj1g9Re7oJleu4SVmbxStdy8QhQwPVjtQT2yU4k9+B28PKJWpbxkhZ082kx8vUkgg70E5+i8gtlUPfB1hD1cVHO9MKawuwhCBD0GrWK9eGsgPKAoXTxUs1O9GOZdPahlWz18eV28PM+zvMB/dTtjdU+9gNEtutyoZz3acna95OLFPETRUb1o1Wo9IO2VPDzJdT30aUc9EBj0vMCMPzwALtM7I0xtvZIPLj1ouM08gYcLvcB0YTuww+I8LL0CPc4xU73WKxy9QGLbOtCAWzwON2G9sFxePAC4WTqAL4W9QMuMuyiT9DxG3Si91lGEPSadMb3gWtS7NtNOvZTzIry8VIg8MHSCOzgcNjw82PI8y3gYveeejb3kllu9xvlHvcbiQb3+2im9NGXlPFw5bz0zxwa9UDwDPbLx6rzs3NQ8vWmSvchBsbxMK5s8iI9ePcTtL71ksYg9/14dvTjfIj1E2Ke82M1qvGgSzTwgAH674nCDPZ5SKj3nvS+9mKLIPCbSgz1FJoO9yPtTvJhTaD0uZDO9rK2tPIy5HD1YMPE8rKeMvATqdz1G5oQ9y+KAvWyu7DwUDz893JZ3PR4xLT1KfII94Cl5PbungL3sTDS8cJb8u3N5Cr3YxDU91hkIvUpaRr1r44C9jA1RvPJOET1Q8Tk91OqDPGrjZb2wCIu9BEttPWAmtLxkpWi82JWHPCgzSTzwOLE8UCxsPZAUJDxObR69TEU+PXKDjD1A6oq7wNREve5IjD28DII9ACKZu8icOb1kUtA8mOYIvWrkkL0AT149ZC4+vABxSDuM3MU8NER9PRsLkr34huC8fDYrvHHOjb2MHLE8x8xWvYrsBD3azV+9CEJ9PRBMWDx25To9yPw/PBJdGz2uV2a9cagivbZYLL3rbYO9qPJLvBgD07zaOkq9cNMQPcLUIz0A+PE8SxgivVbBab0gJQ49eNl5PCyYz7xY57g8iO/QPNL2sLxo7AU9pF9TvaY3N71A80y8OMxgvUL2tLzKni29GLthPdaqRr2KPTE9uJbEvP5P8ryyCQg9mBJIPEjWVLyOpKa8e+EUvSg7Z72wgT29KqDuvLyybT02o0I96Gj3POQdIT0IEDm8ilZlvTPOBL1wBVi9fFsCPQBX2jpsiXe9lOFUvIDrZz1aWRe94EZAO2Ci3TzQzt281IgVPQBVmDkodE09BWlQvbD2br1I+kw86HsePUj34zwmO7i8nmEWPUabgj1wTaM7VNF3PcwBY70Aibk5BFp/vNB9vzsYFCE9lC7EvEgmITwoceY87txPvQZblbxA5/E8AA9bvNArQTyAAoU9FPt3vYAwGztYLmU9fAYFPWwGsrwAXR89uAd5PWY/r7wKMo89mJJEPDY2Oj0OJh49NIyjPIwIfT1YumE9MGwSvO/XHr3Q5jE98lYnvd5x/ry6vBW9rFCFvHbl5LwDz3a9qFZAvcLIUD2OIwM9gG8LvXgsczwoPB48FNulvLXGVr2wrNU8oDCcuzY/P73YRn88FK9sPUgQ07xEbTW9zvffvNFPCb0Q8ca8Tn+zvKhZ4jzYEm+9+k+qvGjHir36I5W87E87PRTzib34Pw29cC0QPbrTNz3aIaK8nn5IveC7Azt2CBo9Ex+HvdhkiD3Mh0W8GiJzvbT1nTwZPxy9xKhpvLBt37tyEI68zKUUPdQPH72Q3wy9lueSvMpAPD3+TTA9R9eGveAI5jvzhUS9VBtMvRDa4DuQ7HC8M1IlvUyG2Ly6BYI9VbMMveDk/TugEhE94HD4u9LHkz2QZcu7IHXIvBhPNbza3xA9tIx2PfBH1LsQ2X49RMs+PfiHXT0mSYU9QANdPcDBm7tBrme9TNtWPayoEz0fbAK91mWPPTBjRrxITHi85rixvBsTSL0ASrg6/CJRvJt5Gr2Aeku76LAEvR6iEz3gzuc7gH8YPAYpeb0mKpE9sDDrO2bjgD3Q1Cs8bn4Ivag9nzzAavc6SMthPRaYhrzAg9i8H0UavaoQjD0IyT09CFMqPWLhCD3YQI698LBjPQ+6Fr1vyBq9SGPdPGD7hr34zUA8tG1DPYwu3rz+n/e8AiX/vDYm+ryelz69DmCKPcAYaT0Mano9PGOTPdYqHL3SXIA9YXJ/vZxagT1QqTs9fO8QPVJVjb0gcB49AHo1uvSEMD3jW4C9vNosPVgQjz04g7g85PEPPRWtD71gvCo8QHuDuzZ5ij1Wxw89oooQPbgu0ryYRus8FG05vSyKkr2BDVW9cfmRvTglQjycXWg9PJ+lvPJDFD1AsUU9kHdhPRSMTD1gqgg82Os4PGxPij2ktQQ9IAKtO3Jsw7xG18a85LM0PWEygb14HBY90Bj1O8atU71kRZK9ukRQvT44Gj22A5I9MMzgO1D51rtcGDQ9rBdgPXZyhD0wNBC8BIwzPSjoir0zkI+9WgQtvbOIA72UBpc8QI/zvKCX1jtIl2U8EFLsOwCCUbuYMzk8KM6JvVvmJb2YTXA9rPy9vAovgrzYSnI93QyFvbi3eT36BSA9qL9OvYA7szweLhU9JGo9vRAbOzyQWdQ7Ji0jPbFVSr3SMVG9Ap2DvICo4ruOfoq8gOd2umr42bzJrpG9wMyFPI6agj21ASe9RgQRPUTL7DxKy229MCmiOxpsMD2TRhm9uKiOPFSWS73kVzK9VIrGvPAHbr2gdzE93j7CvDhwbT0M1WE9FDb/PE5aQj2KJfK8lCsIvbCVgLvUMEe9CNDvPPACz7tqFFm9LLmKPZArLT0gpNG7nD+hPEJRUD2ZcAa9xE18vLAtaD14uhM8MGG+PDRZXj1uzIG9dAIYvcD8CbyjFxu9GPFvPUC14ro60GS9lHixvFBBBLxMWTC8LP+cPGpzlbzo5ye8dBGFvFb9gT1IiG69+IwVvMC7K7w0PHs9gmg5vcCBt7uonmy8qkBDvbBvhLw0gcA8wVeEvRaBUT3krh89dNMxvGj4kT105EI9lgfYvAItjD2AETE9bkW3vP6VKz3m0fO8clWZvAhvOzzIlAa9sFFCvTTmJ70gJOS73jWKPazLhz1CdvG8eDFRPDpOiT1vYW29sBBdPWgkdr183Ys9MPpgvXDJ47sAn6+79jF/vRg7NrxSuIs9b00HvQJLir10BHQ9B4FVvVxVZL2kgUS8PjENPbxC9bygSE08JPzqPBCyIT0xyB69+IoWvPRad7ywSfG7AEPruShVZD1rFYq9ktCFvJAG87yguFe754yDvYhTBzwm0Yy9gCljumQxZ71g/1y9dWw4vUAzSTz0IzS9tOMovV9yAr0sDF49TwaRvTwpBz2GvhQ9ai0/PU6l5LxOaAC9JLORPJjEJLxYmQK9GHWKPWDEcDwaNzK97FdFvOpEjD2SogM9aTdCvYCFSbqQhZK7lAS/vOzJdT2OzZE94Ns8u2xYhD1QWog8HINcPZhT1Dx+IIO94BMXux7gOL18JlS9gEuVOoD1tLpvkXi9bnRavehbDjzyLoi9AqKIPWTSTT043Ku8pGLlvOhs+jz86rA86kpXvXBDbTxAjSq7CFMzvALYvLyAxBo7AP5OOk/Dc73Q76w8wNVivElyU730ILg80D6EPKBeDTzOp/O8gGNKvf3keb3+d4C9wMQgu5CDTD1Ifjo9wAkEPMxR9TyoYnY8Tv6KPYK9VT1QWao7eAcvvD5aFj1RT5G9ANabObzjhbxihHm9N3MhvSJV9rw6gYw9TDlQPXgTIz2ADfe7Jn3WvCwBxrys1cg8tBmSPAAV5bse4QY9rqWavORpKLy8Voc8YpktPVAyCT3AF+Q8wPcGvROSQ71OSVa97EJiPX1nB70a5oK9lL/PvJQvyzz1g2y91+dUveT7sbwHjZC9OCYvvYYk6ryQeI496MovvPTzHL1Msam8XrOMPWhrcz3kQ2M9AJgzu0UACL2gy2476HkSvQBdJ7quiYs9oQRmvWWfI71UxHA9VinjvJAQhjugMzG9mGXKvKaHuLwsmdc8+ERoPLvSO70aLZE9kkmSPcD8pztcEF292m0PPb6iaL2wQNC8SFAevXBTvzvEnmG87/9evVZ1Hj1Qaw28kGapPDpbE72cJYk9Iv9lvWpN2LzOxYi8nG5pvRIts7xM8u+8HELhPIzk8zwe2iG9rLbhvESPbj2wJ1I9eLlhvKfPBL38R7Q8ZEgCPfBJ2zyUiH09DlZBvaMRGr0MWDE9NfxovQtvJr0Aqji6NoKJPdxdkj3F04+9EIHpOzy6hL00XVC8YC9hvFheML166Ga9BsONPej/L734dzq8AEdaOoDyAjtsvD89oNC5vDAUpDw432i9RH4/vBjldz2aRTe90uBWPaWig73AAOA8MGOQvbyyZL301ua88IFwPPecSL14HHs9AFlGPbhAyTxgJaA7f6x1vWzlKbz6BxE9jDWqvBC/ajyQJI89gCIrOuIUjD0k/Ue9tn0/PbDejb3zmCK9mPBhPEIjVD2y7H29NLDXPJSPfr3ffiS9WLxAPOSUQbxMMma9qlkdPeCzDzugzzI7LiOGPdYiDj3sX7w8KAwDPPhMSLwAHpc8ADCpOABYJDvOfws9g2gMvcAuQTw49SY8oNZnvWh3pDxw8sg7YCOlPGiFCTwTvn695PIJPQzVED2UzPe8AHd0PDzTKz2fBj29NNBfPcjFG73uuR09QJz4OoKVpLwgaD68cJdfPAjoKTwANo+6aj83vQQDuzzC+oG9KjeGvJBDg7ta0IK8DnqAvUQCkD1kYKU8UKiJPSAXMTsAMFA9WFK6PGZ7DL3YiJE8VI2DPGBaSzxva469TrhAPcBoRTtu5jO9xNsAvR4FTT1cpPk8km0oPRjlhL0Qo9670IsjvFD8kLt0GX899TgJvZNVj71wPA28dkkpPTCR1DwS2i29HiKFPa4bgbwcyCc9MNMTvDCGejzgjSk8wAVnPaFNdb02hPm8liSEvSjkir0sbfs8Yv+QPZB5pjxAS2Q9CkeLPWjVzbwsHGA9l7Z1vW8/k72gK4q7sH18PTDKEzykDFa8LMgxPYgVWzx6jsu8sG+evIrhDD3Agl09ZAtFvfBJY71aloi8lCDhPMBoqjr/6jm94kQlPcGJfr1cuw693Ec1PUbhJb0vdAC9eo2BPUCl7zzsOCw9kKP1vOSUaj1tLC69xG4uvOuIEL3MZF68fWEuvc4RO70G7EE9W1uCvUBvjLv2NFg9XEB9PTCn+juIW0M99IUlPUCqFzsA3Mi72Ao9vapQTD2Ifwm9XmkbPUiwLD18SgU9nvJnvRS6TL2ItGM8gFkoOnR6ej24AUO9AIg7OeTfurwoLgM9IDiJPXxrjr2Qrto85POFvayDVL3AbNE7CRQkvXwfdD3+I2u9lEhAPUIMgb3gaNO7bkE/PeYZX71qwIs90P3gPM3khL1Q+os8FVg+ve4GzbyY+NW8YMAyPLA56jwk8OW8ftWGvQY3Z71wE2o82IdiPaCuijzExTa9+IobvGqhkT326IY9TBFMPVlnib1wFYg9/F0avUjZaj3MlzK8qOhNPABfNzpQM2A92cMXvTyGqjwAMNE67OU+vQAwjLp4FiU80LpWPLCKZryOPw69NJTRvKCAWzuYG0w9IkIvPdj9RzwwYiY9IqQFPQgB/zwsKEC9JLjLPMBOKTtQtW68OAWCvFhbFjzxEYK9oB4Eu1x5hT0AYMy8YKZVOyKx3rykaIo9rLoHPTChZD04Sw68AMBcPQAHxbtwc1o8Lrg0vXRtkD0A+Tq8AE9rvDRH/zxzkWi9bLdMvLjeDD1IGVw8kl40PQpdk71ASog9YEhyPRddJr0AyjW6mhmMPQ6ws7y022c9cmaHPQBezbmg4227OZSMvdOYIL3QJg28kCnUu0UEk70dmo29+F/uPKZP87yb04+9UO+FvEbjTT0Ekke9TtYAvV8QE72gtjK9tCDyPABQnDng33o7/TCPvXIYxLyIv4s8jxKNvQLpq7zEuwu9Sn3OvGQuNT2ppUW9kB1tPVDyzDwULME8YD15PXzXg7y6aAA9aEhEPG0THr2SvpE9sh7qvF4R9bzm7xU9o4MjvSqFjT36q8O8ONaJPYTxnTwo8Fg89cBRvR4PGT1URki9xhkIPU1pjL0h14K9YrApvYZ1FT00poI90A6xPKNkeb2S+5I9vLSePMgiaD0g5j677E+7PAQfSb0wAoA8HNK8vAiDGL36eDg99qkcvVbIgr1quY49lIRaPahxi7xW+zI9RtqAvFzpKL0MPuA8cfUHvZCdvjsHq4a9Yq53vbSRjTwAgXE9xLhdPRwWvDy6c1y94L5gPfBMZ7zPRhy9MAOBOxx9CD2EoQK9YHDLO5hKXj0IOwQ84smPvJQw7DwIRXg8Qj0gveRbt7zSSgE9kI55PYC3NLoIVkg9po5MPeQ7GD3oo5G8juJNPfiEkb2YeO08vwlOvSa3ij3A+uo7NCqOvaR1UL0Q8aI8Ln4CvcBpzDsmaNe8NKc2vR7nmLzAaII8fvs4PRxoeT3ckpY8gJZzukAs87wOji49vP70PGBdU7vqv2O98rdRPYA9BbwQqki9F04QvaQNdj1pkT29yL9DPX7cHT0Uqlw9ZTMLvUBaqLusRoA94kyRPZpOSz3qWAs9SCjsPFrVab14XO08nOqAPTxN9byYSM48ki4lPdA3iDvY3+C8eHxlPOKckj0Q3Eg9bD94PUpLLr2Mglu8FB5qPeAA4Tt4j9y8LoduvSzeGT3K4dO8QLQbPBOBi71ajSw9cIifvIZu/bwQ+MO73UZPvZDAO704mDA8wKYAvNwLf7zcHNc8ylTXvMzmTL0Zg1u9fG9xPVAwITyAFu87xCRyvBrGiD2UQ2c92EhsPM4sVr1E7Q+9nAltvBAAyzvgJEU77CBFveD/0zw0d1k9wg9rvbSyO7z+EYY9mcEqvRDXuzymXRi93AMwvbmbDb3WwIk97rAaPUDA+zowFKw8qCRiPMATxDr4wIy8XLyaPM7ekj14u3C97No4PUjUOjxeKY+9XWtovayljj0yE1U9tre2vIhw1Tzstps8YJ0XO7b0hb18C4Q9SqhWvRSUkj3GQaO8TPvKPD4gC72UaRI9+FV7PABgXz2sFsI82M9RvaaCL72ImdU8Yr2OvYCiQDp0BOA8eCBOPdt7ar04bzW8BNt7PdhOX7wwLhQ9Luw3PSTTg71Wmb+8niTCvLinCr3Uiou8eEEzvXAhIzyYbjS9/PgpvZgwkj1KfYg9KpYgPcxC5jy4pny9nKabPOjOYL1u1Bm9gB7YvCBkZL3uezw9pg0ZPVUpI72JnT69KGcwvXAlVDxYDnU8QLZOPBjPXTzW4PK8SDghvGh8oTzI1AG8VPYJPey/T7whq2G9+ItgPUjIhL34XEU8CuQYPSjFL726KUQ9HBM6PWAXGryQ7iA9TKZEvf5ZHz0wt788wMMVPAERML3Aw3m78AaKO1+khL3+/oo9gPoJPZalKT08t748cGHUuxIqRD0+Slm9EOqpO03Rcr32Gjm95ASoPARSxTwqGIa9Vm2JPUjzBjw6dSO9yEVdvDDnTj2oLPy8DLeDPYkGXL1cMTQ9iJGhPNMVhL2gAVS7QvJOvQDCC7vw7s67fteCPaXgJL3Sao69vl0sPUTGYz3wXnC9AhJDvTzeO73IMXY96iY6vTQmj72KBy+96HxrPHrGhL0kNZ28uPsJPGaGPr2QY7k7tdEZvXSxaD2AREW7XPONvUQegT3wl3M9YEoZvOZGorxsYCm98DrouzQZVj3exWy9FBjcPI+eQr2Ugci8HLSVPKDdZT1BWAu9VBEIvdAiHLzGnwE9W+YDvWjVFz0Glos9SLxaPUDHYT2gj1q8jKe3PKU8Ub1acxi98BxkPYj3NTxgpXs9+OmDPfTdWj1ORUI9GPh5PQAm5zyc9XK96ucVvXzmDT10x5g8OIc+veZcJD2kfo09QIM9PN7SWb3QN6I8uFZHvej+dr3AoNy68MAUvDIvUr2y8iI9CIKKvdiqgzy2LiO9jCWOPUS3bj3cRee8ZMRsPWA/KDt8pke9St7wvGWcar2eQww9AHHIOzZIkj3UYPm8oqZ3veCiGzyAss26YB98u8C2SbsAFmG7cGC+OwD6cbzAb2e8ACGnubSM17yinCw9uDSIPd6CI714rnE8TBjWPNbNGj0X5DG9ALLxPOhLEb0PDXa9rHH7PMpA5bycEG+8UDnCO5CRiDti/RA9KZQIvVQXZD1D7Hu9cOJgvTB5gDyYdKC8AHq4u+wQXD3c6u48jcUIvVMfBb2qdRo9XAaIPYQQhzywuoo7KBeRPAZxkj00dku9cudVvdB2/jzcole9wP91PVooGj1w95Q7uO0APUS7aryAciU9YKU0O0J8gj2AVTK8x1BbvVBlWj1Qywa9chKTPTDx6TtiJri8mMHJPDRBLD3oTGm9RFMwvIObbL1cLo89fFyXPFKKL71YnHa8kGw8PLR8ED2geUe8whLyvFz8Mr0IKZI90APvPBC+eD3wb6q7jI6SvA5SFr2w+YG7pp2KvdgUQDyIY588PGZnPYgipTz8C449iuEyPZCAgDswXZk8QDPDO8CAlDzIkZE9unFDPdgU1zwis8C89Pl0PTiGiz0AMsO6ZC59PWVwQL1InvY8i1OKvfhPCz0ewR89V+WKveBIfj0QjYc9jOkyveas/rykutM8gKoXu7SDvjzyiZO9bv6PvVzFtTwakGO9ji2KPahpYj2gfhY9XPOCPcw5wzxUGH893oUOPdwo2LxeO1Q9w0ZMvSDuV7sk9g49AFSSOdwg0LzGxBo9AKwXunAVvzyPVA+9VL+JPFBTiD2lwWC9otekvFR1gjzE+Do9AGpeO0itdj3+nkO9UplQPW+XYL10mYS8ECjeuyjkTjyCdok9Ais6vVLSKz0I3Vs9vn3TvHiJjT3EGDK8TMiGvVxI1TwljpG9aAPgvLqLVL0+eRW9GLgTPPTwaT0wqqk8UPRUPcBuyDrAVVc8ehSFvbSpaj2sCsK8rF+GPdyn+byC74k9VkxVvcDXYD0ADj662HBhPIjpSz2Or6C8KvZovUDg3DoEVdC8luN2vTSiLz0olbk83Kd+PWiUdT0CoS09F/UGvWr0QD340XS8gHBqPSIwRb3WX1G9XFY/vRxIGz1KuSm9rsFFvfBJxrsAS2i6qhqDvZJMPb2Qqhs8NFNlvXCFdrzweNK7XGqQPeg25jwG5RA94CioO2YsjT1s2Zg8ootCvTA8ND3AVx67nBwDvVAvZbx2k4I93m86PbBNYz2gg6m7rL1CPZh+Zr24qtK8EsKSvUg6Tj0ABWm6aMU4PKCRajwAGII96smCvRiPFD0ADvA7QA5KO+ofij3wpOM76L+FPYSMHL0E6Ro9cArKu/AsWT0RBJC9YKgNvAB/ejoIcHs8hABVPQDP/LmAZLA83KVtPdDri73OjfG8gP9gvHBMiz2aZPq8MK3+O7hFiz090Y69Fu6NPYCkdL1SM5E9jNmUPBgZHjwgLaw7uEFevKgAYDwI+dM8/mBgvfR5wDxwOSA9iWOKvSn8ir1AZEo7wsazvNQwnjzdjEm9EK7mOygDh7205HS8jRsNvaR9Qz2QHiE8zB2FPAq4Ez3UqLg8VAdmPWwwFL2Apbc8EowTPbjUir2QHZ07UBlqvAAK5rrkxYc8DAzYvAsUVL1Axmk9DLTpvIiZUzyAOnS70K50PJgqebw86L486jmSvKBdfruo8PE8rA1+PY2yLb3IwZE84LJ4vdo6Rr36MoI98FAyPegH/DwE+F49cLFtPYbEhr0sFhc9AB+5Oft+I70CdIe9YNd1PQA+irkYHCq8yWiIvXVlk72ImQM9YFIkPV51iD2EXYg93KM+vfihaLwu2lQ9fLeqvDy4Wz3g5gA7l3YkvZwzjz0Uvfs8ontsvQACjzu03IW9uLRPPBQUvjxoPlo9FJ4ePQBQ6bz6qjG9slscPdDpxzugphk8PewFvfS95zwAtoU5OFhovYBKuTqSZky9JuicvOaQDL1OyFU9vnKNPQSxcD3+8j09eg+CPU9Cjr0IHrQ8lHmHvfQc87wFuDy9VAZNvEBhgLz/QBe9oPp5vBx4KL0JSpG9YRSJvXW9Ur3iaIE97vBBPdpshLx4d1Y9V/57vZhACj3Igqm8vqdFvSR6FT3cD0E9nJYnvejjPT3I+q48FuMsPbo2Qb3m7iI9GIJ9PdQ/+zzu2o09ANJ0O8DeGz0oLgY9LMWTPTn+Yr0mfGK9EfhFvViqtzwcCpg8HLHwvKC6lbxQC389wlFKPebP47yISoA9IPWIu67eTz1K6pI9VDNmvBxhOb3hpzi9NErUPGAK7juQOOM7UK+Zuzz85rwAHPS5DCCFPc6Uir1Au+U6oGvTOzS2kj0nZH69eL5WvAINWL1DOBO9hJ1UvVjTgz0kzxW95PK+vIh9Rb0CTEe9B0gNvRipuLwIMuW8kHG2vJYwgb1Iq4o9EI2/vGZAorwwvFI8fxuHvVBxeDxufPS8RkKBvFgTVDxEKPg8bt1JPRCg+DyKRoO9dL6DPaBXPT1G3UU9qOwbvEiotbwOvII9w2AbvRR6hbzt2Yi98EFNPBsZh72ogCs96HLJvGRNcL1TgoG9oEWCO9yijzxMrPi8SuCPvb5wyrz1KBi9oEx4O3z2eT2anpE94NkiO8Jy1bzotoM9jLIevFZ+1rxM7yO8uFrovJ4Gqbz2DZC9BBnuPLyyXT1KVoA9i45XvZHRjb3UDWe8ALHXOyBVODy+Uog93PuNPe6QHr2Up+y858U7vSwVgz0omYa9wGH8Oyh1gr00By69kIQgPcJIxLzwBm+8DK4DvTqWib3Q/H88lOFxPbpqwLwA72G6UFEuPcR7Wj089H89/P2ePDoOND30Ah89NKBbPVL1+rxgkHA8OOa5PCCejj0siFI9MM5tPUCX57xQdoy9GBOCvNjnMz0gZYo9Cxsjvcwgbr3QLnw9XTKRvUctfL3vAjO9/eCPveiszzyorFU8ALPeO3DGQz3o02O9ZLutPKwTRj0gAKu8KAUdPFCCojwI1js9q60QvWiXjb38Pn49EvRWPfjTWrww6u87ZD0ivIC3dTqczl495GojPWBUMz0mu009wqsrPZBlk7ubsIW93BKPPLyscj2gyQi8POP1vNDpQTzW3yg9TtNQPQQzYT3lHSG9DOMTPdOujL3ctra8AFwYOcrIgz2giWk8sEnVu4A+ND2Qu1I9ALgfOYxPaj3wYL07GRc2vR5sjrxgXJm8HEmCPJTSWT3Uuy29wPtUvWJ9ubzKEjA9cJmeu6z94Lwg+dE7wCNvuwB5k7mAE688cIK5POwl3bwiU4y8EPitO3wbOL3UT4281B9zPRbWB71GMVM9aZcJvbQJXz22jkQ9UK16PSBB+zu1NIW9cjkzPTCAaD1Evk69VC6uPH6CRD06TV69AEB0Ohosbr2GRxY9EueKPZy5kbxu3wI9mKt7PTwb9Dz047m82Fi7PLAAgLsi/I28TB4SPeaIvrwwM2g89MagPCR+jT3Iggw9kDEyvLAFn7zCxLq80SuSvWT+Az0AUA85eNELPcCtXz0abTy9GKGEvQCOzrrdbk691zhhvQ6dar30T3Y91R4fvU6wB70ojRi8smCRPdCIeTymxg897BfLvA4IKz1oQe88TRMrvZbBS73m7Im8siQ8PTjKXz1UEbs8E0GLveCYcj2QGRw9wH7huhlwdL2YYNm8AH2JO9INcb2Qxnc8cOS5O1JPvLw8D1e9oK1lO9xv3LygdQ48u3WMvQCqFLogiHw7GooqvcpUR71lKRW9cJ5gPBvTQb2OFhy9IEYMPPtAD72Axmg9XN3jPMA3WL34FSc9JBsrvahXdzxwwE68HlSevHTPED34coE94FYavTgw9TxYI5E8uFcmPHhjADzYXfA8hHCGPV7gKb2A6ea7PRRPvWBt2Tt0Iek8/JP7vKTde7ywtSq9fNgIvZBU2jsosNU8tFYRPbmWIr10VJK9XOYKPXyDFj0zSEK9VnaBPXTCdrwOD0g95KPsPKAHHbymR4m9UGNrPQrSaL0IoIu9HHaOPd8JdL1g4Ws7mHo5PPEjhr0sv4o8gO4du8jNez0QFOG7zjdOPSB/nbuA3yG8gGp4vegQJzz4in29WLdjPcDfRzu0rnu84Kz4PE6+Dj1Qtts82JeHPJQFg72r3YG9qLd0PPAjXT2A8Ee7WrqBvYBgdzsULlm8QOYqu/Dzb7zmAIG9lPyCveQg3TyQ30y9cM8VPd91JL3AOay6vGOMPUx9Tj2B12+9KosPvUxpjb0O72i9tGV+vbrGqbxowig8/nzgvIAmgbpoWvQ8bNNGvDZiIz1QL1I8CPZ7vUAuwLtecSM9xJUFPRAHhzxEMIS8oLP7vPIvVz0gp3o9CI5RvTAGkLuglwG81NdbPQ7SUb1U35A9dC0fvFawkbz8YH09UJqlu4D/wjoAuMS4hsqzvDIgET3QWre7EFUwPbAH7DxYpEW8IPa9PLS/a708Mfc8yK9FPNDJ1DunKnO9QOmMupCItzymo269BJOmPIjadD1kSuK8beZLvVp2KL2NG3G9Z+mFvXCcFjwU2fe8MgKkvPyCjb3s9XY9cICUPOhwCj02a++8xH6EvZouEz3c7Ks8YB2iu5aZNb3Gl0G9KoGSvbD9Hr2FrGS9oYkBvXim3Ty09xs9FWWEvWTfQLz9SwW9yhGQvcCvb7tw63o86DPTPDLJj71EyC29XA0gPTDmmbsIE5I8HKdOvVSuP7yi+oM96DzdvGQ0bz0ARCM51laKPVRVu7zi6UQ9AIe2OVxGKT2IYj68OUp6vXZsM700XUU9MIZ0PUiohr3I8Ni88mE1PY98kr0CueS8YIuSPYivxzwgTJQ7RNb/PIAfT7tGqWO9CJw4PWSfSr1uegA9btqBPYj1Hj1CAGK9fHyJPL57iT3yTS49piCRvJU6PL167ES93q4nvczmiT1sCxq9obIbvX6jIT1YaXk9QFlCu+Bnk7tQ8ou9nhXovAB3W7tMlPS8nBGhPNeTf72qTA29ABhuOnyhe73K64Y91MYoPQAqkbmkZpM8JBVnPfD23btYv4G90DT6u+zSR72oEQW8AI4nugJJNb3MH3A9RHiTPBD6WT3eBkw97LKKPPCrrLz2wS29pHO5PMSaWz1MEX09KGtLPFzcTj3AEFa7YNhpPID4/bsAPmC9eBsaPI7gNL3PqkO9ikmyvKywWr0YbDc9yCliPZhCrTxoNSs88H5uPWC3Wb0EqFS8OkBNPcwf/TzAiOi7GM59PEraTT0cSCI9kU6DvXimhj1YUWE9fJl7PcBoOjuem5q8oKvLu+sBbb2Jo3K9GHMSPQuEgb3ycRc9p8tLvZC1rLt4O1u96I7WvFDdb7y2Bzq9qB7yPLQFUj3mXxC9Y+B3vXzWMr080ac8AFxjucn3AL105Ve9uTlGvQRnlbwALtk8++9LvQL8gT1urT09pDQ+vfi/TL1wece8oDVUvMrxg7wwCok9zrVKvVC/9zz09G89rBFuPU5HkD0qV4+9yuc+PRipfT1QnXI9fDNdPYNwC72y9BY9DFK5PFkIT72cSIm94Ku2vIyXSD31V0u9RCE7veJkhj3wMbk7sHJhPUSlbr1IDX68JrzQvHiPH70o2AU9gIWKOtBijT3wAJe8yLlAPaW1Ur3W72a9LgNtvZBZoTxENVo93Cd/PWiuRTysTI09aO8lPGCTMD3eeTO98LWDPaxh2Txkaoc99rtuveDMt7z8L5E9stHWvGfqg71gAEW9nDORvdD6HDyKkBu9NFKuPDY5Lj2N4k+9HWsUvQiRMDxaXr68shefvHoHN72w59a7ohqCvRylRb39GIm9UiwAPXDASL180mm8eGmLvKx+xzysU6A8gJz/O1sniL0AH6+6wo+Fvfpbsrywbj49dIAqPcwQYD085TU9MP/nPP7XNb2S+zo91q4wPZZp0ryouk88PI18vLqDVL3glpw7Ku2RvcCWPDyWARe9yDtcPELGMz1CTeG8yHJcPd1AJ72wmxw9UPMKPKArM7tg1xK7YJhFu1TmCT2Qjfk7KOx6PC5l/7zAj7O7rfSEvdwjkzyw5EQ9KMvMvHz+r7xYn149hoskPVClsjvITXy9hJXlvKjYDrzqB4K93In8PHAE4Ds4S488NJABvWSaQj2Q43I8rCF1PQCHjz0A4Z063umAvcz7XT3Ax1K9oB2WPDBUUT2ewTw9f5cQvfC0Sj0wDN+7kOr8u12QIr2kCWk9jNXRPBhrZz044Cg9AOMQu0TpPT1IhbE8kpqGvM+BRL1SU0o91ErjPKAJY70c8aI8AFDvt1zTijxXDBm9vJ7CPDxKJz0S8Mq8QO//OrQNfD3g6zi7PsLjvJxtRb3QY0C9WOkOPOgQdD1gjnM95q5evW57mLx8PVk9nJSEPUTc1jygUV+7mEScPE2QFr0GpfO8eKdzPSBfFjt5SDq9TvSKva0yH71sY1w98Gq6O/KMh71+UI09QKySO7fMYr213Gu9MBlCPND2M7we70S9G6N3vYpRVD1864M9PNQ5PZSCkz3cDF89gFcuO7AK1rweZ409fnMtvVAgNLzo51o9SMarPPogID1X7hC98ni+vHBnArx4opM9JEw0PfCfSDxMd7g8CB8aPCAsobsmud68XNSCvQJ8jD3IsHg9Tls4PRg0m7xUS2a8mE9ivUxc1DzCKpI94BqCvSRMBj1moWm9wgRCvUGeLL3ACsC7GMNcPbAIOr1+b7u87AB/vCmkkL0SZta8PkuKPRQlfb2aTNy8K0MivbuBPL2tMTq9Sqk5vag9Lr1wktI8yVY0vfT1fD2AP4A64uPxvHyvwDzehkm9kAACPHiPij2cnDm8tP03vaSSTj1zKhG9kLwePcuIH70wr/+8ZPJePe5mMr1A52K86sRRPRBFqDsaSDS9cIFzvSTqRT2snLk8RK+aPJCPCr3x9AK93GxwPQD96jsdDXq94MKPO3BDYTwAhyY7gC6CutAJhrv8Rmu8wIXlO9b5BT1AVtS7QLliPaDcXzucKPs8vDgHPWEKd73Ia4s9ENkSPTRhhT1wUTg8yFAePUxga70YCVw9cKyHO9ChFjww2ng8aTNvvdJegz3slvI85Ng4PQCeJTvgP0U7iCjmPM6DPr0I+5G8iANfvIos9rzwLYm7eKUvPUzpAj0yT1m98FwHvL4ulbwpzhi9AJMWPJq6gT0idGu9YDWbO8/naL0cvaG81MSPPfBogDswD5K92mUqPb4OJb1GtpC9fgePPRFHb70YpQq90OxsPH4zUj3Sfya9qraFvEwFhT2woGs8MF2yPNDrA7y+6kI9lIWUUpRLAEsgS8CGlEvASwGGlIloAilSlHSUUpSMCGZjMS5iaWFzlGgHKGgKQn0BAACAAooKbPycRvkgaqhQGS6AAk3pAy6AAn1xAChYEAAAAHByb3RvY29sX3ZlcnNpb25xAU3pA1gNAAAAbGl0dGxlX2VuZGlhbnECiFgKAAAAdHlwZV9zaXplc3EDfXEEKFgFAAAAc2hvcnRxBUsCWAMAAABpbnRxBksEWAQAAABsb25ncQdLBHV1LoACKFgHAAAAc3RvcmFnZXEAY3RvcmNoCkZsb2F0U3RvcmFnZQpxAVgPAAAAMTQwNzAzNDMzNTI0NDMycQJYAwAAAGNwdXEDSyBOdHEEUS6AAl1xAFgPAAAAMTQwNzAzNDMzNTI0NDMycQFhLiAAAAAAAAAAAJOaOlgOaLzkEGW87a4GvaApDr1ITDK9BDhrvaBiiT18Op08Fm7AvGiMMD3dm4m9SOIavFS1DT0e84M9kO7JOx16N710/3+8cPyOPJYmhT2WpJG94Nh7PMCScT1HqJO9OLBlvaCVFz3U9oM9UDYTPc4kgz0C4om9gL5Pu8LpOj2UhZRSlEsASyCFlEsBhZSJaAIpUpR0lFKUjApmYzIud2VpZ2h0lGgHKGgKQn0EAACAAooKbPycRvkgaqhQGS6AAk3pAy6AAn1xAChYEAAAAHByb3RvY29sX3ZlcnNpb25xAU3pA1gNAAAAbGl0dGxlX2VuZGlhbnECiFgKAAAAdHlwZV9zaXplc3EDfXEEKFgFAAAAc2hvcnRxBUsCWAMAAABpbnRxBksEWAQAAABsb25ncQdLBHV1LoACKFgHAAAAc3RvcmFnZXEAY3RvcmNoCkZsb2F0U3RvcmFnZQpxAVgPAAAAMTQwNzAzNDMzNTI2ODMycQJYAwAAAGNwdXEDS+BOdHEEUS6AAl1xAFgPAAAAMTQwNzAzNDMzNTI2ODMycQFhLuAAAAAAAAAAWNgHPQIRab3atLQ9QE8zu7R6F7606rW9fQUUPp6z4D0kEwu9KH+mvF4aoj2tqYq98B5wPEypTD0MvUg90OHpvb/NI74HCY29nN8wvrfGhb1cFQa+f08JPtsWGL4wrI69OJvgPBa1JL54dmU9FmHQPdtaIz7gR6Q8AFwvvU/zAD6EKzy9IIadO7vSA74QNhi+BrmMPRDjNL5GKLM9dFjGvftn/r1tGyY+yJyyvRNDBb7dyAY+uOMRvaAhHDzwc5s8vhJ7vaaEu73xh4C9lsaJvUrVnr1pEOW9oHopvkhgtDyLdRI+T6QbPi6MoD0ABuc5sisYvgALBLyTcBk+MEbgveQId72wQ8Q8yiGIPVZiqT3Peyg+hXoNPgqR973avAu+BoMFvjgg1r1Y1BK+VGsuvtwjDT2q3X+9ObQSPkTrib3cQwI9tNRSva4j1L3gNqo7QgUcvgHe971opPO9sH2jvBBgkL0ocoo9SHq+vWWaKb440ja90JgKvgD5PrzwvSu8ZuLSvWE7Cz5wF3E9SBnqvLPFKj5aWPW9aGqLvAz1zr3MO0U9UAQzvBRRDz3QO/G9PXUcvmAcjbsAtU07FNSovSyAH764HY+8S0sXPlQ4U70IprC8WGVqvfOLLr4wFxQ8EtmyPdvPJj66aKw9lN03vURO3b3SN+e9uBPgvO5UpD0o7Iw8UJwcPDvSC76j8wo+lrYevucHAD7Epwu+D2gZPkKDgD1+hP+9HMqPvRmxqr2azvg9TjvaPei7Sr0e4wy+UhTCPUtyyb12WAy+oEWcO8DwIDuFgTE+USqgvTe7ET5T7ee9X5cSvtBwEz2wJbI80KUhvbAoEbyAdco6mH4TPWgO+7zCgsa93NI/Pa/QCj6eUeQ9yD0UvqJL6T3t6aW97T8XPlw0Mr6txA++4ELkvFtzKb5wjwc9q/8SPhiC3rxzdOS9rG0cPQcMuL2Egxq+nbMNPisnrL0Gor09uEobPc0kBr58iQI9MprJPWnt3b2SwGS9RScDvjnpJT64r+S8ziyzPcL4+L00FD+9CKScvDNIAD4QUeQ80nXgPYyxKj2ArIa8Ii7QPdHoor2UAca94BSau+l18r0gNkA9qGkPvnL54j3YgxY9TsT1vTiT2Lw8rWU9TJsuvtbj4D0AeFw8bsQXvmAOCTyAxc+7oFmvvNUGBz58ZSI91OFKvTN9Gr6UhZRSlEsASwdLIIaUSyBLAYaUiWgCKVKUdJRSlIwIZmMyLmJpYXOUaAcoaApCGQEAAIACigps/JxG+SBqqFAZLoACTekDLoACfXEAKFgQAAAAcHJvdG9jb2xfdmVyc2lvbnEBTekDWA0AAABsaXR0bGVfZW5kaWFucQKIWAoAAAB0eXBlX3NpemVzcQN9cQQoWAUAAABzaG9ydHEFSwJYAwAAAGludHEGSwRYBAAAAGxvbmdxB0sEdXUugAIoWAcAAABzdG9yYWdlcQBjdG9yY2gKRmxvYXRTdG9yYWdlCnEBWA8AAAAxNDA3MDM0MzM1Mjg4ODBxAlgDAAAAY3B1cQNLB050cQRRLoACXXEAWA8AAAAxNDA3MDM0MzM1Mjg4ODBxAWEuBwAAAAAAAABOmaO9Lx0KvtIo7711DQQ+gxb1vfovrT3gW6+7lIWUUpRLAEsHhZRLAYWUiWgCKVKUdJRSlHV9lIwJX21ldGFkYXRhlGgCKVKUKIwAlH2UjAd2ZXJzaW9ulEsBc4wFY29udjGUfZRorUsBc4wDYm4xlH2UaK1LAnOMBWNvbnYylH2UaK1LAXOMA2JuMpR9lGitSwJzjANmYzGUfZRorUsBc4wDZmMylH2UaK1LAXN1c2Iu".encode()
    weights = pickle.loads(base64.b64decode(encoded_weights))
    model.load_state_dict(weights)
    return model


model = load_model()


def agent(observation, config):
    col_num = config.columns
    row_num = config.rows
    channel = 1

    state = preprocess(observation)
    prediction = model(
        torch.from_numpy(state).view(-1, channel, col_num, row_num).float().to(model.device)
    ).detach().numpy()
    action = int(np.argmax(prediction))

    # Action
    if observation.board[action] != 0:
        return random.choice([c for c in range(config.columns) if observation.board[c] == 0])

    return action
