import io
import base64
import pickle
import random

import numpy as np

import torch
import torch.nn as nn
import torch.nn.functional as F


class CNN(nn.Module):
    def __init__(self, output):
        super(CNN, self).__init__()
        self.conv1 = nn.Conv2d(1, 16, 3)
        self.bn1 = nn.BatchNorm2d(16)
        self.conv2 = nn.Conv2d(16, 32, 3)
        self.bn2 = nn.BatchNorm2d(32)
        self.fc = nn.Linear(192, 32)
        self.head = nn.Linear(32, output)

    def forward(self, x):
        x = F.relu(self.bn1(self.conv1(x)))
        x = F.relu(self.bn2(self.conv2(x)))
        x = x.view(x.size()[0], -1)
        x = self.fc(x)
        x = self.head(x)
        return x


def preprocess(obs, col_num, row_num):
    # 状態は自分のチェッカーを１、相手のチェッカーを0.5とした7*6次元の配列で表現する
    state = np.array(obs.board)
    state = state.reshape([col_num, row_num])

    if obs.mark == 1:
        return np.where(state == 2, 0.5, state)
    else:
        result = np.where(state == 2, 1, state)
        return np.where(state == 1, 0.5, state)


def load_model():
    model = CNN(7)
    encoded_weights = "gASVgMgAAAAAAACMC2NvbGxlY3Rpb25zlIwLT3JkZXJlZERpY3SUk5QpUpQojAxjb252MS53ZWlnaHSUjAx0b3JjaC5fdXRpbHOUjBJfcmVidWlsZF90ZW5zb3JfdjKUk5QojA10b3JjaC5zdG9yYWdllIwQX2xvYWRfZnJvbV9ieXRlc5STlEI9AwAAgAKKCmz8nEb5IGqoUBkugAJN6QMugAJ9cQAoWBAAAABwcm90b2NvbF92ZXJzaW9ucQFN6QNYDQAAAGxpdHRsZV9lbmRpYW5xAohYCgAAAHR5cGVfc2l6ZXNxA31xBChYBQAAAHNob3J0cQVLAlgDAAAAaW50cQZLBFgEAAAAbG9uZ3EHSwR1dS6AAihYBwAAAHN0b3JhZ2VxAGN0b3JjaApGbG9hdFN0b3JhZ2UKcQFYDwAAADE0MDU0ODQ4OTIyOTA3MnECWAMAAABjcHVxA0uQTnRxBFEugAJdcQBYDwAAADE0MDU0ODQ4OTIyOTA3MnEBYS6QAAAAAAAAAJGMoj4AEtw7tt9kPi5Dor5mFFw+8G+bPWxS2D2kGoK+fwKAvhNkh74CIgI+PjaIvmZ4ub1Y/Iy+sEBRvuI9Zj6QMpS8i0g9vuBlpb5KQBo+4R6LPhihpr4JR48+AJ1ZvvbzXr6A5m+7QTOOPvzB471tH5A+fjwRvsZCPL4A4Os8AEBmPR7XL76ayZO+pr5ZvmCbQT3gc9Q9dLbfPaBwM73ehVU+RfyMPtCwrz2HZqK+s52PvoB4Bj0g6Xo9f9ykPqNflT5Dv4g+yqOlvsRso74AnLs9AJxZu3i4ID5Cdlg+PAa7PZzV3b0ztIg+tD7UPYH/oT4sIbY9wNucO/vTeL5ibEg+kJiwvWjOOb2wpqa9wFD6u/FJiz4zjIY+RNC1PXh2Cr1u5qS+wOABPVBrhr1/wJS+wKgpPdvvI74AUz88u1CePqKdjb6ZaqM+9r5cPvqKYT40JaI93HGpPeBKZz1yc5G+azJCvvMuGr5yJVY+ghZgPo2WgT5G7kS+E12evmaUOT6l4qY+exWTPgA2j7uwcc+8DjU8vqIXWz7O9xK+slR9PnAw+T26Rae+PKCAPXopQj4W4cW9oDqivvDU2D1eJFM+AJ0avnZXx70dYYU+OIo6PQAwPL0ipAw+YDKPPfM4W74uRwm+SMNJPfUhpz5eESQ+xKqoPQrxYz6mkzG+KuaOvgBgW7pK91s+6kKmvjbusb2cQoG9XiGlvgL7Pz76W0o+nPKhvUKVez6SE0o+ESOjPqPVKb7w1w4+cqQsPpSFlFKUSwAoSxBLAUsDSwN0lChLCUsJSwNLAXSUiWgCKVKUdJRSlIwKY29udjEuYmlhc5RoByhoCkI9AQAAgAKKCmz8nEb5IGqoUBkugAJN6QMugAJ9cQAoWBAAAABwcm90b2NvbF92ZXJzaW9ucQFN6QNYDQAAAGxpdHRsZV9lbmRpYW5xAohYCgAAAHR5cGVfc2l6ZXNxA31xBChYBQAAAHNob3J0cQVLAlgDAAAAaW50cQZLBFgEAAAAbG9uZ3EHSwR1dS6AAihYBwAAAHN0b3JhZ2VxAGN0b3JjaApGbG9hdFN0b3JhZ2UKcQFYDwAAADE0MDU0ODQ4OTI2NzkzNnECWAMAAABjcHVxA0sQTnRxBFEugAJdcQBYDwAAADE0MDU0ODQ4OTI2NzkzNnEBYS4QAAAAAAAAAOO5Qb7uKCy+8Dg0vibkxb3ONp2+a9mJPtfEob5ANRQ9bromPqZ2sr2WzTM+S9SmPtNRnb4AhHo74MlZPWvBcL6UhZRSlEsASxCFlEsBhZSJaAIpUpR0lFKUjApibjEud2VpZ2h0lGgHKGgKQj0BAACAAooKbPycRvkgaqhQGS6AAk3pAy6AAn1xAChYEAAAAHByb3RvY29sX3ZlcnNpb25xAU3pA1gNAAAAbGl0dGxlX2VuZGlhbnECiFgKAAAAdHlwZV9zaXplc3EDfXEEKFgFAAAAc2hvcnRxBUsCWAMAAABpbnRxBksEWAQAAABsb25ncQdLBHV1LoACKFgHAAAAc3RvcmFnZXEAY3RvcmNoCkZsb2F0U3RvcmFnZQpxAVgPAAAAMTQwNTQ4NDg5MjcxMDcycQJYAwAAAGNwdXEDSxBOdHEEUS6AAl1xAFgPAAAAMTQwNTQ4NDg5MjcxMDcycQFhLhAAAAAAAAAAAACAPwAAgD8AAIA/AACAPwAAgD8AAIA/AACAPwAAgD8AAIA/AACAPwAAgD8AAIA/AACAPwAAgD8AAIA/AACAP5SFlFKUSwBLEIWUSwGFlIloAilSlHSUUpSMCGJuMS5iaWFzlGgHKGgKQj0BAACAAooKbPycRvkgaqhQGS6AAk3pAy6AAn1xAChYEAAAAHByb3RvY29sX3ZlcnNpb25xAU3pA1gNAAAAbGl0dGxlX2VuZGlhbnECiFgKAAAAdHlwZV9zaXplc3EDfXEEKFgFAAAAc2hvcnRxBUsCWAMAAABpbnRxBksEWAQAAABsb25ncQdLBHV1LoACKFgHAAAAc3RvcmFnZXEAY3RvcmNoCkZsb2F0U3RvcmFnZQpxAVgPAAAAMTQwNTQ4NDg5MjcyMjg4cQJYAwAAAGNwdXEDSxBOdHEEUS6AAl1xAFgPAAAAMTQwNTQ4NDg5MjcyMjg4cQFhLhAAAAAAAAAAAAAAAAAAAAAAAAAAAAAAAAAAAAAAAAAAAAAAAAAAAAAAAAAAAAAAAAAAAAAAAAAAAAAAAAAAAAAAAAAAAAAAAJSFlFKUSwBLEIWUSwGFlIloAilSlHSUUpSMEGJuMS5ydW5uaW5nX21lYW6UaAcoaApCPQEAAIACigps/JxG+SBqqFAZLoACTekDLoACfXEAKFgQAAAAcHJvdG9jb2xfdmVyc2lvbnEBTekDWA0AAABsaXR0bGVfZW5kaWFucQKIWAoAAAB0eXBlX3NpemVzcQN9cQQoWAUAAABzaG9ydHEFSwJYAwAAAGludHEGSwRYBAAAAGxvbmdxB0sEdXUugAIoWAcAAABzdG9yYWdlcQBjdG9yY2gKRmxvYXRTdG9yYWdlCnEBWA8AAAAxNDA1NDg0ODkyNzM1MDRxAlgDAAAAY3B1cQNLEE50cQRRLoACXXEAWA8AAAAxNDA1NDg0ODkyNzM1MDRxAWEuEAAAAAAAAACG7Fm+e4qdvopFRr7vBIy+WWmhvjVJnj4EROe9wUAXPtwR1j1of5y9Ote7Po5Loj4BoYy+pebtPWyv771QATW9lIWUUpRLAEsQhZRLAYWUiWgCKVKUdJRSlIwPYm4xLnJ1bm5pbmdfdmFylGgHKGgKQj0BAACAAooKbPycRvkgaqhQGS6AAk3pAy6AAn1xAChYEAAAAHByb3RvY29sX3ZlcnNpb25xAU3pA1gNAAAAbGl0dGxlX2VuZGlhbnECiFgKAAAAdHlwZV9zaXplc3EDfXEEKFgFAAAAc2hvcnRxBUsCWAMAAABpbnRxBksEWAQAAABsb25ncQdLBHV1LoACKFgHAAAAc3RvcmFnZXEAY3RvcmNoCkZsb2F0U3RvcmFnZQpxAVgPAAAAMTQwNTQ4NDg5MjczNjY0cQJYAwAAAGNwdXEDSxBOdHEEUS6AAl1xAFgPAAAAMTQwNTQ4NDg5MjczNjY0cQFhLhAAAAAAAAAAzWotPTRZQz2mpQI9zc+BPSwrHD0KqYM9KDouPb9wET3zBZs8jQImPQ9onD0afLk8K6dJPcS0Aj0TUzk9S81ZPZSFlFKUSwBLEIWUSwGFlIloAilSlHSUUpSMF2JuMS5udW1fYmF0Y2hlc190cmFja2VklGgHKGgKQgQBAACAAooKbPycRvkgaqhQGS6AAk3pAy6AAn1xAChYEAAAAHByb3RvY29sX3ZlcnNpb25xAU3pA1gNAAAAbGl0dGxlX2VuZGlhbnECiFgKAAAAdHlwZV9zaXplc3EDfXEEKFgFAAAAc2hvcnRxBUsCWAMAAABpbnRxBksEWAQAAABsb25ncQdLBHV1LoACKFgHAAAAc3RvcmFnZXEAY3RvcmNoCkxvbmdTdG9yYWdlCnEBWA8AAAAxNDA1NDg0ODkyNzQ0MDBxAlgDAAAAY3B1cQNLAU50cQRRLoACXXEAWA8AAAAxNDA1NDg0ODkyNzQ0MDBxAWEuAQAAAAAAAADZGwcAAAAAAJSFlFKUSwApKYloAilSlHSUUpSMDGNvbnYyLndlaWdodJRoByhoCkL+SAAAgAKKCmz8nEb5IGqoUBkugAJN6QMugAJ9cQAoWBAAAABwcm90b2NvbF92ZXJzaW9ucQFN6QNYDQAAAGxpdHRsZV9lbmRpYW5xAohYCgAAAHR5cGVfc2l6ZXNxA31xBChYBQAAAHNob3J0cQVLAlgDAAAAaW50cQZLBFgEAAAAbG9uZ3EHSwR1dS6AAihYBwAAAHN0b3JhZ2VxAGN0b3JjaApGbG9hdFN0b3JhZ2UKcQFYDwAAADE0MDU0ODQ4OTI3NTAyNHECWAMAAABjcHVxA00AEk50cQRRLoACXXEAWA8AAAAxNDA1NDg0ODkyNzUwMjRxAWEuABIAAAAAAAB+OSK9QO4gPVLxYD2OsFg9oHEOvSEnlT36/w49gD1lvdindTxC4lE9Ciw4PUb5eT38meu80WqfPXMyYb2mGsm8PMSzvFUYoT14fx497hNTvUx/qDzYaJu9GjYrPdQ3mb3rBZg9lESovZAYIT0i4T09KgR5PYjtWzwi3289YGELu0KQbj1qOVY9iKtTPEBjmDtGGY29AF1lu3sQlD2qWAc9XDyovR8ToD2SSnQ9CHpNPC7OHj1Gb6u8kLAkvRaqZb1YCIG94EIPuz59QL1piJc97lAzPe5Sjb1uj2U9g5puvavqnL32O/W8AFhFueCrL70gMrC8dEyXPEI9Gj2gQxo7c8eCvd78Dz0LJ3S96qR7PVYlbr3j3R699nZOvQq8iL1szNe8mP80vYw2orysZJy8+yVfvX6lh71cOoG8I5yBPfB+/jt/yZk9Col6Pc13mj0SCoy9ko+YvR5dIb1qwxk9zTibPa2Tnz2ghx09PEWxPAQ+/DymQGM9jgVRPdB82TuAkEW7JlQiPS3KhD3AKoO9mpRNPTZUe71cvZK81ziLPQLzKj2DQC69/BuovDhITr0gmJQ8HZmpPUm9iz3KfHg9bP6ivGiOKjx79BC9omAzPUOeKL1q8zo9i+2Uvd/olL3U2I+9R6KWPeB6Z7vb7Re94KD+PBBAvjwYXji8Pulwvaw18LxS2AE9gzKBPcbBwLx7wiK9Y6EjvTvjQL0oK2u806cYvYZaWr3mZNG874+pPfzYmrwcHpG8oMswvcNyOL2mCEy9UvsAPXxEkjzT4nS9TVioPXzk+TyQbqq8bRWkPU+Ynz1a6QE9+IIivAeSpj3YroO9xmU9PUBRljxiQ5u9vUaPPfvKcL30ZY484C0iuyA9cb3SjTs9Uo54PUzB+TwMh4C8YFXKvNCO2rxGkeO8QNhRvCY8xrwmNhq9rJKpvahsFj00QLc8eCUPvYCLIboAfmW7EKaVuwgOerwSHHQ99pBkPa3PjT2hWIo9EDyHvYBfmLtwg/S7cK27vPwbrryQ8dm7kOnDvHbgU73GeGy9Y3udPbbxTr1D5CO9yE1vvDgjILx5H489YfqIPczXvbz186Y9cU6fPeBVQrsAgBk5SP0PvUBLlbysTpu87Bi2PKAjOr1gc369SO1kvbBYsbvgwSE93ECqvYLmfj3i6iI9wh02PXzLzTwcaqy8wND/uoO9C72QuqE7swwEvXCX5DvoZIu9tgaUveTN1zxA8RI8vJSivcBrqbylvoA9kuM/PV8Rmz3IGXM8+kuVvfrefT03QoU920GlPb4uQz3i3I+9NgSovU60br3MFYw8nLWbvdODab1AYsc7tEaTPChnnL0rJ6Y9h2qTvVCJ3jx8kc88s0+VPUZeer0Qk2m9LVGTPaApn7yqLm09lo2RvShFBzwqRHA9jiZbvbaCc738BoE8cAfLu63JqT0Aqu86wMIUPMCNlbprMJw9qO56vBhTPTxirjo9Em8/PXY0w7wtp4A9KaybPYqTeD3CcEs98Bn9O5uNm70ozyC82HUNPBhYJL3Uae88SytpveCQOL3k/5E8uAQjPKCoNDwdOpE9er0fPWGHlz0gmzk8JAiJvJAk4ztS0EA9cvR8PYjFSryv+Ka9ifOPPdbOsbzW9Ba9iOJZvVNzkL22R3m96jZpPTZw9bxdgoY9IMzOvDYFg72wbiC9YMRnPPjzfzyyxkg9zUOQPRF3pT0753a9DJj6vMN8Gb2ETqw8sB7yO0BK1zrj7Du9OItVPFzho7zIgyo8GPN6vO2PoT0QWhs9lC2lPENAgT3+3qe9bmijvTgBKj1we429AFuqO1wz9DxTSom9/A74vCvLc72Qm+k7CGwkvOkEhT2gN9u8s6SpPR0sgj3Uzqs8lvm9vEO4Er20irk8gthtPaDN1rzgEwq8B5yZvQcOkz1I5BU8Y9JKveAccDtQnqS70IetvGg0Qzx8UoA82N9XPHyGsjyFoZM9SCkFPVgeFj2GjLa8Ez1AvcgLcrxCJXE9Npu0vJO4kz1MzPM88pCcvaDJeDt7YI29MbOAPS4fWD3oZnY8hLqJvQAjmzrGkDe9BvlivToyPz2AjMM8xsRXvaC5MTvcvtC8znFwvZzftDwY7iy8qup9Pftgmz16uD89yNphvfDJ0jwwnG69bOLTPDA51TvWHyU9o4iHPek4pD3X96U9JnMNvfwr5Ty0kL086JcrvSjPZTxAIRQ8UKnWO3boQb2URdo8rLmPvUBkjrs/WZi9WLUvPNqLKj3Y/gE8sHu3O8hMX7xOXHS9wFwDPRQ+mrxW/yU9Tg+LvaCQl70LGqU9PmcZveRYnTyQhdk860qNvXAfdL3TT4o9Za6APfCQ3ztoUwS9UKSAOxYB37yqAU89JusWvcYaA712p2A9u2cdvcDHfzx5Mo49fkN3PTBFML0CNwo9+NZevM5EPb2gyli7PGv+vHAU4LuaUTQ9oND0vBsWlj1A27O6AyeEPfc/n73aHEk9WMEMPSDeH7wSrjM9hTigPQrvMj3Azga9XhdFvTI1Xj3UEZ+9kkItPWBkWbxq92I97GjsvL48HD0uJBu9profPSBZtDwI8Wi8ZqL8vBuIHL2cj/g8ptksvfzX7LzrUqO9PDSkPKw6kL2wFLG8YEHtPAQt0zxPPJK9gMkiO7T1tjy4tjM85moPPZYTYz02dI+9VQeQPXLzVj2WPhu9vcGnPQvnV71YV2s8Irg/PQAcvrtQm/u7EG6qPPx+6by2wTa9NZqoPRu3Fr1wNbQ77iWRvdoxTj0LgS69+zoCvU+Bjj1cTYC9UGwVvZYZbz2TFyi9K3yIPdr/Vz2WeUa95X2ZPQB8H7vlFaQ9Qvo0PeB2nrwqvkk9GEtFvUjkWbyOK5a9txykPe4kej3geIu9tulePUYBWz1lIoE9LUeHPXDO2TzezIm9dKO0PE0iqT1Gj8y8cILrO9iJRLwYFzG9DMCZPI9Mhr1C3VI9QGrgPABtC7uT9Ys9gk53PZ/SnD1b4jG9RDiMvDCb2jz0lO48IDFUu+CxPTwoNme86HOAvcO4bL3Qa3u9UtqKvZl6qD3g6hi8uSipPVT1gzzIChK8e64pvRwL7zxk5a48INGXPGwS0rz4whw8DLv0PIi2KrwWbAY9gDDxPAAnC71cV5c8dAuAvcYPrbzPoaI92NctvLDx2TuSvyA9gFoDPOpck72QZaK7SQuDPbKNWD0gTQe8ZtjivFuOpL2SI3I9qH52PHC9n71IMAk841oBvbh4QDy+Ohm96OMHPTyZ2zxKb1g9/A62vIMbnD2u8ai9mjqgvaY7Rz0wsQc9+KpfPMqXdz0VMoM9KtoTPcByUryAdxq7kpNMPcvGVr0ZcqY9pziKvVZtFj14Kwi9IMMAvMC6pzyJ4Jk9rIOmvcu9I73eUpe9XTuYPbyi3rzCbn093Py9vBpTJT03naA9iuU8PTD22Dt7J4s9RBqCPADEp7hYfxE9FmArPYLbPT3Qqb47Ry+PvTCmc70SkjU9QOm8vFullb0xTqA9pJCTvdA0vLtbXI09sHmZPIA+YrviGWg9E8kUvQT4izxotTW9hnQOPchbHrxU06S82FUuvSSHibzANCG8gIlTvELgOD1oVZG9DQiMPUC52zyw5sE7c+2mPV4GFb1pHZ49ridfPcrhUT18QJi9bHqjvGAiD7wGvNS80qAxPZw6p7zSSwQ9nrpJvasYlL3IAxQ8TFbQPPTGh7x8Wb6830aPvQpqWz0DhZi9EntTPXF2nT3hJqM9HLSCvSX0oT328D69KhBWPfOXb72AHHe9gIUIPcaA1rzAVpa6s1tEvezt4jw06qE84Og9vCDOXzuEToM8qjc+PaqXpL2tzII9cz9xvVatCb2LeRe9S1hQvZtUIb3Qy7U8+IkcPLjbNzwAqDa58Bu/OzjwfjzcfoK8Zh7gvFNBc70qED89KCJ0PBzkuLwp0J49QkYnPYAFp70Cym098gVBPSBoCjtgIZC8mU2KPRhGLby0fKO9RokSva7tGz3lD6c9q7+XPY66YT1a4XA95e2fPfCwu7xIAaO9/9WOvfBEkTzoLXe8nll2PcQJyTzA4Y+8IFFWu8J0XD1wU98737OZPU6IJL22WlY9QC3pPJ46TT1AK+a8TsZoPYSWh73nZ5Y9l7GkPQADd7zE/qo8HP2MvPx78jzDCYm91ik8vfxrqLzIaX29/ncfPcxUljyYuBg9KqlWPcBIXTzAcjO9XlNOParveT22NnY9rhZzvcAJyDxOfDS9vJT5vAAh/Lpwt567DAqhPFBvlrsDMgS9mlcMPRiUGzxQzb68kD7aO+ZtzrzGoQO9cDb2u0Vmoz2I2F+82LkOvT4laz188fI8yPxMvcz3uDzpfoo9sN/Ku17qPb2ohQS8s/hovTxmybzshOq8Ur9kPZZwmL23ZqO9En56PbAuoL1OIDO9Kp5nPUxrozxKImM9E7tsvWYTGj34K3Y8/GSnvKC4LbvY+QK9Pk4RPRaSsrzSaKK9zC3MvJDrgjtBO4g9oAFGvOLuED2fApq9lmVaPTggCL0QiiK9EHyZu3wRxjxAggu99QanPQD4/zmP0aA9Ig2WvVSomLxYaV+8W6VuvdeSmT2094i9gNILvD7vGL0NhKI9GGdPvSAlTzsAovW6oyUJvfLdkL3gNly8AGeduQAT4zwav1E9ptdSPeAMMb0WITG93hQ8vaCxMzwKkFA919CBPQAYy7yuFXA9aAIDvZS23jzb5lO9Xw6NPZWZnT2w4a87IPysvO5KCD2CORc9QOzlu+BIRDwgj1m8TAXMvFB25DsaTHc9xqMVvQQXzzxF4YM9sbaNPcuxM72Gly49U6+KvfdapL2Y4X082AI3vShBcbwdqKI9UzqpvRBqkr1rYVq9oNx/PJwf2DxnvI49ACyduxiPZ71Q2Qm9GiR5PaArtTwgB7Q867dtvdiocDxOPB69YNALvXpeiL3XJou9B1iSvf7RNT0fZ4I94OxgvVIxmr0Q5Js8WktzPW84mj1cHfk8gCnNPLxfgb0EW4C8dkwdPRRJi7w2EU+9dpiOvYD2XrxKmhY9OzumPdgXUTxs+LQ8gjpkPUBi/7pp6pI9T5eqvU9HhT1Y+xg8aLcIvJ5zqb1SaBU9AJBmPPAebr1sOfc8doKRvURsg7zBlY89ji1gPaZLeD1g1Xg8jts3vVz76Tw7EFa9oF8uPP8tj73w2BA9SBWovdOkKL2rMY69ByCEvdHdkj2s/Mu8K41mvWZYET1tbKo9MGLvu8eylz2acms93hx+PW4tl70jCoy9a31qvRaSlL1WgZ69XKz6vE7vUT04eV68UL3jvE2YlD0gGmo7FnEyvZjjIrzQT5O8Bi+2vAAuuzs6Olg9tgYKvYTTqb0r9k29sM2GvCLlg70CuEg9EJunPOx5gb3OUXu9Tn0iPTZhQj12F209wE6cPDDUpjzik5q9WFNWPEZ9UT0wE/w7YI5yu6fTqb3Lql+9gLf9Owy6uTy+LBO9BEG4PABGaLy+xi69klRyPbZUXT2gn2y9KJt3vaLrVj1ABPo649ZavcDn+DrwIw29AL2CuWdVjr0mqvK819GnPQAXgzysQvw8/CngvJn8mT28XOI84Pz8PK62Xr1oc529+tAoPaNQWL0QE429W1KWPSzpiTyCqjU95/uQPSy7hzxj6I69AgR9PSjzaDygPW87eMhKPADjmTqAKJ682tR0PXKjez2u11W9dOqdPKwSmL2LNle9sO+OPADBNryAlr88xt9FPUA2wTzitAc9CgapvdCR9zyAZF260ASYuzjQTzyYBBm9K4JRvfa/ez1AyoU8i18KvZIjLj3rvi+9y7yCPaXPoz0s75083LWkPLishb2GEFA9FocLPeRbjr3Fv5A9jFidvRB78jsGpQi93rcBvXvUnD2csZy8sskjPeqTLz1m7FI9zKWfvcAfgrsG6349LlwOPYSr6DxQ83C9xsUuvYfpqb1ucDu9FuA3PSiTNr3gCY88dHSLvYPZV72AjSK8CihnPcJYSz3SlGk9fGSQvZ5lSj2qBzk9OFltvKT7mjxm0Pi84AxYPAZ4M70wSLK7Vh7ivADnnL3zNYA9rhVHPQp8JD2j+Jc9eJFWPHsPVL3Mj9u8wKWivGBmCL2jFUe9M5mdvXAFqTxJ8I89gruUveJkaD2GH3g9pWOTPdI7bT1IrD281g1vveoJpr1A6sS8VdekPe49a71B6aQ9L+mSPTa1eb2AhSC7VPDcPFA4mjtWoSU9o30hvXAFDT2T8ma9nB6vPFBhZb06cS8928qSPcBefL0TEj69YJJPOyaZez1ECPY8IjUzPeNWjj2A4JO8HMqUvQioR72QcbW7anGEvVCu27y0HJa8rg8qPcDFhzpIK068iOSMvakNqD1g4S+7IwmjPeNsJb2SxH49B8SMvYD/jzz4wj+88JUfvY8Xjr28JYa8UD39O3A5tzwwgcO7iA2UvbY/ZL1R3qU92IAuPP3XgD0TW2a9q4VlvXB5lLtiPTg9xwKUvbvEkD0Ti4897CKGvIj2Ur1ll6k9oh5yPYBhcr240R89vvQbvSDYkDySehM9rIT+vJAvzjtQ/hW9AJyRu7oZHz2gJlq8TmVpPYX0iT1wodi8IOECOwgbbLzkNKK9rtwyvbCU7rtjmmy98ItOvQijAD2O1Hg9YQaQPb4MWL0clJS945CqPXhwCLy+bGK9QLQFPUxXhryD6Vi9egNlPT86mr22UGG9M+6ePSbwjL0udFm9CFVvvCzp4DxIeZq9OcupPTMQFb0qkiQ9qFlovHDK1ruOnia9bNK2PMJsYz1wBZO9QNQjPTCK77zD+B+96sRsPcB0hjx+bH49Esg6PbNxdb1AVym9BpY2Pfb/97yh15U9QEXCu2NgiT0Wb2O95rsEPeZI/bxsYIa9KtMBPeBgRrv69TM9EOSZvAchgj2tY4k9IJBfu7D88buw06w7JEWbvDPQQ73oQ1K99VCPPWTZ1jxgv3e7bmUsPdbwtrxlLoc9c5EgvdDhKL2Yg5S9rKSMPADZgTrMm6K8LCDXvOaNHr1wo7m7oGIbO9CqAb2+75q9oLF8O9IHOj1gegi9+N0XvMHhmT02GC+9M8aOPSiCZDx5iYQ9azKjPalciT1yADs9AMxMO7QgjTxQJzK96sx1PWjfZb2OFS+9VbWFPV7sGD3wW447nIqDPMBqNbzur3c9tI+XvMr2mr2HmZi9xnLrvKYJNz0O51K9QB8aPA40lr27Y5s9OkCLvYDhsjvMIce8gzxjvU5HQT3g6bG8Q59uvVxa67zQK7e8u5d3vQhJVbzAVF084rBqPa6EY70skPM8QJa6PKCMK7wAyKG7AIemvCCrh71wEPe75gqtvNPqLr0m+Vo91plFPe5GP73iBXo9KnFTPSuypz2OwlE9W6MYvXwApbxwiZ88q+glvXeMjD2mxOy8hgYCvTZSAT04Njw8iGFzvGLOp718ldE8kjFWPRC8Fr0TOV+9+24UvTzMpr2wub07MDS6u9BlCz1SI2w92N4FvQCuujy4Opy9XCa9PDgqG73wxca73Jj+PFCt+Dvg2hW8lZypPVdLpT3OjTg9neOFPV3cjz20tc0878iLvcCvAbxeYgk9KwByvXqANT0YRgk9z3+YPSDmoL14WiY8AG6tutYfr7y9XIM9YDs2u+mHmz0ofXg8kTCQPZDIpb0e1BU9RGCHvHgtXb3AM/M7itUCPdocfz3wBhC9k0qTvWmNjz1FC5A9EGkUvcDyIDwGaoC9IPtZPCAJbr2O4iQ9iaWNPc6qm72uOls9o0qhPfbW4LxA9rC8pHSMvIBjN7sBUJ89MzedvUYQCj04jwc9+4wHvcjzI7wAhLy4iMVXPA+wlj3GJHM96MEPPXDvdr3mysC8qPlIPHLSPD2g7mu7KZqRPRGDnz1OX1G9+n04PZj6M7yLNFG9wlFcPdWjpz3cL4u8H7uQvVsOer2EZM88cIgcPezQkr3BGJ89EF5cvWodg71yFm49gK1hutjwIj36W3c9UIU7vVKIaj3YHla8WLtNvCCJdzzg0R87OORHvApEeT02wCE9MAgAPWjaFT32wmu9W+01vbImZz3QAt27/rZ7vQh0WTxsXJS9EzWdvXMxD727OZ69iZ6WPbvnlL0AkJM8wxqGvbh+nL2FMo49eCxZvVBV0TyGXIC9EKwpvQAiaTs/6Zs9jHaUvKGJpD3A4Wu9euJNPVTl6zwMuKq84stkPV42VL37Cwe9YNh8PDUJkD0I7QC8iEJIvHrhPT3bSI69QNquO0LAPz0AGdu8hkhuvSx85Tw84dM8wTyLPaxhn732tVq9fupzvWanXb3Qaiy9YlhkPfpmMz3KWGQ9azUwvVAfibtBsqE9NkClvR4QKD0GkRa9q9kKvbszl72oLyU8gMEAO6YOGT2o2388nk9LPTzWtryuBBO9pd2YPas1O70g8rO8zmdXPUCsdr13OpM9rnIWveJEcz3oEA49SjcgPYCn5bx4c3G8UEecvWx8lr3clMg8BtHAvDAYozzwYoK7c3RZveC37DySGnE9CN4QvPYFtbxgpSa7O0KovYwynzzAWWE8ADPyPFOkQ71sEPc8Q/kBvZ1Ghz0A6dI7MJ6/vBOWjb1QA8Q8zDaXvM9qhD0AvCs8RrytvMlNoz1wTOO8iD9+vFaYwrwri5a9SYeUPWhcdDwB9qM9AFG7vJuOhr0akBM9WDNCPEQojL2AiDg8s944vb21oT3eMV29zOydvVtNmz1b7De9r4iLPVTpkLzD2EK90Ms4vSBiXbuCghQ9FqKbvdZbGT0L15o97loQPW+uoj0/xZM9CTWBPRACr7vQ6da8sGjKOzBXIb30FMY84LhmvHphnL3goHu7bA2OPJpvg71gKgu8lQinPUDlQTxr6hy9gHbPu7jtJjxYYw+8AIs8OxJhpr0gpxM7tnbFvJI3GT0guVe8llhyPYmVpD0WEXa9EEmlO4OiU72muSS9N92LveDtd7vftYg9PEOhvfDIvjwC6Xg96xWWvUNCgz17A4493Ee7PHs3gz2YsU08Flb3vAocmL0AMqc7c+QMveA9QDsAlzw7wJ7gPHy05TyuF3w9Me+CPTtvm708DZq9ACM6PIDLbDvtV4k9sLKzPDooPj140wq84L8pvViwSTzo/mW9oBgquxBjiDvh6pw9j12oPQAr5juSvwY9zj5wvajlT72y5zs9u0FJvVF+oj22Rrm8Tjk2vctnGb3BbJM9lMievXOwLL0kTuc8uzU8vWYt3LwxSao9AVaePexN6LzVgao94L17PE+jiz3LgHi9BLqGvRvbIr0YHiy8IU+PPQEsnD0AJyk9Woh3PcbDAj1mngU97kFqvQbIUL0KJTs9QVCBPTJ5UT3EBKi9GtA6Pcj1Wzy4hBk9MK3nO0pwKD0m4089ACHRO4J9HT2AVz+8AH3SORffkj2OAn09gmxyPbDf8zsOYKq92sgnPVbIir2FDKM9ALfduuCPLbuA0yW7oJCVPITPlr1zORG94EKavOYFxrySDT49Xr+HvQwmjbwANKW8wDH4uzp/Cj2PG6a9C24ivSLpXz080K48YDqQPAkFpz3LNYI9s2aQvXAyEj0g1Rw8cEqAPLM9pj1WhyI9epaSvTC8pLwsnK683gRivY8Elz3+jJ296K4OvBCLqbzMjrQ8IPEnPA2bhT0ASgM7FuDcvHKQTz2AGke9IPpyOyhoDT061nM9aP0qvGIRbj1A7EQ8uSWAPaxi3TzaKDE9gPkpPQfonr0yEpm9YLs0vEJUaj2zXoW98ZqnPR5dUz32UdS8zUWePRYmgL0acSE9cNj7O7B0mryHwIC9APWPPLCLEr3DJle9VRiAPcpTRz09kqk9eOwSvEI3bj1An7m7U6QOvXB9AT2BmYo9mJUYvbCp8bzQ0/W8DAaivEw92bzNkIc9y48dvbjUY7zgw0i7sHOMPOtdKb2D66G98dCMPX56XL1O8Wg9EUGlPfAujLu5mZA9jGffvOB0Bju4Zh09UmM+PZB9lztAb5S7pBqhvECAU70UMLI8sPqOPCg7bLxr7DC9ftAtvWCSLrzwadS8Y7tQvTm/mj3zp4a96PU9PMIYdz0HjqC9mQGpPQHVoT0wVm29d9WVPQpmCT1eKiq9gOvbvJ4GED3+rAy9tYeJPcDO8jpq9zk9B4WfPYUUgD1wsuo8sCCEO/yJwrykdYG9Og6SvepGlb3QhTy9rhVhvbY3gr3woBA9NpzivAXCgD21L6I9KrgyPS5ZZr07QCK9YMZ4u3BgoL3YIlW8LADBPACnTL2edmO9bkwUPfhXDbx6I089nr0sPb0Jjj3ZPo49ED7Wu6PWC71q3pa98P9ivda9DT2guRC9IOopPBP1B70V45k9BsLTvDqYHz1AA0q9AvGmvdI0pr0+PpS9bEaSvWb5Nr2miou9t52evSBgT71SlmI9QJHgO7IIMj1elh09g72CvcpgqL27Zwi9RhlTvaZU4bydSJo9qPFtvQAviLvSJ1E98xeUvUggYzzadw49hSqkPRHeoz2jy4e9zp8OPbbtGj3z5TW9gJl0O0qlVz2mC2Y9mw08vWyTnTwm7gG9UoYYPVjsUL0kt4q8PlB1vR6TLL1Ibka8MDApvc6+db0ACDe7iCJVvVBf7rvsuto8vNv2vPgfK7xDdle9WGpyvHh4CL1LuKG9QB8FvSjoHjxfZ4u9AG50vbJdUT3GFDe9DJq5PKcflD3gRN88E5KTPZ0Zhj1Rfqo9nD7nvOuChz1bhY49tk4jPcjhir2ZjYU9wE6zOlnchT1ICio9wGiGPCrUNz2ygwk9ON0ovZErnj2DO0G9cCk1vXzP4DzImia81np8PeDxDjtAQro7HvwxvSDtO70a8YC994KGvVjzajw+hxY9AeqSPXgUd7wyjmo9WFkovXCHuLu4hZO9eo85PbLCbz31iIU9slKMvUBz4TvW0rG8VrwDPYS44zyjBDG9WAQJPVplYT0AkZS8S3c+ve/QlT0mNxQ9uhpePfitBT0Ab8+6gskIPe52Jr10IKe8NcuXPSATPztwy/a72ChqvB+Ohr2wM0G9YAdvO5Bhm71AD6S6pJS7PEA0fb1s3ZW8UBqaPMaXbD0QYow7+gt7PYAXgL2QVsk7LmlYvfiflL1TcBu9yB1qvAAcyDyuMki9ofSQPZwOlbywLaW8VsghPdjiDL3YMVG9qrV3PX8shr1QuZu7LqZUPbp7bT1oAik9wLOqO5ZtSL0gBx89oLckvKBBMbyAGbE8QWiSPQ6wo72YCki8q/mOvbD7/jx45Qg9bEitPIBTKruqcn89uLN1vTJXcT389ei8Vs1HvZaJ8bzQq+Q8/JesPP6Ddj1Ryqg9gK3+PK5vK73b5Ge92MGSvQGlnT1swu28HIKuvKZadb0mKki9YNifvTzliTyE+8s8JOrLPIUXpT2wxs88ABC6uxDwzLxsQr28eJgGPCK6lb1wrI28QBknPIIMKz0xjZg9aLqNvZJZbz1w0hY9aOF/PPKEPD1QJK67APJUOhbUYD0IVGc81ufMvMDw57pbRhG9fPHzvHjjqL3sVqi8glaZvds2jz1t/qA9aMwMvICaPzqn04A9ILBJvJAx8TxftZ49HC/lvNZZDT0QBBW9ULc2vbBqmDt3/oO9GrEDPUjYHzw2L0m9zBaEvN9qmr0wwc28aB2PvYJ9Dz1QgYa81ucgPXbZv7zGPh09gDAGOqD+XjxDqyG9Wv1GPa4KSb14ESA8s16qvcj0W7xs2pm8kghZPb79iL1go5i92GshPPpBMD3Gysa8QNJYPJiLaLw6sDQ97iBRvYCDUbqAfG08UF3ePIAqSjqAAki99mCLvQbPCD2okFC9yRqcPSwSyrwmkkq9CCIUPKxn1rwALvc8DlltPYjeKbwCSy89VCiEvDq8DD3uRg09HGbuvGxhpL0spKw8IkIMPQDnHz1ynX49EIfKO/7HHL2AaJ87oxEQvcCKRL2Q0PU8roxOPRYNk7027nm90J0oPQhAary48X+80G6Luzg4iL04ww89IJRuvWDIqb2nfaA9/ACHPAOTaL2utH+93WGlPVOXDb17o4u9OjZUPURQkjx8iu28OLZpPH/ZkT0YZlC8GvdRPbDisDy+rpO98F0DvU9kjz301LQ8uLooPPv2dL1UpaW9k/UXvcDdsLowaNU7vpVEPQDgkzzkO6k82N14vfj8LLwAw6A5vMrNPDapTj0elku9WpajvfFmnD276Se9mhFEPc2ioz0W2wu9qa2aPQz+nbyXuos9qEQRvZpgYz02SDW9FktCPToHND0g2gK8iPRPvIBFQ706KF49bkQEPUDVmDsYTwM8oBOvvOu0Pb1JCpQ9QGKZOtxI7bwYBH883b6cPbD04jvWSHY91pGBvRBfEj3AHiu8slx9PbOyjL3w+eO8qL4evZ4yfj3Qa/87y9VLveMQXL2vg4892CRIvMzk17zzjEW9h9mcvY9RkL1VxYs9JoUCvbBKgjuAaEu6urdaPamnmT3wpCq998WiPRz9r7z8HNC8PC/QvKb257yi+049rCuivE41iL22B0m9T1WFPSDqWLw+kVU9xup6PbAS/rxmPZW9PsVsPQqEbD36Pwk9TmkpPfA7k7udwoQ9whZlPUBfuDpaXDg9aApQPKDGUDx2Cx299GPsPAYeej1cJfW82190vQkjgj24cWy9FiR8vZCM2bxWBE89lqxtvYDvjTtgETK9wjJqPanvjj18sNu8/7aUPX/Klz0ZBpA9s+sFvQKZJj2cTJ28LmSQvUyqxbyz7Va9kR6aPXA0pzuMaqU80EqEOy6TQr2oMQ+89tvyvBCv6rx+HhM90q5cPYOkjb3hTpM9OQWNPeiYfTwgclG9dlsHvQhrFT2Oh4C9vGGQvQZhMD3KphA9rOyMvKD1Tbty83I9zMmZPKqtWz2FyJc99CWkPM7Pf734FQe9VYaEPbhdT73g6DK99FynPKhGFDzQBN87UAT0O4Ri7TwxvYk91XijPQCROLz2Nv+8lqs1PXQMob0Kpom9YtoLPRxM7TzMaqG8GNQ0vaYt3LxYsm694HsWPIyzjjyA/UG6WAU4vCwwuryAGOk7QHPAusN0pr3v54w9RLSRvVynkrzMosC89lMHvZgccb0K8TY9Vh5mPfgRYbxiUSU9bkUDvX6TVT1gTwY7eog4PdgILDzWwZS9XKiivSvycL2I/Qu94IwfPf5TM71cjL68qk9zPXRnqDzuZIu99ss3PQuEgL3SZj49MzuaPXaFeD1I50A8kDyZO+aMTT1Qnwq99nPtvOCSmbxcYau8wNqWuhT5o72At788plyqvTZudb3o+CQ9QoprPSDkm73nVKg9AE6rusW8oj3QJ5e9+iscPTXOhz2g7HC8AKAQOFXwnT32ACY9ug4YPVyDmjycPNK8iZmjPRx7uzwQTpu9sE+1vKlGkz1m/mE9KDlcvB5QUr1zSFO9SmgDPQDiCrw8cpe8YPwZvViCCjyb0YS9iPA9vTkZnz1TEzi9tpIhPcyV8LwI93+9iLgCvB+kpb2qmRI9KiUUPdgCEzzQ89275dKRPQyTmrwillI9kCyou4hhJT2UdYa88CbgO5jfWDxOCzK9DJWUPDu0nr1Y5gE9gFXuO343br2zHC69lunCvOwt1bxTw0q9DmBsPYLnEz3A5N472BFtvFZPPD0YpVY8sFyCu3T4vDzwNzO92nJsPbz4yjzCjFk9a1cxvbmZpD2/Cai9oLRtvWBUfDzAMlI8cTOTPfb5Sz0AfnS7uGw4PCdXgb3WlgY9MoNePVDbPL16aW49XSmOPbzLoDzwBVy9AA/QvHg3RzxYIR49AFyJPMDKozpcNO48cE3kPDmEqT0DfpM96z5jveptQD3Vtpk9AMSEvCDXfDwSpWg9NEPLPAABPTu4Sn08j2GPPY6Naz3oi1S8Y2uAPfqigr0Azmq52FUxvevkRL3wDY881wmivfDVnr1RDYs9BqAiPXmZjj1jPUe9cKWUO2D96zywrS29tBWUPNY4b73FIZw9MBOyPLigGLxYbUG8yNciPOAjCDyg6iu7tGfbPFCx4juaUYi9QAOkvOZYIj1aaxs9DvYTve5Ma72Q88c8bBmZvVOOS70gUcg8BolsPfC2dL1w/Su9u5QXvaCdE7u2qjE9Ng/kvGhRBzy8s8+8AM/4uwPwk72w3MA7wjQgPSA+JL0+82A9IL/pvJOJcr3KyWg9ctCevU4Di73SxkE9MJipvDSKjDysxMW8Ag1EPXYrMr1Jq4U98LHiPEi3Cb0QuKm78N2Pu85llr2MHJw8xgX3vNjLR71GFwc9cgd1PS6JZj0lDKQ94ihkPUg3FLxy1w09MNm1u8lknj0AZP45vCiZvcDTnrr8/Ki8zgJ1PSPfCL2TxEG9mwiMPQt/Fb1GKdO8V2aLPdIVfz1U+6483K+gPCkClz24U3K9QOAJvJBcqrsSmx89rMPnvM6og72jHRS9xL+PPBsOUr0f8ag9dLaoPDATK70CFXg9IEecvXiFa71s1e+8/LasPDL6Qz18aom81f2gPTF3jj1LFBS9UgKovQDJKDt15qk9ekRJPaB1WL34XC08WAprvY6wGT2AEAM7yMQEPBYQN73GJYq9YLkoPW47Az2ex5S9XJiMPDcqkD0Y7zS9dL/SPBdagj126lc97gc6vZAsnbtbN4W9Ej0iPd6Gbj0YIju8ppsTPb6kb71G+Pe8UJaMve5FlL2IfGu9AJJKOv1ooz2+iKi9/uU/Pcs4Jb0EYoC9bDnlvAboUb0arV49lO+APHBfwzuYvWw88ON4vQA8rjr8XrW8wIaEuoA+Kr3iNEU9np5aPdiqaLxIvD48AChFPEpEIj3IERC9AiUTPUodVj0gOXy9ckOKvbShgTzCqS8988c9veDi5DxjpJE9s75KvQZFm72IPVA84uVCPQApZTuKLSw9iB9wvQIiCz2mWiK98tY+Pb+flb1S9Gw9Zo2fvTKEPD3WYiy9KAZ3vACFQDwQZ1O9yBIHvKuwhT3A2bk6qOlTvHz9izzqp3U9Rss/vRjJSLwmPmE9MKwpPa5wKz1ezF492wJZvcDGjDuN9pk9fvKLvQ+Inz1ZNJU9ww9mvcyu1DyglAc8wGzsvEDlbTxmCOG8Bnn6vEqmNz0gZ3o8jGLWPIAhTTuQXZO7YjM3PbaDa73gnE88YlYFPSXqjD1AdP87ciQSPZqoMD2bGjW9AJL5PJSWvTyYOxI9NgdIPQD1hb3zgHK9BGaevBccgb1iUUA9e4+YPQCxHj0m7AK9YLaVPPxd77xBw6k9N2iKva7cHD16HmQ9FsJLvaCbWLxA8A49sJf+O4D43zs8wYO9AKJuOTLMkb3qH0Y9QJ31vBL+mr1ekSK9BwaHvT0ioT1oKk69cK8qvVBo/bv24i69wmKbvRI9ZT3MftC8V9+YvQYeRD2rCYU9ICoQvHwjv7waHYS9Ar44PcDlAT29E5s9XRKhPQA4V7jeKFe9IHclPRNbGb2ycS49dDKNPNCP/bzIVWu9eEYEPCZYaz2AAju9QMGqOiDuVrsgilS7btgpvay72DxAwuS74LskO4DQZbyXZJq9aKUpPJBFnzyyazU9bFmaPMwkib2iqaW96yBgvUBEiTrghYO8Y+KRvUysgL3o8H48Vq5XPVHiqD1gl2I7jhsJvaa/Tj1eawW90iZqPXvlTL2g8hQ7/ncCvbDVhbvA47o8yLMYPcDVLLx2c2E9LJOkPKGXjT1eQHk9A0B5vWRRtDwQ18G7YE0cO6QXkjyUl908wmsoPYrpJj17bDG9OjVfPRzY+jywte88FhZfvZqaSj32cAk9MMGwuyavK70o9Q690D3lOwCkGbpwgr48QMXFu27NSD38Jbe8jFnbvEqoUz1PF6G9tsNLPaC+fDyL+FK9zOC/PFqAZT3TFY497EqivDXBoj2QU+S7vf2kPXC1tjx7C2y9pBLyPBCNkDvQjq47640EvfC8kDvWELS8KDMbPHaNyrz2ZGE90V6WPYhODryKvHU9yp8bPT7pML3E8oO8gaKHPZ5tXj0maMa8TGqNvNIAWT1uzFE9raOHPWB4bbsAWKi6YAyEvB1PnD0AZIa5Op8EPaAgUjtYCym9YFEcPHj8ar26Dm89mGMCvQSIkbwAAGy46XqGPfbPUz2eBF89K1d0vTyZ0LxGCCO9h8yOPX6dIL1GjBy9TtYdvUL4j70A6lO9UykTvbAXwjsIyRA8suhIPQKsZz0midC8Y2iAvVCvvDywf6+7kAqQOxIJRT1rTiK9Eq+FvYBkTroQ6fc7gPRpu9gOIjxNi4s9IAUTu/gkBjy4QKa9cBa1O001gD0eBBG9YDQOvBDBET0+QS69WulxPVQjobxp8Y09kiGNvd40pb0l7JY9hvZrvX6fYz3ME8k8ANBqOeHznj3sksq8eP9CPJ3Ooj17rFC9gMctumB4fLsyRTE98deGPeAlzTwAqgo9IEIMvRylxTzYlku904uZPWxcqLzEQv8806AovTBE0jsPjJ+92L9fvHcqjz1mrgO9e7WLPamYlj36FIq94L7ZvJCd4DsqEik9dh7jvC4hdL0WDoe9Q+KZPdlRgz3Ot2K9gp9/PToYID0AaOs7XMDsPKC1OTtuuRW903WDvR48Tj0pZJ49pZaLPcbHPr2jHie9aTOMPW5Kbz3F1JQ9+04CvZZC+7yAXr28W4BKvVrrXT0AB3e8R6KQPYCsojvuf229EUiGPajJNjwA9r+7DLnkvFhdRjyWQ9y866hmvaopIT3amFI9GsU2PTjeCL3lmps9iU6XPZuljb0Hw5Y90tSnvcBrXbzGgic9ABqMvbysybxm3Sm9p1uLvcA4Bzz262G9yMA2vBD14zzEgoI83qsTveoJUz2UItc8S/8AvXN2l70Azgs8owqqPRBJxzs2LUu9xl9gvfbYPL2/I5I9QdmdPYHMoT0ARTe7UL2TO5Qamr2i/EE9JulRvavoK732UF890ht9PWC5DD1s3vs8HEStvM5VYL0ApaU6aix/PbjkOr1QTIC8S28BvYznlb3n3oC9CBFSvVvOZL2E2KO8Gm8FPeBShDwQyuy7fKTdPOooXT2JUZQ99vhaPcA1UbyzE3S9NhNKvb1zjD2uvgM9u2OiPYMMir2Q+sC8lBbJPCH9pj1LYjy9LnRvvTDR/TtvLZm9Ihk2PZo+qr3rb5U9PgUgvQ4yjr12cve8ouepvXgAZjw6bUc9VuobvUg7Gryo6wo8wDlIvVyStzwe8lC9/BHQvEhhSLwmc2c9sH73O7B417tQBMm7KxkUva+iiT0Oy4G9wJurO2iGI71/8o49EHuXvDrvoL3pKp092MlYvACn4LteCRU9kGwgvZ7BUD3b2Wu9ZqJQvQz6zzxoYmq8in01PfCMrDsj8m69Fjf7vEB2PzxtYaQ9pqS0vOEsjD3Y3je8MlpLPVh+IzyEq5i88DygvHr0XD1ZEYk9HVOqPazL37zy4D09BqV7PSPBeL0ciK28Fs49vQy05ryqL009YsZ6PdjffbzuVlo9wmQnPQxBqb1Qm5u8wAW6vOrBcT1meC09HfqmPcgwFbyLP0u9UOeqPLCCqDwYLk48Ql9tPXB71rwsA5i9NnIEPch0Wjxtg6c9MhxaPViOUzyecVQ9QEaPPJZKFT2yGoi9QIF9PBjONr2u0mS9zLvdPMhXQTz8zqA8DATtPONUqL1AUbS8gN1MO/4nW70Cy2E9WFgrvfLLFz1QeRK9UJ7svMBhErxOvRa9JEi8PMZa1rw+VkI9MJWNvaxawbz0vY29UGW/u7k6hz0gBsq81moRvZCt4Tv/WIE97QCnPVctoj3jUSq9ZGfAPAD9JLvAyMC6kIC9O6ZmubzAyb+8ILwFvDDy+btAYbW8AGM9u5y+zzyQz9U7Imd7PZpTbD2e3x09joJsvWvbkz1wi8c8qDYCPaamR70mWC69nDT3vIsSpL3T6Yk96ZqEPXrSlb28B5q9MBSKPEJ9dz3wXSC9QNvRO26oY72sGM285TKJPVCWjTvYvlO8M7lnveDoYb2A0vA7wBvQvC/bkr1S8o+9mP4Dvcy66TygZUK8eIhVvT7EAr2yuE89InpoPfiuU7z6m1w9ABKOvIZwpb3Y5gO8pnaFvY97lL0t1Yw9RamLPW53Fj0IiTI84NMOu4BvtLwgX0o8qi56PXhAabziOTw9smKSvVa9mr2UvOg83ASfPMhjDzymNR29YEULvEBErrygCyA99ii7vH7peL2mCa68bI25vFgZDb1cVuY8a5o5vaJhmL3sq708FllKPRg1SL12Lqq98IOyPDiPXb3wpaM8ykB+Pbv3GL1ih2w9tCXyPEACp7qgg4G8MiJ2PTzAlTxG5gq93kYUPQi4Drx2Zxs9OASSvXMTLr2Ebe089jm0vCXTkD1rA5U9MFbhvGqiVz0ATKG4gCN7OmDJCDsSvC89ufmIPQBAvLYGUiy9A8BXvbA3Fz0o1V+91vdxPUBUlro91po9aDcnPBChab0EZcY8kV6XPVOEHr0OeSG9ZlqQvVBO/TygJBG9AJumuiyxsrwmGiK9SNJVPIZ5Cr1WsSO91ByZvdCoZr0IQT28bnt8vXd7pD22OGy9vAmRvTBwjzvQn2+9/gFyvWhdJrzexQm9F0+WPZwrgjwxKaE9/lVdPbYrkb07KoQ9y/MyvRorRz0QM+M7VPHXPIL+fz34wwy8oPxdPKC2LLyAs+I7Mic3PVPiHL3mMSs95VuSPYTOujymnxU9btZrvSpIcD3itDw94FMtPKBVTzxgI+C8I5hTvYtwnz2Axu270RiJPV4NB70Ghi09Mv1RPYjAHLzGqjO9MummvUnxkD0nOY69UhYSPTRAkLyzrIk9QKRmvCaWaj0Wite8CGsKPOR5xTx6aUE9ZlV6vfAfHD1ouQw9efiUPVodWD2KT149QAGovHJ/bD2OF2a9VkBLvTpxiL0YHWC9BklavWAJbDzQp8C8Vo61vHIQfj3nDKE90DHxuwJFRD1Au2S8jFGcPDrEDz2ye109nt4LvTBAfL2DHFm9Q6psvb5mhL1CtC49qKEHvcQZpb20T688jRagPYrFAD0Saam9UCDDvO6PiL3SVho9FjQ9PR7lK73roii9IrZlPZS2mL2Al0662wAPvVR0rzzTEZw9gtxNPaWjoT3Yxks8e6NQvet2P708P448bnYBPeCdnLxw45S9FnfHvN4Vcb3Av0a8csSkvS0ipj0ATZ65OF+GvdAl0LtgxfY8AA/2um5HKL2CKWc9FH+KPCKQIj3oPE69xlk0Pc6jVL2NSZA9++imvQBEbTvixZe9wixzPWwvxTzGkR29BBj0PKh8VDymRCC94NYGvODB5jw4s0O8YLh7vFYc27zoLqC9ykNNPRBUlbuQxji9D0SJPUAO1rt7VBi9gGFovSMjqj3dvIg9YPl7vAAVKD1FBps9gA92vdWykT2U04m8AMftuQDJlDkR7pw9u7CVvdBlgLtACQ08PudhvZzmmDy9LpI9BhM9PUDxCr1mzG69tNmmvcDajrvE1MM8sukRPVmlpT3APJu7QEpqvHxS0bxIwxs9EnErPYfMpr1AY4Y7+MsLvYR3qDygCBw7iGdKvPB9lTvgOJG80MnvPNYs+LwYQ1w8AmBvPXb+Lz394589ZjlbPRY5Bz3tjqU9RqAGvUW5qT2gWSy7eB0EPGnKpz1INSC8qf+gPe6Kgr1gbz271diaPc4vD70cx4Y8pnHXvLgmOrzo/D29QSylPVrgCD3oTA+9BYqkPfB7pL0Aqj+6sKi+u3pqZT3Np5s9GEGGvU8Khr3qV0U9i4hRvY4sNz0AtCI9anaivVjtZDyCHIG9ZuoHPUYLab2Gb1S9koenvWpwKz0teog9LKCbvViDeDxoHwK9hDCrPKy3rDw6Z1Q98PjNPDDwfb3gtnW9PYyLPfDEX734+g+9AvkTPcnsgj2CAUA9ThGJveb8xrxGTWW9W29BvRrqWz3VUog94xhJvTbbPL3/+I49BQCIPaDpbLvh8Zg9oFIOuzeWmL2A2+U7ZiqjvTbzuLyYZAU9AABMuLAdubviaWY90NcXPVO3jT0wm8A7GNMUPPKGTD3mMa28CiaLvaUmmD05YZo9ZrYcPWC7Zbvx0YE9+LgKvfD5tjyI8W29u8IavQ0mij2AUZU8OI0cvLA9zLscJ++8HDG/vK+ti71joTq9ZNDePCgKCL38g6o8NRuFPUCuhbrD8RW9xDycveBBGrzqNhM9gLXNPJ+rkb2jd2m9oHV2uw74lL3gSGI7iwIwvdANtDuAekE745QFve4lDz3EQIy9AFfHvGrTQD0gIeA8F6ynPXBM4rzmrj09IGVHO6zZ5Lzf1549wC6QPIBydLwM/v08w5kZvZt1S70OaEG9dKXVPKXmiT3A4kg8zvoAPVLKRD1Oepu9+K8avduwh72Jn4k9cAWTvGkKlj0bPzO9RsfJvDD11bs1p5890cupPcSYxjx8fKG8io+hvagfH72ANSs7xSOePU48L71Jep89oJ6xPJHIpj0g35G8ZXuAPXRDpTwA85C8ozZxvWOaVr1Q96i7plxCveEMnD2AGTW8hDXNPEp6hr20UrY8AGEJPUZ0ML0SAV09mZSIPU8piD2rqAy9Y1aSPapYRj0QjLm7ymkfPXRS4zzoNFe9mPgEvGixY7y+62W9fr2TvapLMj0Tdp89XlBDvWpCMT2SsnM9sKHWO1f7hz2Y6Ye9pm1EvTbkUT0AaAg9OAoGvV1llT1MLbC8ga6ZPRKsqL3PtIy94HD5vACHlrsPn4m9i4unPWBPBjzImoi9TPCcvQALwDoM15G9GRuAPc4OVj3YpWi8Ms6bvbKgAz0JooM9zq1svYwkiDxQSPe7cjBpPSS7o7wkLoQ8EKy2PBqELz1oYFO9U1epPc/HqD1YDmm8FlNcvRa9KL1Agb+8BtENPWDeNDyA5ne9mYCXPVayOD0IWiy8wEWsuqzYizxak189nR2SPcfNmD0iR1097n9WPa9Mnj0LdQe9+DEPPNBFY71+d0c9IFR0PNzeoLxq4DA92NYEvGhHELzKlR09YPmhvKw82jy+9X294FWZvQoVor3gdy+9QRSLPRYicb2wVmK96NIGvaPQhT074Wu9gFwlPYCwfTtUW4K9HbmBPYDvzrvyTy095gP2vC79e73g8Ak76i1bPSyjrTxjEga9uCyovfhfNb1K2Im9WvpcPTRAkzzwrKi8MomovSg3e72l7Ic9ALufu8DBt7yQlP+7G0sPvRChtLzbqpI9HOLlPAbcWT2q0EY94phfPXDszzsQjBE9mIIrPObI07ycvqe96pJ4PSRd8DxIBTW8gK4luoCqYjvQHaW8PqVbPfkmmj3QON47jH/mPNgEG7y7KHe98BW4u8YPZb1ZmJo99o7qvBgJCL3DLFu9IC5WvUcPmT1Aw4A6xAKpPDDoxbvo61I8tjjSvIYaGD0A+fG79NzuPIZEaL18t+k8+2ZovckQmD0Z/JA9gr1LPdAuxTsUw7s8wKOYuppFTT2O5oi9uDtCPAh6Dj06+mk9xMWGvVSwoTyMc4C8jJKcPNMynz1igQk9KEkFvavnA71Yj1O9BCChvcvzMr1Syj490aqYPTwYirzOgpq9gMnUPCiGTzyAFn+9cPSUPICyCb3uhAg9oOa9PDASxTzHf5y9VsFKvbBdtDwAZ8k8tp3+vCBnU7vcDqg8UMxjvQQFzzwYrwA8Jq9sPY6jJb0A20w8KbuiPZ0niT0vJ6G9qS2IPYwLlrxA+v68ciprPeYmQT07IZ299l/0vDBtybvcnqG9bHnovMZa1ryLGGq9czyVvWJLcz1wg9o7+gd2PbTrgr1zYUy9hYCCPSvgPL2ASBY78MGCuxUdhj2wxJu76ExXvWudkj2jE6e9Zh7evLhjIrz6XGk9ndSjPb2Hkz2sa4K8l8qOPYRrhr0rEJw9YTqqPQwuzLw8AY68IgckPRD8rTvwOU+9h/qRvRZlCT3Ag+O7gIcfu3pvdT2QyLU8gxgWvSBi0zxQq5M87KGTvTbqfL3gqKi8YMWJPD6zaL3QrOs76/qCvQaTdT1UuLA8pmzdvOg3m70ollE87beLPTAj8LwsXcK8cBuMvGA4bLsQDkC9qowVPZCo8Dv1qoY9gGqXO3VFlD0whJ28YLsDuxrLGD0OKRk9bjtxvXOCkL04o3e8eFcKvGzZ2bywLp2732qLPQDVQ7uIdjy8WEwWvZCO6bxaqlY9dJ6nvCpNPj2Aqn26MDwfPSxgwTw4fAW8299dvZBC1DwMNby8+HJ8vJjnJD1onJm9D0mFPZCWybv4r1W9s4SJPYKOCD3Ybj+9OstzPcCR6Ds+eXU9EKXrO6OIPr2wbf07DtcUPSVQjz2AX4a9CkuUva6LLz1fTY69+85EveB8JbtIKSM9AqQ5Pcbx+bxIT4i9PCrlPAYeUr0wS/W7AklbPZgaAbxcaY292j6HvcP7Xb3GOzE99nVWvfpyTD2I3CY87rILPQxPxTx4VEW9EEiGvN3Djj2zWKQ9ZLqTPMRj1TwIJoK9wMnqO94WJ73AHfA6EMnqvCZT/bwyjzs96IcCPEOaDb1YrBg9oKx7PILlMz12jT89fgGIvZCozrumT189kG2AOwCABjg40Zy96HwXPAAcdb3MMfw8wPqqPAZP0ryT+Y89EpQ5PeZDYr36VEQ9AGLtu3S8hDwK6YK9FucwPbx8+TyQZku92BdRPMBx4DvOZHc9RdSdPbreWj0r7im9AHgDvPTCwDwAQaq9Cx6hvU1ygT1Izka9bk0yvW5UJj2yHkM9ZhkRvaiRWLzix049ONxfPIhnbTzLrKa9pf2dPbKsjb1QaGi94ORhu6pWPT3D66G9ZwGhPa9Hij24B2G9vv4qPbj7dTzmbDi9ZeqLPaDWnbzg47i8l2aovVaKQL1TRZ69UOvTPA6KF71AyBW9wq0zPQ70Kb24NUO9StFiPftEiL16LFQ9XMGyPFKRez2UPZu8aikWPTBNr7xBlpo9hVOkPR5CEz0Y5z+9zhZTvfIJlr0pM4I93SGNPWDglbx7AKm9W6Fyvagum72AY8O8aPhTvRmOjD1AxLi7cxgLvahTYL0TVpO9cSSJPbgCDr3jDBm9ACieOT4hDD3CnHg9nMTcPEJskL1V0J09Bf+KPQB3SrxgjQ29tBe2PLH+mT3u1ai9zInaPMQFgLzOMUE969E8vZCPeb147h29SCgtvXFRiz2A/5Y8zeSPPevuBr04U168iW2KPaB/Xbsi5qO9WFt/PHZ1Bj0wkpu7JWGIPat4bL1s2KW8LLuQvCSDrDw8OqG9w1yZvbwBsTwb7jy9cCk3vbyTo7zbo4m9REKSvSKeIj3GQUE9wOodvQOSi73hwog9xq1lvazBmrzQqge92CYpPNyYwTy7u4u9EgEDPV6Qfr2b6i+9iNdTvbphGz2W0u28erBfPXCSyLt8Arc8YBgVPbRX/DxYuGU86CcVvYU8qT03EIg9IislPeZJPz1A87Q7mAwiPUAnJ7zY8g291YaGPWO+cL00yNM8OjgtPfDGs7z8VPW8JaWKPTDSQ71+eiO9QEayvNK+Uz3+SiK9gp9uPSDzXztYAGo88OKtO7bHRj2sz628GItOPKCAQjyhGZk9gDMJPVDjKD1y8DM9UuZrPYtfUb3mWWo9/gaavcD1Bz04YDC90L7GPKCLBr0WXiu9ABC4PKapVj0wr9K7+QCZPXCYm7u+Mqi92U+hPTwEsLy4eTu8xf+fPa8OnL18UK2822uNvQ78RL2blzW9J/SIPRegqD07kUm9Wo6DvYpeOj248Wq9QFDkPLh1TryDtDa9APglvOyjiTxDchy9MGrePGjBer1o4208PjhuvQZuA72+Zj49i2GgvZV6hT32NCk9GKaJvTDfujtglxk8HGecvLw1hrx095g8CEwPvd/0mL0ooVu8Q7eSvWbMs7wrSw69ChRZPUy2hL0AcY47zgAUveVllT1oxZi9eDQ2PF3umD1zd4o9KOuHvYsWqL1Ikmo8LZGdPQA6rLzLFKi9E01WvUH/iT1wj9G7oa2OPT53VL1UP+Q8u+0dvcokZj0DZSS9lz2oPaBSUTxMa5o8WIwKvaDK3zyHLYu9dFiVvfK4mL34+Jy9/jBPvRRYgb1Y9Je9kBe/PGDz8Tw8upm8Bo50vfyWhLwdE4w9vtJUvViDU7zG6su8X5aKvfOHjj0wUPQ7wNr1vB90jb3x2Yo9oA5VPBB0cb0x8pE9bObDvPDuDT2OQKa9O3kZvV6iJ72ExMI88AmMu2arw7yU6KI8UClqvZMJBr0COXw9vO7+POAZf71ASLy8pGDrPAYmmr29DaY9qliRvaDUEz122lg9jmxOvQKTmr2gEqi8+HAcPEgXRDwQ23S9OsSPvci7jr2qHy49xuHdvMa1WT1RD6k9iI4kPPD+ljx4LXM82zKPPQ7imb3Ar9s8Ce2ePZA9XL2WQuG8kZOKPc+KoT0WlRC9FHCbvMo+bD36y1c9yWaePXD7a70I0pC9oMPovCxBojzbHZE9mmMVPduTGb1mLoG9APThPMZX8LzA+467VlA/vZPOKL0MTdg8QvZqPcBBwrwkC8g8SId0vRxG47yAOF48XM7pPJAl0TthZ5E9FrshPQqci71T1Ei9DP6zvEjjGz2gbTI8aIZxvcwvoLyUhZRSlEsAKEsgSxBLA0sDdJQoS5BLCUsDSwF0lIloAilSlHSUUpSMCmNvbnYyLmJpYXOUaAcoaApCfQEAAIACigps/JxG+SBqqFAZLoACTekDLoACfXEAKFgQAAAAcHJvdG9jb2xfdmVyc2lvbnEBTekDWA0AAABsaXR0bGVfZW5kaWFucQKIWAoAAAB0eXBlX3NpemVzcQN9cQQoWAUAAABzaG9ydHEFSwJYAwAAAGludHEGSwRYBAAAAGxvbmdxB0sEdXUugAIoWAcAAABzdG9yYWdlcQBjdG9yY2gKRmxvYXRTdG9yYWdlCnEBWA8AAAAxNDA1NDg0ODkyNzcyMzJxAlgDAAAAY3B1cQNLIE50cQRRLoACXXEAWA8AAAAxNDA1NDg0ODkyNzcyMzJxAWEuIAAAAAAAAAB+fWG9u99TvZBkozzlmqY9qm9vPWAzj70293A90JrEvCpsTz34Mza9FqcWvcTelLxA1rU60PbmOzC+JT0r9Gm9yNYiPJHamD2R/6I9nKGqvGfMgz0EJJu8D++Bvd9lkz2UC8I8NisPPYCsdbqA2VC9kP2Hu6IhGD1Aedo8IfeLPZSFlFKUSwBLIIWUSwGFlIloAilSlHSUUpSMCmJuMi53ZWlnaHSUaAcoaApCfQEAAIACigps/JxG+SBqqFAZLoACTekDLoACfXEAKFgQAAAAcHJvdG9jb2xfdmVyc2lvbnEBTekDWA0AAABsaXR0bGVfZW5kaWFucQKIWAoAAAB0eXBlX3NpemVzcQN9cQQoWAUAAABzaG9ydHEFSwJYAwAAAGludHEGSwRYBAAAAGxvbmdxB0sEdXUugAIoWAcAAABzdG9yYWdlcQBjdG9yY2gKRmxvYXRTdG9yYWdlCnEBWA8AAAAxNDA1NDg0ODkyNzkwODhxAlgDAAAAY3B1cQNLIE50cQRRLoACXXEAWA8AAAAxNDA1NDg0ODkyNzkwODhxAWEuIAAAAAAAAAAAAIA/AACAPwAAgD8AAIA/AACAPwAAgD8AAIA/AACAPwAAgD8AAIA/AACAPwAAgD8AAIA/AACAPwAAgD8AAIA/AACAPwAAgD8AAIA/AACAPwAAgD8AAIA/AACAPwAAgD8AAIA/AACAPwAAgD8AAIA/AACAPwAAgD8AAIA/AACAP5SFlFKUSwBLIIWUSwGFlIloAilSlHSUUpSMCGJuMi5iaWFzlGgHKGgKQn0BAACAAooKbPycRvkgaqhQGS6AAk3pAy6AAn1xAChYEAAAAHByb3RvY29sX3ZlcnNpb25xAU3pA1gNAAAAbGl0dGxlX2VuZGlhbnECiFgKAAAAdHlwZV9zaXplc3EDfXEEKFgFAAAAc2hvcnRxBUsCWAMAAABpbnRxBksEWAQAAABsb25ncQdLBHV1LoACKFgHAAAAc3RvcmFnZXEAY3RvcmNoCkZsb2F0U3RvcmFnZQpxAVgPAAAAMTQwNTQ4NDg5MjgwMzY4cQJYAwAAAGNwdXEDSyBOdHEEUS6AAl1xAFgPAAAAMTQwNTQ4NDg5MjgwMzY4cQFhLiAAAAAAAAAAAAAAAAAAAAAAAAAAAAAAAAAAAAAAAAAAAAAAAAAAAAAAAAAAAAAAAAAAAAAAAAAAAAAAAAAAAAAAAAAAAAAAAAAAAAAAAAAAAAAAAAAAAAAAAAAAAAAAAAAAAAAAAAAAAAAAAAAAAAAAAAAAAAAAAAAAAAAAAAAAAAAAAAAAAACUhZRSlEsASyCFlEsBhZSJaAIpUpR0lFKUjBBibjIucnVubmluZ19tZWFulGgHKGgKQn0BAACAAooKbPycRvkgaqhQGS6AAk3pAy6AAn1xAChYEAAAAHByb3RvY29sX3ZlcnNpb25xAU3pA1gNAAAAbGl0dGxlX2VuZGlhbnECiFgKAAAAdHlwZV9zaXplc3EDfXEEKFgFAAAAc2hvcnRxBUsCWAMAAABpbnRxBksEWAQAAABsb25ncQdLBHV1LoACKFgHAAAAc3RvcmFnZXEAY3RvcmNoCkZsb2F0U3RvcmFnZQpxAVgPAAAAMTQwNTQ4NDg5MjgxNjQ4cQJYAwAAAGNwdXEDSyBOdHEEUS6AAl1xAFgPAAAAMTQwNTQ4NDg5MjgxNjQ4cQFhLiAAAAAAAAAARSkvvbrmUj3/oMw9EvLvPtV0sD4+EcC87ebJvUlCib0ExEI+GScvPf4maLv1Q/M9WjzFPmSO4b4Gt+c9WfXJvd6BKj56XVM+349WPt/eJ7xB7Zc+hs0MvHQfpTt1uRG7QuuIvbXXKj6MKY89lDLePUT/UT35p+W9IWI5PI58Zr6UhZRSlEsASyCFlEsBhZSJaAIpUpR0lFKUjA9ibjIucnVubmluZ192YXKUaAcoaApCfQEAAIACigps/JxG+SBqqFAZLoACTekDLoACfXEAKFgQAAAAcHJvdG9jb2xfdmVyc2lvbnEBTekDWA0AAABsaXR0bGVfZW5kaWFucQKIWAoAAAB0eXBlX3NpemVzcQN9cQQoWAUAAABzaG9ydHEFSwJYAwAAAGludHEGSwRYBAAAAGxvbmdxB0sEdXUugAIoWAcAAABzdG9yYWdlcQBjdG9yY2gKRmxvYXRTdG9yYWdlCnEBWA8AAAAxNDA1NDg0ODkyODE5MzZxAlgDAAAAY3B1cQNLIE50cQRRLoACXXEAWA8AAAAxNDA1NDg0ODkyODE5MzZxAWEuIAAAAAAAAABz/do9ULOkPXYfKD0VB0s9Vy/hPZvXlD2D1dM9SRouPgmkpj23B209glRSPU8yjD0uhlU9gfzbPZipiz0b7Go9FtTDPan7tz3lVjs9wc1WPdM5Cz4t4mw94ufcPWdO4D0Dz489V/NiPdh0Aj4LQnw9rjrdPbAypz1gwvg9yxHlPZSFlFKUSwBLIIWUSwGFlIloAilSlHSUUpSMF2JuMi5udW1fYmF0Y2hlc190cmFja2VklGgHKGgKQgQBAACAAooKbPycRvkgaqhQGS6AAk3pAy6AAn1xAChYEAAAAHByb3RvY29sX3ZlcnNpb25xAU3pA1gNAAAAbGl0dGxlX2VuZGlhbnECiFgKAAAAdHlwZV9zaXplc3EDfXEEKFgFAAAAc2hvcnRxBUsCWAMAAABpbnRxBksEWAQAAABsb25ncQdLBHV1LoACKFgHAAAAc3RvcmFnZXEAY3RvcmNoCkxvbmdTdG9yYWdlCnEBWA8AAAAxNDA1NDg0ODkyODI2NTZxAlgDAAAAY3B1cQNLAU50cQRRLoACXXEAWA8AAAAxNDA1NDg0ODkyODI2NTZxAWEuAQAAAAAAAADZGwcAAAAAAJSFlFKUSwApKYloAilSlHSUUpSMCWZjLndlaWdodJRoByhoCkL+YAAAgAKKCmz8nEb5IGqoUBkugAJN6QMugAJ9cQAoWBAAAABwcm90b2NvbF92ZXJzaW9ucQFN6QNYDQAAAGxpdHRsZV9lbmRpYW5xAohYCgAAAHR5cGVfc2l6ZXNxA31xBChYBQAAAHNob3J0cQVLAlgDAAAAaW50cQZLBFgEAAAAbG9uZ3EHSwR1dS6AAihYBwAAAHN0b3JhZ2VxAGN0b3JjaApGbG9hdFN0b3JhZ2UKcQFYDwAAADE0MDU0ODQ4OTI4MzI5NnECWAMAAABjcHVxA00AGE50cQRRLoACXXEAWA8AAAAxNDA1NDg0ODkyODMyOTZxAWEuABgAAAAAAABgZLU7sCE1PZQTgL1+CFQ9kHF+PCP5TL1OB2K9agq0vFSpib3Iiv686EMxvFDD1LyQlVU9SGSRPbg6zzwI4hI9CsYiPeBUOr3lpR69oP8lPAbRhD3uq6G8xkuDvfxyXD0nEAW9YHvgOyJ+kz0+sY+8QFeauryTeL3AeVI8INomPDwdd73An+a6fiFWPVHod71nYJO9yNSHvDK+Oz0Q9uo7OJGFPWD4ez3kzIs9JMZ5PcCV6rvyNfq8TnYmvTCXHr0sfIm9NAwivAxR6LxIfIY97FF/veTMvDzgt5E9oNfSvD5tJz3ckWy9ogOTPaJWrbwgRYE94AZqPezcWD1A/u07aih9vTC9fjwkV9k84HjEvKSkjzzwsPQ8bO5XPUgPrDystYc9wFEHvB/KdL14xcO8UNRDPKSjQrwddAK9+JNyPcqdPD3wD6a7AI6lvAp5TT1gF027AHlGu9AHOjwat8K8A2aTvXAqMT105wm9UOzzOwD8pLtefhW9AD4wuiGmhb0w33A9NPWPPVSA8zzdySC98vOvvHwGMb1FEoK9DoyRPQidP71edo29PGHNPNieM7wGBv28AJAsuAhbRLxQ18Q8vB2avK6ueb0KMBA9dEB0PbSsJLw0hcu8cu0kPTI8RD3ysFU92E3qPABE0zuMfDO9HAuWvNa1Pr3kZFs9QAeVOmqaCj2QSs08IAWEu0jgiL38Y0Y9gPtZvDiser2OJFm9SjiMPeoPgT1O5RO9rIoKvZaPGT1Svsa8zrZIvUQ37DyujIY9sJATPXQyFD2eM4w9vYiLvYMBbL1GwwQ9dBt1PQ6cSj2m3jG9cFlxPTbsDD20V6c8KGJxPXRTwLw2QT89UDeuO91ZkL3c2u88QBOxuzz8ZD2671W97oc8vQAKKjvAL/I7bk+FPYCziL3cx4292BNXPVfFZ73ghoo8NpTAvLpeR71wEEo9LO77POjYaT2gLJg8AH1GuxSSuLzQKpU7HCGZvAT1kzx6QpK994uCvbBtKbx4Iry8C4o1vR2ihr1LVoC9fJTCPFTKgryKMjA96KS8PFgCTzwCX5M99Po5vc82d70GdpM9mhKXvOAqGTti56q81llYPSx7eD1Wx4i9oJazO3DTbD3MgZI85Cq7vG68xLzDnoS9HmgEPX7VJz08yIq9SbhavaZ6Fj3g7BA7nNGNvcwWe70AIPe8KP0GPKwbej0A2mC5m90nvZhQiL39swu95toDPSVAkr2x3Xm9CoxBvRWih71G1KO8AFXDOZGFGb08OWw9wkGMPVbCUD1eko29DCvCPJ743bzoHDm8IFH3uyD5N7zckpc80UVMvbg9d72UiJ08ICOEu1lTNL0cpSI9OksnPZDXj7xY8Gc9UAaZPIyUBr2AUmw8HLNQvWh1AjwVZQq95G8nPRBr4DzqsR09pzABvcCgibtw7qe8EtsZvZUthb2f/F29AOeOOvy7lzyg2YK7KDODvCAVcT1q1wq9MJ2fvEA+bz1PaQW9ME6+PHAWaT1kbjM9ZgQoveyZR726Ek49yNx/vMtESL2s/S092sAUvbwzvjwoWls9gOF8POZbpryguni8XuNTPfjqLT1q8XS9ANuouUjzcT08+cA89EDOPDBzCb3moR69CKdoPcD1YzvQO/y7t0YivSTG+Tz07j295Mk4PZCjlTwgOO07xrIkPTL3b71sgZk84CQtOwRG/jw4ehq84I8OPEAepzqQyWy8WNFvPLBijzze8+y82rM3vWyc3zz1oIG9dOe5vMwZp7x2J5u8d9wXvRAsqTvtpxa90peAPeAoZz31RXC93jWSvJBaTDyGaYu8thmLvVHnIb3oTCI8bClqPYRekT2BVou9rBB8vDzK+zx4gFg9/D9XvSVMU71AAf26E594vZjJtDxgMj69QFLpO4Qxjjz+3tO8/rRDvdyaoDxSwYo9zJTIPE/zAb0YNKC8n6MivWNNEL1oaXE8jFh1vYBDrDtASyK8+ec4vcBFG7ucY2o9iqwePbiDETzo2HU8lKA4Pf4zkrzrfwu9OBaHvYSq8zzAjJ27pG2/PJ4TOj3OAMG8KDg7vXRfb72gdAc81Ay2PBCNCzzkmdM8OJkrPPj2Cz0IIhm8peR4vUPuIb01YGC9ovsfPcCL77vskEk9Mrz3vEzCtDyKQ4E9/ERxvbAzEj3Gnii9aN8evPSmVj3MPvk8CgVbvYjnSTzZX4e9Nw+RvYenhb2uQhQ9LIQbvb0CUL00soc88KOgu16EhD1woGM9bNSQvERya7141cQ8xsBBPTaSy7z+8pE9XFzlvCxOmzxMx1G9OAYTPCp3Ar0cJCm8mDN4Pbmbc71En4u8iiiEPYgyab2YZ2A9yBVsPSMhW73KUAE9bjeHPYCxkbt8BdI8WhzQvHJM/7y1QWG9Yq0KvTPpBL0M/o09gmR1vZjGUb0IEBi8qL1oPS3Ydr34gjw9rmBMPWtPFL2yxBc9gBFNOuCESDuu/Ym9bDRmvatmVr30oDq8sl7AvEBCEzso+tc8mAqxPLouUr3kOpS8WJwBPT4L/LxEfl89NFxWvQpXYL2IQBW8MAHgu1yhSL0Swkq9ApooPZr/IT3eWI49pHaPvB4097wIuQy99IrwvOBiybsERaK8gNpEO+b1Dz2S6Qa9lkkMvWwGgr0vQCG9YIMwPQDYODxgajA9zFndPFDPzTzgOCK8c/R3vezWEj1Ag6Q76p2HPendAb2bKI+9gK54u6sHhb3tcY69HBsmPbAy67sepQI98B1UPXg1gD3WCMm8oEpGvEBG7DxIfMI8EmMCvZCwN71sBIY9KydhvabxO72sp/I85rQvvcSTrLzy/qK8PGCFPWY9yLwkFZY85G+DPW4q87wAdBC8vAV/PZIsCT1Qa7M7GKaIvUw2az0GV6K8uvkuPegIPjzIMj08kGS6O568SD3aDVy9sIJJvQj8ez3mVGO94ONWvYpHOT3WQo69zoLivJ37Bb2AH9c8pK9PPeDGLL2U28w8VICKvbRirbyq43i94IcOPHyrkjxQTe27mHxyPTT0fb28e2c9cPp8PLDQFrzUmkK8GpKQvVh4ejwg4647mEhBvXY0NL0k/9k8BFW3PNSVbr0uBIy8CHvtPBREaD3gNzY8ju+RvYoAsrwcqsM8YIlcO+QoFL00w6M84OMWPYA8YjuIGjk98/5ovW6Yij1onnA83BiYPGw7Iz3Ao6A8yPB4POKwe70Ys+i8IJaIvTjSOj3AKYA9bCZWvQtyVL38V/O8MK53Pei+cDw0T9w8PCRfve6COL3UXzE9dI8hvFbPgj3iOjw9HBqxvHAjaj3EHna9vN64vFzvDr0A35c8CLc4vXn5G71Ez4I8SHVjvBTuL7zOyPW8oPBvu9Tdbb1IJke9LJdtvMDDxLrU3ZI9EDSfOwZsHL34RXU91AcUvVDBPL18YZa8UPDkO7DoBrzwMw28uA0evDyPeT1IX3k9MEwPvXw1jb3QVtg8EGHDO4B+XbqgYAg76AwIPU63VT3KagA9gldevQCZWLt4Cdw8kFhrPRwbKL0AeMa4vARlvWII1ryamo09IJ8uu9DB3zzcoqQ87ENFvCuakL0/Z4u9VmY7vYhNG7zMTs48gFH5O7aDPT1EaWQ9eOJ9PWxqCD10rGk9LDBwPcxgzLxGFn69qD/nvJgLXz04OLc8uLA2PED17jw8jnc9HLbUPOQ6yrxDUoi9lPlqPafnib1QF1i9NINbvEwfcT0Uizq9vAk+PQrUgD0YS8M8COrdPNBrpjzsE2W92gaPPeiKGj3gcQW7PoAlPYyYlzynQoC9KD4cPapNhT3ALj07ZpY7PfAOC7wUuDS9ToelvHyQgrwMxG89SokPPTTYhb0yYYK85PhsvVKxHz2oBSW8GKgmPCB7lrsVnBS9kvuKvQLGkj3yNio91nU2vcfqkL2KrIg9HCvUvDj4L7w3MoS9mkPivMRUZD3Qlpo71bEMvbD64Lu8FLs8DSg5vQD4BrxwN4k9YgeivMivfj0AsOg5Us1wvaifgz3CV5S84kYRvURXdD3K7++8Rof3vJidjzyg10k8dAxSvJXUC73uiNS8xDFivXbcz7xgfTY8MLBOPGD8Yr2aYTE9aC0kPdpXOz0sT5e8VYkOvTwxNr1U8W491hngvJSjizxwnJC7+ECHPazLgD32gYC9IGqDu2j1Xz0ciaO85O+DPP7FkrzEdMU82CCgPBH6D71M0/k8i7kIvVhJcjy0RPo8gnKMPSitGzygu1c7DIEWvWjO1Lx8p4O9BxWFvRxdvryAZA461Mz1vOBHbTyQn4C9+j80PfBpET1GZeq8KM4LPOQOvrwIvAM8YO1+vVaZCT0MaXq9dcE8vYC5sjqUwNq8TN1UPZGthb00ZmM9GvCLvbCch7wAp5g8ipkbPWaIYb2oxQM9jD4zvcCFRz1UeHI9kDpLPclHkL3QGHi9dXSJvXjTW72Id4K8GyEtvVxVtDyrOWq9mEtxPFgMuTxCMti8YuC/vCpSPT1ONiI9JMziPNxEC70Umpo8yNIbPNCrk7v0hrG8KLcbPcyU0jylCAO9wMKgO/y5ozxsBiI9AC2bPHSc+DxQUXo9QLFmvTuMib0UcIY9+fqOvRiOeTwuQFC9pNgtPeQaaby0ffs8pmCPvOa0O71OKz+9ynryvKaZgr0yjEs94po8PTiWnDwo+Fk9ACQHulVjMr1c45U8CztjveAOGzxWitC8fk83PZDbujwWxB89kmBXPYhRiD2qtTo9xiCgvGCv3DzyVIO9gCupO4bBQL3YLYQ9Z5NIvSCBaz1kZyC8yMtsPYJQhr2ERZI9LlbxvAje7TxUmoK9ANB8OIjPezzw6xG8Evx+vaAMfruQN648DhyavPy1pTyE+n28XTUEvSmrQ70mDUW9AABRurQ6pzxQRSg9ADV2PViqODyIwlI9yPWNvGj0Cr1gL2I7HI9JvZzlST3gA6s7zEl+PfODk73cB128NF3PPOAseLv8Ims9IBlJO1B3wTyGggo9ADj8uCjDQD0bxTa9NPVGPVAx57sQdKY8B8RVvb7iib2YfwU9bmGAPWZUk7xwQlw91IIjPZRCKr1UqYI8USJ+vXBajjzg4le7kgCIPQBL4LkARyY6XPCjPCbZKb38BnU9g4IevSyZGz0o0ZE80F1xvdRBhj2GsIi9WEC1PEQIRT0UppO9ymODPVB50DxQ6xI9/MtrPZSufD0GVki91ASdPIT6gD3QjZi8HOe5vHB/fD0naia9wNVcPeJQgb1YNXE9rK5nPXB0pzxaODy9eIEFvKaulryEDIy9sm3NvEjuybyQiN673K+LPCCyuzsEJtU8yMTyvJBm4zxlDAm9dG0dPRS/sTzeP469sHdMvLiWlbwA9qS5sqR8vTEsi710VMy88JqfPMJoVb3wqXQ9MHbjPJCyVD1o/Cm9gHVePAZqJL1AB7m6HIYPPYA7EryAioY71eEvveArGbsgUuQ85FBXvIx5LL0AKJy7iNU0vLI2gz0xC2y97IzZvGkcjb020DW9mnWLPWB8ETtI1YS9IjSIPQiIaryk/ba8/KaNPVA6aj0o0EI8gMQMPH2Wi70otHe9TeNpvX0sjb02k3e9JoaJPciyMr29+Tu9dKaOPL6QRr3003q8fOsTPQSkujwAb4a8UGLWO3DnArzprE+9NToCva64CD06Viq9EOhUPIwweT3uqRg9YkdTPciAKj36Iiu9ONclPWQxBD38cz695DkivJY/nLz8vuu82BYPvGBWYz2wFuK7iD59PNT+L7xYoI49YHQXPCS/mLwQn7E86BQRvd7wgD0oYWa8TKaLPUQEzTwQugk8ElxyvVz2/DxUc0K9Fss5vdwnAj2I9SI8uyGAvcvVM70Ywfs8QPq1PCLwjr0k7UU9dElKPfmACL1ioiu9HLFOvOeEHb2YuIY9dHCGvQAgmTmAej+9np8ivabUnrwdQ2u9MC3dO8z2Mz3gT1w9JxuQvdDsWz3IeBc9BH48PRQj7jygCTo8gpGGPUgK/DzOhqO8wCRxPfBHobzC1FQ9WH2BPMot+7wwD+W7r3dyvZ4A1LwqgSw9pLdGvcjZPr3+LYG9TY8nvXRmwbxkO7Y8vH8+vOLmT73ASRQ8qFKQPZDh3Dugk3G7DUYcvSAqvDv+c/68fkRYPXdVPL3wAC89cdVnvfazYb38h3k9AleKvSA+eTsow4o9agcgPaxKRz0+Oj+9jz1ivQ5nyLz8PS89UGozvBWADL1M3Q69gNF/u6hUkD38ssg80MQAvcpxij1axxK94Kq1u8CN2jqAeqe6sGu2O8D77DtQ93Q9lC2LvcBSo7pGqMW8+utWPUSLij30zlu9+HV7vbKyK73IfXU9TDUjPRz9xTzsdJ48wJmPvOoYUr1c5408shFPvWBCT7wAXi26pNNKvLbaSj3EKiC8HrSHvZQTUT1eO4U9oEpnPcNvIb0AqqC7/OC1PKJfu7wisy49GBsJPDhLcD04/188/nJhvXiIabywJsA7zMzVPHA4kLs+hjm9/kv4vDguTLzQYu+7yhu3vAhZwDx4VYU9sNEiPQroFD3IDFs9OtBBPaCBJLtwtNw77SaAveCPID12PCc9zFZ0PZQ7frzA2qg6eAGAPFAoqDzk4He8/MvkvNRXgz0QpLE8uJp/PAC7bz10yYc9oHgyPLbCUz0AKPg8IN7XPJo/hb1gmEc8EHGauyyQfj0EjUC8bAuKPYCCNDyiJjS9GEaoPIevab2SH8C8f+FQvcBXILuJO3e9QNXfuzTc8Ty2Rko9+ViAveg0Er1YMRU9iCNxPND2fDy4vyI8dhgIPRgI3bwe9SY9QrBQPeyRzTwxJIG9HkJkvWwM2TxS6Ag9QNpXPBDpgLu2owW9LI4bPYx2Urzk0va8Qvj0vMDet7qch1k9zMgRPVi0Rb3cloo8LvZ3vdCVrjwpf4u9+IgWPH70hr1wbIk9pG2TPcREZz3AXsg8IPqjO8YYZr0Yzj48qBfhPEmfb72eeme9/Qg2vYK6Rj2ojEE8UNVnPXB0ibsGmJ28hMklPSA4O7zAq9Q7xPrlvCyR0TzWpwq9IEj5O1vwFL0Kg4o9GKKNvcJrL70WKFY9LTRIvVjNR70GPAW9BMZ6PTDpaT2Qv708ZoYDvcpvZ73eMTu9YEH+O1R85jygmzs7yChvvK4HXb2AXXQ7zEiTvQbkij0s7JG9fsdZvZo7p7yAar4882AVva6rbL0QZD09UFQnPGYEjD20rW89tm44vUw8kj327Qo9sEN4PTb8UT0AE0w9mp0BvTDta70cz8+8BjoTPeSSqzyii6K8NvrOvDQEGL18Bo29As+JvI4oQj203yE9EtYzvaKI4rzepkg9VqCSPWSUgT2oVR68gKRCPYS0mTymYzM9buRKvZlbEr2wtUc8mIniPCDv0DwckQ09HBMzvcAkPjwwpHS91qfxvHiCLL0oHvk8ntesvHYzFD0aGou8iv4fPfSDfD2YdSY87MhtPY5rPD0Yg668ejWBPZBWjj3uvFU9IGrUu+ByGr00A3k9zJZIvQBribnuOkA9dEvKvIhBzjykK1i8eMlKPCxEb71A5uW7tF7DPL5nnLyS6968iD1gPLDBhj1SnX69lMQ2vBBecz2As/Y6WoCwvLRNKT24eJS8pnt1vWSCbz2I1FG9pBd6vfA3nrt4MD09O4ENvcjMW71EmJE8fkQQvfCUpTxSPIs9QIkavURlWD2g6209+qgmvaDLPjy0mc+8pus9va/4br0IOIi9ag/uvFjncz3QmLw7mkGEPQiQU7xzOQS9TpmDvXU6Cr1eaB09XJPcPKzUcj3ywoU99iY+vbxfMT3Kf2u95J/NPNClRT0EJEC9OoL9vAJnFj0wpuU7kkCtvHsHAb0A9Um6bKByPdAQdrw+zHe9UGKDPcAg1TsApJW4wI50uwq0g73oz1g9RAqSPW/mkL11Lzq9NjLIvEALSjzYGxW87PXrvGzCMz253j69EM/ju/D66zwOJ2i9KJqWPFbSNL2g1aU8SCRkvACY9LtJOH+9LPrqPHz38zwA0MG8+DoFvI4Tdr3A5dC8ZAE0vYhoXzxos3k9OO4BvNnNBL3wjKe81t4Jvfq4fb39UGC9lJ40vLBcqLuApaG74Ja0u9SUMr2Emws9gOF/PeqbNL1mC1E9wMV9vSp84rzQOfO74IFxvXzPOD1E8nI9dI3kvCRWFr0ORby8QCOxu0CyYbx49Eg9fZNpvUDjej146tQ8IPuBuwieCDxuxAI90cZXvahY+rxAv207AJ5Wug+OBb08T5M8wTyRvb59Oz2EeOs8NN95vFz3gbx/ZIu9ZY2TvTyXer2zMTS9+CSePEiwGbxA0nY7rNyYPIwoVb1wbyi8A+KQvfrDhryoMgS91iWGvHQhYj21Y0W9iCsmvNrub71MTW09gHFovNBCQD3ONku9av87vcx+9DyAjSi8YToFvRg72TzYBaY8JvfvvE49Aj0nTVC9Vk4qvf/LDL2coc08AN+cuub+jT3e8xQ9BkdVvfAf+DziBoI9cKyvO/wcNL2kVq+8ImKIPTimVTxmswE9xCwPPXiYMj3Y68i82GgKPP1aGb28QR09mHWPPCxLYLxYQ9A8robZvLqiTj3g5E67bB8vPexjLD0854K8a2d/vcC7SDyXhRG91DdzvCDGQb3o3ec8HvTTvMBjtzqEcM+8LFL9PCQBUbxwU+Q7kFlXPUbGWb0AbnY5qJBqPYBgFTzUyq88WKmNPdingr2G8Yw9Bq2CPeSXkD2dbC+98CZ3PaC8xrwI8VG9UB9ZPDbgGL0wrlq8TnljvSYnij2MoI09/vglPfTclDwsYZk8U784vRxbozyIKWe8KNWKPQuMDb0E0KW8TieJvQQ0kz1j/gC9A/gbvQz1Nz2lN4S9Nj6dvMq0Xr3mR0o9KLjHvOp9UL363Y49MNbFPITGbL0AABq2zD4ave7ikL20Zkq8DO2GvSDZt7xIfSO8LN/XvIpUHD2EHUA9cDtnvJTLS72k55E9hISTvKQVS71gb1492F5IvS6IX7389Hk9/RyLvWrsCb1BVRS9HKlwPQr5S71QlBS8eK6xvIZ/+ryodX89hJfFvDorVT2GHUk9XBEQPWDLq7vIetI8+HmhvPYuhD2snZi8OQY6vSDqu7swQYY8IEnCPACF4DoIbHk9MgRCPQBAArd0b6Y8RiAQvXQWwjw4zWQ8yGCSPCzfmTyCdI+8mLl/PMQK8jzW1MC8AsKCvcATcD3uyeq80CjoO0C6LDs2boo9ELSOu9DjqrwIl2s8nN6LvUw6szxvgju9jOxOvULfIT0qMQs9jI5SvZRQ9TwkaSc9TCLZPLeJkb3oIos90OEpvH43kj2+siQ98DtUPAAYiz2y3Sc9PJ+MPMYhiD2f+Yu9im0qvSzsbbwl8wu9De6JvVisWz3X5jC9OiY6PZoStrwSm/q8JOV8PXa2hr1TRom9bAdmPfxR5zwoUCy9RJItPSAISb3Utsk84vQPPRSH+TwQNqa7psOsvAaoCD2rVF69CG9hPc7xAz3w+1I9yncYPXyYdz2kAIU8XHp0PdzWp7xwQgE8sLYMPcACBbwAYWs89ogUPcTsWj3E7+I8yEj3PPh5cTwc5KA80L5bPWSMWbw6KyK9MEQlPabcXL2x1Xu9UPMDPaKGnLxMPh09yDXiPMAvkD1QTr+8XiSLPXzfhz0I/Qm9ADzZORZCzLxixJS8FOblPKtQWL3RZxq9fyAavclVH71A8Ra92h2QPYyXY7ySlnC9WFVPvW5Nq7ysJjK8gCOZu+CNVb3Mgy68/DmMPPLSd72gBIW7bwZyvXTKez3wuYs7DIl4vJAHOTw4Ols9hoH9vCCdCzxA3Tk7LLyDPcRnFD1Qp4E7IG5bvBCi1bzQ7NK7FeePvcA3YT2m9pI9s4NMvcA5br04tCM8yjYgPYIpvbwcimm9gCV0u2UTVb3A+oE95BBMvCCJ2juemsO8SLg4PRydszy+keS8QK8UPEwgfr0APXa7ACrcO4RxLT3wns+7jNJovUT3Sb3uRVW9tMATPZDrUT242Iy9wqcnvYB1Uz2MX2A9Jr+5vDCRJTzAG4o7IqIHPal6hr3kAEg9ZGw2vdo8Aj1wb2+9uO9pPU6sTr3ALks7YAW1PCCkObzQpfo84FUaPQBuuDvGjVE9RgA/vfxULj1UKde8bsaIPaQGNL3Gl5E9QvByvTYBTT0Y89e8kHFnPC6khD3Ic2C8QF5uveZ877x07BI9BG9RvahdzjxhNm+9EEd4PeApSbwYNVA80A6LPeAUtDzkwHw9rG2RPWz057yA83o7socvvdg7Crwp64m9MGDqO35rij0Q0wA97MF8PaQ0qjyhAYC9hA5HPaAoKDuQhUU8FvoNvdNQOL0ApLI6xNLNPABQ1rj44lS9wP4NvWJzDT1wWc+7AIm3uRh/LL1w+XS81DdVveQx/Dw0hxk9dpQZvQQFYr3mwSg9mg5SPfLUTb14SGo9osgQPUBXYD2eBgE9Wl5ivfDPb71cAYo8YHL/POA4C7xQ6HQ8RIV/PWW/Ab1o9yo8FBV8PUKyKT0i/Yk9C/ACvQBamLlAZPW6kBKIPSZiJb3wjys90PQ+vSjWXj1SHTg9RHCMvRMSkL0I/YU9QMNXvKZHyrxgD8U80Jvvu3zq1Lwy4gA9nA5pPWQuzDzgn4Y8mF/2PCBdCD1MoNu8YFkAPeyWDD0k3oS8LDPLvNTDjTwQgNC7bhHmvD5RrLyIgUI9AOcvOjw18bxaoi69YaEBvebE0LzcsoA9QCCjO4KgZr1A5iG8sV1tvdDACj3o7Fc8hPxZPQEChL1sZEw9GvsfPaaICz0A9EG7yjeQPd6aV71ADs88iMmTPK5fSb108tC81DQ5vODOjjus24w8wiAGPai3fT0+ZwA94Et4PP48ND1Yc1486hEsvcRweD00O4M8vOyIPBBxDD10s1g97kMMPdI8SD2oETc8AECTOL8yiL3ANzs9BBENPSdFFb3QZ7M84JK8PODXoztoBlm9YAD6u0zt0Dx++EY9yHpcvSAcUz0+Hxs9WXgivV4gOT3Y7VQ8VkRLvbz+/bysFjI9yNV5PKAy7TsgxTq9fBNIPY/1RL24/aS8mEY+PJGzGL38DA299Ad6PVim4TxAuzs7sE6HPFMreb2g6GS9rKRnvRB7O7yJv3u9YqdgvdC2prvgTVG7sJITPAJrFD3eR5G96x8mvajTDrwIty08jBR8PaCfWj0KE528Hsx3veohgr30R2+8VpqJPcB2zztCrEu9lCFavSCCeT1gFMS7Glr+vB5fSr0++JA9sTpXvZp0Bb2y1N280F4jvSolNz2Y6sc8CLWGPYDbDDqESoa99Kj9PM48z7ycM7u8fFiQPEAOLTw/EW299o6LPcT4zjxJNhK90kw9PehgVbyWHjw9APIpuQwfnDwkwS68tHmPvMBOyzwoyMs86FAqvdYOSL20Bys98AqvO7BqoburdGK9ZrFsvYD6xTrYU3U9WAFlPVEDB72ApH09aJ99PBh0T72Wb9y8zL5bPV7xjr2iRIQ9MPO/PACpZrrAK4w9duiNvWwZe7y4GCK81GVkvQiMj71U1WO81Q9+vdotPD0A6LA4gJDau/Rl/TxVDze9xusNPUDs5jzAAuu8NnlEPQC4LDz5q0K9+CRzvOgYArwwZre7IlOIvXoXtLxO1y+9RJjQPPwfWz1MUhg9tKXkvByPFj08zAS9TAIKPQgIFj1QHBE9nPwOPUABQz1RfR69fiamvHzRhb1uoYW93N8LveCrarvWaUY9AMs7u/TZVrxc9pg8WDZgPE+REb2Idn090A5yvUAu1zyuYkk97OBvPTuIdr3Q9Pk7mK9PPJDYE7yuHj89TCwPveujk71C4wq9XFzGPMatHz3+T3G9eESbvOQcFj3A+d86vLjJvGiYnjwh+4a9QHgLPBCvxLtiD1y9CEtRvZJnfb1oCok9iCACPG7ukD1uXl+9UlMuPQScjT22OfO8FG2TPEBDdTt4O5E9pI52vHCn4Dvorq48T8w8vQNzGL3UI/m8ZCZvvUKqDj3I6eA8AMqNut/4hr0wmvO7oOEDu7zcIrzAudu7u7qLvcCfxjq47728gNTUOlouCT34tJG91qeAPQ6WRT3I2ri8nqFAPTAlrbvnnS29yLcivNAL4Dy+roI9psWGPQBjDjpKyj89wCsnPIyQ6Tw4tIc9fNkdvZnbhr1YQhE8OCmjvNjOZj3QPJK9UPxgPVwQTD04R0Q9/fUbvTgGMzwMlT69V0mQvTRTA73YwBm9OOUCvAw6kDzv1pK9yPMpvTjuVD3AVTg92EAiPHKqAz20iYw8fLocPRpcEb3A6Mg7Xg2TvZjfQj36DAg95iHcvKwvnjzY21892VCBvfQLaz1wore8/DuRPfBGkz0oXEa8pd43vUAdjjtuAFW93q4PvdC14Dtg30C7jBruvJoJkr0qufS8HpJ1vdRjPD3IM5o8ILxQu35YFj18G3A9NICVvPCT+7tIWRy8B+t/vfBiiDz879O80PFJPOTiJ7xUxdU8pDBivRDDZDzAAz+7SoWOvH6QD734Txc9aoqQPaQ8dz07PTi91sE1PVQUQD0ApbI5TGlevUBhmbrWaxY9kNL2vACC47qmgzS9EFd4PAAVP7uguF+9YKRtvOR7ujy8cYA8kqPivKqjQD12sTC9Puw2PQRE37wkj3W9xh9XPfB6PT1OHpI9uDCIPciKIT08Muq8hvrAvHpd/Lwykj+95vIFvaCLArxMI788iGlxPS6qW70gGle9ZH2JvVRycz0+LOq8AG6tPDhZQbwAhna6agE6vRBvPj0ehDU9TosyvdUHj72o5qc89iyDvKEBjL0TY3e9J8sjvUIVJT0A5NO5xLmTPFRPbL2so0y9oLrwu9jGbjzqVhS9oGmWO1ToLr0AR5C5UC9uPXihi7yU/GK9UbKRvd4QFT1+Tjy9NivPvOQ/s7yegBu9bHc6PcApwbpYiQk9kBOaPMgmYT04qXo93px5vZ3Djb2B+XC9vCAkPZxaXT18Ly28Lz9kvTzdPr1IwAo9gA2SuyydiT14Sy69GDiMvVTi9Dw8pQa9vNgBPYILHz2sOWe8PFv5PJQtvzyvBwq9TxwNvYKa8rxsbJI94PQlPfCWAbwAWb26yCRRPegESb2WLdW8lGXQvLZdO71A66c6jiBXvVCIZD0iAYS9lDkbPWQPgr2A6SW7OpxIvcO/g70AYzs6cmwXPej8Yz2gEmU7LI1hPWj/hz1QNii8WMtYvIp2W72AVZM7XEaCvZSKrTwoa+281pCGvQKjAj3WFnS941sIvbaevbzU0ZG8AQsivcxl1Dz8BtY8hLxMPY86kb1mBaG8wZVdveAsYbvUrim8mu20vKL+jb06Agc9ULrCu2w6erzwZKk7RIaFPVBFvTvc0oG9bwh7vftghr0yyza9w21ovYzM/ry35Ci9mPWZvG4wkb1+5xk9pozTvLYhCz2oYAs8gO8fu/DASzxqxpI9QOmIPczuWz2Ab908YI0/O9SCQLxUd1C83GAAPZv7R714zny8EIvzuyIgf71A3EI7+NsePBYjcr2yoY49r9lDvRp2k73WgYw9IcSSveoCgT0grRm90BHMu9i7g71EPgY9W+Akvfw8C71Mqbo8UKrgvNi1Pj1soXi9/BCTPUKAIT1kyQE9vHhPvchfHLxaURo9AE9+u0SybD0CxgU9U1OMvVAZ7DxHTBK9UMxyvfSuy7yG3j49mn4gPQC/ers+lV69OPIOPe6xS72+R4S90NQZvIIVNr1gvDQ75vqivDbNVb3AXlW9AEt9PfDzmDuVtGC909wEvaCt9TsA3MO7wCezu+CdsDwYRn28bG0GPQZ+LD3gLeU8FJNVvRBY7jv2RrS8KNuNPYEmP71A1VQ9BpqFPawZcj34e1A9iCyTPcjd17wmUWW9XHBDPUAQBb3WDta8oHnsvKRLdD1YFnU8dL3rPLiPDDxI6co8gCBKO6iOkryQCYC9AKAaOGCFIztHvIm9crUPvWyDjD04klg9hE6APLR1Y7xIHQQ9NPdvvWy4Mr1LyIq9YNQhvKBpjjvGciw9IEtWu9y1Wj3IMBs9ANH9ubBltbxydn69sJcwvQxp/7yMWOI88DhuvGAmHD3gWBY9FIL1PBoOJr3iryA9vB/iPMwPeT0otVk9Mt9SPVv4j70UiQA9eKVMvcg8Ij1C0hk92nsLvWIDCz2E5Ik8JHLkPDn/FL10Dhi93KiiPBRk+jyugzC9GuYZvSox/7yk04W8kdI3vUCSlDsA9/+6akt5vcRNs7wAyYu5CF10PSzQfD3Y+n+9NHqcvADLv7o27kg90P7YOwLUPT0ggiS8TOICvQCdXT0e1nO9YlQAvX/mfL14kBM90MjLO0hAOT3Jjwe9fPpvPbBROD3sM/c8lPHBPEDVDb30zX89mKJBPEhUkj3bzVy9XLVWPcTzbT1kUZw86ME+PID5aTtw+po7iLeHvPy/5DyAOvc7qCGkPO2VXL2RyBi9k/Q2vePeW71YiTI8XgkuPcdygb0g42a91hkhPYA0YbpsX+c8iO6APKRcKz1zZwO9+rPRvNgZabwwnry8gHpcO/zBFD2fJya9kxAZvfAbjD3Y46a8sBl6vKZ2Oj2oM2K9XKx/PaAxmjyo9hu8CN4cvQCRt7uWXtW8spqAvMBfnjoovSm8xBd4PTipcr2YsDI8cIzuuzYeJL1ybYk98OL7PJ/qC72AZmU6aBGuvLFTkL0Mmv68tEEEPT8wcb2hIhG9gDASPTjt5DygtnU77JOePHzgyjyA+1e8HaeSvaD8Pb2O/T69MGqEvYPjhr0ge0W9gHI5vVg5azxQ3zi9Aqo8PcxW9zwEoA494CpjvQBiUDuUyLk8+NRFPCipCLyiZwQ90I7lu9XUIL2GACQ9GHLHvPDzXzyT04a9QNMzPQY8R72EKF+84O05vKY6Nj3YghA80D58PSSkkL1sAm49dUkuvTQ7Zz1Apm+8dcELvcANvLtkGGQ9pIYvvWi8FDyeRSq9DMXzvIAlezwUsLY8aLEJvSwZED2g5na70E2SPAoUBL1geG89qACfPFA/mLvA3MM6/qyOvUYRir3gLIq9Kt1FveBbNTwWtkw9pAbUPH0uKL0Ubim9hKSbPO6yFL2QG1M967eDvWKXJb0VOCS9uDo3PEZ79Lx474k9qGCIPICRsbpGjqy84EgGPBAxeT0rpoW9PjOFvHh9cT1MQYQ8yHzHvCz31Txwu048ggyavAAGhT13hYy9dpWXvHY6eb00yFS8METEPJ6hYL0wcqm7gGiwOy4KDj0cKgg95EfiPOD2bj3+qoK81u6MPWiubz1gMZE9nFfPPMBM/jx5AHa9DOaOPM6SjbwOxgi9Blx9vfDovju0/Fm9uJvLPNn4cb3gl1E9+MWHPFNfCL1QrsM7kGS0O3jU8TwgLYU9ZhSIvfYUhz3AToO6oMZYvMhDIDxMsni8/AzAvBgPaj2Od9i8jhCRvS6Ec70Aa5U8QECCvCuDDr1mSoQ9pJBxvDEXh70akR09IKEtvcyBJ70/mmi9BhyDvOAvSj10CVc9VLZrPR0okb3sIW49Q/oKvbg2hz2ipsa8iDi7vK/hkL0I0oQ9YJCcvHtGjr0ajmi9DD++PPSCxjx6jFi9Btw6vfdYB70Mid88qq4gPXgMW73Y9jM8fHfmPECq3TqYdjG9PY5yvSPwT73Qh908MhOrvDi0jT0c5to8UOvXu2DtlTwmMTQ9QNy5u8CepLvg9E+76BKZvAJhxLyAqyM9IASJPFbst7wat4m8RMQWPdwdlLyguIG8MnNDPU7Ckj1YUao8cAtkPcBrl7sAssm5YHvLPAie9Twy3XC9tFLbPAh+3DzGu0i9iDshPFE/jr3wHw+9t0JCvaL/Gj06kMS84BcSO89MEL0A1ME4BMKYPHaZJT0iNuy8xL/kPBSZY714wwM82iw8PaDWFD3gSmO9jKlTvIaJgrzkUS69EOb0Oz6xLj2YrxQ9FPKbPJifNr3SWze9EqL8vAIJTz00+bq8nIm2PNgATzz4c2a9TJUePQC+5jxgC5w7wqygvGht6jxkj4k9D1KDvdVNfL1gL1s9FEiqPGrLij2A6a28aGgOPaBxJbxXwwa9FD1qPRAN0juiY7O8UAVSPeTjaLx2/8y8qFQEPQxPZT2F75K9VtdaveBf/TwyZAY9bMXKPHDXNLz0E149LMCHvbyqLrwdTXK9F0l/vTIb6ryO1Qo9zB5evSj7HT2gyBY95xUVvXQwT7xg3re8e2KIvcDGQLzyEIk9uBpdPRxilryZG469yDcJvB68cb2sROq8OXFWvboHjb0aRZG9qLEVvEBQiTrcpMC8KEMBPAQ7bLzQX3+9oSRPvS5Ch73ID3G8VJb1PKQsUryhggK9TKl1PeidJDycSXi94JSeO9FJgL28aHC9sipivcrchj0wMK07RplDPTCh6btU6ik9kOZ4PXa/B70Auqw6OL1RPFDaUj2w8RC8gOjTu52AF70wbsi76uT3vEx18jxcfWk9fLKEPAY33bzKnLS8do7ovLhgMTzULZg8RLQVvZBNRj1wU767GTsOvVwnYT1MYlC8rpQDvRI+z7wobgc8wAmRvcHnZ718Qpw8XeZkvVAPUr3dg369gGGMurXmj73Ywwu82NQ+PFYy4bwUTno9aEOjPIBucbxyVSC95rdRvarnNb1PCjq9bn+QPTBSWT3YOds8akhKPSwdBj3UBwq9CJRnPCiGkL38u7S8kClRPfhDID3I9IY9QF2LvLIgAr1QWn+9LAFcPdwTZj3Q5bw8WCKMPSBkezw4W3y84DPePMzcxDz+Wui8RCyzPCBeJDwcaRC9JKq0PMgmWz253zC9tMtRPZi04DzMIoy9yGk6PEo4VD2AIhG7PuI/PWAcBrtG3Qk9x1SHvTYGBb1cwFm8tpkBPca6e70shhc9nuE/vV643rwwJbm8iPSCvPwZiTxovOk8AJTQucQwkTxEyUc99oz7vICr7rzueBi94sH/vMx3fD34+I487C6LPZBdBT0cx4Y9VNQkvMAO0LqoxWk9gNc4vcQEjT0aqpA9IHfgu4hqPzycTrK8Sr2MvEDGFj3QaFM8QBkvPKaxHb1ZTpK91tcEPVxMQb0Ydkk8lO8XPaWXJL08AJI8xYlivdzf+DwtcgW9cnzAvJzAubw6k3+9OHYrPSD4hb1uEbG8srKQvUAQpLqw3m89uJJlPTC9LbzqtFM93L7NPCDwiDvEcpM9PMfCPPArFLxKS6u8lrj6vAhQkTwK54K9VPPqPCAqlDuIQ+M8HACavGgH8LyugYw96CkUPQAQ4rz0NJM9gP1dOgAp7zqsOT+8lqeSPaQTjD1gNq08XOz1PDV3Hb2QITU8CWR+vegxVzwQAFe9RD59PfWBML3hWAS96Yl1vZiyDz1bnQy9XoE5PUCZtrtAVK27wKPpOwZDgD2Idn08PPRmPVVtHr185FE9kPF5Pey15TxkKwy9kuVUPRBcPzwgIkS88FrMPJIugT3KiQQ9UGNVPTCy/juqd5G9zlOAPahkdDzksRy9wFeEPWD4A7zgOws97CEPvcQdT71gYHO9/tZ/vYR5yzxARxe7pnKQvUBUSjzE+dc8PlcPPSDbP7sQK4c9KrZvvZjIEDzK1Ya8DIbSPGgdRL0AAI29MiMpvRCcfD3MX149yEmHvPyjmryUJ/O82DuTPfTiXz0miT89PkXgvDTSkTxShWu9z/eQvZg5dD2AxeS7zIlxvZ5nHD3EKIG9NHVdPUyhSj1JDQa9xJS9PPZujL3Wymq9CAQjPRwYiT2WIxa9VCa3POKKpbywtlA8rAnRvIwfWr1aUBQ9msl3vbjbbD3MaUg9VlwSPe4+Or10jjo9aG5+PVxkYj3WsTe93DW6PALCCz2Q17A8gD6quwxPH73pfVq9fZQkvfLk07wPMnK9DpYSPZN+Jb3MHVq9zHJNveJnKb0AIfC7ONG2vFTfDD2TYBq9gHpcvRyfbL0IdAA98P2gPOAsjjyIYAo90NfJO4SxZD0dCwi9tIuDPWQsOT14OiM8CGA2vQs+jr3AX967sP7SvGDFezz4SW09QK/TOodpCr3T3lu9SspIPfRdaryMgc+84I4mu3xQxrwQZDM9JKi/PBSHkL1AsYk8nCiBPRgbCz03nAe9StXxvDAMazzgqaO7YBqtvBDwxbzGhMe8uMd4PUT2bb1iHi89PmhSvSQRZL2ijRI99oUrvWqAkT1usoy8Aj4QPSTwOz24HSg9CGtnPGwJZbyICzq8sFKeO97oeb1wOjY8crqPvSBd0jwopak8DIdPvEBXwzsov6s8ILcTO2jd9Tyw7lW8WqDxvBC35zsM8988+Jl9PcBVQDzAFSQ9DNU5PbxxzzzkTN68KENxPWptfL0srek8YGduvNhgSjyQk1k9EMhdvQLuh72wbX487u1RPbC5iT0AUla94s4CPRQqJry9V2+9+7MWvdQIVj2sSnM98FKrPFCnaLx8QzE93uOovJxInrwonv+8GDwVvECK9jodiAK9SJxhPQBLdDtQL2Q80DawO4h6czychnU9tBkNvUqNSz0IYK08/K4uvChMjr2dYHq9mIhgPEDOoToUpb+88HgDPdQQBz3Eu1o9RIWBPIDO07pi7Bo9ZJruPLwaljx/UIu9KZ8bvY4PKL3idYy9AtEUvTAhqzsAoNQ6Q64Yvfx5Qz2M0hw9yHEmvFy9VL3GaQ29QPvpu2YSOL0Ic0k8YXdavTzyzLxUJoq8bFKPPc+KTL24Tii8MsIFPdMoj70mpW+9+N/fPABb6jrIvoU8gnBWvd5JZL0gvEI8VhBwvcHChb0Mr2c9UGTBPEgIjjwC4K28VmyHPQYpTT2Exy49CANUPcg6KD24WUk8dLhVvOQGPD0AROC8yHR6PKhOyDyIOwG9XFczvPhKsjyDDx69raBYvcwmaD0Y/wS9uv2CPXDS1ryEAMU8GiiFPUCzkjsAva07oCNUO6rxVD1SMoc94J9NO+Tz+7zeflE9qCGTPSTYSz0ao3296CgUPNiT2jxg6fw8IH5kO3Z9U73c5Zy8NP9EvU8Pcb1RKjC9eoJSvTW8b72cBBi9tNTAPPCKr7uoiii9BDH6vDnxFL3UfJK9LOSOvcomgz1U14A9q5qTvQBfMbrgq1g9BJhkPVy+Zz1AXC+9FnZjvUEAGL3QIJO9gO+QvQDIkz3wrd+7FNQXvXR08zzSgpi8SNCyvIZ0ij0+6Yi9+HIGvcDMnrrmmrW8sKVwPCDdsrzMjYS8ygc3vQ0UgL05qna9IKF5PTRk0DwQaYo7gDU/uyQI2jw3oYG925l9vTRyyjwYdI89QmAQPWY9Nb0xCjq9d8OFve8ehb3kTYY9uuNEPRafPj0SpWi9NCp5vChVAjwkvYg9IPOjO2SJ7TxEQbM8+EWQPF51IT3p9Wu9qOwQPQpwVj1ilP68AEiTuET3T7xU1CS8GptKPfBFbbzE97w8QIduPVi6gz3s2Dq8JkI8vVasj73Qp4M9dLvAvLB0kzvYqoM9aDOKPCZ8Yb3GTYu8whj/vLaJT70gaZK8EJlEPX7siz1teI29tIMcvc4bi71Qvoi8YP8puwoiEL2uX5O96sypvJgQQDygtmM8p5GEve44nbwgN5A9j7mPvVwJZT06xj29PhqKPbQe+LzRP3G9xMExPVYkRD32JRi9GKNBvQQWabx66Y+8ZOoTvWBfW7sw8Ne88Gusu6CVgzzgJg+74jWIvVRj0bzCqyy95s9IPQuekb3cuq684PCovJoJND1s+ao8BAp/PWDoVTuQkYe9IIEGPEBs6LqEdtA8RNUFPcZHnbyg1Ku8xlOHPUqEhbwhPYO97i6YvASNZbxWP4e8tqOPPeRwGD22hqa8QHCuOugRjr3f3CS9mxkbvfk5Qr2C83G9jLG/vABQ4jwgkG08GJwSPCweND1E74u8IMgxvUAg2jxDGn+9oLQbPLS4kr1Qbqc7oIbeuwjrKD3Ueha942ZkvdwEXz1gNoE9AA46OQymfj2WHmi9xMQ8vVSLSry61DG9DAhqPSK3z7wQXKc8GEgdvFjpIjws4co80AIiPWhUib0gvxw9GId+PdCZ6Dz+pUy9qORyPOAcCD2Q/Nk74C04Pd7yNr2M+Is9DfpPvWh6iT2YDkW8EMhivea4nbwRelq9PPQFvYosML2e/r28MLTgvNS3FT3yEZC8oDCnO/RwTT0WCs+8uBwfPCyoXj3G2Ya8TsGEPfBqoDxQdYw7uhYQPcbZNL38Rz09CluSPaBsWz24NQo9fqszPWfJg73sy3Y9cU5nvWQXqTw6CiK9+CDvPEjgE7y0cQ69Kb9CvX7zDz1I2nc9BNMnvEDrl7ocLFu9RuCSvWRMaD1wnFM8hBrzPED9Xzu0EIy9nliCPb2ncb1weR+9qLxdPSD/3TsgO3Q9eOh9PYBiLTuMZPa8DIpdPalhLb0Anzo848tMvUKFij243Ai97npFPcxnbrxg1VE7RLiAPJQJ1jwm1yy9UOODuyTF97zDJQu9AFTuPADjYz0UIWY9eEGePOvDIb3IDhm8AMR5Pb7hDD0qP7C8NBv8vKRDez1wfgu8dLWcvOzSWr0vKhm9HtqJPeqphT0KDk+9PlPyvM5xPj1gdn698KKrvFIxcL2Qm/Q7NtMWvcAlkT1Jl3G9pp/zvESWMr0IYR08EiMVPSxpE717CVW9gIRsO7CbYj20dW49CjD0vCaFjD06Xog9+dlEvWTBijzYU3A93NPLPMoBSz343UW9HFmLPfbBjj2aCqm8mBcnvRI4Rb3AcZc7FB5OPc4yybyoVWO8MAdvvNAtrjxQble9vspXPQzOubyQr5Y7UEU+vH6x9LxwBIM9BIE1PcCDNzvsWW28RUohvUSgVD1yQym9XFhPvGyTxzzAVI06BI9SvcZmKL3cLm091A2FPLYHi7ye3UM9iLZ8PdjopDz45eS8nd9uvbDjDjwjIhq9kE7SO80NML3QAWG98ox/vRinVD2NwTa95FaSvffwD722FV29JGNqPYCSrrsajUS9qMYPvKisJz1kVR89ruMKPSDfZzugU087SB0fPezy/7wOXxm9OKGTPYQpF70w0Ss8EISOvDoq6rxYhB28Ik9PPYSqSb2AcVc6gi+DvQDfxzwCnNu8NK14vSh8NrzwYJI95QMjvWAfqTzMB2s9Ww4BvXQASD0gbN+7sMfLu/BtXz1J0Qe9HhFFPUVvdL2Q79g8TCBsPeCtPLtGCR89AK2DveCtdb1NAVq9HSoDvUzKaT3hCDO9sPOwu4gH1LxYt289OkEtvbR2D71A8pI89NzpPLOkgb2Kix49QPZbu0iLbD0WeVS98NpBPA9qO730OYU9+HsJvOAVgDzYRku9/PWDvd5jUz0sqEg9kKykvMBjkTp64ww9kgmPPSpHkD1URH28+lryvDGDIr2yNo68IOARvZy+rbxorqk8AysvvfgDcL2oi2g9IAEVPChqSj3onhk8gMMIPPIIRL2iQok9YAf3PPZFkr1g9La7OmFivdB8dT2AjJ+7cByMu57ckT3csG+9Tqo7vbRzkD2IN269APhiO7jCnTwgdFO79gnIvHSuUr3cAH893CyEvCw8kDykGLQ8GM4RPfToCD0dinC9phtXPfi/FjzUT9088v8SPRg9Sz2o3qu8XAcUveA5Hry0KGw9cAghvKhAJb1Yohy8UtwvvQ67Zb0STYy8igg9PaA6ND3gUWk8AP81PPK2Qj2Ihgc8BMzaPI2Oe739VlO9uGTOPDGQh7228Iw9kJS1vCB5zTwaxH+9DhAsPQzhHj0Qr/g8gD6du0DCqzuQ11u9DPKKPbiqET0CgRA9aLXuPMJIkz3qB1u94CZnvdL51LzE7oE9jFF7PVD+CDwu+w89FpOJPW+njr1yjjQ9WpNCPcITuLygVVo7FB+SPIa9Ir16WPy8zPd1PT8kV71QFiY9TKfFPCSCXj18HYw9sOCcPA3uWb0AbGq6POApPepZp7zEbIY8nNWSPPaH37zUPoE9eE0XPOAkmLzSDhU99LiZvNpsAD3ivU89ESaPvcD01zscioQ9X+EWvfYqQz2qrEg94giLvGD/ATzmDFU95BZyPQALljy8gBI9wPREO7iCHzyos2o9ZhZBPSAyhr2Q3Q49BsA2PZDlRj1QHn29cr2TPVSnRr3Qz2c8+I+rvBTJN712I1Y9JBjVPMDzXz2gwB89mLEdPMAwdD24hE68yCZfvQDt3rxI6XK8oGUtu8yXhz2szmc92HO/vHgNAT1mnBw9EO9qvfC42TsAwd45sOFHvZCTBr1ocT68FPCMPYzRb7xQ22q8+PYgvFjWPz3WwgU9w0IHvQp7Tb2AYCk9pg0jvazdwzwmDDU9IAB3vDohTr3dGEy9XBdwPVJVJD0uy4y87HIzPW/2ib0gNYY9cr6+vGxN5jyfZXy9QS8/vSw0Sz1QyNq8qDArvWBJFj3QCoW91/2SvZDHrrtKlSc9QlxxvabfkT0lII69/FFePRz/yTwAah46V8KDvZBUAjyLg1+9AOZWujKrHb3Ex1m9oGA0PEBMVTtcO0y8ULS4O9T9LD04VB08DpIMPZCpRrzAaNe7C10VveB5YTuQMH89ZEtcPf7kgj3IfXA8zmkuvfCUYLzZfzK9LNGJvQiyU7y4yXY8vqmEPQSw+DwXDA69uq6CPbDT6Tuvwxe9PLtpPTy8r7x8Yi49prqWvKXGJr2OwG+9WCbLvMAdlrwgMoM8ZC+RPRCeFzzYkHE9qG2RPAiMbryUVoY9zHjhPCx6jD20gVk9Kc6IvYYnCz0W4mO99siCPZVYBr3o5C88ZLlsPTAgcDwYPzo8SkqgvKxlLT2gf6A86HyOPSjlKjzk9Sq8Xu07PaiWVT3s4wk9Gho+PRAvZz3hMI69gV+JvfxfFD3ev4E9wuKcvIQIhT0oWtE8dr94vcSBej0wcnQ9pAwNPcEjkr0SXoY9SZ8xvYo+1rw4hbI8nDszPdoUw7wP1429usuMPVb01ry0Eja9aHFavaSAdryALoW6YNcNO9De77yOYea8pHSwvGYKL72o9oK8b/FnvW80k72owlw9GpFQvehynDzkf4g9wGsovdhwHj1EI/A8wuMiPchL5jzYBxY9ok6NPTSF5DzauYc9GAuRPWxAS7zYeFo9rFuFPF72zbx6wFG9lJMOvWgiAzwAJFa7zG6bPKzyZz08uHU9OCtQPYfxi70IIio8nAeXvHZaH72e54899ocNPZTcSz14WEc9aFiFvQ3Ceb1wv9I82L5DPagt7ryeiTK9aDVrPWA22zvwUiA9AORYPewgTL1GuwM9OO8+vaAMaT02uzg9GFPvPFj7Lb14mXI8NmglPT7zTz1sC4Q9lIaAvIyEXD2Q5/q7os2IvIBz9jpsZZw8TiSivMpvfL0gYvE8MAL6PFRaUz1udos9XBgavZ7nIT3fG4C94OX2O9AfXTzQ2Jo7pOzJvCDsiD3sroA96M5kPeS+UD0Apsq7oIxAPRwGMD34D5A9lnAqPZC6Ib0AUfe5XqVZvS1qjr3ZjHK9SmtKvVrihz1oHG494IxvPcyo3bx+kog9AiWFPV6Qhz3Ox4E9pH7OvNDUVb3grkm8LSiHvToHAb34T1y9+EYyPQCE6Dy+jkC9tEJovSgbWDwe7TY98AKbO8dgGb2o93s9fvoHPVYMTb2eoQM9jUtjvdDEtDsEgF69/AtBPYxVPb2C76m8iK4+vDxxhLxT1ou9YFd4PZi1iz3AIc88bCecvKRNcLwgXyU9HMVuvYitfrz0mM88ELv6O0DKKbu0lx09UGuLPTwQij2/JRC9EErkO2BrRjsw/Tw9CJhZPZ1DGr2gIfk7IFkcPCIBPD2ADde6vMwpvcCHtrpLHmS9YDRYvLyoVT2o96Y8BJZdvXSuN70gogG7pi+OPQCRW72SfQg97NShPNQe4jx8ZXm8CkNovVSzJj1Yw168ZDNuPaSSRb2EJo68xh6CPUBj9Txq3Da9jtMMPXJbPL1v+DO98IfVO6oDib08IbC8RP+UPMZKFL2Y9es8EGyNPYb7gD3OpIu81OQsvAAruLwwjxg8CFE5PQQGUD2eyiE93Lk9vb41Er3UQxI9jL5rPU9FgL2govA8pFeovFQxt7zklHC9aCCvPNhngD2M3VS9qFb+vMSV9zy+j0s9zhI2PT8Zdr0wzx28uYWFvRkhIr2wSG49IckevVCkV71gCos9SIDhvFAljbuoago9MK6RO13hCr1Gaay8PPOKvKB98jx1/iO9LFHhvHWdT7145lA9+IavPF7MKD1SJyO9mGU2PUiKVb1ErvM84L3Tu1+9Mb1SeUG9NLaovDQGsDwsXYa9fHV3PVQMPT0uGpC91W0xvYZEFT1iRwE9jDdLvOSMDT0OYb28oA4RvIRHZj1ku5g8COhoPSCuJDwS6VQ9OjiNPdDx3bxsSpS8MKXAO0akrrzIdx89Pg2LvTAQeL185kG8zL6evAy+bj0y5VU9YrxDvfQBT70gxeq7SFJcvMOYi72ski69tvKKvVzDfT3sqmk9vnQ0PSBEGbteJk49QH2COrDSmjy0WiC9bKS5vOqfED1GKEI9wUlrvcAnULvwcF+8sOV+PSwSgTykX668spmOPXxVWr3eYhM99NRcvdQozzxI2WQ87JB3PVrazLwkrOQ8dLCUvOK2gT1QWNW7+xE/vdt6eL3EeZK8RCoLPRSzij1KtHO9P1MLvUqO17wstVg9cKhdvBYHBb0gqVW9wMaXu1p9iz3sXC28LM4SvW5rJj20fem8cu1ZvawrtzzEN8O8EJN+PfSuVj1A+EI7EBCQPfRyOz1b+wq99I0hvQi7dzzcJtq8DLuCvYDdzzoAJXU9gPF0PUDxETxwFfK7kIS/PDAvTDyoin88nBvyPACPaDvQyIU9T7SCvYFoXb3c/209It7fvLxHPD0galu9zUsFvamTg72YYSW8tKmHPR51X73Asoc7st40vTA4Rz0Aos47cIf2PMLcP71KDae8dmtxvbJdK72pHA69Q54dvbCp+bwdaVa9oC/lu8AN3zr8sEC88FVTPGKRzbzEJii8RkJ3vcAFEzySmxu9jFUnvHr/O70+RKa8obUKvQAg+DwUvTk9fJU9PWS8ej1gt1u9Xz5uvfhEw7yAJHE8gLHSu/jYAL0Jci+9qOL1PJSGnrz8FI89xKK7PDDnqzx46IE9CHF4PY0tab28sNq8nB2HPLBehLxI5EY8kOkvPX6bOj18gW29poj8vCzUZ722eA89vQwZvSIgnLwYYo49ClaJPQDijz0E0Ia9sMEfPHz9cL0OjFG9wBKJOj60KT3MDaW8zI5fPaNBVr0E5dS88JV8PYCP3DtIDGC8AtsdPSq/Sz0okn09tIxNPVhE0Dygndo8wHO5OvpeGT3A0y89fO57PcCujDtiKTg9uv0uvWovM73A2vQ7jHinvHRnjz0UEBC96RQWvY+tcr2wU7i8uIQ7vNha9DyAPGK7RPkUPci1kjwDA1W94H72u2AfdjtGKDO9kGB6PRQNKT1gJ6Q82IiAPfQMgr0UoYA9qOmQvd8zI71AlxM84KqFPda8UT3acQe90NrcO4Tucz2smOW8oMcxvIOjXL0KifC8M+hqvajSM7wAXRm95xQyvTYc3LxQ7ly9cu1KPfHPIL1s2gU9RICdvORBMz1gYCc8yJgPvEByGTzAsY09oEvZPLItTb36Nk69CMtDPDy7aj3A03Q9bjyDvBlDGL0ga1e8gtLzvNBZBD3IiEO9bO6TPPw76jz8Mb48IKTVu2ABhr1gWjE7Pug5vbw1ljw4AmY9ic6SvbPkIr0A7ks55nWLvf8XAb32X9e86AoGPDYvgL1dB5C9gL63uvwRszw8RTG9I02QvcLJ3byjDyq9wHXmPOSvqTy+8CM9AISWOtDqbj36EZA9/DzkvNAQ1js3NHK95ikuvYyQxLxMro29/TkavUQ7qjyZyQ29goA9Pfm/g71gDEi9QIh7u1KnLD3c/nY9StMFPZAsxTscYgM9C+ACvSg4CD23nxO9kK9FvIwpDj0kLvg8SFpQPCCiqDucMtA8W+FWvZhRuLyeIjK98Hc5PPixwjwsD4Y8DMa0PASCKj3YEIK92H1LvUBFiDrdHyW98k6QvWPYEr3Yple9h5ZlvbgZfTwhTJO9ABbSvJgKkz2UFTq95MJ/PaO5ir1+92K9YqdSvSaXIz0cKiM9sOrTuz7sLT347PI8JJ2EPU3gg71K9h097N3XPDKy8bziYCo9hPpkvaSI1jzAVg08cPjGvIBXkjrszRA91xNpvb5gir0476M8hMq9PAgbZT0gtKC8+HtVPKBrjTxw4Wc9nMORvIjztDyEJ349qFhyPayuOz3Wh2q9hGpdvdrIij04H0O9QqmBvRYwmLzsO1A9AJL6urze5bwATt27vPMZvU/5jL0VkpC933yRvZzTFT2aeTg9hEidPBBdwDtW9QA9ELh0PFywpDxaA3W9wDKIuwAcMjk43Ds9MNKKu4K/hj3gQwA91BlRvDwKej18gAs9QNaoO0Bxmrog6tg7wm9OPfITQL1gthk8XACoPAB2jLvudYS9WElyPfZVO734CFe9QISzuoS1mDxI0BQ8PDYYvQAI7jwaWuW8dGErvLxKpTyIgke9lxcJveC0zrsUAtU8iJFaPYZWCz2gI507mCR3PaTNjz3A3yi9uRAXvfjzY7ybpDu9MhIvvcjavDwAum26VNNNvY79Vb2IWh48EtzxvBh+xzx1IS29SA6lvEDUgDsG2ZG8WK+KPaviE72uugY9/N3uvHgygDwctWu8sAmaO+/mAb0iZj09PFEFPT7h6rweHo89QHTWPFAcgrwAJBG6YMddPRYFFz0Se4g9pLtKvABNZbpIDGA9qhUDvWzGGr2ohOo8wsQWvQWhc718lJI91F85vbrH+bw+0vW8PMtnPUAfSD3gBQe7iAJ2PKA20LugNbe7/uiJvdKT4bzAkXM9INdLu2DKc7tE2us8QIHCPNijkD0Ajq67AO9gvHCpKr1iLo89EDCru3J+Vb2i8j293PdnvHSO8rxIugS87BGnPIqqjT2gm/87kMoWPAV1Or1ot2a8RsGBPfj5DT0gWTg9ENRCPBN1CL2CV0U9MNTdPPwMiD04xQy8WlcaPRxwrbyoBxA9YPXUO8GTib3qVlM9lsooPRIHBr2IPQ48sI0IPPa9kj14bWc9dDuHvL6KKr10UkA9uuQdPeCMTDzmCXK9FJQSveTp7DwkDYM9+n0UPVjliDxQHAO9DogkvZAKvbxQ2ZM8WJduvSosa714rhQ8JYiRvZuHGb2Ko3m9Y2YevcnNeb1o+HU8aQMYvZQIMb3gj1i7lDAivWQMOT2YHYQ8YE4oPJTqTb0giWy7zCxzPdBger3Ygjs8+N56vFSdiT2w3HA889hyvQDzX7sU2Fg9MyOSvWj9/bwggIK9lEdwPUKEOb1ceka8VACcvD/XkL349mY9QLQau+7OHz247+w8zLKYPO45d72ixRc9+SaDvbLfibycFNE82vhcvVBZs7wE/e68YJ1xvXjILjyIyn28gDTdPGDFST1Aq/a8bKEyPXT4dD2ejAe96FhyPZjHLLyctxc9sNbMu+4WbL1nhIS98N6quxgalDyRVwu93KKHPQCaHLsMhQU9alQoPVDR/jwADLW7OuOxvAZBFj3IVHQ9/DSSPMDAYT1wbhY9K5yDvST8wzwwnek7AJUqu3xRO7yOR2S9V3mMvQ6rGD0yrDO9wARsPNgkMj0yURY9wEf3vOiQoryc5iO8kl2BvVLAhr14VGc8+BAVPLjiib0wiMA7Lke6vPdlSb3RkT69kO/su9iZgDzws3k9QjuivC7wgD1Eyia8KP98vO7+f71AmR480niTPdznqjwoyoQ9RD41vcaVYb1s0RO9YJ9CPI7hUj0wLGU9xsyTvGTc57xokwk8XOBmvE0+Cr2gqAW8zNlzvSibkz3IhZw8qDOyvMh6Kzywv3W8JAS5vNEXAr20T5E9su+ivGDMgL1EMGi8gGRMPS61Fr1Agc87FpybvD7k1rzpFnm9FFQavRCw0TwPWJC9bIuGvbgfmzzmzMO8mgkPvTLzQb0AL0S7sNHBPGR7kD32py09bESjvGrBgb2O4Oe8iIo5vPCSKbzbNYy9gFIGu7iObz3I4xk8IhW0vDBk/rvAAea8CueKvVB6vLyStFy9blKCPdjedD26ZC49dHcuPeQeszxUxzY9nnlrvdChzjvQmgO9KC1bPaxNkz2QPou7POv0PBx1SL2wS0E9/ISlPCYzEj0klL08FhcMvQxNa7wCjtu8mfwUvWBYVD0zMZG9iLyGPYjwFLzRhpK9ZhCHPXJ9X72OXFA9erNjveD8TDxmjVU9uj5LvTwB8LyehBe9OCNQPViaUrywIb27CmAkPbA5yDu+A1U9JC12PYhyej0i/Q+9DVgSvZCm5Du8l4O8s3WRvV6pt7yMnu88Ro6ovDKzjj14OqI8jga4vKAfTbtY1JK9LDcMvfiz4Lzksf48CBDePFBYvTzUGEE9rhIqvYhdC73Mj0g9QGw3vdDYnDtG94A9nGvRvECrvDv4HKu8mPgcvAaEPj1gjX49ynKEPdC15bvYNaG8cJ0yvRSkYT2wYgU8urzpvAx5NT3kG5k8dGuLvMxiYj2F2g+9UI7YO8g57zzMHSQ9aCrMPFoo1bxklXk9hI1oPSWeHL1IAHk9sEWkOwAnczqDiAW9FO5GvHAUEj1SHMC8BIwePeKPOz2IvdE8QMnLO12Ygr0u10e9uLj+vLD94rxYuH493vlAPWgx0zws4Hg9tItpvXDGbj2kbwo9SIUuPM0vF700ESE90gtFPQRSUD2KhIQ9RCTEPAoDiLyst7k8tOCKPThWAT3K2o0976+GvQQMTz3wLDa98IfqPAjaXrxofZs8sPZJPfj6yjyAZWM8pIEHvcRDSr1g1LY8THZ4PbYb/7ysiv88Mrk3PRCcHryqSTi9iAt2PSbpST1M0jw9LCH7PABkNz2QcAO8XCn2PL3ee70QX4I9KP1UvbYAorxg5ya7jG+MvLB7Tzx2o5I9C0UHvfC3P7wWb5M9bIQbvQC/dDxtuiq9XtmVvCDsj7uwf8s8dImGvBhbZLxsx7e8jnKfvHJg7rzK32a9OBSoPATBkjz8RmU9VFHZPNCiojwYNZG8rHCJPY6SPj1+d/i8QCLOvKiQ77zMBGY9oKUPOwDJaD0gYUq7wAD/OwRBwDyIEWo9INx1vTyidD0gI5A8UJASPA6ELT08+ag8zMvRPG6BXr2oWV49vvBXPanjZ70g8wQ77KCSPdMuRb0lFwi9rIHHPHy0o7wqCSo9xIFXveISgb3QlRE8IFZpPOVxjb3ctzs9HEcNPZCJaz2m/am8Ej1evSDE/bvAHbI8ANzVOV6bUb3EcZM9qhx4vcjLKDxUjVe8wiaPPQD4tLr+Fom9rJaHPFhQbj3g9TU91HVyPfIHg7zRZXW9luNKvXbSkj3AuPq8yyuDvXZQKL2yNII9retJvSAr4bv0GSQ90GXeO/jbaj0ooCE9cD91PeSbMb2/rgi9TJlKPQzN+rw+mE09+EjWvBejLb14/YY9N541vTpXRT2Qt2U9QNYOPVTOCz0cojO9yD9yPGFrAr2wd/o8ANsNPEYlQD0gtRU84/eRvcbyar0coHY9QKb4um1cgb3GMiA9YG7+u7gNkT3aShQ9qKDyPEY7t7wbS4G9PNEIPbYwFT1U+/28HDXbPMbAML3eZZ68sE+3OxpxOj0KfxY9TEizPJpjPD3Psg29tA2/PNBHfj13sI29AK0cOiwBrDxAYWE7sJkjPFzWaT1AK409wDkqvSiD/jykUWY9JO2LPKo1jD26eRC9/KltPRjiZz3NxyW95FvkvIgZ/rwQFHg9IvsYPfWCR70Ji2i98INNPexKhT24vGy9KAmBPOaPxbxUhoE8BsY9PRB1hj0E6A292i0VvTSajj1SpIA9ZGx4PeDnLzxuDG+9P7OMva6FOL1IUPo82lU5vYQNUL306W493KNEvKo5Nr0Eo4093u3EvDC44bwW1VI9aJFfPZTsuTzQlYm91usxPWDnMD3SUj49CCxtvHS1nbzLhX+9rlGdvMgbGD2EENW8kIyOvOrbRz3ywLO8bGyKvR5gIj0IODa8wC+lO5BA2rwi9b68KFl8vZbwMT12VY28vEJuPZBo1zxksd68/n4mPRBn2jzq0oo9WCCsPLZkDj3m+jQ9JH9UvWw6Rrzud1u97BJmvHQ8rDwqiH+9QNWDPa5pcL0Y14Y9hBfwvJQtg7zgxH87uK8UPMLTRL3QMpY7JiuRvazVOL2nHVa9BB6TvBrckj3AaUe8CKzlPKS5BD3EHpO9KOcYvHTLVb0qo4o9IFy2vPDLS70wUIE9ANVYvdefar3Q/yE9+zAEvQLkir022S09SAEsPWK2hD3Aiec7lI1cvWI7WD24tzC8zpyBvPCrjLwseo88AIq8PD3VVL1vNQ69zKljPfz/RLxgEf67rKp0vGRNCj30fXQ99Pp5PUxsdz2THBC9Yzx+vZYTNb3ElmW80IOKvcTZNz1qaHe98HHcPFy1cr2A0SC64MMXPORsab1BEGG9AvuKPWWzZr28Z/U8fhk9PcyEdz2aNCc97nxFvQ5Vhj0QS2o9dH75PKqOAz2kv/w8+eMNva5yQr2OUne9F9YZvf4QND0Cch89QFKCOnojh71xy4+9hLeOPIphNT0QHKk8n8UGvcAj8DywrQ28XrLRvNAipTsg1AA7Hvr8vIit67y6Z5m8HDlivVLnPj3AkOY7bCBovEzTebwiHJO95UB4vfz19zxEtHw9bS8zvWD0CjuEqkA9zDGHvZjBWz15/4+9CgzPvCgrFz04lWw8mG43PJanp7ww7LY8jNiGvC81kb0A2bC7VhgMPUBpgj0yY2C9mGAHvcC5ED2emQI9uAsKPTI/HD1Q54g7tKB1PaC3EDwC2L+8qB1yPCZojz0c6dE8vMeTPOBYPL0u04s9znNDvRI4krxMYaA8QGl3Ozh3LzwblXa9yUA3vW5XFT0iDcO8trEDPWijYz2O7jC9lO4iPbAz9LsgiOO7B6JJvTx4/7x8rXi8pMhXvRSojL1Awh87MT4yvQSRXT0MysQ8iMB8Pew44Tw124W9bNJrPaqeJb10UH09YCwyveD9Q7vwmnC8tEp6PX40jj0IXV09oIIcvNBzmDwOkYo94hkFPTzij72u5j89nATtvEhdbj3cMhc9oCt8PVre4ryqgT89KIY/PbxBU7yyylM9XNJEvbLeTb1UxDO92PrJPCCErTw4TX89oHIRvWQ5xjzcoR09qppRvcgiaD0a9o89/DjQPN57Or0Uy5M8KDJFPBzblzxgtlK7WHxjvOCSVTz6tBk9xoldvQxigD3cUXC8PUeJvWw9ZT2eIIs99DMCPZybQL3QGNu7dHD/PPwo2jy6cQ89ZKKPPNilbD1Yg1o9BlHfvAwS07y0OZA9svOBvXAAbTxARco8RM8jPZBK3Ds1BXG9iPDtPADPlTyjo4G9kC4kPOCw0zzu3oM9RyJ6vQCz7brAxOg8IIg9PfqYIz2UQr88aAN/PDYlhrzy41W9qGeSvWA7Fb3IQ3Y9RdwBvRC8irxAVNu7bJyOPYAKgzzQgE49wJGLPZyUcj14XXI94Napuyw74jzw3H89vOdoPeD7SLvWs089EKiwPAM/ib0MqVU9AOt9vWxowDyM9/C8oPQVvRZI07ytEoS9VoGAvTg/QLyQAjO9IF0HO4bwQj0A3Cq6kHj1O2sbJr2Y+QQ9QpVPPbrPbr2oOXg9gOPmPFRMXT0oGQ49PB82PcSGRrzc/IG9bO0+vOC96Tz4VSM80Obdu+zIZz182JO8rpAFPSSfjD1gjYu7mEBXPQZ+Mb3MHoG8HGsKPaxSkD2EtLO8JKIEvWypyzy4rnQ9YPtdvc7IEL3EgJo8EEZwPZIl67yqb1m9PtItPTSQaz0Hb4W9RuyFPexQf71IdsI8tj4ovTiYOTyGj4S9gFWRPOxlgz2gi3Q9eYhavZwkj72McAA9JD6tPCxZaT24Kh48QN0FOy7LCr2ILcU8kDBNPLgXxLwIvoY9UFMuPJC6ErwOc4M9FegevZQVcr0ZmX29JKBMvKBn5bui2fO83N7oPLQX1DzMZW09zAw4PbDDsbug9GI7uAPLvJjgxzzcPlk9XnaovDhPSD207H29iJUoPKAtizuA6DS6cMxuPMiO5jyce/c8iJNHPd6RgT1EfFs99KsDvSAqabvk0kE9iIFsPCxZqjzouCs9Gv6JPVxbKbx0myS92jgzPcRt27zIhYs9AEFuOkrQSz3e2Tw93Ds7PQg59DwM4Yi94sFRPTbdEj0zkV29AD6zuiR6vDxwxK+7H/KPvUQraz1gxG485CZAvbKaGz1uhMW8drlIPVRMi7yImYE9TmwGvXJigz3ENI490EpLvdgMLj0g6sC7HPNePWYbjj00mWk99GXHPJwZ9TyjJla9IFSNPeBEej3/TJK9T/dqvTaCQT0AABi1qQwCvWoZgL3VgiK9CjjLvDDYgzxzVYu9ht5bveIJKT1YdFI8OL4NPFL90rxyXIU98nKJPYBAwbtEw+Y8cIaQu087gL00Jws9wSQZvaAHWrtonh49AsmQvTiAALwQank9Os7QvHTrJT3wuYU9m6OIvThZkDy8pMK8cCkpPey6Xb0cjgg9MHMqvBBBjjuTgXa9VJeNPXBV4bucLD+89qBgvfPtDL1wbxs9SNjxvMi9eT3iJDk9ZhpAPYhLtry8GWO8eO4WPab597wgMZa8YMRZvZS9ZD0MqIA9oNxRvSilzDxHPY+9EEaUPFKo1bwTxYW9IM81O6BMRztVPJC96IM0vWw3hz2UhZRSlEsASyBLwIaUS8BLAYaUiWgCKVKUdJRSlIwHZmMuYmlhc5RoByhoCkJ9AQAAgAKKCmz8nEb5IGqoUBkugAJN6QMugAJ9cQAoWBAAAABwcm90b2NvbF92ZXJzaW9ucQFN6QNYDQAAAGxpdHRsZV9lbmRpYW5xAohYCgAAAHR5cGVfc2l6ZXNxA31xBChYBQAAAHNob3J0cQVLAlgDAAAAaW50cQZLBFgEAAAAbG9uZ3EHSwR1dS6AAihYBwAAAHN0b3JhZ2VxAGN0b3JjaApGbG9hdFN0b3JhZ2UKcQFYDwAAADE0MDU0ODQ4OTI4NTUzNnECWAMAAABjcHVxA0sgTnRxBFEugAJdcQBYDwAAADE0MDU0ODQ4OTI4NTUzNnEBYS4gAAAAAAAAAIKYBD3qG4O8AP19uzQK4TygtX49sN2DPFDZBrx9eTK92hUaPZD43Ls46xC8CKEDPchjeT3sb5C9LmNWPQJ0kr2I/iE8BA1svQCSUrrcBoi96Cp+PKqckD34fho8hL+SPEweEL1u+9y8g5AdvTDOjjv4EY48gntJvYDzjDuge3a8lIWUUpRLAEsghZRLAYWUiWgCKVKUdJRSlIwLaGVhZC53ZWlnaHSUaAcoaApCfQQAAIACigps/JxG+SBqqFAZLoACTekDLoACfXEAKFgQAAAAcHJvdG9jb2xfdmVyc2lvbnEBTekDWA0AAABsaXR0bGVfZW5kaWFucQKIWAoAAAB0eXBlX3NpemVzcQN9cQQoWAUAAABzaG9ydHEFSwJYAwAAAGludHEGSwRYBAAAAGxvbmdxB0sEdXUugAIoWAcAAABzdG9yYWdlcQBjdG9yY2gKRmxvYXRTdG9yYWdlCnEBWA8AAAAxNDA1NDg0ODkyODczOTJxAlgDAAAAY3B1cQNL4E50cQRRLoACXXEAWA8AAAAxNDA1NDg0ODkyODczOTJxAWEu4AAAAAAAAAAkZkg9avoGvizjNj30FhU9DOvOvTLUuT3IBgi99LYIvtDzz7wyLbc92JsNvWoprD1aHmG94SOXvYEujb3/MIO9K/ynvf7+Db6AQJG7OLg2PYCnSDvtnQ4+Si67PUBgiD0B+y++6gy3PQB7CjxenGG9JEMNvZCJSDyBkAq+/sFWvVFsMz5aCJg9vOUzPeZ27b0gz6m7U00mPkf5AD6nwuG9NRYaPiAebz341dS9S2cTvtADsDwN8yk+6CDGPEFrBT66QCW+LrPIPZAFaj0veww+tdyuvW8+Cb4UPzY91BTjvSjGPz1w7gO8QwYtPvRMFb1wGXA8EC8nvAYqeb3oDRo9NlG1PbnTpL3mpSK+pElbPQm0HL5/CxC+QImFPEBTQ7ycUAY9YPl0PCQGE72guJA8evlwvSzKHz07CSU+4XoAvsLB+D2gJSW+UMqAPNh0Ij3qipY90qf5PR0PIz5b3r29JwUSPnOsIL4itLw9yC9yPeDlDL4uoZQ99wQYPmgv3jyaOrc9oOiAOyJe370pUb69athtvWHhBT4AkAm78R8yvtBxwryAvOC7FEstPdJk8D2CmqY9u24DvvBbmb26wwC++qTLPdTTNz3LYgS+TgC9PX/2Br7uHQW+8Nb6vBaJ5T081TS+M5oaPrZ1bL3JahK+Dl6vvZ8WH764Vtu84FUVvWQ7jD1e+/w9+C0rvaWP670CvcY9n9QnPnDeaj055Bm+te8hPv5TiD1qedk9NKogvhcXnL0Z9wQ+IKIAvIDMOjuhZC++mvq2PeA4gbxAB2k84FZRPYVAo71MEFE9uMkGvhlgH75w0j+91KQOPdelMT7MRkI9kDqBPJ87ir1IpI09gN1VO6/nEz6rHgU+1RInPkRcgz1e4g++AOzcu0T0Wz37IhC++HxUvZvjDz7AYXO7xr2YPTDJRr3zUxo+STPGvVQfNT26ApY9wiuUPfmDDT4AgO08WyH2vYZjW72AXXq8TNJJPRihRL2iZsA9uMELPTujCT7qbC++LOqJPfrA9T3QFgU9nF59Peq09j1ZJRw+pxaTvcaFM77rti4+uBwzvT4g2L3Ay1c8DZIIPlgoBr5ujbE9e10MviC8iz3qK9O9+s+zvSXuNL7Ol4s9xoPlPf4Aoj0S/e09IJClvN2SK77Fsxo+Rg35vTKErT2BGg4+yL60vVAiQz05qIW9kKMTvJSFlFKUSwBLB0sghpRLIEsBhpSJaAIpUpR0lFKUjAloZWFkLmJpYXOUaAcoaApCGQEAAIACigps/JxG+SBqqFAZLoACTekDLoACfXEAKFgQAAAAcHJvdG9jb2xfdmVyc2lvbnEBTekDWA0AAABsaXR0bGVfZW5kaWFucQKIWAoAAAB0eXBlX3NpemVzcQN9cQQoWAUAAABzaG9ydHEFSwJYAwAAAGludHEGSwRYBAAAAGxvbmdxB0sEdXUugAIoWAcAAABzdG9yYWdlcQBjdG9yY2gKRmxvYXRTdG9yYWdlCnEBWA8AAAAxNDA1NDg0ODkyODk0NDBxAlgDAAAAY3B1cQNLB050cQRRLoACXXEAWA8AAAAxNDA1NDg0ODkyODk0NDBxAWEuBwAAAAAAAADmDLq97vj7vQqhwT1lNyI+TLxzveJKIb5E+gW9lIWUUpRLAEsHhZRLAYWUiWgCKVKUdJRSlHV9lIwJX21ldGFkYXRhlGgCKVKUKIwAlH2UjAd2ZXJzaW9ulEsBc4wFY29udjGUfZRorUsBc4wDYm4xlH2UaK1LAnOMBWNvbnYylH2UaK1LAXOMA2JuMpR9lGitSwJzjAJmY5R9lGitSwFzjARoZWFklH2UaK1LAXN1c2Iu".encode()
    weights = pickle.loads(base64.b64decode(encoded_weights))
    model.load_state_dict(weights)
    return model


model = load_model()


def agent(observation, config):
    col_num = config.columns
    row_num = config.rows
    channel = 1

    state = preprocess(observation, col_num, row_num)
    prediction = model(
        torch.from_numpy(state).view(-1, channel, col_num, row_num).float()
    ).detach().numpy()
    action = int(np.argmax(prediction))

    # 選んだActionが、ゲーム上選べない場合
    if observation.board[action] != 0:
        return random.choice([c for c in range(config.columns) if observation.board[c] == 0])

    return action
