import io
import base64
import pickle
import random

import numpy as np

import torch
import torch.nn as nn
import torch.nn.functional as F

DEVICE = torch.device('cuda:0' if torch.cuda.is_available() else 'cpu')


class CNN(nn.Module):
    def __init__(self, num_channel: int, num_action: int):
        super(CNN, self).__init__()
        self.conv1 = nn.Conv2d(num_channel, 16, 3)
        self.bn1 = nn.BatchNorm2d(16)
        self.conv2 = nn.Conv2d(16, 32, 3)
        self.bn2 = nn.BatchNorm2d(32)
        self.fc1 = nn.Linear(192, 32)
        self.fc2 = nn.Linear(32, num_action)

    def forward(self, x):
        x = F.relu(self.bn1(self.conv1(x)))
        x = F.relu(self.bn2(self.conv2(x)))
        x = x.view(x.size()[0], -1)
        x = self.fc1(x)
        x = self.fc2(x)
        return x


def preprocess(state: dict) -> np.array:
    row = 6
    column = 7

    own_mark = state['mark']
    baord = state['board']

    assert len(baord) == 42, "Board length is 7 * 6 or 42."

    board = np.array(baord).reshape([column, row])
    # Convert Own place to 1.0 and Enemy place to 0.5.
    if own_mark == 1:
        return np.where(board == 2, 0.5, board)
    elif own_mark == 2:
        board = np.where(board == 1, 0.5, board)
        return np.where(board == 2, 1, board)


def load_model():
    model = CNN(1, 7).to(DEVICE)
    encoded_weights = "gASVgMgAAAAAAACMC2NvbGxlY3Rpb25zlIwLT3JkZXJlZERpY3SUk5QpUpQojAxjb252MS53ZWlnaHSUjAx0b3JjaC5fdXRpbHOUjBJfcmVidWlsZF90ZW5zb3JfdjKUk5QojA10b3JjaC5zdG9yYWdllIwQX2xvYWRfZnJvbV9ieXRlc5STlEI9AwAAgAKKCmz8nEb5IGqoUBkugAJN6QMugAJ9cQAoWBAAAABwcm90b2NvbF92ZXJzaW9ucQFN6QNYDQAAAGxpdHRsZV9lbmRpYW5xAohYCgAAAHR5cGVfc2l6ZXNxA31xBChYBQAAAHNob3J0cQVLAlgDAAAAaW50cQZLBFgEAAAAbG9uZ3EHSwR1dS6AAihYBwAAAHN0b3JhZ2VxAGN0b3JjaApGbG9hdFN0b3JhZ2UKcQFYDwAAADE0MDYwMTEyNzkzNzU1MnECWAMAAABjcHVxA0uQTnRxBFEugAJdcQBYDwAAADE0MDYwMTEyNzkzNzU1MnEBYS6QAAAAAAAAAMsOi75myFM+8FCwvESnoT3oXio9Y10mvuJCGz6uW2g+FSiJPlbzlb7nPqi+mX+iPv1Uiz6PhY++6X6EPuA8cz3BBJ4+w3GhPmB9Pz3Q49i8iQ2MPtyOkL686Nm9LHz/vQA5xjyaYGA+msajvmvpgb6u5Ao+icWePmDn9b0WpbK9w812vkp4gr4lLqA+6VmlPqhjVz0q+hU+WrcZPivfmz6QQdW8XHypPfIdj76QqLQ9gBAJPF3zoT5I3QS9qJ4LvY9Aoj5W/6+9kFSRvGAUnz1u12I++FpYvci1ST3gSn2+hmg3vqEpmj64lTE9hCaiPVCTGb7WUsC9pofhvVCZqbxwX9Y8ciNWPvyGir6r+1a+Q0ktvl52KD7wYbS9ALn/ugL7hr46G4W+ch9WPvWioz5Abri8tECbvg3PgD59c5Q+XbSkPm3aoD5ih5C+cIdmvmGhnD7uyje+tsQjPo8zor7Qmd49QH2Ku5q1BD7I9RY+9ELaPaC1BT10/aE9dowTPgAGlb3igUg+6C8zvRW5kD5dMZ0+8JbcPYD8VjtK7B0+9ACovuzomL2Q0di9qyeQvsAz6LsggfC9I4dhvgoBQT465zs+N5OQvsp/Tj5rLIo+KxRivhiNFL1CjxE+wEGcvVyN3r1HY6E+xr4cvkJzeT7gXUe9zJGUvhdDm77saOI96m2aviE5hz4gZUe8DFWYvRHlnj6EOpc9ut0xPlW6oz6PyaM+Ezt1viM7jD4YEjS9cq6IvoZY7L0hEqM+MHj5vJSFlFKUSwAoSxBLAUsDSwN0lChLCUsJSwNLAXSUiWgCKVKUdJRSlIwKY29udjEuYmlhc5RoByhoCkI9AQAAgAKKCmz8nEb5IGqoUBkugAJN6QMugAJ9cQAoWBAAAABwcm90b2NvbF92ZXJzaW9ucQFN6QNYDQAAAGxpdHRsZV9lbmRpYW5xAohYCgAAAHR5cGVfc2l6ZXNxA31xBChYBQAAAHNob3J0cQVLAlgDAAAAaW50cQZLBFgEAAAAbG9uZ3EHSwR1dS6AAihYBwAAAHN0b3JhZ2VxAGN0b3JjaApGbG9hdFN0b3JhZ2UKcQFYDwAAADE0MDYwMTEyODM3MDkyOHECWAMAAABjcHVxA0sQTnRxBFEugAJdcQBYDwAAADE0MDYwMTEyODM3MDkyOHEBYS4QAAAAAAAAAMxpwz1Q8ny+qq51Pj7PdL5uyX0+QIGHPS6DNj6whqc9+eODPrY6eb6AFUA7jyCSPqtphD7HzqU+xsi7vdCNmLyUhZRSlEsASxCFlEsBhZSJaAIpUpR0lFKUjApibjEud2VpZ2h0lGgHKGgKQj0BAACAAooKbPycRvkgaqhQGS6AAk3pAy6AAn1xAChYEAAAAHByb3RvY29sX3ZlcnNpb25xAU3pA1gNAAAAbGl0dGxlX2VuZGlhbnECiFgKAAAAdHlwZV9zaXplc3EDfXEEKFgFAAAAc2hvcnRxBUsCWAMAAABpbnRxBksEWAQAAABsb25ncQdLBHV1LoACKFgHAAAAc3RvcmFnZXEAY3RvcmNoCkZsb2F0U3RvcmFnZQpxAVgPAAAAMTQwNjAxMTI3NjkwNDMycQJYAwAAAGNwdXEDSxBOdHEEUS6AAl1xAFgPAAAAMTQwNjAxMTI3NjkwNDMycQFhLhAAAAAAAAAAAACAPwAAgD8AAIA/AACAPwAAgD8AAIA/AACAPwAAgD8AAIA/AACAPwAAgD8AAIA/AACAPwAAgD8AAIA/AACAP5SFlFKUSwBLEIWUSwGFlIloAilSlHSUUpSMCGJuMS5iaWFzlGgHKGgKQj0BAACAAooKbPycRvkgaqhQGS6AAk3pAy6AAn1xAChYEAAAAHByb3RvY29sX3ZlcnNpb25xAU3pA1gNAAAAbGl0dGxlX2VuZGlhbnECiFgKAAAAdHlwZV9zaXplc3EDfXEEKFgFAAAAc2hvcnRxBUsCWAMAAABpbnRxBksEWAQAAABsb25ncQdLBHV1LoACKFgHAAAAc3RvcmFnZXEAY3RvcmNoCkZsb2F0U3RvcmFnZQpxAVgPAAAAMTQwNjAxMTI3OTQwNTkycQJYAwAAAGNwdXEDSxBOdHEEUS6AAl1xAFgPAAAAMTQwNjAxMTI3OTQwNTkycQFhLhAAAAAAAAAAAAAAAAAAAAAAAAAAAAAAAAAAAAAAAAAAAAAAAAAAAAAAAAAAAAAAAAAAAAAAAAAAAAAAAAAAAAAAAAAAAAAAAJSFlFKUSwBLEIWUSwGFlIloAilSlHSUUpSMEGJuMS5ydW5uaW5nX21lYW6UaAcoaApCPQEAAIACigps/JxG+SBqqFAZLoACTekDLoACfXEAKFgQAAAAcHJvdG9jb2xfdmVyc2lvbnEBTekDWA0AAABsaXR0bGVfZW5kaWFucQKIWAoAAAB0eXBlX3NpemVzcQN9cQQoWAUAAABzaG9ydHEFSwJYAwAAAGludHEGSwRYBAAAAGxvbmdxB0sEdXUugAIoWAcAAABzdG9yYWdlcQBjdG9yY2gKRmxvYXRTdG9yYWdlCnEBWA8AAAAxNDA2MDExMjc5NTAwOTZxAlgDAAAAY3B1cQNLEE50cQRRLoACXXEAWA8AAAAxNDA2MDExMjc5NTAwOTZxAWEuEAAAAAAAAAB6wFM+8WnsvSzZRz7hs0q+v6+DPgGdCz5kuQs+JIBCPUAyzT6h6Ya+ye9VPW2KWT6ZbZo+UwKgPmkY3jvXa9o8lIWUUpRLAEsQhZRLAYWUiWgCKVKUdJRSlIwPYm4xLnJ1bm5pbmdfdmFylGgHKGgKQj0BAACAAooKbPycRvkgaqhQGS6AAk3pAy6AAn1xAChYEAAAAHByb3RvY29sX3ZlcnNpb25xAU3pA1gNAAAAbGl0dGxlX2VuZGlhbnECiFgKAAAAdHlwZV9zaXplc3EDfXEEKFgFAAAAc2hvcnRxBUsCWAMAAABpbnRxBksEWAQAAABsb25ncQdLBHV1LoACKFgHAAAAc3RvcmFnZXEAY3RvcmNoCkZsb2F0U3RvcmFnZQpxAVgPAAAAMTQwNjAxMTI4Mzc5MzQ0cQJYAwAAAGNwdXEDSxBOdHEEUS6AAl1xAFgPAAAAMTQwNjAxMTI4Mzc5MzQ0cQFhLhAAAAAAAAAAgcTiPJNvSD1BA6Y8RULYPFR+RjwuPso8Vv8KPA8jXzxVZIg9H++SPA0TJzys7II8CjvhPGs7OjwUD9s8oOTsPJSFlFKUSwBLEIWUSwGFlIloAilSlHSUUpSMF2JuMS5udW1fYmF0Y2hlc190cmFja2VklGgHKGgKQgQBAACAAooKbPycRvkgaqhQGS6AAk3pAy6AAn1xAChYEAAAAHByb3RvY29sX3ZlcnNpb25xAU3pA1gNAAAAbGl0dGxlX2VuZGlhbnECiFgKAAAAdHlwZV9zaXplc3EDfXEEKFgFAAAAc2hvcnRxBUsCWAMAAABpbnRxBksEWAQAAABsb25ncQdLBHV1LoACKFgHAAAAc3RvcmFnZXEAY3RvcmNoCkxvbmdTdG9yYWdlCnEBWA8AAAAxNDA2MDExMjc5MzIzMDRxAlgDAAAAY3B1cQNLAU50cQRRLoACXXEAWA8AAAAxNDA2MDExMjc5MzIzMDRxAWEuAQAAAAAAAAAFrxUAAAAAAJSFlFKUSwApKYloAilSlHSUUpSMDGNvbnYyLndlaWdodJRoByhoCkL+SAAAgAKKCmz8nEb5IGqoUBkugAJN6QMugAJ9cQAoWBAAAABwcm90b2NvbF92ZXJzaW9ucQFN6QNYDQAAAGxpdHRsZV9lbmRpYW5xAohYCgAAAHR5cGVfc2l6ZXNxA31xBChYBQAAAHNob3J0cQVLAlgDAAAAaW50cQZLBFgEAAAAbG9uZ3EHSwR1dS6AAihYBwAAAHN0b3JhZ2VxAGN0b3JjaApGbG9hdFN0b3JhZ2UKcQFYDwAAADE0MDYwMTEyNzg5OTQwOHECWAMAAABjcHVxA00AEk50cQRRLoACXXEAWA8AAAAxNDA2MDExMjc4OTk0MDhxAWEuABIAAAAAAAAC9zo992ikvVChgL3Q6JQ8Zo9VvcNjI70+M4C90HKmPIDtJLwMZ868Uy0AvWxB47w+YWg9BLuAvICEgL2+4FI92gM9PetQZ730aP88lsynvbiZdzz0TPs8VkITPUlqjD2WoE49A6lDvVj1Dz3YlQq9h+ylvV+foz0T+YA91nxyPa1YoT15jJ09ywx3vfb1Pj1Mx+I8I1KlPQAJATvgAxa8AgB0PeZ5N72P15G9vNXQvEAVLLzoDyg8gLI/vCvZAb0Atjs6Rut7PfUZgj3wrUW9fOuqvKPPpj27Pmm91tF2PXM2dr1ealy9jF/KPMBYKj1pJYA9OJKMvX/Cmj0AE2I8EsdiPScOnz17akW9KPlMPJ+inb2LfXu9iGJyPGDpFjyB24891XyaPQD+Frp9a5I9igctPQDxnTwGxhy9dnSKve7uOz2UXp28qEUbPGBFyryfRqo9HksBvaAGdrsgjB67knpXPYQ3oTxApKy8ivM9Pbz/nzy+ukm9jp8BvTAxhTyZU4o9zvQIPXvHjr2k/as8+zJcvd7mT70Lg2q9NOeTPKGNpD0I/ny9W9qWvaxjhb2+Lng9WEaJvb4cND16wTw9IK1kvQBYBztYLkW8INaVvICjGzzakAA9WIkFPXipG71ynHA9DiA/vQAKN7qQY4O9+uBjPYC8HLxhF5M9IJ27vIG7pj1O7j49yJ47vODFMbxiQnY98mAxPfV1nz16ho29IIbUPABepruow3S8XNGPvJxZrrz2p0C9y/9qvTB17bxoG0I8kK5OvfCqmb1m6Ug9w3YEvQntiT1Ap5S70mNHPfCMkjtJ06M9oJCkvZufpD1qHmE9Zk5vPUK8ir0S8h894oORvcmxnj2Ei988UHVBvTjsDLyP7Y+9lByivPqhST2ayJq9QGkqvFIHOz0EdK08Q8cEvYDCQrq0sME8LKOKvHB3CT3+BCA9W0iqPRgBfDyDRp09IM+8PIv0lT0YTl68FGmSPLTTpTywDZE88WeHPYD9Gbyx+5U9fTiaPUIlLj3QwNg7cNBHvbx7oLyDYnS9LRmOPQHilT1IxTQ84i+ivY5ufL15ZaM9O+REvX44qL0mTGK9oAr0vIC1zDsILXm8YBALu3Igez1gVh47OL4+PNxi5Tw4bYC91w6MPcCRyDrIeT08EAyavDPUQL3Lxou9YBNlO3A/obx47W08MG8GPTxSlrxiSVI9vEqCPDKvKj0gy267Zw6SvQjaETyA+7C7CItAvMq4bT22UuC8IqwZPY5Eor21CIc94JEzvIDTMLuwko88AnQ6PWAO1byQrJS7lhDsvOQB5zzI40G8JyaLPTqVZz0gBQe9CqWaveBmsTyhK6k9/l4rvfYhLb17FI29LEeAvUA65DqgQ1E81tRUvUr8MD0wxaU83VCnPWVejD0AqaA7JsgSvQdtqT0ADYu7QKFTvMiAML3oIWU8fqJhPQhzNjwY9jw8vkwNvbjRcbw04YY8lligvaEZjj13W5w9s/ZAvQZyqL3quHk9YrU5PbmVqT0/Bac9ELqTu/9xoz2oiH+8SMltvZuujD20cos8HQiEPXOij71TKaA9pD3kPECuxLqw4/k8EpB3PXAbT72ofCS8Mvw1PZjcXb39Fo890TuPPea/V73W3iC9fGSJvMjHE70fGKK9ciEkPcDjkLuQ3N67Qi1cPYDhMrxKtlU94H+UPAAS67swVI29zqhaPYBKKbvKJ2E9gHQUOraiTb1E2Im9sN1OvRrBXD27B4m9jwSCPRAAIT0y+3c9ahQ/PZBib72rj0C9WrttPd5xab3Q6VK9gL35u0YcXD02YZW9YAzivEB6MryWnHy9vGefPIAbIbqANf68MXmRPb9Jlr3D95M99jD6vG5KJj17/VG9AlU3PRBc2DuOdZm9AudBPYC6czqFLoY9vCWBvS4pWL1jhEG9M2VqvbULpj3KSoS9jHiOvJAbBz0I/248G8s+vetCX70YjVk88FwbPf6+PL2YNwK91WegPbcvpT1leYk9yyY+vZZudr0IMmi84z10vbuUIL1gW3E8cBizPHIbmr0g1gM8gFg4usj5Or2YRgQ9Xp1EvaMbHr1WiXG9b8ibvfD8h7usoPA8TP6kvOCtALwAul69u8uQvUZrCj2qy5W9uN9rvXKdGj3XlZ89BEPjPCufpL0g9FW7jvwLvVCLQb3u7T09ADYuu1JiUT2skLM82KYnvXLWkr0QyZE81p/0vI5rlb3gVmo7EBSQvetohL3gT3s708WPPasbOL0aGWc9oHydPKJtQT1gfN28I1cbvTj9Er1DymW9ksZlPVDG7TtqQyk9pLzePPidVrwDEUK9+DwnvepNGz0oE128cFGguxVymD0bEag90Jaou2WBgz2AFR67etpIPcERmT2/mos9AyMqvcT7m733SpM9loXPvNWbiT14ZV29+zQYvfIxMz2YtTG8png2vaElhT3YT3S8ON4GPIVLoD0aeKS9qyqkvTD6qTu4lF68ttDGvJ2Bjz1O3Ti9+rY8PdCxrTvriU296JkivRDn8juAlWg8cAPRu3Ch7rzQhYM8RcyFPRB1WL3ouC68qg4uPeJsTz3IFFO8OD9uvO7qGj1Az088yPQkvZbjpb38E/i82/RDvRiGB7zD3qY9Y6GnvQP9eb3gz4O9oAYDvKgICDwIxy29MPzRuxItHD1AiQU87G6IPIPhX70O9iI968xKvQFelz06Xho9TRyPPeIrTT1AgrS86PiTvc4ekr1Ywgs8SDlLPEhmEzxAN8m75nnevGtTO71rhJ49YFIKu4hWjL0ATvU6Dv4jPUU6oD2AJFy7FPeavDz29rwREIk9wEJYPChsYr1v6YE9wz0hvfuuHr2eS3W9WtdKPTJ5Sz2go3o8R2aUPV0Gmj0YeTO9ZRORPRsyWL0mnBS9QTOQPSO5jD3a9HA9MJv9O6iIa7xcOPY8EJzzOybt57weQ0E9TeOpPai5H73b2i29fqddPdNSRb0MF+08AEhtOEAK7zzdsaM9fuJIPeiyWTy6y289a7wQvfiebDwCa2w9hbiNPeDFo73Y+Bc9aGqAvWBBtTwQvMS71BezPOBJPL12dYS907yfvYwj5bz2fmy9kXuLPb1XlD3TcCG9GYmgPZag4bxAUxy8mLVCvUY0Sr0wPdi762qgPUoxlL2uymy9hj0/PeC757yWVgy9Bnf1vAI+h71q5y89QCAWvPKFAj0p36Q9zl2jvfYB/rxY8BM9QKZYvIqOZT27FSG9aGc1vGClwLxysk49KqmlvZCmUb1UhIq8wvREPZoLn70LEEe9KAsjvGz71rwg/G68AK0ZO1tWbr3eAHU9wKKkvCiGEr1IEUS8Rg8avZLuWj14eRk9MMn7u+BTI7zAyq+84JADPbg1K7wQXpK9QHlmPAB7RLvUAbo8AKDuOGCDTbsg+X07eM40vIsZFb1ZD6E9bJDQvDptYD3p44E9WrMtPVLnET12O4+9UDEIvbBZ/7yszP68vH6ovayVhbweGVA92iJePRS96Dw3I5w9sA3PuyImPj3D25g9R/6YPU0Znz3qgDQ98KfHO7BKiLygr/Q8xiHtvGAnEjtIzg49vJijvWBm4zx4QnK9kn1iPRa2eb0uBje9LATcvK5JSj1s1+q81HyKvLO6mD2gLlm8ut5VPYF+jT1Ji4w965IZvfCKPr1Iww89SKQEPFUllz2Af0q7haKMPVDAxrwQo6I7efmhPbRW7jxA4468OIuLvZqREz3q5zI9YKqbPNK/Lj2CPwk9eDJ6vWA6Ujsg5Vy8HB7MPEizGz1bykC99+udvaJ0eT0yBlA9XtpJvSB/mLy6epy9tj5/PeKsST2+fJG9ZaCqPS4KMz0o4FW8jm9UvYA7JzvoCTG80HqmO72+oj3mRz29xNCSPNwApTzCpmU9w4kwvbcVlT0g0Ey9gmN9PXCWFD0gzFw8gJQ3Otfsjr0uhBe9lB+jvf4Kir1AM8e7IDIdvQzjkL3ugE096AF9vEd4iL3GsC+9QO5SPLBj6zxydoi9ZvIZvRd1n70gBbI89pkavRPMjj2uX0K9K+44vSAjKbuGIEM9St0IPSZUSD3+7JW9Z0KhPbwDj70Alxe7QEL7OyhNAj3wl+s7Ikp1PbvmbL2jWAW90H+6u6gkVzwgVJW8uwKRPTQFpLzIVFm9GnstPfyporzgbH+9cJZkveTHh7y4PBo8AA6lOwD0lTsiGFc9YMxzvC3zgT3J5Zk9FPTRPGwa5DzwsCY9izx1vQAFn701xpU9rQSLPQDiJDwQfKc8glSJvVPpXb0kHuI8gOAUPQx27jwo1Qc87kQ6vUAL/jzbTyK9Lj0UPbJvNT1DLEu9AFbyujfUi7361gE9gGVzvDhkcr1Uf9s8IEy4PODdIL14S6m92IhZvbB6m7tStCQ9YW6KPVanVL2+TFC9cIEpvXZe1Lyhcp49nuhnvd4hL72G6Ky8mg+NvSrvbT1vQqq9bJrpvECJbbzr30O97+epPQiPBr3eSlI92jqevUZGnb3/apa9OHxGPLpMRT16riQ9e5xgvSxHzbzao5298mQ3PWDxCjwApwU9CC8jvBL3Kz0aVTQ9b9KOvYoQg73wL4u9RMzpPDLCSD1zkmq9YNH2vMrTJj0dWIw94DeYvHWElz2Anuq7TL6yPJS3pDyCeTA9ANtWO7hEl737Ez29q2+avfT8xTyjb6q9DhNPvSzs5bzIBGc8Jr67vG8CkD05PI09wGDkO2quTj34Ih68ng6KvSbLir3YuBy8uTqMPX6QSL08QuY8NNe6PO4lPr04HiS9ABvDufIeir1zxg297ucXPblDpj2A3fC7KBZgPHDEpryDQgO9wOE9vAIJgb3XQpO9zFKBPFiqUr0v9qA9fr9XvZZFp70SLTQ91NacPEk5kD3oNA29EFw/vVtwY70YYQE9+B4hPSj7cjzoJB08MB0FvcA+pLpcR+M8kLLgPBYPBr1qLh89KBZXvESmxTyMn8U8ZvRLPfdPkj0ag1o9FHuoPO9Llb1cxd+8ME7JO8Z//LxQL8+8IIwXu1AB1ztAS5M7vs0cPaxh1DzGHy49oA09u9Sy/jyCpXE9ImQbPdzN1DyQzHK9RLjLPMCd0rv6ijY9iqpGPfjNNbz3DZA9EpGcvbAigbvsBvA8WmuSvaNNgT2dT6A9SKpkPFracD345Fm8QPjAOq7rTj2ONnM9aGwOvCDNab0g5xo7cF30PEkeiD1TjQ+9prJ4vU8qnL1SE1o92JcJvIiXPrwqim495RmfPeCQULxaU3A9fH3BPGxa6TyiGU09VDiWvKxHtryQgpi7PiwsPRtyIb36t3o9fIj8vC6edr0QAK47JDiBPGC3ujxOaX299OXyPICnlrxnK4+9yrievWgwMLzsiPo8Bl8GvYMkoz2cY4+92GRaPCbadD2Qub87nXihPcB4LLziy5S9fvKFvTI/Vj0uFis9jjplPZBKB72zPXS9APalvUy58jzYdH482lcxPclhlz3m/Dm9I0tuvd6cTL2IhZ29Xo8EvSYqaT2+03A9cB2EuxYwWr3OGSS9pOP+PHAdkLtwkPG7kJ7gPO1Ynz1idUM91iUvPXvNPL3AEYS7VuBVvZCn+7w4vU+8FqrXvPH/gD0wPdE8hqw+vUDMkzwggVG7wJoFvNJ0OT3YdQG96S+FPZBe/zwvUpQ9EamkPZFbpD15GJA9a4MnvY5EiL251Kk9ns8SvWJmVz16RmE9EtF5PePvBL2VNKg9QAPfOstqo72Ma9K85LKjvAgrBTzbJIK9o+6hva+2or1MxMq8AFU/O2juejwAeeI80llzPa5/ob1yywQ9c9gmvfDJuDvcXpG8fUKAPSPMiz2Mdfk86x+BvXC3E70iDh89HvNLvWs0eb3Q+MG8R9ykPRpDfD1QAME8JmWdvT4Vjb1W4M286O8HvBhBTLzDGIM9wDcFvKi7Jbwkw5w8GjRUPSyGvLyc+rC8KBEpvJdbpr2eJqG9ACoKugwehbwi+Z+9i/ujvYiUob0moRQ9OotsPZKKHz34glg8MnVZPVmVnz2mhn+9FgICPeiCb71e6h89+DcqPV7TLT0moSm9ZlcWvbFOnT0g63k8Njd8Pc9QoD28IZK9JM+2PPqCpL1wh7k7sAmRu4CIVzwYQx09/R+TPRDwp7vH0ZQ9bMS6vJYjJ71AdWG9jG6ivVyQ7Ty63ai9zpIzPeCykr1PpaI9tLjBPNCl+rszZIS9JpFAPYrKZT2+eGq9+d6LPaKIQj3ypHA9DtkmvepslL0zE5s9oCsQuwM+Fr3i8Gk9+N4MPENdTb2AFlG663F0vWhCYL38QZU8Wb6KPSDPNb0WJOS8vCTsvPPyV73Aea+7orlJPQb0Gr3hqpk9pSWFPcBU57wqzRM9Fp9RPToSTj0IXTi9pqoyPYKxjL1ASIo7uRyXPecshD3ATzS9bt4dPaJgPj2Evb886BQVPMpEMD0XaaK9QKRGvJJGn72eCqi9APkEPUbTQL16jIy9FhtsvQDFoTu6IWo9AMn1O5NSpr0M6JK9qIdEvJD26rxI9JC9OP83vVg6QbzQjMu7QGclvWDoZbxYgT48I0UhvYz82LzoEH693SqWPUv4jD2gMzm7ghQfPYCUYjuAGFI6gPqiPJv+j73jsKg9VEWhvDyD4LyiUx49UEaIO4DxYb2AZCu7lod0vcvIgT10Kaq8cNSMO1adc71owVE8WDJPPHYZVj0wKbW7YH58O2Qj5jz44zS8t1qRPTsrY70Znps9Mq4qPT56Fr3Sfmg9wL0wvUAwuTpSpEU9qhs6PbjTNrxurDG94BeTPCnjmD0KyBU9DPKbvfQ2lbxrgXy9eBYAvC93pT14iHK9g6JhvYZbZ736VGU9Pv13vW3AiT1c7aO9APHluuT8pDzADtw65vhmvZCDvTxbxZ+9iSSJPScYlD3I/W88G71lvZD8pjzB+oI9QH9LvISCoryzuIm9IOBMOzarMz1Ybg+9FGmGvVIQMT3IyDS8VIC8PCjUED2+xBE9YPUDPErLFD1r32C9A9p1vTgxWL3WKQe9VVCJPZpSor0gZGm9oBcKPN4BCT1hPKc9ukkvPdX/gj3m0dK8KCUPPAz55Dx0Soa9tqLovFLtdz0otBe8dhg2PYCmlDuA0066ZqF5PaA2YDxpUZ09IIz0PKZhYz1L6JI9Yu4/PSKgo72wouk7RhfjvF38pD32O429wEC3PFSntzwENMQ8WFd7vCAseDvyc0E92oSYvTYaJb2MUee86oQ2PZC8ozsDLKi94F4zvfhjo70cOKs8nFzjPDY1jL2+DAO9wLv1uqqtkb05qJE9lAqVvTN3Lb3oMD08mPKOvUBinjr5ZYQ9cM+zPCsJeL37Sni9MBe/uzpzVT0eIk49yswePTbC7byAz5e8Qn9DPaCMt7wguds89sB3PcAsl7qUn5e9ZnIzvf9yo70YHwU8tq4Lvf3DiT2gr0K7dgpjvdAU2rxymio9VgXUvCCLHDsx45Q9l6WAvZanFT2YQVO8gAKIPDNzmD2mCpu9QIu3PLA8Ob0gzek8Yl92PVghZ70wAdS7gFv9u8BmEL3aSpG9ceiVPRwYkb3iNlc9tuUBPZzQ/7wYHHI8CIYdvXVkhT3ATQa9P6CHPSmWjT14ghI8BtgxvW6zLL1A2pe9srZkPSmpgz3gOU+78I+gvJAbFr3IWBe8wmI+PSswar0Dy5o9+BEjvRguAD0aEZy9RL+ZPDsTdb28JIq9fFT+vO71Qj2fpZ+9MwUCvYAfCTsJTYo9FMmkvD4ym73WFDS9yr+LvQtBlb2e1GI9IMXTPPAP6DwKtTw9gQekPaBKGbtWgTE9vJWDvGkkkz2Jy6M9dh0GvXb+c71KAA49JJiFvVqEPz075VW9/9qLPaDkfTsA/6g68SaYPU70nL0MZcS8CrEgPROcBL1QhYw7uDFLvcs5jT3A4wg9UKLvuwaUX70Awzm9hrAwvTiGObz66Ki9mu2EvQhSfL3Qz+g8/M36PMbcZr0olzS8CC8MvWMYob2wWt+7UZyZPTBusbx8XLi8oPwovcBLkDy+jDe9KKRlPNfGij3cT8w87l01vTZvwrz4RaW9jK7vvGB7Jj36fIe9yoIaPVJXTT3m1pC9oOt9O1h0SbzCp6m9GyKdPSXgpz0UVIe9JlrCvCZFJD1k6vI8F8WnvdaGV71WUCy9kJITvUS8kL2G+mg94GtJO86iWb2SEkc90DENPf+Np73AEY86ZxaOPcfFij1QFvs8sPruPECkb73YQ0u8TmUTvXatOT0TkGG9wrBOPZaPAL1Qeug72BxIvcAUkbsfzIo9uQOGPcAO3jzQxSg95h16PcVEkz3Gfsq8AGxkOgAYyjzDTli9SKkpvZBTYL00qqi9bp1EPWJFYD1kBvI8AL1JvFobCz1vsJs9QNRuvOgwi70mizK9Z2+fPZiQOrzLwk+9eVCAPXzYy7xEXcs8oIxHvTBG6buu7mw9mGlXvKtMRL2eIRE9IB9HPD5Kdr0jGEq9OK4IPOCJMb2y4ZK96LInPGIKVz2A/xy8wDJmvHgFQL2+KYS96291vXx8oL3Df4490CTCu54hZb04iii9Uo9zPTzCuLxAdf46aB4JvEDzoToKQn89yjM+PYYyS71QJ5y7cDQFPTBjl7uugRY95RiqPVCgjTs+iCK9CNWUvexCjrzBdaY9oJEKu6lnqj1G9aW98FadPDyGnDy815O8eOcMPUD41Ly+mnu90HcrvZ5lTT18bOm8y4ebPUuqJb3Ymws8XIeXPIAFqjyjtwe9eYCUPSMjCL04z0Y8SJNtPCUzoD3KCRI9V/KavaqyLT3K8Y29QFfIuw+6kj3nqqC90DGIuxNVR73odga8oPAMPAzB5LwgwTm8NmmIva6Ckr3ggw09L16EPUvZMb3a6pK9DDmZvd6qeT0/kZ+9+NAgPbMAfb2SOj09RuRQvTQrqr2TdCC9roIGPUByq7wTjYY9g4Q3vQC0Az33mZy9wOlYPDB3k73Caxk9cnJ2PQ7HGD2cTZO92KQlPPDOrjzQFR+9KFFdvNDIFD2gc1q9rEidveC3kTzO/Ka9W9cqvYZIDD2wkbo7y+UBvdAklTyT0wi9KLNSPCZCeT3obFu9ON8kPcfwqD1Qaqa9jbaYPWTxijyjkhW9e+srvdA70Tyr+RK9gG6tvH7WbT3m+Sa9SAiWvSBRwbwArES6TDLMPBrWpL3GnTi909FKvdBg0TuS6109ANiDvHh0NbxUHNw8hJHxPJ+dlL3s15c8fgyDvSyY4DwAtda8mdOLPWOTA70UH9U8wE0uvR4Fhb3PaZY9EPuLu6ORlz34YQW8QHk6vVy76TywXOc87Ar/PDCrjDt8O5c8fAOTPFC/nr12rhq97Fv4PBPpij03N549doSXvYhJPry3WIQ9AHegOchWdzzC3EY9y64ivWqSTz3LX5q9uuxiPTK5Wj0+t3M91RKRPds8jr06OGY9gDD3vECJpbwxzaE96h9QPUMhZL1PZ5W9SpxnPXaxUj2SdHg9y48hvaBy4bxkcZ48DtwJPUgEYLweWBu9YxU5vUIvTT1Qm627ejeKvcBWkbzQ/847aKhMPKXZij3YfBw8gMnBu35DSL0AEN63EpBzPS9nlr3jrG695tWwvEhtKj14YhK8H9ypvUzMzLxg6oe9sHBUvYBbTDogEu88mIsAPMTZyjxL7ge9hmb0vIa5Db2rED29xC7APHILUz1AG9I6XW6cPTD9t7v6GYO9sD1qvR5PTz3b2Bq9E0KMPYgNBr1Lhj29R7mDPVtok72MRvA8OJYXPbQgpjzYtii8gj5CPTrVKz2wCZc7hGKpvJppXT2An+G7AC/muhjbcb3UmNE8kIA+vfxrsLyKeZa9KkGMvXC/e71ubV29cnwqPfjcGT1g7We8kASJu6k1ij025G89ykF5PcglGr1M7K68qHxxvIwsj72QMtA8gnBfPaS0qzwcwJm8gLCXvOGAnD2mE369w/VyvQAbkrx4rU29YK9dO6COIr3iLCA90NSbOz/mqD0o/kO80x8DvdOckb1KjSo9Fg8UPbFHgz3hU6U9k2GjPTzTxTxmQjC9PLOrvGaXBb3ckJM8XvIAPcwI8jxboou9j0qDPUGQqj3rg1i9SLkuvCPQU724Zzq8AKGpO5B8xrwOI4m96hBWPUBverxgjqq9mxVYvYpsGz3zw6e9vto8vYDsa70jYqe9nqx4vQCk9LmfQpG91p5cPTxu3byOCVK9xg8YPa47Y707gJw9FmKmvSSrkzzoEhE9Jqwlvea0H71g51Q8AqMzPbRY3TwQeke9PH7EvAD62LzgjU67+mVTPQYHQj3YZUK8lhbKvKSCqTz+4Eg9m42KPZCidr3YZTe8AKYJORt4S7087468AWyhPUrZjb2gEBm7kdupPRpeTj328nu9Gyx0vWPBAb22xjm9APPxvN68Gj0IQyk9+1R+vcB8mr2iyTA9wMjzOjCGqL2yXHI9xvtzvWhCc7zI+2Q8aiZmPT7Ag73Y6w+9AJW7uvJeVT04dQo8BkCKvX8mnj3QtBS9bpYcva7Fdj0mLCa9DEPtvKBHyLz6aDA952yevcApyTr42D69TFjvvPgucDwAbQW9lrBVvfzSrDyMKbY8ZrUdPRouAT0IVGo8kFkGvUIyQz2xdJU94N4gPDzN/bzYgTY8YOYIPCeNpz0O6Y29pLKevKDLcDuEWo48obucPZBm0LyxU489WMJ8vU6tXT3aGlU9Km1fPe4cSz2cRK08AEQevaixdDzIhmW9oBxRvBfThL2g2h+8eA+lvaB2Lb3apy09MspBPT8Wiz2zkE+9U7+GvSWLlD26hlE9m1ulvQz+0jwBrp49UgQpPQISjL2rCAi9OSynPSimDrwQ5rQ7DHGRvei+Ar2ICT28SgdHPfh7eryIaWS9SJ8vPDWnpj1+9yW9i2U6vdPVa73wtYS7O9hNvXMTDL3Qd6U7RulLvcYXTr1buQu98ICDu/czjT0gbke8eOMmPfCTxruQAoi7wuYsPVDhkLxU8o48DLvhPNDJDz1aKpy9OkGYvZjNGzxgNMa8ieKGPcDSmr3a0oK9EGK0uwRdhbyh1o89LdKDPWBQFTyA54K9uLQQPOZwhL1OIGI98O67u0rxfj1gexq8yTqGPfdWpL1QZOu8oDN4u2sgiz0wOhy9pYenPU6VT71WWpe9wP6zu06WGr2pJoY9nUWpPQakfb26q089SP9aPIZIBb2GDhq9XdCePV2umj0IfQG9Cn15PW2EgT1Auwe8lEmRvN6DhL3Q9Nu8fvcZPVCIiLsY8ga8iyqJPfItir2qS2E9mBwdPcyr87zovnG9Aj82PXkcoz14lTy9nL+0vMzdorzAxm+8O1ElvRjnF70EKI68hnXDvPCCmrvJLZA9kKKjO+9lgz17Nn29JjaNvfB6xLxA4767HWKNPW63EL3wvQm9sBXMO06Opr38y7k8Jkf2vCf6jL1MmMu84AzevO1+jz2ULdA8AyJHvf7UGL1sJaS9rRadPRAlBL3GiPm8jfiTPRr2Sz1LGyG9rMvdvESEwTzoqAW9Ek2evdB1kzvw1eC8y2l8ve/cp70oRKi9utUHPVCJdr2AmgW7ULSjuwAQ2Th4XEO8bHncPEPmRL2ZSps9vOKBvII6aT0YbTi8kFWrPEJ4Vz2wQui8AAoQOfg0V7yE1oe97MLcvADrSLwTt0q90QGEPRSZijyKllE9b3qhPVyC0Txrz4C9tonOvCxytTxwUJI85Kz0PIBNPbzG1Hi9gHP2uzBXh7xRbKU9+JdQPPz+9jzQnfU8QFt1vGNdpr0IIhK9nkJ9vXMGoj1sqZ+93LmMvdteAb1SXwY99lrcvB7vKz3k3sQ8kB2cOxrVSD1gbJE8QlOkvUA/qTxScAE9Zt90vTJ5XD0666C9E4uiPT6ZZz2A7So8cB//OxjVf719ZKE9fsxAPaiDIDwq8i49yoAVPUzo57wSJGk9GFMmPTjmNzzmn2Q9YIMWvFT8mLxlOp491oRCvXBEzLteeSK9bEK3PJQ1h73Qj2a9/hJyvZi3Hr1ynHQ9AOouu957bz1ojD+9oGJwu8MABL1Axy69/oNoPQwbiTzq3KK9c88bveh7GL3otp69utddPZApz7ywj+07AG6Xu0Aw4Ds0w4Q8cG10vbpdWz3w0cU7eBdqPGW2jT1wgzC9+OQNPej9Mr20kYg8dzunvXM7lr3LeCO9qAkfPWBarTz2RBe9EhKAvYSK3jyMQbM8o+UOvSDV4rwA3Ye9IBJePBzFj7zAQrM7PNqUvYDLKr0YowA9yJxLPF1tpj3S4309CLZYvCCSPDsgLeY8hJOfvTyOu7wTmTa9iCk3vDAH2zuiri49YEpqvBr+GT24fg48TvofvYA7xDv4oym9kF/7vODrWbzi0HQ9gPhcuvax07yY1C48xmfxvCAwmL1AD5e75m5evYslXb2FJJg9RV+MPTKHcD3qxqS9ul2UvapLHj1ll6g9tNnJPIvZk73iUVI99HbOPGiDKzxZMak9GgiBvUBVDL0u15i9jCu8vPgJBDzwn+O8lFuhvauNTr22YsK8gIQCPb1+mz3zJp49gpw7PdbdRz0Sy2E9j9uHPQyWmrwKOXY9AIR0u6ryQD2QZ8y8WTWCPSLmRD0s0da8YJAAvSuejD2gZ3W7q75mvYJgkb2QYJm77GXLPDy4ijwkn4W9ICQYPahUjL2s3dA8d1OSvQA7/bwkcKc89VakPaxTozxwaJ87Hn88PWNWE73Akoq6TNaZPHIvET2cmpi9+LoGPEa2AD1NkaI98BCRvTCX5DxggkY8MypzvYMshT0KKKi9tG2gPPNAfL1uJT29dsV3vWBWVzsnlZQ9XN2bPMj6WzwJ9YU9DDiCPD/zoj1wPHq9ws9qPRJLHT0bPi29YNQru3o6cD3GyTU9uzpYvcUNqT2aoai9FOz+PDirIz2mfVy9GLAXvaidZby5Gow9ADA2PG6OVL1WtcC880iMPTBmID3q92k9UCulvKDoo7wrHV+9zjcTvQChYzygAAW8yu1KPTL9Kz1okRy9yikMPaM/bb0e9zm9PvNCvd44MT38uqE8uyw7vWxjvLwAnNC5uEJQvN6WYT0sreu8IMWhvJCK2Lv8jN28VjBwvaCAQL1jvX+9gW6ZPSiynL3oWAI9ACZOueB2eL3YNAY9rO6xPFj9SL0giIy9wJ8HvNBkwTzgDVG8a/2BvXUqoz1f2IQ9RXuTPXY9Tj3SFTY928yivYADuTwy3WE9ssV6PZCAnbtmtE29qF1AvdyhnjxWxwY9zgBDPTiJKLzK+Hg9ODYAvJ3Uij2cJYQ8CAxfvFFNjz34EDO99fyCPZNOYr2aCz498AL7u16vA73YIE28ujIVPQyJpTw8l6e89NekvQhaLL2u+C49YkqjvdTRijyA9PS78A/OOxZUwLwYOkg8UKnxvOYu2rwH54m9fEbkPEuWkz2MKZU8ANWXOYBr1Tvtk4I9VvZevQD5qzmaGTc9oMJQPAA6hTvYNmE80PPzvAxRm73Ybio8LEKzPEFRpD2uwCq9aLVFPDy12jzopgM9XmKEvdiYp72AghA8w5+lvXXckj27tCW9KHYMvILdcT36DRY91MuNvQC+nDugsPk831CmvZDeFL3cPY695CHmPFBimb3g0WS91ppsPc6xAD0gc348ZMPfPPp5Pj01zoc9XgQOvQC5oDtaviI9Qj8zPR4rQz24TGm9Aw2FvaQW/DygERA70CS+vJZyZ72UUPY8dqdQvXvynb1SK6S9FnWtvJyNjr3m8OO8ViumvYapJz0QaYe8T9ejPSDzob0IyWy9SoNXPZlaoj3g91g8lxuoPc99pT2ClpW9mrcxPcpAMz2gL3s8naagPTnMpD3//qk92ABVPEZMBj0VooI9Hs6MvbvGpb1WEpq9zm4HvYj3W73pKqE9cHO/vFZwKz04EEs8JFDiPMDljL2g/me9cuwuPUDbFD2a1SA9oNcyPDb6Gb2TQD+90A3NPHhIGD2IdCE9BCDoPKoNRD2Ak8w8qWWnPQBvyzsStj89wIykvIC9lTyyuWc9fe6bPdbpMb3xj4A9fhpdvdACqb2ca7Q8UB+rPDAsy7wPpoW9mh8YPV6baL0iXig9E5I4vYiZob2fTqc9gORBPGPMlr33/5e9Q3w7vYBNCLpv8409nW2QPV5WDz2ArPG8zbumPcSD6TwAQjK9/DqJvVyalbyI1km9Q4VwveK3jr1Y2WU8OEAxvHPFW726ZXQ9GQSMPQ0Rgz0K/149Q9CjvZlBlT29C4Y93DmevWT6nr3IbBK8m8OXve22hT0A2+w6TT+jPfcnqr11E5E9L4eHPcDwuzqA4yy7mLxZvT5kmL14XQU9M2hOvUqIPj2ESYg8zk5JPZ4ISL3wG329jM/7vGgtIL1QyEy91USLPSNjCb3mSbW8+wMevaqYkL3NiKg9GJt+vbDo9jxfP4u9MiNhPZ7OFD2g/Fa7qMeFvUbNVb1HVJW9ALmPOozK47zqcwg9Og4bPaZuFD0ymY+9WPIzPOsjb73AvhY8vp6FvVp8AT2Q0YC8Q5tivXTp7jzGP8C83wacPcxNgjxiOxc9429bvRDpAD23qqa9CNZTPLCll7y0EJi82PhavOCAhr2oKh28QkNiPbhBKD22tFM96PEzvfheJTwacm09UD+dPBaCn72+LwQ9gAiRvHENqD2AaE+8gUKAPdYIXb2oCQM86WunPR47ZD3FoIE9+r8XPet+jD1om5y9sjhwPVws2DwWY6S9IGshPQ4Sar1WVBg9oJoivBTxyzw4mVI8TqwLPVzWsrwKE6W9KJ2jveuEkT2QzKK8kDHcO7hJEbwslMS8YsksPYPfkD1fpqA9It13Pc+Lpr0AcVm7gOhPu8BVxrw4Wjg8YAoyvECr3jtQAOq7QHKdPPAB07zwNau7K7VTvXHijD1+U289LtECPYrAMz1cPM28HOXgvAMgMr3D/pC9yQ2RPewNl72iLXk9coNQPUCBxTwCIEY9SE0MvLuvab28faC8q0MWvYsKiL02KRY9jngtPYO4jj1QLyA9S7tLvUZNXD0af2k9KF1qvUC8lTyYIHQ88wRkvV5rXb2DQQS9Q+SSPQwSt7yQbnu9xkj/vBavZT1AL5C8ugo8PaCkib0yazA98FPxO5Ti9jwQesG8NLyxPOZKRb3/nqK9tOvePBCuoTzAnpu9FjegvbgHebzplqM9rLGaPAJ2DT3fn5g9iuJLPQ7kFj18joM8yJwzPNhOJjxCpjI9ltvtvIBJt7yMPZ48kOnDPHw84zxMHIy9vyaAPfApzzuEh6i91I2uPEDpmDxNU6A9ZLPEPGgaJrxIbJq9YzGOPbKkVj2ilUo9porDvOS85jxgDjY8zkeAvU5jR73724K9KkVqPS7tJT0YqzO9gIjeO3NPjD3bhz693lJxvSjIdjyYmAQ9PnuPvUtJcL3g9lW7mhRuPXbKwrx27R498Ew5vR4SlL3Cljo9DD7xPOBMnDzOVne9bEO6PAhlI72AVBa6YOsCPYrzNz2MpJ080M55vYB0h7xcf948QBOIvUBAD7ywvZk8QJy5O6ZCFz0D9TS9mxFHvbi5Lby39Jo9iodAPQAz2znQXBY9kFGevaIMMT1QGs68c6R0vQcBi73q8jU9LpNCPeC1XjzCgDY9x8KiPdgjeLwykFg9uHUtvDulLr32gja9YlFVPTOFZ73CGEY97N+kvTNkkT0z4p+9AEGIvSADPzwWZTi9UHkHPcSEpb01I4s9poUlvRouEj3W/ka99pcDvfgJG70Jz4s98PSJuyPDjr22FEq9WmghPZhtpb2AqyQ6YIq9vKbTRz3i1zM9WnUZPfvRcr0IKUm94EqYvF2Mpj3sWOM8ALvIufTJwzw7spS95uY+vbYhYb1YEm+9GEZBvf29oj3br5O9GxtPvYCr1zzoJE28AOVjPMNhhj0j9xe97DqavcIAND0bHJ490M3CO2NcRb0AYxS8AJ53PMwkh72I31A8slJDPXDr7LuMd9W8AAB9N/42bz3AeGC94KYzPEboPL1SeXc946YMvbzyk73YToe9wvlDPdplib3ZVp09m6Y+vaieOL3AlNs602kcvTb7lL3Apmg8pFSvPLvAFr1sh/U8LAj6vOB8yzz2coW9naqaPUA+m7zRN4w9XfqePUWVpj2YcDm86L50POZpKT2AZVu6wMw+vcqAfz16tgw9wHRXvMCtwDwAmQu9MwMjvQDrrrp2tTU94u8iPdCpgTuc1qu8AFz9uzC3pDsW0oa9EwcGvUaaSD1zjaM9ZtthPQsjkD0PH6g9urx4PZQU+jwY3CU9sG5uvcq/lb3QJu27hp49vVjXMr2A1Jq7IFENvJ5VI712XBY90Au0PA4ATD1oqQe8+LxEvPnboz3ABaI8IFfkPPzovrxgC8w8fJSFPAAcvLrHeoC9aA9VPFZR3Lzwmn69QDFHvZLeDT34WkI8+wd2vVBrhTwu1nm9aeiJPRZkdr2AjxQ9qHY+vWDqabugKUc8iuBqPYTr7DysQvG8MoSAvTDbvrw2L7u8KAAWvCwlnDwAKLG8wEkmvTKQTD2QzQi9QDbcu/BYFD2WRdS8LgYPvebrez0CVVM9ThKDvYD0Rbro+Ak90HJ1vcN4ab0qJzM9BFCovGIxAT2QfOE79OzEPBLSKj3gzhM88EoePX7fKr07bly9ABSGvOhoXb0Pr6i9gAixu+6anb2bnz293jiEvRjcPDyMyty8AAL6vNg8drzAaFq8zOjuPDA+0zyCPZi9E4KBPSgLGz2cRuO8sOiUvSGRoz1QcJe7oGcTPQ74Xb3Okja9myhDvcIRaj3jaJO9DpsCPRzuj72wy069qnWLvVJUXD3SGgA93hJbvRAxFL2Dwoo9gF4qPYzU87yTZAy9FX+OPWCYfjw2SEK9aBw1vYDpDjyggwo7a16hPYAvFbzL7Gu9qfSfPZUllj2QapU7JPqUPABOKzw0oMg8UihQPTQjo7zALTu8jioWPcDWxbrQd5w70JDpPOzl6zx7vBa9mtJCPdbk0LzsWbY8VqxrvfB577uQNZC9LGyKvCv0U71UZ8A8ezxqvdAx4zw/fYI98TqJPbcLgz1m9+q8kH/Wu9pym73XZY+9RMXIPKw/lL38B4i8ABVROwj5ELzsi/G8k75DvYDhhTyE8fQ8xwGkvQDYpbrU+Z+8zL6NvcvtKb3gVhI9+MF6vKYKCr3j02e9vA3avMCYYjxlBZU90kldPXIEKz2sA7Q8gFfxu0BIc72Mqom8dhDlvMv9iD0ggPA8eD6EvaBiKzvwAmC98nx0PVM+jT1SFG49Kn2avYqHMT0XpoS9u6AmvZqdQj3mvQi9YJI7vH1Hhz3YMU69MJySvAgNK7xA2/i8Cpo7PTau8LzwE4Y8OEkFvNbuf72/FJ89Jgy1vJjUdbxFC5E9nlJ+vVTUlb0nK5G9G95IvcWWgj36Z3I90i9ZPRbvqL3meWi9MPuvO36VTL3deoQ9YlkNPVd/lb0zIJA9sRiAPXn3hz35+os9ziRavW2NiD1u81298eKbPVrONj0pV4E9JH2OvOppHT0oDCW8JriBvf4pZr1KS3491myCvb5RDT3GV2a9gLViOyCYET2MZNU8KnoTPRwmkjwe5Vc9CQSAPboQRz1br1W9BP+fPCbiQr0Ar3u9o1pwveINgb0coMk8h+OXvbDXorxuth+9y52kPQq7Gj3AhHm9mJ5hvCxO3LyWQ1S9fhQ/vUgXfjwox2S8lubyvEhdRb202P480MmtO/UVmT0AtD06fOPevK77Gr3QsMC7cGBivVbUFz0W+XY9phfRvESrzDxk6Zs8U2ArvTHVmD0o/zO85DGCPHPwSr02zU29M8lIvSItMD2zx4S912OGPQjRQb34D0M8He6gPQAT2zsAiqy6IK8GuxJRHD2annc9ODdavZZMDb33w6I9LAfkvBBx3jwzAlq9Aw4xvTxty7xYbH68HnoWPQDBOL0mWTu9oaKTPYgNNjzNzaA9tNeJvfC89LwurzO9x6eCvYCMCrsgVzG8QJj3OjBJn72I4C284wphvf7AMb2Qpru7AOgbu2AnBzyQgtm7em06PdwSv7xrVDW9Kf+fPR6+fD2Sy049yUSbPUhRDrwGoSm9wPqUPORIuTzwm+s8wJuHvGD4KTwYGEi9JJ6WPMGdgj2wiZK7ARqAPaD+eLv6alk9FY2aPXnanD0W6Uo9aIY3vcaX6Lz4yXM8kH6ru3IDMT2s0fO8MYqFPZSp4zx/QIe9gEdGuljDHbzoSjS9gAtCvGbPob3M9fK85IqoPKagcL343G08cllZPWIULT2yqR09S1EZvc5jjr2Q1AQ9MC3lPNbQEL14lU88NCegPL6aUz0wPKa8eXyDPXiXJL14nUo8F4qCPfIRCT2SnTA9KOUBvMhcFj1esnW9+O9svd/giL0qTAA9lNeavdiYdjweRXa9GPZgvYhhCDxvsIu9U7CEPXheR7yzz0m9EP7Du5hJSrxoJG+93ow2PfgXlr2rS6m9+iKYvSjVYzy+TqK9IIKTvPyKqbxldY09dmFnvbVclz2mKry8+0MivTrPeD2Shkk9sVeMPUD2tzwGN/S85omjvZIJSD2iNUU9xZmSPabXED34QAi80HCLO/KtUT16RkM9KC6VvfaJND3A8fA74JdFvZBO7rsA+vI8dngaPXtcUL0ATdy6MxmRPSiuIT1gpuQ89BuIvAD74zmKXom9VaWNPRjcAb3dAJg9IMlgvcvueL2QRMe8FPKcPCsmkb0sApK9gAJyved1hz32EI+9ZAeSPFb0Br0+YxI90oRPPTwm47zLoZo9dRWJPWhEL7wreJE9HI+BvdigRDxiqhc9b/umPYJiST0AWce588hevX4th71A3um8gCIHvQvPXb1RL5s9jA+kvU/Ylz26J4i9cnAePX4YDr14wgM9cParuyaH7LxgKhm7HJKrvJjAIDwOpkE9/JHDvN06lT0zpYi9wHapvQnlmD3oxCe92OhzPL3QmD04aHm9kBmaPJQjkjxYeRO8KvE6PYDatDwA65G8YMlhveD+47yYQiS9oClkvX5aAr2ICUW9+k9cPfigAzworho9Vo5ovfbAfr3uD0K96iB8Pcutm70WEjS92cCLPdKGOD1Qs467v6GPva6oeb3SNmw9sJobvSba77ziP0E91kc1vUSKlLxYMnm8zLulvD4glb2AjC29jjYhPUdJhj17eqq9xp0oPQgzD7yJdKU9oLhXvOrDSj2QCN27GJI6PADrsrrMTOq8DFfRPGoTAz2Aa2G6QAsevNDMhjyAuRo9zwSFvWxlszyCOIm9RgR1PYYPVr0W+V29kJFXvcJgpb1/gpG9GpRZPakNgz3At7s8s/yQvaAqZbtXt5W9SLk6PAXvjT1gvjG8fnBkvQC0hrmSMnE92CA7vS2Zpz3fH4K9DO+7vNTeuDwaVng9ciCQvSBIlbz5GYA9gBIvOx1mmj2A9Xi8WCQ4vEgFAjyoKUK88DGTvCBbVbsrapO9gA/LvNb4Lj34AQw8LolAvUye7zyqtG89kIyevPA2grww58E7sJ/7vFZINT1eKUO9ws5yPcAVo7ubLBG9gFAruvCkB73Q9PA8kmpiPeSX0DzmD389sNGpO+4KdD27EoC9lEmxPMschb1tTYo9xrwNvSaQ9Lzoroe9mKMePSfgpL1wopq8G1aGPVyqyDzI4Sa9ox0gvdJmaz12oR49w8MmveivGz0QGda8cpUwPSC+dTyQThI99GmbPJLbNz1gz2q9CX2KPUDtrzoS6HE9GamXPTaKHL1bEEK9tS+HPQAAEzjACSE9KipMPRjkPb2gR6e9G3ZfvbbhKj3i82A9JOqEvIieJLy6qRw9hocJvezuqL1oGZm9wJjFvCTqgbxG+m29F8GnPRHEoz1G5lA9TkEqPXP0qD0bNgS98+MpvZNmk72CHWc9bI6MvYJeej0rAQW90/+lvTnzpD3c97S8qpMtPXxPqLy8A8s8b6OWPWrtJz3CoHQ9HNzSPMqGKj0SAHI9OP1bPFBTwryA4Po7RVWAPX2rkz0XSJW9CJs2vXmkij1W1ce8OGhXvdIQfz2iYlg97W+mPcwa4LxA3jO8sMWWvLhEHz1gAFo7YJMtvI6sfz3syYe8hbCAPSR5szwstNw8G+xNvWuPkb1kIfU8cvg1PZQsir26gS89sFSwvPQpkL0AZzS8TC/5vPBhwzuY0h49iI0uPLS0lLxwCYY78FEFveswmj1gKJs8O0eCvUAJvbpLBEy9eBkbvQC7ULvzDmG9AA+VOi59cb34Ikk8YIcRvYA7SDzlaKE90jVbPQwLmjzBNI89IEuevJu4Pb1znl+9YAhWvPymrjyrfii9kTWcPYiyLb1QNSG9ogVKPa6iFb10O8Y8rbCoPRiiRjxpJYc9lu8qPdYYEj1I7gC8ADo5OzB5Nr0fVai9JrynvYQFo70KlQk91lopPfYVVz0bBTW9Z5eDvVBCxbxb5ji9aw2XvcL2OT1fmJu9nK6avCBTMTy7Kak98Np9vRQ4lLyAFbI7pqKqvYC0fzt+jVO9gN8cO2AScLxsNsW8ZvUfvdK0cD3qE0I9gIFKvEgabbwI+SW9bLnbPFB+eL1AWGW9wJ3qPItOqT0JrYM96tGCvfUhlD0A/q88YfyLPSHlkz2B6Y49c8hVvTIDZD1onRk9AKp3u8Qy7DwYEmW9zuN2vS+dgT2AR2S6gC3fPNxiwTyL5Km9t0eYPS4tDj0Ku3Q9JJSUvbCh7LtyJi49mE1PvdoxdD1yBJG9oPRVvVZj67weFDA9ib+QPUiNJrwKwR89vKbAvFK2pb3YjBc8+kyqvVRBkTx+tQe9qzykPUR5lLwA1Os4qCN2vHLeWD2rfnG9Jhj3vECipDpA3RU927I3vZGRoT0gJ+g8COZOvOCmULskKYu9LrkUvTZOcr0upCA9IEAGu9QhoL0aYqa9sJeDPOZgqL2QeFS91iQMPUD3+TpgoCW9MLfPuzK/az0rApe9coRzPdpYdz1YdgS8MNjbu5x1uLwA0Oa40GXzPBL2lb26cRw9QFMBvZPuEr2rdoW9qJtOvJ0zhj0HLIk9RJCKPA5aMT0mhJC9wJjbO68Ujr36CmQ9AGpDO8hUbb24N2E8jCeivKIneT0wQYM89eiRPbD7hTzuawC9PATHPAZGIz12Iyw9YfmEPbxz+7woxgm8qwY0vU61OL3WQpe9eC1xPAgRCrxdR6I99gZFvbNSEr1oETm87OmRPEA0dDxY5GG8RgNCvRCOhzuYe5q90nWUveguCjwAYEM4ZmpcvYAVCDpwCOk8Kyd7vQC6irtG49u8fqRdPYhDf7zQkgg9pvWNvTf2nj2S9EI9Kb6VPSDg1LzghpW8NWaaPbQbqDyZ7IQ9mkoxPaBwTLzykpC9xpoaPYl8jj3jj2K9oKvwPADVV7tURsA8ioMLPbby37x91po9U5gGvboedj1G+US98PaTu5BbpztrbyC9Gl9uPfijG72iLD89wJuyutCq27sUU5m90qVcPejYe71OUpm9k6csvaxlzryiAA49jCGevGuLnL0oEgi9RFeoPNafQj22s4e98AbkO9siML2ASds8bso6PYCW/7zvpZy9PndMvbDSijt8ws08k2sZvbW0kD0gCho97nBMPanAgD1A4po6HZ2UPez4xTwHV5O9k+6avcckpL3mqNC84HgzO/p5Sz2+cAU9cB6MvcooDD0IlAU9wkcLPfIKQz36toO9gI8zOsqcmb1KzFA9RnMEveahaT07TIA9GlQiPTx9qrwAAOi8sncyPfZB27zHSIM9MLGtO/EegD1BTos984Yvvc76HT33BKK97kkVvRb7aj0qbk89HEDqPChlKby4pX29S5YDvXCdgL0MFsy8rN2cvfpHaD3eMaq9hEmEPGlehD1QeTG9UmEiPXzwwDzeBFG9k4yWPcCHFz33VJI93iJ/vSo2bT17wDS97nYEPbMNeb3j35M9mLstvYD3ED0j26a9uUuBPTBrh7yqImU9bpBPvSiUFbyQa5w8qyEBvUxBhbxKdE49PpxvPXZ9j73Akfk6mERlvLNpib0eV3m9+caRPecBmz2lkqM9HpVuvTCyvrv4ERI8FgymvQbpRr3sp+A84H/oPGDpdzxkAcE89Ir/PK4bCb3CI3M9cD8JPfCnNL1Lkky9OgouPbTStDwwkOa8QAItvRQXwDw27lG9IBkZu6j6HjwM/4w8HjABPVAKgzvQ+Og7LJrNvCBQV716Zi095nXwvNYhPz1ObzG9W5gQvUy4jjxyoH898PzcO+A4n7wGhUg9os8pPQDvgr0Ahek8IIJ+O1qXcz2mAe28AL2XubAqBb3896I87/SYPdjaXzxOsnc9IvxUPaodaz3lw5U9tXySPWiVjL1TyY29Cs+gveK7Wj3c1OM8rgZ1PdLQYD2FsIk9RS2jPVxXir2AvKY7bqJDvSBldzs2Rgm9dt18vdiRMjxc6JW9t5KNPegLa7yAeY27Vq+XvQTn4zyYISG9oDUjvAmLhT0515Q9C+l6vWCUTL12OEw9IDkMO2BeT72Qoc28AIV1veZmXb0sn6e9oDU/uwAV4Lw43RC9UArbPKSvo70isjA9MKWvPAZ+DD0BXJI9FvhQvYB8Hj1WGVk91PjtPMxV5TwYlxy9jcWJPQBMNDsrvhS9qBE4PFvANb3wsM+8G/CKvUQKnL1YKRA8NGmpPOMahz3FNpc9Hvl/PXJOFj0Qb529+OQWvcDZwbrUoZc8JgMjPdhvMLwJE509/RiaPZsHDr0GjgG9uBcOPIeUkr1mj529MB2Cu1pISz3I2Uy9QOpOPHjsO7ykeo68FhsavVBi4zyALjc7SMRuvZpgWj2oWqm9/kdPvZaGDz2+iV09ELPtvLysm7zAZai8Zh8YvQBQkbnL9pa9k0uRPeC6ITsAUwE9uwyHvVITfz1275K9fEeRvNoGMj2a7X89DECYvWsea72q0BU9NJGnPBilgr3gmw08EFCru41pmT1DXo09MJaFPJ+Ykr2y+zw9iJ10POq/dT3SZmA9rq92PcRp6zxgXGa9sD5SvWKVVj2ckIc8AL5dvO7xGj16VAQ9APZmOqCjSrygIEs8oKMiO/ZsfD3Yhzk8dQ6pPUIhaT0wDqS7oPhTvDy2xDwA8lC9dgw+vaUbnj2w69s8oNATPFbB97y4q2k8+OEsvHhvNL3w8/08Mf+nPQ49oL2ODKO9AConumJdFT2DFGS9+DcCvcaZQD1m+LS80JqrPAbcNz3io3M9cGElvSA8Zbz80fc8DlOnvZDwg7w8i5m9uHd8vfB1+Ltgzna7YZmLPUgiR71YjyQ9+y9ZvRw3n72GWlg9UK/jPPhoR7wf8KQ92skJPchZGz30DZe9YESdvUgMGb1AdA48+KNBPIAAcjycPtg8y5qHPfqzUD0LBaS9jbSePatFUL2yb3M9VFe0PFp5kr1dTJM9ExqOvaJcXD2xUIY9G98VvUSLwTy2cKa9PBPOPPbTUb2ClAo9/CCGvZAIsTxorzQ8GCwOPCDVl7w4UhK8TMrRPAB1sLxgAo08wLXoOyi2BLya0WM9oDYXuwQxuTw0B4a9EGw9vahNF7z0mtg8pGywPGW8mT2uJnM9HF6JPLTlyjyA0R07npuhvRBUlDudUZk9yLoMvdDdBT34plW8JjR7vWTJir161oe9GOVKvTYuED2gHRM7ZkKRvcDfBzy+dYm9W54UveW2lT1zJDm9Gl56PXulqj1TaqI9bQ2nPU5TOj0jPo09ZLDWPLH9kj3oJaW9sLCiPF8vmj21/YE9oFFUvQ7MLz2C86m9OpNKPXA2vLyV04Q9+CtCvFqZCj0o4h28OCxWvV5+JL3GEdS8lOn+PIDEJj3mTb68qHFjPDfimD2A7He7GN5/PJsaOL3u4A+9wh9LPeBXZr20NYu85LWqPBDOnbu4GSW97CP6vNPphj350qI9W3ApvcBxKDxozwK9AtN4PZbIGz1dIqI9W3gUvZDd7rsYhi+81vVKvRMDE71XIIG9Td6WPdAaxDzQX8O7qsVoPbMPcb09pqk9AVWcPbCIRb1bTZI9sEj3O8BmKr0jTjq9+EYBPF4mVj3GUKq9hG+VvACvtDlAONU8vhgYvUBHozroUqq9lNPlPPv8Vb3rwaA9fn0aPTC2lzyAfHW76IttvAAoXjrr/GK925qCPYKfUD3+3kE9GsgJPbNsOr0v7KQ9vBebvH7CEb1M67s8y02OvRiOmr1zAzG96gFmPfJBOj0ibWk9HlkWPTB20Txv3Ia9mK1ZvDPCdL0AwiK5i/iKvU5TaT2hLaI96zkpvYhCbb32Sj89EATfPNYXIb30I4i97q0pPegMEr1Ds469IOpCvYtlAr2dFZE9iM8NvAovRD3YVRa8rqYvvUMTGb02w5y9qI8OPJiMWbxwGPO7uCVrvExkwTzo+g+9ACWYPDxR/bw+lI29+ilJPQAKPTyYJT284kdGPZIrVD1I71C9KuNnPeegk73KC4O9oIVlO1s7Ib3L3Y49MG6mu6aD/7zml6C9gPkbPOn+iT0wKeY8/C3ZvIp6GT0f86S94HxlO5LqWz1oJRQ98IOhvebcv7w4WRq85Cn+PL45FD1tCYw9JR2IPVNUhD02rMe8w3WavQKHHz2rY4I9cJbYu8iCRzyUhZRSlEsAKEsgSxBLA0sDdJQoS5BLCUsDSwF0lIloAilSlHSUUpSMCmNvbnYyLmJpYXOUaAcoaApCfQEAAIACigps/JxG+SBqqFAZLoACTekDLoACfXEAKFgQAAAAcHJvdG9jb2xfdmVyc2lvbnEBTekDWA0AAABsaXR0bGVfZW5kaWFucQKIWAoAAAB0eXBlX3NpemVzcQN9cQQoWAUAAABzaG9ydHEFSwJYAwAAAGludHEGSwRYBAAAAGxvbmdxB0sEdXUugAIoWAcAAABzdG9yYWdlcQBjdG9yY2gKRmxvYXRTdG9yYWdlCnEBWA8AAAAxNDA2MDExMjc4ODkyODBxAlgDAAAAY3B1cQNLIE50cQRRLoACXXEAWA8AAAAxNDA2MDExMjc4ODkyODBxAWEuIAAAAAAAAABWa4+9KpOqvSnljT0YZn88YLofPWvggb3Gkf68ADDvPK5jJb2cLPk8/WKaPUwljTyw4re8beKgPR7kTz1iVnE9WO9VPEZ+Fr1OFjg9oEVNuy2QhT0TtZY9PJCcPAqNi73Y+CE98NcxvavMAL0Il2a8vPfWvC5KhL0QbfC81EO2PJSFlFKUSwBLIIWUSwGFlIloAilSlHSUUpSMCmJuMi53ZWlnaHSUaAcoaApCfQEAAIACigps/JxG+SBqqFAZLoACTekDLoACfXEAKFgQAAAAcHJvdG9jb2xfdmVyc2lvbnEBTekDWA0AAABsaXR0bGVfZW5kaWFucQKIWAoAAAB0eXBlX3NpemVzcQN9cQQoWAUAAABzaG9ydHEFSwJYAwAAAGludHEGSwRYBAAAAGxvbmdxB0sEdXUugAIoWAcAAABzdG9yYWdlcQBjdG9yY2gKRmxvYXRTdG9yYWdlCnEBWA8AAAAxNDA2MDExMjc4ODIzODRxAlgDAAAAY3B1cQNLIE50cQRRLoACXXEAWA8AAAAxNDA2MDExMjc4ODIzODRxAWEuIAAAAAAAAAAAAIA/AACAPwAAgD8AAIA/AACAPwAAgD8AAIA/AACAPwAAgD8AAIA/AACAPwAAgD8AAIA/AACAPwAAgD8AAIA/AACAPwAAgD8AAIA/AACAPwAAgD8AAIA/AACAPwAAgD8AAIA/AACAPwAAgD8AAIA/AACAPwAAgD8AAIA/AACAP5SFlFKUSwBLIIWUSwGFlIloAilSlHSUUpSMCGJuMi5iaWFzlGgHKGgKQn0BAACAAooKbPycRvkgaqhQGS6AAk3pAy6AAn1xAChYEAAAAHByb3RvY29sX3ZlcnNpb25xAU3pA1gNAAAAbGl0dGxlX2VuZGlhbnECiFgKAAAAdHlwZV9zaXplc3EDfXEEKFgFAAAAc2hvcnRxBUsCWAMAAABpbnRxBksEWAQAAABsb25ncQdLBHV1LoACKFgHAAAAc3RvcmFnZXEAY3RvcmNoCkZsb2F0U3RvcmFnZQpxAVgPAAAAMTQwNTk5NzcxNTkzNjY0cQJYAwAAAGNwdXEDSyBOdHEEUS6AAl1xAFgPAAAAMTQwNTk5NzcxNTkzNjY0cQFhLiAAAAAAAAAAAAAAAAAAAAAAAAAAAAAAAAAAAAAAAAAAAAAAAAAAAAAAAAAAAAAAAAAAAAAAAAAAAAAAAAAAAAAAAAAAAAAAAAAAAAAAAAAAAAAAAAAAAAAAAAAAAAAAAAAAAAAAAAAAAAAAAAAAAAAAAAAAAAAAAAAAAAAAAAAAAAAAAAAAAACUhZRSlEsASyCFlEsBhZSJaAIpUpR0lFKUjBBibjIucnVubmluZ19tZWFulGgHKGgKQn0BAACAAooKbPycRvkgaqhQGS6AAk3pAy6AAn1xAChYEAAAAHByb3RvY29sX3ZlcnNpb25xAU3pA1gNAAAAbGl0dGxlX2VuZGlhbnECiFgKAAAAdHlwZV9zaXplc3EDfXEEKFgFAAAAc2hvcnRxBUsCWAMAAABpbnRxBksEWAQAAABsb25ncQdLBHV1LoACKFgHAAAAc3RvcmFnZXEAY3RvcmNoCkZsb2F0U3RvcmFnZQpxAVgPAAAAMTQwNjAxMTI3OTM1NzQ0cQJYAwAAAGNwdXEDSyBOdHEEUS6AAl1xAFgPAAAAMTQwNjAxMTI3OTM1NzQ0cQFhLiAAAAAAAAAA/A3YPF24gz7HJwm+RviPPfoRPT7NAOy+UM46PlmvNj7N/jq+16LfvITvHT6lioe+2uDDPYBRIz0lxVa+FlosvpYyCD50BhS+AF09vlRl0T2gQpS8LGMQvusGQb6qPsC9sFb3ulYCcT1VXNg9Z9eevdl/iL1B4YA9guqFPRKKZzuUhZRSlEsASyCFlEsBhZSJaAIpUpR0lFKUjA9ibjIucnVubmluZ192YXKUaAcoaApCfQEAAIACigps/JxG+SBqqFAZLoACTekDLoACfXEAKFgQAAAAcHJvdG9jb2xfdmVyc2lvbnEBTekDWA0AAABsaXR0bGVfZW5kaWFucQKIWAoAAAB0eXBlX3NpemVzcQN9cQQoWAUAAABzaG9ydHEFSwJYAwAAAGludHEGSwRYBAAAAGxvbmdxB0sEdXUugAIoWAcAAABzdG9yYWdlcQBjdG9yY2gKRmxvYXRTdG9yYWdlCnEBWA8AAAAxNDA2MDExMjc5NDg2MjRxAlgDAAAAY3B1cQNLIE50cQRRLoACXXEAWA8AAAAxNDA2MDExMjc5NDg2MjRxAWEuIAAAAAAAAAD9Tm49UXmkPnDUCT6T0gU+SFWGPZo9FT5cSJM9nASvPU+Zhj31BU09JRMAPu5qZz20Sfg8oW99Pd9N/D0/8Y49U/SnPepzlj3iqE0+2ukVPm4gET4q0Mo9QrMlPt/TcD3i9tE9TTZaPSDb5T00WWU9VcrGPfyTuD0yTG49DJy+PZSFlFKUSwBLIIWUSwGFlIloAilSlHSUUpSMF2JuMi5udW1fYmF0Y2hlc190cmFja2VklGgHKGgKQgQBAACAAooKbPycRvkgaqhQGS6AAk3pAy6AAn1xAChYEAAAAHByb3RvY29sX3ZlcnNpb25xAU3pA1gNAAAAbGl0dGxlX2VuZGlhbnECiFgKAAAAdHlwZV9zaXplc3EDfXEEKFgFAAAAc2hvcnRxBUsCWAMAAABpbnRxBksEWAQAAABsb25ncQdLBHV1LoACKFgHAAAAc3RvcmFnZXEAY3RvcmNoCkxvbmdTdG9yYWdlCnEBWA8AAAAxNDA2MDExMjc5NTExNjhxAlgDAAAAY3B1cQNLAU50cQRRLoACXXEAWA8AAAAxNDA2MDExMjc5NTExNjhxAWEuAQAAAAAAAAAFrxUAAAAAAJSFlFKUSwApKYloAilSlHSUUpSMCmZjMS53ZWlnaHSUaAcoaApC/mAAAIACigps/JxG+SBqqFAZLoACTekDLoACfXEAKFgQAAAAcHJvdG9jb2xfdmVyc2lvbnEBTekDWA0AAABsaXR0bGVfZW5kaWFucQKIWAoAAAB0eXBlX3NpemVzcQN9cQQoWAUAAABzaG9ydHEFSwJYAwAAAGludHEGSwRYBAAAAGxvbmdxB0sEdXUugAIoWAcAAABzdG9yYWdlcQBjdG9yY2gKRmxvYXRTdG9yYWdlCnEBWA8AAAAxNDA2MDExMjc5NDI2ODhxAlgDAAAAY3B1cQNNABhOdHEEUS6AAl1xAFgPAAAAMTQwNjAxMTI3OTQyNjg4cQFhLgAYAAAAAAAA6GCxPLjFPbxGk4I9aN0oPShfHL0j7HO9jDASvbhLwjwwSZu7EMHHO2CxnLzQNB89HDlhPXwHEz385IG9cV0Mva670ryWtD29GJ0kPKClPr2kziw9/liSPbS6VLygIHI7yGw4Pcz5gD0onYQ8CqWJPSTBpzykm4c95MvbPEywhz3YhAY980uSvXK3CT2syO88PDSzvF3/hL3IiMy80JfDuwAbMT0ulqe8EkeFPUwhYT2Tlo690PuMPFiXWTx02v68So0bvaUaRb2K+IY9jo+NvRQQdj0AZ6Y6ov3EvCAIKT0G04M9nkiKvQAhaj1AHNY7ClXvvNsNL73IkGM9mNm4PNBeBrw0Eo48+JsCPeQfCr0/H4+90Bb4PKT7Kr33NE691g02PcBtCTuqVo49eI17vAARHD3gnq48Q44IvXA/vDwpwzq9uE4BvQDtbD3AqBk84GFIPUkMFr0wyYO7Oroeveq77rzuwIg9ktFAPaA0kj2sE6K8jqkYPaCkn7xUsIM9zr6HPXQgZz1ee5C9EJ6dO6zF57ye3lQ9tBC+PFRR4jzKXnW9howePRDgsbzYoYa8GqTyvLZwiT14BTi8sMMAPdjDfz2kKu086ANlPSGQY71MoTI9NkCIvTDx2zzIBYK9yv+IvGw/ZT2p34C9XCGTPAznHj2svDi9VDhmPVAus7tAbZa7aVsvvaCh+jxu7Le8FB43PSBWSrvwI/C78BP6vO72Nb3wcaQ7fE6GPY7Co7z0kCW9iINoPSbbibzKaiu9AFN0uhDseb0w1Do8iu3hvMaDQT3Zlmy93ELiPACgrLrceiW8NArVvM7jjT34LAA9UE/zOwoYOT02Zoq99KygPPjbaj2Eg7c8GCmuPGC1fj00YGo9UBrmu6wpdz0yC3C94Oe7PCRdRj1MMLM88PgMPOz0wDwAntO7vMe+PHZzED2J1BW9QfSBvaQlE73THA69nsTyvDgWe73YW3q9ruU9PQCJmTz7/hm94J1mu3sbkr28o1g9YERrO6+NFb14twg9REUAPZDclLtqoT+9CGB8vUA69DwAJvW54Jcqu9KBar2cTFe9gCZMPCT1gzyaeBg9LIlsvaik8DxhnFS9YObYOznuWr2qAIM9cL/Bu+b7Z70wkMe7ANXSOZ65Gj0mtS29qPcyvTT0ST38yl897NvQvHRqaD0GMkI9JJO6vJhqPD2wz/K7cFUlvHZLiz2AA8U8BE9yPc6LHL0FKoa9TGaKPehbeT1wh8S8+z+FvX71Tb04rQ+8iF/EvLoMST103Tu8kKTpO/xfBz3cjuo8KJokPKAtsTy0UXg9HHz/PHAIDLwFpou95jYdPdCWjjtAEmI7OOMMvNughr0GMxa9lsQqPf6AobxAHp+6QGdbu97Th70XQEO92EhAPNR3fD3ghis8iJGPPagfk7246I48LSGBvYwOiDxoKqo8XvkxPVjg/DzGIHC9NKA+vKgvo7zQaEE8rMASPXjFgDxe94O9Hs+LPSryGz0nIQq97O7KPLCv+LwSHiu9sB7cvMB/gruQ2oq9cANePMQ4MD1YfoU8mLIHPVjzELwKeuO8QHDyujQHbLw1K4S9QOc+O67wrbyOGkO9YoQUvb4nJj3wfOO7wPjYOia80LyQX7I7MRaMvR5BQD0A4Jq7dvkZPRhqkD3G5OK8zGorvYSL9jxnCWm9kKe3O4oAkr1Azbe8+ljvvKBK4bsAkzI6IiCCvXRFkTxInFQ9IJRbu/gaazzUwok9rEeQvVDjST3J+zq9ksksvcDWBrtFwmO9YMSZPN64er0S/8G8wvWJPUySdr3u33K9oCgouwAtMTzoxIu8dGUovazxcD0AR2Q74LbJPGhfiz3tRTe9bLyDPFCTqjxcR8q8SuAPPbSJSD2I01g9pdV4vfwOJD0ArAu6XHjZPEBQLzygUoE7QJJ4ux7dGL1UGog98BGxu9brUD1Azq27ir0eveD5urvYH3Q8CEmAvQz6OT1/Cza9yHXNPAAIaTzc9F090usCPcDqyzpgdCI8iERjvGhbKL1AoIy96P6YPAA38DlQib+8MENIPKAj8DyIpIu91IjWPFj9RLyQE7u8OBCHvUC0iD0WZoE9a4c0vSbdUL3ohD894M6CuwBkazkAYZQ6+dUBvSjR3DxA5GC79OaDPZgugz0o0cs8obUgvSTXCD10IeS8UKGxvMyCeT0At1Y8OLEHPK5KN73HBJK969M3vZ4yOj0M6oc9XloXPSjUlrwAHI47NISNPADlnTvmSIw9YPAXvNDTyTsq/Is9aN1BPXHzVb1YfXq9GBn0PGCYubyWtPu8UslHPXaVib0ALMo6gEH5u53EYb30om49cJmsPDC8gbvxWou9ytgPvQAIeTn83bw82RuTvetke70gyc47rN2vPGiZfD2ETG49WK5hPZQqJD3Q/QQ8gm6JvQCFUzx0D7+8rl3rvIA4yzruA0M9702KvRzaL71AFfS6pIdUPQQzIj2oqP68twUPvcap/LygrUO9Kn5QvQC5AjvKAYE9Ms1dvU4pibyQ3jk8cPvXPKDs/TxoiyS8RIdnPcB3Irv4vI69AEagO2wbe73MNDm8aPoLvOLVMr26eSw9kqcMPXwpbD1omu08SsoGPfy9NL3gruS7nkmjvEDYrTryZT698A69O+JJr7wc+E89wA0Ru4D9rDyuIxE9+F9NPDSgcz0AIAw8BKpyPafrgb3qkUu9BPMDPUpRSz2q/AK9CkjzvAF3R72Qhok9OwiRvYgHury4W2S9uJdPvZDCA7wAw4I9bXmHvd79Hj1ytkU9jN94PXjsfTwmSqm8pKsgPckNcb1p+F+94lBkvf4DAD17pJK93yMavbZXO73OEu68zLOEPKBHh7sRhTi9WE5iPIRuX71IhEK9kmsmvQBw0DdwIZe7UgUIvYjn2bzAGou8fe5tvdCCqTssCwU9/J4XPQBVGj0UZmw9lAuHPZJCqLyiVBY98MmHPbwcVr2yAgu93N9oPRibiz3KWBC92suGPRw3Vz3Q/nI8+Pz/PKRlSb1SIhk9PGZLvZISgT0g0WE7vlo8PdwPhjwAgDE8qMqGvFqr67z8lTO9CNOQPAZ+QT0C15K8QJp2O6eteL0ANIM4SMiMPN5ai7wAZ2K9ku44vY7pLr2vZwK9iHZDPbi5Wb0I0ng90pdAPVDHMLyqAT89NGiJPYBiYTxAmd262hSLvUCFoTxIgIE9THARPcJniD3wxUu8oK5nvQCRMjrM+le9uLkJPWReUj2SQZM9KOupvNjG47xevSI9TcCNvbbt6rxAicY6CIUdPcj4f7xGxkw9CHNKPVBUuru47CQ8rFdcveaMgb2mroO92IyIPViCGDywT1U8ZE+EPYBeQrxU2NM8VKCBPOBf+zyjKWq9CmlRvbS1Vb2gzPC74JwnPUDIpzvwQW884FjcOwyfdr0TcQ+9kIYFvMwM07xg2xU7GlV5vWA77DsCdUa9vZ+GvbAujrzwt9s8tPZ+PXnhi70YBEu9yG0mvB4UID2VLRi9jAbDPNagDj3Gw5K9oKYCPOZmiz00fIs9tY4bvaDzuDsADi85IH5Pu5pMH714dFW9sk0EvShjQLx+o0o9TqdXPdKXVD0swk29tV8bvbZ5LD0YX2e95F9jPYycKz09V0O90PaBPUhgJT3b7Iq9R6VzvXwFJ7yk6rw8sG0WPPQaL7wr0ye9cG9hPUhOW73koHM9QM+rO8wxTb02yT89mDZhPIKTx7wZtYu9Yc1QvRBhbD1iC5O9ANHuOcxPqDz8sEo9AAZWObAbAr2EaHu9ABG9PIysnDzzPRe9wHlmPaWMgr0YfwW9kgmCPT3Ah71Ur8E8gExcOqowOr1wRt47WJooPLycZb3UOkE9GBh3Pfp4sbxsqoo96OhJPSBCZz1MgYM9wCWPPchgmTxe2j+9YAb+O6JfIT0HUxS9JI41PfaPHT2KaTG90EWYO6A6PTsc6o48LLl3vfMKX72AjRU78CB8PVBtkjvEJGy8bBOTPeRiSbwkBzq9LIUEvQwSdT3nHEm9CyJIvXKpPj0AYee8dOXxvIAgNjs+Ggw9IP1WvZC6dzxbamu9nDUPPc4Ckr1/+Xy9SL5pPXhGNbz6gSI9evyPPVzzWD3cCbi8IE1zvGgXhr2IPSY8QG/cOqrKUL3pMIa9aM5fPEKsgz2491q9AGoPPGivkDygQ4q9WMz6vHB+DT12xki9cOg4vL4Vy7yRWx29UGeYO0uPgr3AQ7O8JjIkPVAKujw0j4Q9kxUdvezTNbzsklw9SJ15vTTtrTymxo+9CsZHPeo8Qr2I29I8ZucvvdEjGr0HtIO9+vGIPc6Jgz2grGY8ZhWFveDsQjtcg8Q8YCoBu/HOVL0rkyO9wspNvYB0fjqxhBm9okaXvLyWQT0o6IC9HscUPQJaab1kVYQ9NrWJvVAkSDwOsK+8aBZNPHTshb2w7U29zAJNPe2CT72GGUs9Kg5xvbypej2mTh09TDfdPDpiN7198oC94SSKvXLaPj335Y69cH3yu9yKFj38EFe9gLWmPOwX+byMZKU80JRNvSRoQz3Y6Wy9vNL4PFT1Iz3UhPs8lIuFPA/Eg71g4z09UCVpPASZhb0QEKY86N1bPULckj0m9m29YkLsvETg/zy/VSS9XV1ovWgzUb1uuUi99I8NPTJQHD1Q2sE7SLg2PDzFXT0YFKI8b9sSvUSXcrw1hUG9nEQ1PQQ+KD3W+4s9tHI7PXcjBb2Jax29IA0mu2iRWTwwZIu7EDojPT5dcr1+GDG9xtI4vUKhXr1otgU8/i2DPeMMeL3dyGS9sDYuPWg+e7wQHPM8YuoqPdTqbb34vy69VOvuvFB60TsqBBo9/E17vVwrXz2A8Zq8LEdTvXyKdj2wQje8OHwxvQqQKD1YL7E8OzWBvTK/Gr3cUg296jDIvPCRsbsIoHe9pP6GPKCEK7uqYba8aJyKvZiBSL1wpcG81orRvNDfhTyu1w2953knvQiYTLyaCCC9FOn6PMC20zu3CUq98ldMPV/9jb14roS9UMcAPdvAdL2MdEw9AJ+5O9AqcD0AmNe6EH3lPFD7ez0QLIC93DqdvCBrrjucjnO8IBf1O+yXvjyE2Dk9ZNF4PdhBhjzExDU9ALN/umb8hr36GV+9gNXrOw8DJr1y8o28lBNlPXDUtDzwVGE9ZOEaPSDLhD1Ly5O9qKvRPOw0Kb0w9Xo9mApMPRDPLTwsGla82CnLPGIVXL14u1g9QBAXO66RVz0ECj68cqwJvQqRjT2Q2A89YJhsPQLoWb3q/B892NVzPeB7QLt2jQk9rEu2vLwkCz1AC3m7MCKQvRAS1rtonoQ9wCAZvMXQHb0BXI+94PsXuxin1DwwDYY9DIWhPLDCgT1Q+No8BiVxvSbv+7wE++s8QDrCujwNjL0oP8C8ai70vCKeaL3QLaq74Mv7PEy9PrwshGw9EHdXPYgzg71kerg8pGhAvKJpHb3sZYI81p3pvBi9kb2oCV69EPUFPcB+QL3oGxC9qEtsPVz1mzww//S7RRoxvWblED0ANk48PBJ3veYSQL3cZny9uMgmvMCCVL0QQdO8UgGYvBzjY7zwY/W7oFQSu/44E70QP6E8JcKNvWo9gj0w6Fo9HpRLvWCe+7tw1u+8SDpIPOx9u7wUSYs8L3GMvZRSgbyoawU96MZbPYPYOb0gcoy9hqM6PSAxJruALLq7uKyTPSJrBD2u+BE9c2whvSgOGrzA6ZW7mEGNvTY8W73e/xu9pqVFPUDf0DrtMhy9R1mKvcYmPr3WM5C9QBkKvaButDw2FIU9cB9ePWhALL2gzA+7Kv0pvQSwHD0GJ0g9nq1jvYwAjjxAmfU7vJJ9Pc6tir2Y3wa8lPaNPUSxib0QnTa8sOLhu7ywgr3U3Ls8uLCwPJIdMr04bly8uuqHvczCIL0ACrq54Fb6uxpkWD2mg6m8XohHvcrDM73El/i8iEN+Pe5bir2g23I9QQwpveDe9DxwIQ68nHmjvJBwYjyuhIc9y9MSvXAZNz3QO5I7aPHePADa6boEBky99PttvEUKD72IkR694HgzvdCmTTwAnOM8MP+WuwiXsbwMCzg9eEJoPdCZbz2AR/o8sJYXvRyeDj0oh4A9EoMFvRDgCbwQG4W70kKqvBp7jT2UkKs8uo2IPfQliD0Uvs+8Ph1QPXToFz1ohFu9/s1gvRTJY71gUSs8vPFuPRR5+jz+jAk9Rq+RPZ0xE718gIq8IIidu/YTHz1wfRM8gO/duowILT1YF1+8fkiEPUpUeb3xjo29AJttPVY677wqCd+8UFHuu5YSNT3Abje7cF3yPHC1kTvuIQk9MhCFPaBAybz4/l88eIhcPYKvp7zERzK95ItHvXrRUD1UB2w94NohO2A0SDu8Ru487M+SPbR/sTwAktW6vEhqvJTEir0IMOE8mMaGPTr5jL2uvpK9SLGVvPDVlDsCV/K8aGzBPAj6EjymPUu9tAcwPZj4XTy+rjY9HJeIvQpib70K5xs9hA4EPW5VMb2wQkK9vBr5PPCuJb2w9l89KIUfveCYOzwokNs8AHH5uhbKQb2gYky7oL9APdhZvTzQ7je8wNdMvaBvWj04+j49sMdlPKo4gr0QX5M9OJP4vOg7gL3qGly9lqOFvcDRtjzoYtw8DvYSvfREPrygERa9OC/3PMCMjT2Ato46ltqIvLCcND0emXS9wPY3PXtTkb1yRwa9MHb6PNywP7w0Z5Y8kI6KPCDj7DxsvVQ9UDP1OyzEyjzJpGC9HLR/vYKriz24b3A9fzOSvd+1H728hIE9+JyJvVBvkDvGXSg9SoekvAAjwznwep88DDHsPOLgYb02GVy9zTkbvWZvST34llc9CqOOveCLnjvQ7ks89EgSPTJjlLyAfXA9ADHKPEGzB730eDG8uDO+vGimOryUKK48TJMZPcjUED0C3OO8RHlaPQis8jxw5HQ9DhP+vG8DHb1M62a8hkklPUj05zz4ueg8x2tOvUy5jj0qT4U9kKo2vYXRaL0dzSW9AO+VOaAlxDywcoK9IOoSPJg/DDzYLI89sLAuPal+gr0UXUW9AHWUOiYdqLzmFku90DyJPcRdgrwmITg9Hi5IPePvYL0WILu84MyEPI7VKz3k3ni9ckgSvTA8Fz3u24c9MDkBvDA6Zz2AUQm7+H87PFKUX73QByg9ct6CvGgCsDz6E0O9YFwcO5pdFb30S2w90K92PWSnbD3YkiM8lekgvThcGLzcEKW8mcUAveyWb73goZ48SNV+PdbKRj3A1XQ7HPqBPeBxsTzMNOy8MLWIPIDCerrmooK9IMdiPQhJsTzgOCU920QIvezRMT3KYRi9kFiOvRhQhT2y0QC9vKSoPKCv1zxwn/W7wOozO+hudj0GqYY9SFZdPAZeibxEg2y80quivIDCVjt4BiU9asgQPcIiiD1T8Uu9cNxlPe5ZC73C+5m8CK1UvBbcOD2K/U49gJ8qOnCahDxoTmi9kCJwPdAvWDwIVfa8Wq+QvVwFZD2Att66HqkLvYBnrzyuqB+9kECOPVisZj3cFmg9oE2KPZQy8Lzgsd68uEY6PJQnKbzc2bo8DpEDPQKIh7yF2Ha9DJSgPNREiTwjMni9vI9mPfDt0jt699S8aVmDvShVNzx0x3u84I4dPMA4iD1GNp68CamNvXhzaTwkflA9+LUfPBiZFjww91e9sFoZPABdkTpMuKi8SH7tPHArlzwmr668rL5MvLQvjz3cR449jM+rPAAbi7ngupK9FHaLvTQS9zyQrF48RMRFveZ2Sb2695E9MA5vvW7NzbySboA9gOSMO34bg73VVkS99KjdPGiCeD0UzY28qMkhPQBrVbtExNG8jNUsPbLsgr0I7gS8bDJ8PXzzPL3dPQa90JL/vPLTgT258QK9fEvJPDiIITzYE409LL+3PPFzdb11ri+90P0bvaLsZL2I8c+8ALw5OYjzxrwEXXq9ih10vQA6gD3oDXI9NIKLPapBVb3s2mu9fCVuvKK6aL0lyI+9JN0vPf4rOL2Wvnm9YGxjOxoBfb0ABLo7eipbvQLhm7yCnV+95iA8Pax7eT2mZ4+8IDBoPax6oLzbexC9yByEvVTriD2ggIw7rhaRPXC3oLwuK0K97Vw8vVTdiD3axoE9QbmHvbj+lDx4nVs91L1Fvdk0Tr1A/KA8q+Q/vUC5QDyg/WQ9cJKQO4wmPr1eNG69iHHoPEyF+rwUxl49DLd/PeSYBT387nE9icqBvQIzT70sNI88JBZevcDl/Tpwitc77uySvBYarLzoL289lN5ePcTWpDygLz494Dmdu7TvKbxX7Wm9VBBNvKxzNz1QwYy9FNdzPTKdV73qSow9ZAtcPVRDuDy61mG9dgVDPYBeujxwolo9PCiRvSa1Ur2gkJg8VJ6APFKLgD3rEIm9AGCHOZTQMD3kaCe9dGfQPMQBZj18Elc9aKSJPArZZb18r4a88BxYPXjwAL3Keou8bOhhPUiFiT32sEQ9Qls0ve6nFj20EH68PUSIvayZk71H9Ry9l1pvvYww8jyA9Tq9ICmIvEYzhj3WDPK8HLKxPHDQhLsAwZW5PBwXPcD8xLqAQ3Q8aTg/vVJlRT2Cnlc9MrowPZg5iL3eBoG9wJVlvRxCGD0K4zu9MGgfPIu+GL2AY/I8lI41PUyIZD3QK0g8tCubPBbEMj2T+l69SJnmPAqVGr3Tn4W9SEACPGxDC72RrI+97yCAvfwmQD3aCSm9ZtUnvXBWhbtgd307LfwkvUXwiL2whbA8Ip6RPdJ+ET0ekTQ9EfyPvWStYbzqsz49Orx/vQQparygQlu7DN9xvTC4njsGoDY9ziqGPUhDlDxuCpm8dGyJPWTbSD2whuw8gq1UvbCp0Lvg22I8PrMNvZ0eQ73IB2u98lmCvDwZSj30EVs9XADgvHT8Zj1q6eW8ZLz1PPz+w7xqhQK9XLFSvKQeQz0cK9S8HDAnPYh5erwAJoE8ooJMvUQ72DwwfEC9rpEvPTBBhLwA9G+6y9+MvTj/Bb3JPAq9JOXmPHCdgjxg6Co7wEhhPcyi/rwYhf88XMU5PZbtCD0uFI49wC9+vRIGMT3Q4fA81AuGvXADC70AKS+9uFSHvQ/KRL1Izg89ukIpPcCZfT2wSmG8guEmPQDmdTtQGcg7LEuOvebLSz260gc9DM9mvWD6mju6VJW8ONZtPfxrgjwAMnG7YC3yuwAFZLyqPIu9Ipsevaj2WT3mdQk9HMZVvWx+hj2AjHo7IC9jveCcQDsQgWg9+JoNPayR+rxQQe47sEhHvMo4kD1CRLS8H7EavWivXDyaoY29tEBSPVQ4rDwyzQO9YEOSu4TOojzG8ks9lnwNPTDcdj0EQHg9GjoevbLn5LwUSmQ97va6vN7i67xeHI69nDOUPIDXJTuKUxK9QL3xOqiKebwKsP+8SHYrvO4cgT3u7tu8cOnTu3bd2rzmLk89GFlAPRwPkr3wLOG7/rNSvRXxWb33jo+9KyQovfmphb12BUQ9Em9SvcwEEj0Wa4U9eDk2vEbnAz1U6BW9vJgGvfjdODwIGhs8ICjquwhZJb2y0lY9UJ2GvYghc70+ARE9QYJuvRYpn7yULLE8BnKRPcTYwTzM6wW9OLFGvaWcNb1uzba8dMZYPejmgry+FIG9DAuIvWrUFD0Aogm7fEKGvTj+8zwuzTi93HoFPXcfSb2Qf9W72Gh5PWBaQb1wh+q7zHMDvbAXqDzd1SK9wJXiu/gfaT06RH291wxCvaJfjL1yOKG80PVDvA5RJD2g7KA8wJ5ZPabKZL38Xg09LPOqPDC6bTwAEeI8ZIJTPQBBB7rWQAU9wmBDPYR/RD1gdQK9BNCCPCC1nzsEj0I9RauNvbvpiL0ysgC9VT05vWD40juUk3a8mAP6PMAf8DqaSjq92CYlvRCDqLt69XK9toUvPWCatDxiQzg9pCAaPYbTgL0g11Y7L+ElvV/xEb1s4ly95jLQvIBlPzv8c6K8PZdXvRzZRj1AFKo7cHJvPOSxV7yAFIW6VG+LPOA/QzxBZH+9uB+avGDa4jzmVJI9gOdDugKIbr1Tzz+9gPTnu3CX0TyFIpC9TmgNPazhrzx2K5M9IHEIu+B+sjzApRk7AAZXPQRZjjwVJZG9HhULPYTNojw4+Fk9wAFcPTQ6Wj3ltTO9HvWXvNbGj73AiIU9emC1vCBJyzuAxGo6JjiCPVjpkzwQiY47kB5ZvQ4bgj02Nw296IvKPISuZL0myxs9Et4QPTaSkryksYM93h0lPYGNC72GQhq9IHpCO8JiN73QMWo91nyzvBTWbb1oTvE88GfvO97+G72Quic8NslTPdBZ3rw3/xS9pMbtPHqQ17yD2Gu9gAejuiqCSL3ANui6OG4fPGyCIT16QCa9MA04PU0Fjr2ySgw9ChtYvWSxcb0914a94I2/O8zja70DcgS90P3du5zNYj0OdIy8lFD/vFSM3zybS2+98FqdPAC4zbigFRy8oGGju8DyjLtYxNu8EB6bvAKZTz12m4k9AALePLT8iL1IRRY8ONdzvVB/JDy0C+w8hoHlvJBJUj00+Vo9QJd/PTSwfD1HzpK9zjc6PdilJ721wEm9VFx8vSBAz7xcO+S82CUYPIjAF7wcD8A8e8FQvQBVjz2moS89UNSWu9zIST2Mu4Y8QiNAvZTIZL0UiGI9xC6PPZnoSL1uZ5M9oiw2vTTfmTz0p5e8DpODPUNBXL2PaVq9+XCCvciskLzA8qg8s9VWvQPejb22ETE9iPSBPdBL+Lvc+Oy8AHQMOqwnSbxGh2q96q02vZxGML0AeOc6sPn/O/QAwTzUUpC9EJT6u1RCvbxM1wy9gHYUu/TgjTwgeM08ACzBOHCPCrwAY7a8xHpevBzDYj3gU0I9GIA7PPKWjD38m4i8QKRKvODmdTzoTWM8LVeAvQAgwDjIltC89GApPTZ7Qz24ZoA9YIw8u1xST73b6oS9+OIgPPyqpjw19jW9INKtO8Cee7ygUia9rCYdPfwkdD20KoU9gh+RvQCZpLpsD2q9oJIEve82A72sUGg9F8GOvWwLozz4sAo8gmC1vHZ/8bxQod+7Sj7xvLh8S7wQZTO9fHPPPM1aEb3sAmo9y4VMvaCbC7vUIXm8PMAEvUBa2btwNYE7wI5RO1QJgrxGIRw98Iy9PB3SD70g9/o7/plVPWSqvDz6KzC91izLvLD0Ebyaq4+9IsUtvRDiPTwRwSy9iNjyPORaBT2PXT+91P7HPADTYDvE1ek8wHy8OxSXEL2Ecw295WZ+vQC6ObqwYXC9xqMUvX75Ib2MBes8RGt5vNZER70wYLu8YIgDPVCxPLylq4q9HEUivczkiz1cmyq83Pf6vNiimTy2+sm8xKJPvM63Hz3dsHe9kI58PcwERL3o5EQ8ohSFPXwFZz2Zjma9XdiIvTjiLT2g7qm79PCHPLgtGL3KK1A9DxN6vS7Zer2gPUu9bEaMPRAXWzxEFhw9gHK/OkCEAj0oLeY8iF55PUg2qrw+9xe9QD+eOlDJA7wUrHw9rRSJvcT0hL2y8Tg9D/IUvUyzPrwYQSC9EOK7u3BCYj0M8U49kdx8vehaw7xCLTy9CFbQvOg9Gj3WQ968MguPPdBNDrxg7gm8nJSSvBbplbzEw9g8XvsEPXYBDb0wYIA9QA3vOw5DkT103vW8zKoevATCubwEoHU9ZPi8PNEWhr3Az+o8Ugc1PUyYkz0IKQc9AO66uqrhAL2sL3g9YFlYO4jwljxIBXg9kNCvu3hMdjw3P4+9ZiiKPUiD5jwacBs9ztFXvQvpfr2Jx4C9lL/qPNr6Z73oXHI9GMtvPfMROr0QKlk9JPCtvLAzlLtUiHQ96qsZvaC1YLti46i8MsiOPeANWrysQHc9rKWcPIi7Pb2YZmY9zBNlPYDVZz22WOK8t+pdvRJfhj1Qrbs7s01zvbCaVTwKK+28sKBFPGB44rxw6te7XskkPYqML730XXo95vxHPT4qkT3yPAA9yE1ovKM6gL1AL3Q78PNLPRBxabwinyg9SE/YPFZnhz0K5Y09lO+CvQz2hD24JXw8hq8uvRNLDL0/ZmW97KHfvKlxir1Uxte8oF7RO3B8ebzorHa8QJiou4Rcbj1I+1M8vAY2vdTAYj0YbxM8yf0RvcyPZ70CexU9cPt7PSw6ZD30ruE81N3gPE4lKr2weFo8N98GvbaSv7z1JhC92E1yvVKl5bzq7Mu8FKbuPMhHwrzUnio9UPdyvdRPQz26WgE9hMR2PdqDjT2ef0E90AeQO7jqojww1UU85PSEvLgJBzx0y0i9kgAfPXj0jz0ACxy7QJrIumDmfTy44fE81ngtPcxkqDxapTW9oBpiPQBEZzkmzIg9EDwwPACejTwAxDk90Kd2vfyAjr14WnY8va0NvYu6Kr2spYi9LGrzvMBwyzogIsw8PPeBva5rn7xW0go9+s7ivLztEj1ARgs7DC+sPOCUhjueQgc9C4MOvW/vUr1FtCe9GUkKvbh1Uz086Yo8PKTAPPA1ZD1Az2U7UkODPfZVh7wI0jC89OXovEh1Rr2wiUo9x75ivfyj3bydf5K9oIl2Oyi7e7y+hkO9cgDavMR2UT0A8JI9ELo+vfjDNzzmzwA9DMN9vW6cij1IC3m9XI9bPfAYvzyURwA9b5eBvRiIMr0W9E09aXUkvYBCXbuYeMa8g5GSvbQvfD06tYo9maZ4vTVKDL0oi8I8AGWIveBW8DvDkWK9a+OLvcZOQL0YuLy86LosvXB9ej3Mack8acEJvcW9DL0AwPM50h2NPcpzjbywfB89guGzvPuEGb3rEgq9qFW5PLA81Dwgiq+77naovBCF67vgzNi8xPNZPS5KMT3+vA29sOY6PQA9kjk0qb48TXmLvczzJz3MHZK9xPOUvDiN0TyAwvS7DvV4veUyh72s83+9EqG8vEYe5LxoXvC8ODtiPVDkpDseHH69kJXHOxisaD3Y+wg8EJDVO2KHiz2qxzy9oABXvQlVGr2mo6C8HIwxvDh6Nb2UZ0w9jmF/vXAijTwv0AO9nR+HvbiCiD0eGIY9DBQnPQzqYD1gRCc8h2GFvQCYsTsnfnG91CF/vDA54Dyul4g9RNMZPQBVuDwY+xu9iO9nvCydez34AUW8oCCBPRhqLr1QW4y7rAdcPSJPf72C2os9EEO7PJScpzzAMyy9oVB5vfhUDLzMTrI8FuEoPd7pKz0GrkY9BoTavPpzBD3epEg9bL0WvcBm1zsQjCU9BlxOPbRudLysCsC8+DN2PD6eRj3C11a9nJfIvDZXOz1q2Dq9yFYSPWDwEzxCm728X9AdvQx2wzxG3F+9+KJdPSAlK7tsWsg8NFE6vZYUMr2AKnA9YLS+O0YGiz3Ypp28IMTQPK5QlLygKWQ7OjguvfDuTDxy+I09GLqXPGxlF73w7uc7p0NzvSCN/byY2yA9gEvZvMCT4DunywG9XnYOPShgPj1IZjy8sJ+NPVzOYD1oY1c8vmomPXDxkDtEW+Y8gI4MPf4YPz3vdwm90hyEveBqqzv+7i49Tq2MvfBdqTwWMAU9nHFRvOivOL3wrzI9itsQvTgxwTzBuYq9sqmBvRANeD1yoEI9moY5PXyWmjyQ4K48LO+DveyQkT2toDK9hHfxPIBXiLqAJZK7zKSRPZBwMLzilTu9gElKvBa9Oj0Ih2I9FAlQPXxdSj2guCU8QHhaO+SWLb0IZDM8wCjdu8ZXkb0QbII9BM+LvUTPPb3GBC89UIu6vAxLwbzsPos9QNYUu0Z7VT0eiR09yJ3QvMHpFL36tIo9e+yGvTBs/Lsk1TQ9PKTavGIGsLya9YQ9fn6TvcS5Uz0+8js9YFR9PBJiRD1Qu3c8upiJPYSSw7zorFU8nNVFvYIMLD0WTrO8zhQzvVpWCT1U/Zw8HgMqPZiHKjykXn69bZl2vQIMUz3/Y4i9AERZPYuQgL0+voy98NmyO6BtZb20pPg8CNOqPEAd/7paYCI9eO0OPHC0iL1oxaW87LO3PLyJIz01QkC9iMQjPQjbDbw+t6G8SYhovVB74btmkCo9QD07PH/LE73ays684GOFPS4KCT2kEiw9ACZuutb7mrxUmb28tp01vVBRkT2QLEM9N7BfvSAbvLzeNWe9SFKDPZBqPT00d4c80I+BPPAwxrtomnM8aomevETtir2yrSu9QA8tu3b3jT3BYUy9PLrIPIvgSL1sfLi80eVpvWzTJz1Kghg9XJEbPWIc+7ys88E8EJxuPUh0PTx3Q5C9NbmKvZbiHL2uKu28bEKUPBB/4Tt3SUa9aLGXPEr/hj0s6jI9iHrxvMREHT0iKIM9sLqCu4xldz1IpSI8CCkUvGwUaD3m5Qc9KJ8uPZhGNTxuxIY9sCyJuwhEbzxUF3Q9gBxfO/Cy5LuQC0Q9BCOmPGAor7ycAuQ872V4vUSpKT0MxuS8fndwvRj1C7xYgA09RJMXPbpq6bxol2W8A/WFvZTwWD3MAGO8QCTFPEYyUD2MOQ29K9FdvUj7ELz8qpi8kBvVPPOQLr0go0s7pr/lvDQLdT15CHS91j00PRgDtzzkrIy94n6SPQDocLiAfp672RiSvaEwi70Au7i6RkRAPTeZF70E3Gw9DCvdvJwcW73Apjg9KhJHvUTvbT1iso49GGwXvOT8YT3kYXk99JtIPYBcI7tQwP28k2MvvRE7eL2yzos9nliIvTRnSLzd4nC9gBjduruLib2tdYO91sOHvaBG87sMgGo9mtrKvCpN+rwHRQa9WNDYPI6Er7xAQde8EAJ9PXqxCT2YuEQ8/C6dPHiPBLwUR0Q9fp2KPbzjPb294zK93q0nPTAjtbwkYV89xtRLvZVsOL2Aa4s6gIoGvMywDz02WBG9xEgwvRjLCT24Bjo9DKrrPNEMib2NrjK9cFaXu0BpqzxQON27Rn4oPbCa1zw28vq8TwiSvU/YDb1QRCq9YLiCPZ5xer3gBfQ7eGUXPRlbHb3m/I+9VYtmvc5uiD0cjli92CgrvdL/+Lx5+5C9DIp/PXDfzLsEuHA9gnFGPYSRYz2+nIu8lFzsPAAvcz3Aa0s9CojPvLApITwKi0W9wPWoPHKsIL3YPGk9/CDmvKTRirww/Yw7sPPYvHgqUj2HOIe9pH4yvGIWQT3QLx08jGcNPcmLgr1YW7084OZ5PTAoHLz4Icm8dasZvW8fdb04jUQ99swZPZCMa73MAn29UKQmPOoMgD0w5EE98DIrvdBML70ap9i8xGwvPbwiND0uxtC85EH2PD71kL1mZ1S9MLNyPdRiAb0gDWY9lyYgvezXTb2A68g7QDCMuyhxT73JdxK9ClwrvfQQfT2A/MA6Vg5XPbA+jzw7J1W9qEOGPagOXT1gUw68SBiUPClKgb0gYCY7JATSvKC+Abzot0o9yOqGPUSJW70QniI8OJe3PDtrBL3zElC9fqVgvdiMgb2Mrzq9Ukh5vehcXTwhTwi9pAscPT6zkrxmClG9hnVDPa5WNj3M22M9ErcTPTyXibwH7DC9IO3NPG99gL0M2fE8AOFlPcDMjD2aqw49ZPc2vSA2dD24bYs97LvkPGSGxTxS8Dw9fIxlvIBeSz2E0So9oLOzPKSI5Tzuz1G9QCHzPMDFLjwAHuA5Zi2gvHnAbb0AQj28Qt1IPRS5Kbx8tVA9oIpru2ByDzyUFyy99BefPIlgJL24Lry8YLEqOyh9+bwChz89IMgpvDKALz0jGCC9oJjdPPC01btgaWc9tApDPTTHjD2urJa84IgeO7jPkj22coe94ZiPvej+ADzmpok97LmPPHAPjzuAxni8ALG6ueTo/7wQ7Tw92C06PTgoPT1AkRy7sFtSPfQNgz2Qd9W76M9uPCAWDbyY67U8UG5fPOBIRbyoNTO9Ars1PUCCD72iq2u9ToQ3PTDjIzxyxo890NDcPPLcgz20+7U8kBAUvFKchj00TLw8b+ODvcDvXjxwnKy88h9JvUOagb2y+wk9FRiOvdAYab3io/C80DwDPQgBJD3UPUe9MJ9GPGpePb3UXhW9IPZoO1zEBz1gy8q83LRoPWh1Vb22gwU9nnRmvQCQb7u8CKk8xY8XvSPVBr2ez489DBrxPCKuRT17wSy9/gWRPXjnjz2cRA691mHvvJqURT3o5fE8/qnnvBR96zw0hPc8Dr8tvXDQz7u0rHs9kriNPRfIgb1CAyS9WjQ9PSAmNrwySEU9jEWLvUgiejx8WUS9y/5+vVqZMr2oXY09jBmuvDgp1jyAUaU6kMbIuxj/STxgewc9tLVyPdyE+zwQAik9ygvuvHCQYj1IFFk8MJXlO2yQGz3YDj48mNEKvQBShTvRYYu9qPOnvAgm4rzY8T28HtnfvLYOPj1QOnk8E6BDvXTYd7woClA8sPQwvT7ERT1SbpM9qIRJPPJYYL3ki0a8ktUHPYjSyDzygTg9ERA9vSqNTj0MQzG87JZ+PXiNPzw8GM+8LvXovFAGzjx8b4U89FH/PITXFT0UESc9IE10vXMmD71N6oW9KNUuPNqjk72gI5A9lPVyPeApXT0wOM68GAJsPbcEIb1APQG8qhcrPWL9mbxEFOi8jCs6vHjQB7xIGIW9wi4qPZB0rjuYBZO9/BJoPWZliT02dUk9bc+EvWiQfLzM5fk8sC6NvLyXGL1g6pq7oOV5PfxTgjyyaj896GScPJRIZj2rw369bsvuvI5agT1tyF69IJSrvGSek7yAsWC68HmHPVj4XjzevgE9KoaNPWRx4rxIdmQ9VFN1PfK/i7yiv4O8xmWJPeT4az1AfnI9PmkLPcAo1rwSCV+9HuCRvWxbbz1ANRo82n3ZvPo0Lj2IVWM9iC4AvRPUOb3O2CY9/AIIvfIAML0eLwy9sQQyvWEOGb3GtoI9uKBQvI7nJz0chb68YJ6cu3DGoLvgDmy7QOxlPSYfID3IaV09pFeOPeBcxDxIiE897GF3vXAiWD3W53K9JwmOvVHQZ70gcjM9ZNyLPUlzRb0QGe07dAY/PTThSj2ztlG9vMCJPCDhZj1nGIS9FoqHvKxWRz1AL2I9PkcYPRYsEz2XgYm9vvd1vbRXjj22GKm8XkRovRdIib2A9487AJg2vfimXL0S8GS92N2DPGS2zbzA1sA7xLZzPcCcHbzmGzU9YKJNPShCVTxwnjY98CYCPcL5Oj34iqU8XABUPWTclTxgpl09BzoFvdSQzDzqApG9N2hDvezWar3MP+08KEM/vGSJXT3MZjI9Ll2LPfUYk730mx+9NkAtveKT7bzm+jY92MbqPOBqw7zACiI9MArXO2bBTb3agxM9tKeaPEyzNz3w8dq8hOCLPfhCkT2EPok9BJsqPfzzcr0HPo+97JqwPLRtP7yoGGm8LGMCPb6+lLyZCW69AFALOeShcz1cqPU8NICbPFirMj1yS489UrGQPao6orwWtCI9CcklvY92g70QSUs9j3pIvbSAvLwQ3/G8WAQUvWJFvrweUNm8/DojvLzZBT1gxLQ7oukdvQAvsjuvGIi9TKwAPQRwfL357029vsc8PZTawDzd0l69iFHEvDWeHr2I1Kg8AIGRvOCgd7zAaJW7+EwdPVBKebwEu4c9eps+PRTAez1sI7Y8ACiYusJPSz00RWM90qjivCAoHjwAp/A8wAacu9gkm7wALk495OqBPBqBDD2NQ4y94IJ8u3WbBr0gx/c8sG+KPZRYWr0aQR69PjUzvbiFLL1Ih1w9agZmvcDYELyge248IG9wvIhcdT04tMM8lp3NvIdTkb2qp4099IhMvcCkL71IN149qHrNPIjf7jzsLx495E/CPEAa/Dw0QtU8AKoTO9ANqbw0czq9Du4dPX7pZL1+cP28qPSNvcj5KT1QYcG8YAYPu8C3Mz0frwK9mNi8PIxOkLwycw09chizvBje1Twi/Ki84CshO3qVPD2sKVC9AMhPuttPCr0gp+E74PIwvYRg0Tz38Ce9fDI+PeyzBT1YTc08bJhqPWBLMTwybI+8qClyPVSx7TzIh8K8FMxkvKD98jz0A2498JtRPZRcJ7xg2ze7HDTzPABQwjwke168ooJWvY7QKL1EwJG9wExtu89Ahb3uFY89mNhJvTw50jxMcAs9iPv+PACItLsGZEm9WlgmPTjT5bz5Cw+95JuAPfD39jsCa5C9mAVHPSqv7bzaH9G8CcJxvbQebrzUSIy9KIojPehPdT1MRVU9UPYFPAA01LrIagi9dl+EPe+Odr1reYG9EIEVvWSRsjzUzRc9oK02PY7FGT0GPvm8mZBJvQP1Vb2SoxW9iu+JvaCtHrtg6Xy72Iz8PPDHaL3cLug8qnfsvAZUiD3u+SE97xR3vdQsUb1qHzk9mBS/vEyr+TyG9B09oNrxvF7dij3a20a9fKiSPRCvZj0g/A67Ws91vVu2NL10aB49tPswve4SHz3cKYA8AIdmPSTGjz0I11a8siJOPTwQ9bxMSuU8uHkbPZppTT18Lls9n4IsvW6GjD3WcX29QGa4utBZFz2YfxU9MA8wPPCuqDsY85G8vFYbPai/E7zuHFY9wAQuu3gKnrwyFkC9himGPU8WVr14HRU85rkMvQyZmDxGA0u9fLOBPbocP73gPZ+8sELQvCD+bT0Av5A8YIGwu/jKiDyCfIC8N/gxvVB+kDvAbgk7+J6NPaLGgD1frYq93C1uvbS2ObygCl68qDZhPcn7X72YxFE9wBQMPMS7/Dz8jB09xmWPPRPTSL23iyC9EPUMPV9Mh70g2267Wn9TPZCWszzoXkE8iCm/PPsGF71iHRy9Wi+LvGbVIz02avS8eh3ivJpDkL0KMDM9ZD5vPSx9KD1QBDI9IleGveg2gr1QkF68aqiTPQDmC7zoo109EBMHPKC72DtYxL08EK0hPK7EJT3YgEe92DJaPaiDUj3ANiE9njqBPSBzGby4d0A9kCAGPYQlcLx03Tc9DvEMPaHcJb0Adyc78L9TvXhMZjygsM+7dfUAvbYCNj2A9ds8mroLvVjCarw3ORq9PdiHvRRyRj0aLVU9yA66vBB2Yj1KRbi8yKnZPG6ht7xK0JE9DK5BvPAA7TtBCmu96HAjvTKvbb3LPDG9CUeQvVCyHTy2a4E9ghusvIAZdTp4ntS8elDSvDjEk72g9l28ylllvbxunDzg1Re84M4VuzSpcbzMvoc8bqSPPfhyFj3E/7c8mi2jvAeKhb3Ec7a8DCBrvUx3Aj1i9AM9YEZsu0Jujj2gn3U8eos2PZReY7yJqYu9bNJCvbhjnDwOjze90KlSPBhVjDzoWro8oJdJPRy+QL3IIRK9XHFrPXwvqzzIVOG8iP+DPSDo+ztMfOq85rZEPW6na708AWm8gHPwO/+LeL0S9cq8/RJivTtbSr3Ff0S9QFrsOsxFfL3YoLY8MLRhPZA5ojyO79e8cEm2u1xraz0AJKi4IFNCvOh2Ib3IfAe8UHpDPc5PPz0wiV49KOeVvCIHhb3IDak8aHdUvJhCdbw89yA9/OGWPICSTbr09KU82MmgvFQZ9jwQCye9ABCZuZoFiD2AYV49d1dFvURXET3YaUc9oGpBPfAYiDug01+8Us84PZOZPL2gmd47GDFYPADDfjyAGOK62qVgveKsgbzEiYy8pA91PaTqYT24ap08oDosvXITBL36Pi89QGPyu9RyRz0cRxQ9S+oJvcaTQL0UM3Q9xF9yPbBsQ71SjpE9XFSrPNwJbj3AdI86qgysvOJWS72QKBO84FMTvGoaQb1A6Vs9kioAvQTwNL3MRMs8/iY/PUw3fj1IV6k8xLbnPNb2CT1gpEw8YB/rPMwdkT3AVm48KOGJPCS0Bj0woqm71xSHvVjBm7wAC+M5wFEQvCgwrjwgNju9aBduvTwnED3qnAM9jCEAPWkQQL2iFVa9ALmAOde7dL3IueO8GEgvPfRUxLzc02u8ACaCOuhgKrwb33i9CGY8vKAqF7zyDi+91qGTvcZsHj02VIm8N5VFvdpaPD0OKQY9dsstPT+lRr2sa3i8ItzhvLJXobxUNpi8rGIfPShbrDzy8xO9xOXIPJiXLzzMs/88ICyuPNhSHT3sHPo84EhMu6D7EDzcPIC8PTx2vdR0cj1SSEk9tCh4PQt5iL128SY9+/ODvYB1cr3YmFM9fAgbPSDTyrvAxQM8ZBZ0PSyvH7zwhe47/GpkPWtaFb1oaBo96Ad6vOw1Xz3QuEQ91KM2PfpKKb0AJ8E5ktUDPaiScD0SF5G9zmEePUZKHD0kGio9CIE6vOxLObwC4jc9ulVNvSrGK72G2vm8yFfMPGzoUL10MT894s8+vWgPzDx2Lly9LA+vvEC20TwSEzG9iPTzPIhsJTzYaYU9TLy8vEkijr1wdQm8UPtxPSA4bT0AIBC4fJZpPcqkVb2IKHE8QpbKvDyHTb2gpZc8/ng0vXh1PzxI1YY9s4MnvZIAAr3IBb28XuyuvIJyib3c/zi9Htd+vdbmhj1SN4Y9THrSPPzEjL0QwaM8pKVTvQzU7zxYxAk8L9yHvVxwKL2Ij3I8R0RfvdxEAj0kAGO8KN/0vBBACLzAGlc8RKHqPFQ5gb0+Qgu9X5IPvVxTmrwXLIm9+kNNPfzIpTzkJo49ouYgPcZcOT2iFhU992YXvUA/3bpgN4K9yKJ/PZJyDT2isY89rtCFPSA+0rtC2IE9hjfBvPgtPT30fYo8SAWIPKDVWj1AQuk6nn2LPdT2wjwucKS8GpyCPYLCCT1YrVo9pTlkvUa/fb3I7R09ZtHNvDOvDr2MO4A97LjuvBpGSD1IgAS8EtnNvOSgXz2kqzM9oN7+uz5HAL2Y92086v1tvehfpzwEUQm9/ZMFvQQGobyI5yy9RNyDPapdKz3kuPC8eJFRvZxClLwbqg+9wJ93POzmkT1CSiw9PYoVvWBELL2qKBI90PnSO3hqUjziXZC9ApFyvZBfA72AJkc7AJ8WvDz/IT3WCpI9dq7dvICU4rtAnlk9nobMvIDpa72U13M9CIWrPP7Q1bzorZA96NvMPDBsbbxQjpK85mNmvcgfvDyg3oo9cuM7PUkqQr3qpzY9hp2SvUCNErs6p6S8gPI0veDnfDy6wDq9IOi4u4qJG71YTPA8qF5WvaKqvbw4mmc91luCveyDdj0gBGo8lMVPvIRsuDymcYg9QfhZvWQLbrwwr3w82jdYvZRyjLy7nRS9KJGEPUQKYz2JsD+9hhiBPdzbIb21UI+9rOMsvZztjzzeIZq8wA7BvE6i4LzwlJU8DJyQPbATZD26noI9DN0bvcD7sjxscGk9ELrYO7WCi73Q64g7WMANvNQCcz3gipA9ondMPZj0e7zdSXm9jFs7vFCHzzvCNyc90MGYvEg/bD1ScUO9ApzKvL6jTL10Ikm9/OQ3vZwjFz2gc0A9/mYQPSoozLxoBHQ9nISGvRSBiLyw9PU7rhmFPbJwD728r289oCmePDBhEL1ghyc83NvgvNL64bx0oHK82BZOPIw7cb2FW4G9OJu0PEAT9jtgiN07BzkSveBciTxjYYK9NCghPQyT6zw88le9QhZ+vaxKIj0xWSa93jMUPUwV0TxyJCY9iL2LPTwyOj3oMSg94CQbPOavgj2IZM28ADOGujMoZr3IUpO97O9+vPzKGr1B0nq9OD4avOK4jj36TII98hC4vLB6Yb1wj6o8YvpqvVBp3zum0y29+Bu2vNz1f7xywL68sQYGvQ7bQL3EJaw8YN1iu7Qgc7wKcwy9WaOTvZXkeL2wjK47sPj/O0BywruOruS8fdRrvchIYT1QpME7dMQBvYDEhrzyvpO9rJyWPIrxBT1q7xc9gGGBvQw5SrxQBUU8nuM2vWIODz2U/NW8gtlWPSD8GDtMV9I8UM2BvZ2TZb3glyM8KkGIPYiBRTxQneM7R60/vSRZRr1YzYG8Ws0uPdaFUr0d3wG9CMsYPUBPYD1MLdu8EJlRvJaU77wSSza9lt8rvXrKIj0MZoG87K5EPYi5Yz1cZcO8YJlxvSiRWzxw4ru80FLhvJS8gbwM0G49KGORPXy7ID0crp089JswPc6DUr0Qqgs9nP3aPDBIgzt0Wle8QMZxPWzCMb1W88+8VMqRPUQcK70CZzM9But2vZTIXL2w6QU8kH7wu0AZZDva7/+8GPkbPZy02zwC5h09IUc7vRYCVr3A8Ye8IJgxO9p9OT3Izvc8jy0dvbClsTzAAAs7KlsTPVBmIL0YTym83NaPvHAkDL0sh7s8GMTXvFImJj2Y41C8+oYbPawIP7zsVXo9qCqCPDyLyzyWNAO9oBwePf4jIz1okYc9EaxHvaBcsjx+Boe9AFxkuQz/MD1WKjY94M4dO9AMMbzmoJC9hB/TPHjf1zxUWmK9oMLWOzB0Wj0GxNq8xlQ1vYepf71cwg29rLNuvUBHNz1gOjA90H6APZoMqLzWHxw9ygrgvKK/bb00X3m8wpMvvcNnjL0YEEC8wOTvu/T1uzwgd4M7aPLxvPKskrx9cFy94MAzO/DLCb2SWfW8ZDA/veXlF71CCAY9RI5+vWCAYTxgmQY7oPyGO5QjM7zwXaA80ui5vJh2YzyGYR89uBOCPFxHVz2QxEG9C6ggvXCUUzyoydk8oN9DvXzWcr0sddk8OSiNveql+rwW3za98QNWvTD8+bysBsQ8oPtBOzjafzzeZ8i8mEgHPGsSOL16k4k91SuRvbbkVz3Augy8uq8TPfAPjT3YXSU9iuBavaROO7zwlbM8AICtuIiKd72UXJE9ANjwO4z/wjyWZgE9mClRvVAIx7wY4my8wlRnvQDYIDgCu0C9WllivVCJBjwYC2M9zqpmvWBabLwMHBe92DdZPQI6kL1QdIQ7ojkVPQLyDT0Q6ns9yFI6PJAqMLyU8YQ9YA3Du5ahTr0iX3i9ILo1PGDaLTsolDO8FBtPvEgJhDx8W2c9qNSIvavGLL3dEHO94CllvZgbFDxQmGs9YIMHu7i+4Lxg94A8qEWovKxPZz1c0PG8rxhBvQ2cgr0054u8kLOPPXRzGr0L6HW9qtoPPWQZUb09gYy9rEJivcS3bz0wuno9h+IkvfwGgj34vB29SO5lPc64CL2C1Do9vvOmvJxaAj3OcFM9wiuLvUD3CD3eS5a8Pg6MvSBPcjusepc8/rA4vdBSpDs+HIO91a42vaxJUb1AgaU6XWoqvcoSXr10fZ+8ZLOIPcCxazsINF283D31PADv0TmiC9m8wBjfvIHJV7223gc9Pv5IvRi1TDzywVM96F+LPfAop7ugu9i7JHC4vOrYij1+tPu8eHNRPUQ0Lz2g39q8dMZbPTCWdr0QLOu7judQPdwJPj2q9zQ9tHgAvdM9Nb1ZqY69RESmPACnDr2E81Q9ErQtPeDLiz1MNPI85HtFvVznaL1g4WS7LsqAvDg3EjwIV4g9lAsxvPx+Kr3wZVS8KouQPZhfcD3A8Gi9VQaGvbAc4juAWGM9GFOOPe6pMD0IVNi83z6FvfygWD2AHfA7AGB1O7y2kz2Ib2E87IQ0PdgfLL1GXk69++Urva7NkD342Eq8oDEIu3DMybwAn249zt85PX1whb0EdpA9yqTCvNQHbb30By89dDrxPAAViD0c+Kk8RISEPcbqKz3UimE9qgeHPfCwgTyIiae8FNBFPUDODj3wkKi7AtBXPYDgUTyZDou9bAElPYJUS73CUhU9xFJhPdD9WD1zCoS9wxoEvQpKDb2sKlw9IkRGvdDxQbwMIwq9mGq2PEvTPr1aGvC85m2CPeK8Rz3gVG09yB9VPMBmOLzwgDO8AKWVu8xWtDzo0Nm8DPh4PdTjhD0AGgm7Wu1GvbTcfb31WIe9oA9hPZoKk7wAUig8NEWNvIx+lTxw2po7tHhCvYayHT1wWro71G+EPZgLKLyUjls9gCtmvEZ7vbwglVw8SIqRPFfSIL38Mvc88d+BvQjPG7wjgiK9gJXHuoAgcj2AFWU8kQQ/vTIkND0+AQm96D2yvOpOhj2ItSQ9a5Yjvdxhgr0g4Ue7KihFPVjg7bwYE3o8+VOQvcy6ar1s/Vs9pKRyPQA3xbm8cXc9FEg6vK6tiD3olQu8cfiQvUBAwjvGi009pHydPJBSnTyAfjw9YPgfu0Dye70X90C9xjgRPTG0IL1YhAy8HDyQvKb6br1k+cc8BhMxPWDGCj3U+vQ8dCcYPSaCvrwaRzU9PNa4PEANxzoox9M8yMBgPHAlbD2AIho8wdgevVDoursyqjo9RINWvTgRVrwAyIY6rO0qvDAJgDw+rFI9iNGHvPhlXj3Wgw49gJHuO/oJUz2YPWo97FN1PXKUG70K1Yu9ACwxu5s2hb1IyDY9yFlNPeTX/7x4Z1K9LJj+PPiXRzwg1XE8ojxVPQR9G73EYoc9VHHnvPhUWT3E4WS8LEIWPboiLr0udre8atK0vBKsIj0ODAI9jG1wvHRvOLzAvL88QvsBvYQIZL20LWq9VBz1PBzYMz1kio+9DpshPZOIKb0Gdog9GqZRPTAvibtiWty8jDR6vbi4FrxASvc8uCONPcDX/rz0+RO9oJiPPWyoyjyWZIk9xLaoPIAQ0LtYOG+9BH8UvbLMHj1cc/68nskdvY7BLr3ctG496NBHPV6AiL0onn68sEKTPWB5BjsmowY9C1ghvYDbWjyohHc9mO4qPSAaaLtoBJM83gMqPUDLSjzAAxu8qc4Uvdztwzw4viw9ABzZO5rQHz1IiR+8ICFdPcw0wjx8OkC88NVVPfAanTxo1+A86CyKvZDMgD2wVQM9MAC/POCv+7sSzje9gL02Owhliz0QX1s9rNJ2PWKXJT2mela9bDSPvPhfJb30BYC9VLkwPag+bT2s74a9V/oevSCz6TyYWPU8xDw+PYhd+7wI4zC8GG30vAbLLz20Gym8jtYYPYJyWb0AxAW8PLMaPUh2H71AfEK7wFn2u6AZuTzASuE89bZlvRAKCT0oMHQ8uAJ8PL7yZb1G0x89WLQHvOBkfD2V2Ge9Q2EdvTJzEb0gAOg8mnUnPSAanTsU8Yo9cDhPvdU3jb3f6Yu9KoKNvNhYWT3mWa28oMwnO91zkL186ds8UlwuPUiVAb32pj+9GvPgvJsnjr3GHlA9EZQEvUp/hj3ItQa8xWg7vUB8aLvw/4+8tChavQooLT1eArK8CJyMPFRRaz38Eu08vGd6vLQuiT3+mow94JBaPczQebyFWom9tLOlPJ6TiD1v24m90iXkvMqoTr1iN069vAIjvBbqHz3kGnA9KLdAvfFiJL1wFqE8bomEPahOjLx41dy8vGIyvaGlHL1QFo675rk7vTwVe7y0f2m85KtgvDwOf7yoUeS89zh6vUO6Ar1It1s9VhsEPZ8LQb1OdNK84NLkPMG6ir02RZE9GkZFvcz4Mj1dtHW9APmoOwBv3jvAq2W7nK2SPXawhD3GLhU9LPliPcxzN7x8RM08elZLvXLVLr1wTlo9JgFZvZploLyWiUE91t+GPQotU73SQMC8gDUPu4C6+TpozQ68aE+APLjpTDyHwkW9MI9yPKb8kb3EANQ8AGGEu24NCb2qDOS85OyRPRxk+Lxu3VM9jK39PNKFED2AfHo9dAprvSRGML2olUA89iCIPcxVQT2U8Vw9XTSGvQ+ykL3YX9I85AB0PXpvqbxilB+9sSpovZ8YQb281IA9igk/PaLKHD18jZS8MF+PPTzj3bzcmvy8dAYOPVwBCj38Nsk8sLVRvX5udL1Ieeq8ME8ZPJMtVr0ehiM9FDwXvTJkIr3guVU82AFavJGHeL1Q6Ow72k2VvMhKPDwt0UK94IpVOyDw/rsCPAk9b51rvQA8dLsQks88HNBiPcp5obwwkJC8rk/NvMwaWj1MCGI90HA1PB7jm7wA1Qg6dKW+vAhdgrzAXOa6jAQEPU8TXb0sZmk9EIGGPUiRNb18ypC8kFipPIBhXDrLZYi9jINsPYAVobogurc8qHQSvfJ7kj3AhBY8QLgIOyRzgb3zfSy9ONgVPdAyE7woLHc9oGM8uzIYWr2r1JK9rIgAvaDsab1Y6bW8PPiQvP4UO70YE8E86m+QvQDGpLlAWKi6DkjbvGy2V700rVW9sG2APawMoDzATYo6VghvvSS7XT0IpBg98Hc9PN7lgz2Bb4+9EjZRPUAcjzqeFhi9OFBEPbgzdT2i9Pq8hg2OPX4T07y4mL48IIAJvbJiRz2WHC09gCUGPDAThL3QDSS9PI2rPDe6Ar1duY+90Ah8veBMgjv/qB699KsfPfyRgzw+0Ac9Ck7QvAQ5Hb0g7Uc80nzovB6ajL3kyIA91F/MPPDwpDtOnY496D8BPMjHPzyiloG8AP4TPfS8Q71gPzU9lJQ7vfF9Cb2gU0w9QA9RPQLBb72+Sxk9vGhaPTCFsLsGWgC9Zu0GPZjhCjxkI0K8agUKPXoeTr0UVYk9PuONPRbKeb3AzRK8YD61vB7Jzbzw/g29BFgzvNiihj2GJzW90IEZvLzOXT2oH5Q8nHNovXQnPz3SEIw9cB72PNpORD3MvSu8wl0+PRTZkj3oPGQ9uAQyPDZgjD3AJfq6DF3LvARtOb3AT7I8YuaxvGBlKDw6BIg9oI+pu6ITRD28dtc88Pi9u9MeIb1ySjM9oCCoPEAzX7seGyg9DaCHvbndA71kO5o82SZOvcCh+Dx8cyi9bEuuPNC3Rj2APGg8MQiBvZpEUr20LYY9cE9kPRhAB73g+sW8WHyRPTiKOT1gThs9LKpqPTDv8bsiezs9/plRvWoMkj2d4CC9bhMrPdfTE73w4bM8ZvaOPbCIdj2gLOy83pdDPdjfID0aylq9psS7vEATY7vo+x49KEEVPagfT72Sd4m9CC2OPA5+Bj1wicK7joqDPTDsjLvD8Ai9DtWAvSC7Fby6GBq9YZcDvZ6rgrxYySW9eMx8PdJmPT0wgh+9HKaCPfwhaz1wJZo72LZaPAq/Ij3QgFi98JfxPOo1Hz2esIe9fHdVPYAz+7o8wRA9EEm9O3bdpLxoIMc8KPFnPWCuGT3EhoA84FEPPExjjLxTmm+9zIhZvRwWbrww7r+8lKLfPNTMdD0QgYk9GKRZPEChnDxIzhU885dVvbB+jz2sQIs88CVPvc6Chb1kE8W8IEMJu0z5Wj1Vi329ljiCPTJhgT144AM8eL59PZHfkr1j20K93LfWvEpRgb2i8zK97EiWPCjSij1ET8Q8TE95PUyQgz3UwZ28dUEBvZJeirzSdIO94GIjPGCJJzxYPR094PLtvABBvrqo+0I9iNBVPQDnDj28RlY9EIukuyQ3L7wg3dS7urEBPSLWDj2YUl89EFsgPaQeoLy7yWS95EdtPQy70bw+5PG8fNdIvWhzY70AcKu4RiRXvVJOg739Jo+9wAVCO6h1fbwM58W889MTvaqGPj2AFD073qc/vXQzNT2o17O88uI4Pai8er2VLiC9nucmPQy2Jj0KhYW98EMxvRHaC71AOpO7rHARPSIXNL1JXBW9OakcveDfGLvGlEs9Ei/JvG+fZ70icAy9DNymPCBWAb1+KNO83fwAvbt5Cr01tEy9Jp1wvbQ7hD1+hzU9GAU1PNqJSb3sjsA8oJVuu8B28DwidWu9QMYMvWgtjrxYzm08aJJ/PV5JWL1AaeS7sEFfPeqxMj3w1DK9wGW8O2IBgr1oyGk8Jn5TPfExhL3Aivw75rcavWqs0LzMym09ABbLO77Mer3WlY89WNyiPMj3o7xc5Is99qOlvKOXP728gNS8dEc+PXDx2rxgog68V4IpvURXQb3ADe26jKNAvW9SIb3M8E89tNK/PJDoV71UJdE88DzSu5Dj7Dus4169rF34PCUnfr3CSf28RsESvS6icL2KSi09HB2LvYD3crxyORi9fCDXPHhxzDxKEhs9tr6BPVzej72PYHi9IJIZvSg+nrycviy9C6UMvSRDJD0XJxm9El6EvW6iQD3gGDU7xBV0PbBszTuAWze7SHdrPTSI4rzc5V28virQvIanSD3m23O9ag+hvMBb77tBWH69jJ9gPS4DkT1QxTY9kHIjPOiXgT3cN8c8FkdHPby06ryS7hI9kCwNPcIZhD1gxVq7QMW9PLzOHD3UVck8QMM1PZOHEb33C4O9qF2Fvaj01TywLT48qCaIPZ5wFD20XWO9OvOMPRQRfb3gtss8MIOBPMD0PTtQW0w9wDoKO4yNoryeTJI9JtMJPcBVSTxWmY09cEvsvBCekLzo3Sg9kqhRvcDoe7sCmYy8mDVmPLaFgz0+c4U9ECCpu5AxKTyYtYI9OA5+vQBkbz0qp4G9clfIvEK4gL3HC2y9BshZvUw2S7wCnb28sMsnPWBFfDvwwA49boiPPVifhr3s9Xw9c+KPvXLRjrzAbsg7YYOMvSBuCDwA5hc74PTgu8Y6Z70A3m+6JKltPaLBjT1ABwO8WLA6PcAZ8TygoYa7GR6DvdiTMD2m5iC99vsFPddORL2gtj67ZoFAPYr0HT1sBZM9DwMOvQDYFrr+SiK9MIXau689Yb1BcDi94Cv6u0yf+7xMeX69EC0JvIqbkLxQl1c9UN58vHDpYb2OkSM9BD9cvNKk7Lx8PTo9KGh9vZjRXr0G/iI9qKQMPKzHTbzdqDu9fMSlPP6gcr1hIoy9yK8CPK7hjz2LvAy9Wug2vXAfkz2gw7a7EsyHPRgrJjywk0y9peRFvSAoTT1Eo4i9XJEkPQBDoTwMivA8wENLPJqz2byUp3Y9uGCiPDDDdz3gzjs9NBiPPQDXArwvqYC90MHnO6CVDz2JboW9FFU0vejxSLyA32E84OexPEDAI7vQ1sO7xhMXvUQaHr2s+X096EIJPagOXz3y/8i8VN+iPGBxxzz0GSg9UKkmvKCytztsCXS9aJOJPTgqez11PYq90BKvPGzk7zxAi7E8AHtKO78qeL2Oywc91BZoPT5Pij3g9Ty9QHRUOxxNT72EfkA9Jj3TvLhqQL3MH9g8/C2mPO68kb1YTXE8eI7DPJbgCb1U/Ia9GONtPdQXcr3U/ZE9UvRpvbzrgz18zR49kIyKPYAynzsAE4y9wF7jPERPiD2c7ky9zjPWvMR8oTyGPE69tFqNPdQadD0+QGi9DDsfvdJN57xomYG9RtsKPQDrXzvQ9u47urO7vJxqZLwAo1I9LMFpvezzbj0Iseq8nq9rvXDpUj1APfg6gJhMOrbmKr345hy9OvBLPSSYST1IL4M90ncnPV7AKj1Qp2E8dqsgvSqqiz1AJ088AAR/OcW/C71GI449DncaPdA13Lzkql49aISJPbBtkzzEkDY9GLFoPDj5GL2A81E7Dl6IPWivDjw88eI80u5tvX4hBT1EPz69VCCGPcDQdDwAx+U6YpROvUZfgT1wzPQ7SLmJPAjUCLxYMm49iC3APNBYYD1A/NG8fENqvbywfT1UwlG93kkdvWPMgb0MS189fAHcPG8iir1KdCo9TOVfPQIDgD1IYZI9a0V+vUTJvzwAisQ8qDsyPegX/DycTXs9gsWRPX4p9bw0OLe8nxokvdypIj3qdqq88OUBvIABMrx8Oiu8uAqDvTc/gL1uMDW9hCvAPIAhAjvUMWA9HBiRPfAjADxo+208c0qJvdkdCL0YEfA8UDQaPJTv2Dy+jZM9KFoZPFKSzbwbRFG90E7qvIBSxroALK68qMocPagVZj3fQZC9MHvqu1yJWz382mo9usf5vPpWkr1o4iS8znyJvKyTer28om49SDnNPCROyDy0pOO8tlpmvQDSiTuE8xs9AvOAvcymb711Exa9iCtOvciYNbxxhHS9DA5FvKRfZrwgJA+96hdJPbDoIb2UsE29wMT8PHS5Nj2c5L48GA5+PaJ2tLyeIG+9fdt4vbx5uTx7eYa98HQIPLG+kb32bEG9QKjoOrzXHr3wsdo7hlxzveBw1jzBKYm9DCZ4vbwo+TwOszI9/rUJPWDkGTxsp768xmXHvHY0kD1ntRO9ANCPOVIqAD178IG9bPVxPbHJCL0qzFU9XqeJvHRnk70MXE+92kGOvaR/Zz1U4jm9PHqPvXCOfDxkbr28ADN9u6r1CD2Me/k8oGt0u/qMxLxghqi75JXcPGBns7sAYEi3oPJtPXwXQ72AfZa8ZEyGPLyAHr3Qoq47hDILPRsfC70XqUi9JMSzPAI3Qz2gtm07aBEgPOR3WL2gcgs8TEBFvQQZTD3uCWK94EtSPSjYdT208rK8c1gIvdAvs7wExl09IGB/uxamJT3QSno8FbGDvZDYiL0vjIW9JKByPSr0QL0A+Bc5RG4oPaBRQz1JICS98GiVu8B2iroQZXc8jMHUvPSsMD3ODYk9GD6PPKI2NL2fzom9vMp1vDr8hT2IlmQ8FtArvT9DAb14HDw8ShZivVAwsLz0pYW8COGIPaj9dT2AvPa8oO9Lu3S0Bz2itvK8iKh5vJyBWz0WqxA9AgnNvMpfMD0uwGe9RKJ3vQgZfDzMjF28RnI9PbBUuruMx+o8DKuCPFZ5dL29dna9TIqBvHMFgb15jYy9eGl8PYAJb7oQSGI94HJJvPB6a7zgkvc8kNM7vYnibL1ACpM7INGBPbCE6ryg7UE9iBKfPNSK+TzoAF69YMjsPJSjh712Dj69lmcrve7rTD0IJzc9gHnIuiEXVb3YFRM8PsWIPQmpOr1cfbM8BOyJPWjydzyQa487wKZ0PSBYw7vKfjU9LqZZvShRcb1QJMc7pvzQvCJKIb1qo6C8+lq3vGTQ0rx60i29mjhbvRiOBzwCbBa9kHfJPC45PD3QjoY8JC93vN2RDr02EYs9vtKlvNAUqrxvige9ABhtOe6Cr7wh54+9WrJ2vVRW3bzAGEE82wmKveiDxjzoYkq8yoKPPYzvF71s2Mo8qleGPTB5pLsU+1u9WqWMPXL/Az08Gk29eFeAvUpger30SWo9vIW2vPSu9TxekPG8ZB5qPb/skb3cjCY91ivyvKQxnTzIP4E9yFCqPBgKLDxU3vY8NFWFvQB6CLtKP0c9pu4qPW+adL0SX7S8JYBjvRhudTxAB389QO13vagDJj2AbnG6dGkovODEEDv/eCG9zJgGvVBXZj1dkJG9tsbzvPSPDT1IVKc81LqAvcA0pDxmaJA9rAp/PVDl1jxAVf07cgeIPaCy9rtAqVA99J50vNBRbTz/Cgi9fn4lPabnQb1QE727Vj/TvCgBezyenCw9OGGBPMDa7LxS6Ny8xmEoPSZ2ir1Eoky9UuUsvdaqvrwYxnk9CCg9PSflVL2gtqm70nJJvYDDLj3KBwW9/NoAPfhd7bwEaju9cFmGvMZBGT3AING6IPkWPAoVMj1ymtK8dIqqPDBKGDwsLFU90ACXPFyyujyiX0y9PFHOPHgULr1sDpA9kA+UPOgRLrx8iku96pSKvEgyHLzovRM9xE88vPixRrwu8DK97DunPOTGSj3yoH+9dOk2vcQXdb0YAyw8/g2QPWzM7bwgxH89SlULPSQDFT2CrkW9Rkk4PczpgrxE9Hw9EhRUPUTIiD0IPU48kFYAvAj0aj3WCjw94OcevFDCvLuwpFc8HjlTvWaNcr0In2c8xBORvN4Thr0QDtQ71OU9vXgAFr0Apmo8oHsWvAHCFb1UCtG8Hk9QvRD+0TuwoDe8PpaNPfrmL71oACi8SgtsvZoWiT1sj6I8oNQZOzTGhb1erIy9JCsmPfacKD0mgIg9oBd4vCjAUL1Q1qq76IB1PY6Wjj2g03M8KDNgPNNBVL1AtW67zvUUvU64IT3ghUw7qpEwvS7IiT1AEoQ91uEDPfW9fr3Zi2m97hiRvTzHKL2KHhQ9gnvTvEH1U70gidy7irvXvN9jE72/lpG9gKvtu3DvMb2kL/K8keNLvZw6Tj1QWB48wHP1OozzgT24MpM8cJzTO9h+gz2XY3e9dLQoPRBmgzwM8y09EL1iPAqthz1oI2o9vt5PPTjFebzSwzq9kHsnPfYuY73srU68CMAtvdrpfL3er1c9XY1PvSChCbsaCgk9WEL4PHwE9bzgJ1A7mA2evF5aAr1Ah7C7rqkxvfhff7zgGd67tLHjPCabM71MYrq8NO1LvTDPhbugk448x4aTvUi4Y7w/gHO9QP4UOzkYcL1mDwo9sOLUPKYZg70+jZM9eBysvJT2VrwycZi8PuaAPQwn5bzsLYE9QmJFPRYIkL1ABnm7RohXPbR0nTwfZIa9mmWKvNQvhjy0h149GKVUPcacTr20x5S8Ig+SvEi88TzPMUO9Tk13vfhIijwUVgI9MGmAu1CLArwAAnQ6G5eOvYy0ir1kfu88wP/YO85M47ygnxC8oIIkPS6+Eb3W7yE9xpFLvRy6g7x4iSg9MNG7PGCk0TzcLaE8kAApvWDqeT0p8Ia9lDuZPKjfcT2xkwa9lBNTPfgY2zwACnC7VuuLPchb+DxugOi8HukqPXx0Rb2BHIm9HBYuPewNcrw08GQ9AnpgvWbm/7ySTCY9nlYuPYNaT702Kzs9HMGBPRJJPz0oem48gP3NOlQyiL33ZVe9gJreutwJwjzkOz69dygfvQARqTsUVio9lLW7PESqiDw6+kg9aBvivNBwc7yiOUe9MDCFvef8IL0UDGU99PW1PGAH37uMWq08ALqaOUaQS71wckw9nNFjPRonBT02URC9Bor5vPT0Ur2cewo9CgIavcPnDr2UnAy9pB9yPVzp0Ly8hJo8ABudOsAZWbyORFg9jAuFPUgy6TzAEA28IFaRvdlLh73QD8C8SqZqvfKwIb3MvSU9spcFvVyx7zxgMRw8Kr5ZvYA2NTtkrLc8bHfgvCh0DzzwgIK9+HlNPRR2ib3Y24M9EOZsPfQLNj1gJSi7kNe4O6I/V72gyva86OdiPQDZwzmpWiK9fAOyPBDSQzwgvxM7MOKqu7x5M72QX1a9YOX+vOBFLLwIUWQ9bAKUPEEYi70gkx08BPl0PRROcz2WuMa8lIWUUpRLAEsgS8CGlEvASwGGlIloAilSlHSUUpSMCGZjMS5iaWFzlGgHKGgKQn0BAACAAooKbPycRvkgaqhQGS6AAk3pAy6AAn1xAChYEAAAAHByb3RvY29sX3ZlcnNpb25xAU3pA1gNAAAAbGl0dGxlX2VuZGlhbnECiFgKAAAAdHlwZV9zaXplc3EDfXEEKFgFAAAAc2hvcnRxBUsCWAMAAABpbnRxBksEWAQAAABsb25ncQdLBHV1LoACKFgHAAAAc3RvcmFnZXEAY3RvcmNoCkZsb2F0U3RvcmFnZQpxAVgPAAAAMTQwNjAxMTI3OTA0MTI4cQJYAwAAAGNwdXEDSyBOdHEEUS6AAl1xAFgPAAAAMTQwNjAxMTI3OTA0MTI4cQFhLiAAAAAAAAAAJMQiPSRHKD007yU9gHmIPCAVX7tgv847xs+TvEJxIz1cPv08+5FkvVl+fL3v8xC9AJ6ZPIB7Yzug65c7xOOGveTBnDyU/Tk9/i7DvAmCXb3f2jS9AoREPTieFjzQvwk96PS9PDb+jj1oUEM8yIWrvNFbCL2oGUg8gPFjPZzRUL2UhZRSlEsASyCFlEsBhZSJaAIpUpR0lFKUjApmYzIud2VpZ2h0lGgHKGgKQn0EAACAAooKbPycRvkgaqhQGS6AAk3pAy6AAn1xAChYEAAAAHByb3RvY29sX3ZlcnNpb25xAU3pA1gNAAAAbGl0dGxlX2VuZGlhbnECiFgKAAAAdHlwZV9zaXplc3EDfXEEKFgFAAAAc2hvcnRxBUsCWAMAAABpbnRxBksEWAQAAABsb25ncQdLBHV1LoACKFgHAAAAc3RvcmFnZXEAY3RvcmNoCkZsb2F0U3RvcmFnZQpxAVgPAAAAMTQwNjAxMTI4MzUyMjI0cQJYAwAAAGNwdXEDS+BOdHEEUS6AAl1xAFgPAAAAMTQwNjAxMTI4MzUyMjI0cQFhLuAAAAAAAAAAoIvFvQqh+D2U8Qi+bXQUvvZ0mj0iSOM9/a/Xvekryb14UCo943czPiQ4Nb2fhQQ+KWEVPq5Hkr1MMBo9pH4OvvBtHr3plBc+s3QDPoQ4Hb5ieBq+Yma7PZsmBT7WmOs94VfXvSK5/r34Cqk8JNRAvQ65+j2h9hi+9SgLvr/rG74Ijwu9JUHWvRbk9z1KsYM9BDMLvWw5gL0Qxny8xItSPWDVlD0YMkW9PKYDvdOEHb4zYPC9eO5DPQzCYj3Oe6I96afFvfgrAb6mkfo9ww4gvhPrHr7upPm9uAQ2veAKE71MPPm9oPCQPIlFFr5AXj08FH6bvU86uL1joAw+C9IaPpl1z711PvS99h+OPcpraL2XqQM+WK9aPc91Az4Gb+w9cPNLPPyLCz3Jxy0+b8oLPo/gq72+oO69OJ4JvVYBrD08azA96Ay1vMC7jD1kSEs9kQcyPsBUWjzYXuo827IIPmCgXjy+HrC9GqvRPbUUDj6XHgk+kM6NPDjkHr4yxck9sO0BvvNXBT5eFqY9ePodvWEuF76Ju5q9nm/CPWpV7L0iwo09cFexPEBACr4AUDi8jLktvSkJFT74dB6+Fx7YvZZTwD1+Y+M9GBfBvfBRBTy+oMA9sozzvVBcWryUagI9elqdPWN6wb3Ak5A9WPe/vMJDyD134am9XeQvPuwDP70yhHK9RtYjvrO8qr0gjBm96fcqvhK/nj1B3x4+1MkbvvDmrDyszom94KtevURgGr7cvAc94MHePBDIEL5PPjI+GJpmPdxHs70y3yK+DDA0vYhP/r1gWg++/rqwPd5fpT3tHw6+194sPkDu+bvupaY9mAhoPb2TFL5yWgC+qOAmPd94jb0OHe09aHQgPWq0vD06l909vHUgvZBzDL0tKNq9vKMVPVjbUL1+KgC+BC0HPcKxyD3l3iU+yTzTvcUHAD6S8J09eqrlPTBSwTw+6oQ9TBEVPecczr2uwYA9H88lPkYz6z1uUJI93j/1PWI8gD1s/wO9JZ0EPnqd8L30FBW9/tTLPaEoKD5n8io+sBu8vICNiT3ityu+4mvgPa/uDT68mVA90/scPo+X972C0RC+H8okvktsz70KFtu9IELHO4Cqaz3gQMO7gBjlO1BH47x9/h8+RON6Paj+/byttge+0pn/PSzF+L2oXOm9VKkMPbSHDr3ZeCS+MCQ8PRM5AD6UhZRSlEsASwdLIIaUSyBLAYaUiWgCKVKUdJRSlIwIZmMyLmJpYXOUaAcoaApCGQEAAIACigps/JxG+SBqqFAZLoACTekDLoACfXEAKFgQAAAAcHJvdG9jb2xfdmVyc2lvbnEBTekDWA0AAABsaXR0bGVfZW5kaWFucQKIWAoAAAB0eXBlX3NpemVzcQN9cQQoWAUAAABzaG9ydHEFSwJYAwAAAGludHEGSwRYBAAAAGxvbmdxB0sEdXUugAIoWAcAAABzdG9yYWdlcQBjdG9yY2gKRmxvYXRTdG9yYWdlCnEBWA8AAAAxNDA1OTk3NzE2MDEzOTJxAlgDAAAAY3B1cQNLB050cQRRLoACXXEAWA8AAAAxNDA1OTk3NzE2MDEzOTJxAWEuBwAAAAAAAADAMw6+BBknvTBfHT1J5Qu+pvzyPTcrLL49gR2+lIWUUpRLAEsHhZRLAYWUiWgCKVKUdJRSlHV9lIwJX21ldGFkYXRhlGgCKVKUKIwAlH2UjAd2ZXJzaW9ulEsBc4wFY29udjGUfZRorUsBc4wDYm4xlH2UaK1LAnOMBWNvbnYylH2UaK1LAXOMA2JuMpR9lGitSwJzjANmYzGUfZRorUsBc4wDZmMylH2UaK1LAXN1c2Iu".encode()
    weights = pickle.loads(base64.b64decode(encoded_weights))
    model.load_state_dict(weights)
    return model


model = load_model()


def agent(observation, config):
    col_num = config.columns
    row_num = config.rows
    channel = 1

    state = preprocess(observation)
    prediction = model(
        torch.from_numpy(state).view(-1, channel, col_num, row_num).float().to(DEVICE)
    ).detach().numpy()
    action = int(np.argmax(prediction))

    # Action
    if observation.board[action] != 0:
        return random.choice([c for c in range(config.columns) if observation.board[c] == 0])

    return action
