import io
import base64
import pickle
import random

import numpy as np

import torch
import torch.nn as nn
import torch.nn.functional as F


class CNN(nn.Module):
    def __init__(self, output):
        super(CNN, self).__init__()
        self.conv1 = nn.Conv2d(1, 16, 3)
        self.bn1 = nn.BatchNorm2d(16)
        self.conv2 = nn.Conv2d(16, 32, 3)
        self.bn2 = nn.BatchNorm2d(32)
        self.fc = nn.Linear(192, 32)
        self.head = nn.Linear(32, output)

    def forward(self, x):
        x = F.relu(self.bn1(self.conv1(x)))
        x = F.relu(self.bn2(self.conv2(x)))
        x = x.view(x.size()[0], -1)
        x = self.fc(x)
        x = self.head(x)
        return x


def preprocess(obs, col_num, row_num):
    # 状態は自分のチェッカーを１、相手のチェッカーを0.5とした7*6次元の配列で表現する
    state = np.array(obs.board)
    state = state.reshape([col_num, row_num])

    if obs.mark == 1:
        return np.where(state == 2, 0.5, state)
    else:
        result = np.where(state == 2, 1, state)
        return np.where(state == 1, 0.5, state)


def load_model():
    model = CNN(7)
    encoded_weights = "gASVgMgAAAAAAACMC2NvbGxlY3Rpb25zlIwLT3JkZXJlZERpY3SUk5QpUpQojAxjb252MS53ZWlnaHSUjAx0b3JjaC5fdXRpbHOUjBJfcmVidWlsZF90ZW5zb3JfdjKUk5QojA10b3JjaC5zdG9yYWdllIwQX2xvYWRfZnJvbV9ieXRlc5STlEI9AwAAgAKKCmz8nEb5IGqoUBkugAJN6QMugAJ9cQAoWBAAAABwcm90b2NvbF92ZXJzaW9ucQFN6QNYDQAAAGxpdHRsZV9lbmRpYW5xAohYCgAAAHR5cGVfc2l6ZXNxA31xBChYBQAAAHNob3J0cQVLAlgDAAAAaW50cQZLBFgEAAAAbG9uZ3EHSwR1dS6AAihYBwAAAHN0b3JhZ2VxAGN0b3JjaApGbG9hdFN0b3JhZ2UKcQFYDwAAADE0MDY5MDcxNDQyNzc2MHECWAMAAABjcHVxA0uQTnRxBFEugAJdcQBYDwAAADE0MDY5MDcxNDQyNzc2MHEBYS6QAAAAAAAAAIKGKT4g2wa+ScmmPm6tOL5Y/kI97DKAvnLtVj42PQg+nF/3PRtynz6teao+gweIPpjiAL0mpy2+8CK2PGP2Db6hZo4+tiHGvRA4njySMqK+WlpcPliiLj1gaZ+9gkBbPnIvbT5QjI+9sAyxvZpWBD4UgYQ9Iq8+PoCFXr3wUqC8ZvS3vb7XHb7AJRw9yw+JvqcJqL6gliI+foJNvjbsBj6Ql989pEeOPfhcNj3QPh0+zFK8vXTWo72a3I2+acqLPpRX2D3SgHA+wqtiPjhvdr3LhGq+eLVqvWmVmj4GMuW9QJEQvX3BiD4gvia+/sdePvuqWL7sB5C+UCCCPM93gL5CH5e+uldQPqUDmD4e5Ji+uLtLvdA9gr6ojlQ9ljsTPuK8ob4200w+NwKcPmyd9D0ufpu+0L99vkDtLj2JUp4+HI/DvbOYE75gysS9wOKGu25Jgb6j1yi+IAw6PIrKSD4IuCy+k0NuvhXWmT4Q/tk9EJPOvdA8670o2TE9wLmYvDMSib6S2KK+mkNjPkak/r0A9bI7qLkRvT5TAz6ELZi+AA/UvTfbnj4Gp/q99I3cPbrGdT7ovFQ9Kj8+PqI/MD7m6O69+A9dPdulB774dZy+c12YvhMmL752tT2+cn9SPlwu5T2QsvI8ITmTPmhsDb7Emvg943SmPkQoyz36Vkk+C0CoPoB1BTwW3gM+GIggvt7TRT48z+c9QIyVvpIJQj7QS+O8ruwiPr57ET6G4wq+8hFVPiLXOz6jX4s+6pZmPpSFlFKUSwAoSxBLAUsDSwN0lChLCUsJSwNLAXSUiWgCKVKUdJRSlIwKY29udjEuYmlhc5RoByhoCkI9AQAAgAKKCmz8nEb5IGqoUBkugAJN6QMugAJ9cQAoWBAAAABwcm90b2NvbF92ZXJzaW9ucQFN6QNYDQAAAGxpdHRsZV9lbmRpYW5xAohYCgAAAHR5cGVfc2l6ZXNxA31xBChYBQAAAHNob3J0cQVLAlgDAAAAaW50cQZLBFgEAAAAbG9uZ3EHSwR1dS6AAihYBwAAAHN0b3JhZ2VxAGN0b3JjaApGbG9hdFN0b3JhZ2UKcQFYDwAAADE0MDY5MDcxNDQyODA2NHECWAMAAABjcHVxA0sQTnRxBFEugAJdcQBYDwAAADE0MDY5MDcxNDQyODA2NHEBYS4QAAAAAAAAAO44UL7sode9AGeqvVOnML5aKV8+Q0Zvvkye6D1A2vc88LndPNJYdj6dVJs+EIJ0vkR+oL2LMAK+wuU1PuCBzz2UhZRSlEsASxCFlEsBhZSJaAIpUpR0lFKUjApibjEud2VpZ2h0lGgHKGgKQj0BAACAAooKbPycRvkgaqhQGS6AAk3pAy6AAn1xAChYEAAAAHByb3RvY29sX3ZlcnNpb25xAU3pA1gNAAAAbGl0dGxlX2VuZGlhbnECiFgKAAAAdHlwZV9zaXplc3EDfXEEKFgFAAAAc2hvcnRxBUsCWAMAAABpbnRxBksEWAQAAABsb25ncQdLBHV1LoACKFgHAAAAc3RvcmFnZXEAY3RvcmNoCkZsb2F0U3RvcmFnZQpxAVgPAAAAMTQwNjkwNzE0NDI5NTA0cQJYAwAAAGNwdXEDSxBOdHEEUS6AAl1xAFgPAAAAMTQwNjkwNzE0NDI5NTA0cQFhLhAAAAAAAAAAAACAPwAAgD8AAIA/AACAPwAAgD8AAIA/AACAPwAAgD8AAIA/AACAPwAAgD8AAIA/AACAPwAAgD8AAIA/AACAP5SFlFKUSwBLEIWUSwGFlIloAilSlHSUUpSMCGJuMS5iaWFzlGgHKGgKQj0BAACAAooKbPycRvkgaqhQGS6AAk3pAy6AAn1xAChYEAAAAHByb3RvY29sX3ZlcnNpb25xAU3pA1gNAAAAbGl0dGxlX2VuZGlhbnECiFgKAAAAdHlwZV9zaXplc3EDfXEEKFgFAAAAc2hvcnRxBUsCWAMAAABpbnRxBksEWAQAAABsb25ncQdLBHV1LoACKFgHAAAAc3RvcmFnZXEAY3RvcmNoCkZsb2F0U3RvcmFnZQpxAVgPAAAAMTQwNjkwNzE0NDI3ODg4cQJYAwAAAGNwdXEDSxBOdHEEUS6AAl1xAFgPAAAAMTQwNjkwNzE0NDI3ODg4cQFhLhAAAAAAAAAAAAAAAAAAAAAAAAAAAAAAAAAAAAAAAAAAAAAAAAAAAAAAAAAAAAAAAAAAAAAAAAAAAAAAAAAAAAAAAAAAAAAAAJSFlFKUSwBLEIWUSwGFlIloAilSlHSUUpSMEGJuMS5ydW5uaW5nX21lYW6UaAcoaApCPQEAAIACigps/JxG+SBqqFAZLoACTekDLoACfXEAKFgQAAAAcHJvdG9jb2xfdmVyc2lvbnEBTekDWA0AAABsaXR0bGVfZW5kaWFucQKIWAoAAAB0eXBlX3NpemVzcQN9cQQoWAUAAABzaG9ydHEFSwJYAwAAAGludHEGSwRYBAAAAGxvbmdxB0sEdXUugAIoWAcAAABzdG9yYWdlcQBjdG9yY2gKRmxvYXRTdG9yYWdlCnEBWA8AAAAxNDA2OTA3MTQ0MTc1ODRxAlgDAAAAY3B1cQNLEE50cQRRLoACXXEAWA8AAAAxNDA2OTA3MTQ0MTc1ODRxAWEuEAAAAAAAAAC7uSK+NiaGvUDMhb2kCHO+AsZ5Pq5kab7HHKw9j5ieO6FdrDxSeBM+wT2MPijKeL4iEy6+SNpCvIEfPz7i8YA+lIWUUpRLAEsQhZRLAYWUiWgCKVKUdJRSlIwPYm4xLnJ1bm5pbmdfdmFylGgHKGgKQj0BAACAAooKbPycRvkgaqhQGS6AAk3pAy6AAn1xAChYEAAAAHByb3RvY29sX3ZlcnNpb25xAU3pA1gNAAAAbGl0dGxlX2VuZGlhbnECiFgKAAAAdHlwZV9zaXplc3EDfXEEKFgFAAAAc2hvcnRxBUsCWAMAAABpbnRxBksEWAQAAABsb25ncQdLBHV1LoACKFgHAAAAc3RvcmFnZXEAY3RvcmNoCkZsb2F0U3RvcmFnZQpxAVgPAAAAMTQwNjkwNzE0NDE4Njg4cQJYAwAAAGNwdXEDSxBOdHEEUS6AAl1xAFgPAAAAMTQwNjkwNzE0NDE4Njg4cQFhLhAAAAAAAAAAt7uHPHBEuDxBIEU8wlBjPHN9DTxybDc8TI9TPJ3x4DzFlgk9K9ADPYQA2zy0lEY88+LBPOvZ+zxn25s83ahEPZSFlFKUSwBLEIWUSwGFlIloAilSlHSUUpSMF2JuMS5udW1fYmF0Y2hlc190cmFja2VklGgHKGgKQgQBAACAAooKbPycRvkgaqhQGS6AAk3pAy6AAn1xAChYEAAAAHByb3RvY29sX3ZlcnNpb25xAU3pA1gNAAAAbGl0dGxlX2VuZGlhbnECiFgKAAAAdHlwZV9zaXplc3EDfXEEKFgFAAAAc2hvcnRxBUsCWAMAAABpbnRxBksEWAQAAABsb25ncQdLBHV1LoACKFgHAAAAc3RvcmFnZXEAY3RvcmNoCkxvbmdTdG9yYWdlCnEBWA8AAAAxNDA2OTA3MTQ0MTk4NzJxAlgDAAAAY3B1cQNLAU50cQRRLoACXXEAWA8AAAAxNDA2OTA3MTQ0MTk4NzJxAWEuAQAAAAAAAADZKAYAAAAAAJSFlFKUSwApKYloAilSlHSUUpSMDGNvbnYyLndlaWdodJRoByhoCkL+SAAAgAKKCmz8nEb5IGqoUBkugAJN6QMugAJ9cQAoWBAAAABwcm90b2NvbF92ZXJzaW9ucQFN6QNYDQAAAGxpdHRsZV9lbmRpYW5xAohYCgAAAHR5cGVfc2l6ZXNxA31xBChYBQAAAHNob3J0cQVLAlgDAAAAaW50cQZLBFgEAAAAbG9uZ3EHSwR1dS6AAihYBwAAAHN0b3JhZ2VxAGN0b3JjaApGbG9hdFN0b3JhZ2UKcQFYDwAAADE0MDY5MDcxNDQxOTk4NHECWAMAAABjcHVxA00AEk50cQRRLoACXXEAWA8AAAAxNDA2OTA3MTQ0MTk5ODRxAWEuABIAAAAAAACA81S9+JduPKw4/Txkndk81Fy1PG2lpD0QGfK8gK2TvWR1pL3AkUe9iI8uPCAJZbzgj568IJvlvE4sK70sDum8m6uDPazWmzzNMZw9sPGDu7jqCr20JZc8AI9lvChZfjyhtJ49VMnbPLHQlT1L/pO94nqcvTD67TscBuc8bEfZPHPVgL0wCJS8AJ2NvI54K702TD09xiJ+vWg6Lr3GomI9S2NIvb1DmT0I5yc8W52Dvclfoz2LuEu9UtQnPVsPSr3g5248W+BbvWAJAT1SfVg9vG+zPAUYiT0chc+8tLD1PAroXD1mQWE9Q3duvWw947y6UVo9IDNqPK7jYb1LXAW9wsJ4PZNxmD07ZiG9AD7WPJg4aDw2gYa9ckoyPca7Rb0EI5y8wBPOu0wAk70/nZY9jhiqvZ4lBb1a8ko9kmGdvap0MD1tDaM9qBEyvIzPjzy60Ye9EN7TPJjuYjyb20O92XCkPX3Mlz1HcYY9d/eKPWLkbz0A8h+9MitWPc3igT1AQYy6ILQtvY4dl70IUVk8ULy/vGDnpr3YNX68GNhBvZ8QhT2Y8VW9XO+wPPs5gz2xnKc9TfqkPevGFr31g409ioKPvV2CqD2gMny9AGMFvFBWVb3GfFU9sMnHu7Bk2DwmgwM9Qw87vcZGQT3wG9S7aIw+vfv/Kb34DzK9XsEcPWD/WbwFG4o9kNomPUPyFr3QUwW9C2o/vUD89zyO8yC9THKHvQCm+TqcJqK9jmaBvUg0pL2VAJk9vCTjPJO5gj06YzA92FRLvU/IjD1GsgG9ixOavWoddz14pD+8IitvPVWlkz0w8o+7mJQnvH5JT72T7Ca9XT+fPWgCBT2uKym93lNsPVjLTjwfOYU9zy2VPVKtgL0CoZ+9Q3xvvcoAaz0UJ6q8m+GKvdodkr0wROW8QLDNu68YnT3DJl69kL2gPBB/fL3+83K9RhGjvZp0AD030oA99icdvYDQHL2DTo+9sDPSvNDhlrx6WV49dpkdPadlmb3VsI89MA76vLKPYT0Ybx484Ek3O8+hi70Vn6I9YM4JPBiNWzy3HKe9kruGvbOWnD0Aeio67hcAPWFbjD3YOj+9cPfRPH9Fhj3hDaQ91LKkPCipm70zrgO97WmPPX5YJr1O1qK9ILP6vKSaqrzD4ly9wGyhPFiAR73O2xI9zB36PBiJU73iEIu9WL81PLzH2LwI9048UMMqvWDmELyGNZu9T++fPQ/aqD20F6m8mLI8PIAqjb3cacy84On8vKp7Lz164Ww9cIvkPIghFDyjnnC9gGkJusIDdD0CQCQ9UCHvvFiGJzxY6XK9EwNOvSqjRD1W/Pe8pYaJPWtCN70wI4O8IIATuxzZszxQ5mS9RliJvVVNlj102IO9RBGHvWGApD3hSoQ9ZgggvTa88byz5SO94OcUOygPAbyO4Vy9up2avbDTwLtsldo87JiYvN3Nnj2cnpA8/MqovTG+jz2zSHa9YUmIPQ6KCr2ctpe9oK5GvNIjJj3g+Qw8UAArvV6eWj1LpZg9GVOdPev7nr3LbRW9OD15vdJvlL1yR1Y99CCTvaQ2hrxo+iy9NsJLPR76HD1IiBm8qPIgPKjsdjzXm4890OnoPINDTb3/0qg9ssoNPeq/aD3AalS9PISLvEmElD09FJ49nucTPTC2xbzTfn29WOaKvVIKLD2gnwK7BrAXvYCCLDrwyY87wPGmvQIidD0Aiaw5xFvpPIKeOz2xVqo9iHY4vBDK3DxOrHk9mhdhPT4xYT2/46c9UEtEvfRO4TxoR0C8bHuBvUt4Br3gQqi92KozvTpghb18kLA8oJwVvAAuL7r7log9BHeDPP5/HD0Flp89cg1gPVf2jb0YRT+8giZXPeJdFT06/Uw9DFqkvYtvh71T+J69QlkGPe5cBD0x6Jo9wIWmunFOqD3QtPe7DMyBPHBGV72AEvG7IC1jPFbKer0IMDo8sCEBPTTk/TyV3pk9yylCvQlUlT1H2I69+/yOPe7vGb0gJ3m8E+qEvXqjNz0AKne6txeEvcggEz3YqHG8DWKTPYJEeD1Ul788kGjpO3LPTT2m5Pq8pGGLPDN0nL1Q5Ye7wIWVusZ1Qj0oUjU8ZIXjPJypvLzOvWw9gBw0uyDQwbxCoIW99jQQvQmflj0q4Tw9sjF3PTb2/rwQ95w8YHnyvGjXlb0sJOo8xJynvcsipb1qpis9vs6YvaIoaD1o4gQ9EweiPTttKL0+36e9zOOiPNCZIr0guU484KbIPKAwzzwr05Y9uHQaPEBvc72mV+68du4gvSi0ZLyOa3W9Ni97vRIVm709VZA9OmwKPccsgL2cDfS8saCgPXXShD3e4w29Py6HvSBm37zAduM62NsBvctMVL3mI469mOxtvT4nQr0aMzA9tvQZPTQzgbxOUnK9AO2HuUfygD0Q0Ro9yDkkPC62gb0grKK9QB8pvLxG0zygU0U8cCKgu2YEXj1WJCo9Anx3PQpjo73i0W49+KodPWheVLzj6BK9bQuMPcsmiz29bpQ9QIWgus/ujz1ONAY9U06Hve2Cgj0IzDg8EKe/POBvbLtuE2Q90iRAPUGzgD2bIzy9EwdbvQWniT0Q1p27hMXTPKn4jD2IGRu8/fajPTZELD17F509qNMMPI5gWD1Y1F687EiHvNfWlD36RQg9oAZoPLvNdr1MOOQ8IMcHOwIkYz2A70K9Y1gBvXpobj3W4WQ9sCDQvJx/nTybFhi9ehQzPTh0gb22yBQ9fgM3vQNQUr34pge9w4dxvbiGcb0AMk+5CNcGPBw6vDw+2GQ9Gxw/vZszMb0aykc9Rlt9PenfjT22P4K9KWeYPWBecrvgi1I8uKaVvUZEKb0ueaG9oA5ZvZGDlz0Uw468ZxGUPQ66VL0spb68E3oSvRFfmj1Anim9GIEEvP7fAT37Ehi9eH4avWopLj1KujQ9IKwtO/tsgr0yPUA95BX4PGjoOjy0edw8KZ+TPZAIL73u/p69AEgCPEbbIT3Af7y7CDR0PEBPrToSmwM9c3xXvewt8Lxu2HK9UERVvYC6RjzIqB695kzlvCbBq7wAU/K6rtgFvSwR17yOnFg9QlIFPXv7gD2m03C9RmjTvJ7CF73i9mY9jIjxPHwhuzy8nOe8Rm+evdZOaj2woyG90x6BPXpyjb1gi2Q766QqvVpIbD1gP0m8uGACvQZCaL0OrmY98giUvQBKhLzSuXM90g9cPdKYej2Qbuu8LsGLvRjxRjzxTo89AGyiuIrkWD36r0I92Mc4vX7UVz0CIEI9Np8ZPfy9hzxNu409zPi5vNYiYL3IohE8QikUPXC4/bx2lcS8nqIavVBLsrtt+KE9Ou90PbZJMD0mZ0G9KWaPPXcFmz1WBrm8hqLSvAiLlL0QDsM7bcOnPcC+Z7ygPmG8uF1Bvbo4WD21Tac9NkvZvCgZQjyAW0g6b8uePSwMkrxliZc9mC4ePeVfqD1GZQM9bV2LPZaoDb0KnqK9y98ivYKKTz2AAnS6PjYmvYZVAr0eGJe9tqQyvQBJyztwswO92A5EvKMKE70vqpg9kgMnPSJXfT2osH+8wAzIO4zpmDyabaW9GfmMPS+AoD1uSA49CnRNPQrTYz0AZD29MxFQvaPINr1zzmy9FZeGPbtjj73TRYE9sCUgPcE2iT0SSns9yO4hPBa497yjIII9ZsBfPaCkgbwi83g9Ft8APSK4mb2EeKA8xoMsve9Aib1YJB49EpQNPb2ykz1DeJm96HRtPD7glb1w06e9UhkNPYO9gz1EXYi8zAGVPHuSob0o+QG8K9+XPWJ6OT1iMS09oLXgPCDtHzsCBYK9UhtDPTKoXD3wZIm8AFy7OkzTpjwhZ6U9cF3vu0ihFjy2sl+9KsVxPUB3gLpAGtW6Cl2PvWDbADxeJhC9ds1ivcDtqDrERJW8dfqOPZe4jL2Szz49MG+UOyJ5XD2S6jo97zakvawjhDyArIQ7iKACPWy2/7xbdkq9QEOXu3NpFr06gno9qn1CPewai7wXpKU9w6eRvfacrrwYfAQ8aigZPYQAkjysKeA8KW6IPZ4PdT1usle9ACC/ui9xij1qpCQ9eOsvvXDgTb2YUmg8iBUgPWswUb3AdFe9qNkoPeawVz2E9pU84tZ9PerEBz3mwTM95pxpPS9smz02mUI915efvRtjhj0puZA9oDw6PFrCfz3Amvc83TuOPWcWo71edy89pIy1PN5mUD1ZlYQ9uFcpPHvkZb0OPHy9DvEqPWCBlryAZwc8ABr3OrGcqj2sv5E83iIMPR6SfT1CiVA9YzqWPaAbnTy+OJC9GXSnPaWkjz1oXCm9WOshvPQB+Tz7xVy9TnCpvUB2ZTyQ1oi76C0MvO9Chb2jToQ9XOKyPFAp4js8LIK8sphFPc8pl73w6Je7qLuavW5DSj3BnZU9sLzUvCRUnbwb4mS9AEg+ugLdUT1YRVs8qIUyvXCfLb2YLxO8IRmlPYShjzxqQzA9dibuvMbFAr06eQw9ellbPZxpojzA0Fy9W7uNPQY21bz2FeK8zAONvMofJj1WVUE90HToOyDsiTxxBqY95shFvS1Iqj0ddZw9shVmPa2Jnz0opxg93biMPRCyTL3umzQ9UpkrPUyr0zxQJJ48wuB0PSurI70QT/a8mjGlveNfJr1WRvi8QNT+vBikEbx+zUo9VDaGPJnAlD2J5ps9ZECmPCCw2jwYdAo8NO2PPJY8Az2g5gc8QqJrPfCQyrs/FYk9kOqVuzaNfD0k5oS8EAeNu+a5Mz0mMRa9QKqoutscB71CGxA9hrI2vSiULDyIFDc8u8+jPYgtkL32oFS9oGOSvJAttjzWf/i8bGGhvCi+aL3szP28AJoAPIwvpzwMA5K9MC70OzjOJr2aqEo9WsSJvQn7kD2sAvW83jkHvba3Rb2weJy9zMPkvOQeqjyg+lU76BFovPCHg72/dZI9m6icvQB3j7ogJnE7ytlGPSCtSTzuo2i9kHTMO0gucbwm0wY9xNbBPHz9/rx0eZY8IwmJPU6HGr3K7Tg98BOrvNcni72QWKK8j16qPaCFYrtwr+U7je2MPcYnPz1AJ6S7AA+6u5gxRzzGni+9fA/svHCy2DzbBKg9ABGsu64nAL1sjY29GsQ+PSDxBr1GnxO9UltbPbplej0odnk8qm9nPR6mID3wsxQ9rEq/vFDsaL0wrtQ8y3eTvdBh/TtgOVQ81CifvBiAD7ycwv48l6mSvZl3mD3OKAi9Av2mvbgmQ7y2CVa9ImyQvZjOALyK5Y69/rpnPUdbpz1dc6o9QVOnPWa8Sz2AKOM8XAPavGX0gz0mnl+902iePSIVLz2C5o+9q1Smva6ZNz287d68XK3hvFMqfL2RJaA9yxMmvbjfNjxwo7G8KBA4vMYflL1ATGG8EmITPa49Yr1AeEQ8X52BvRC9ML16zZa9R/mEvYQQ8jwblYs9g7FRvRRt3Dzc09M8wnIxPQyUk70uCgm9GeKdPSheaby8Y4G81mZHvWP8Vb3+0Vm9dOakPKA3iL1q2U89TB+IvLjJIry2TjE9Np+5vNB48zxGoRa9IlBKPcg2DT3Ln4K9lktPPdBpqrt0w5g8e4WTvWDccTvlGJ49CBkJPTL4Tj3u7I698Da0O7gQbTyQw7O8Zur4vDQfhryTYIE90BTXvH5EMz224iy9AN+PvG6pOb3Abps6UjRyPZJ8ir07gQm9II0kvPCBqDxAefM8mHAuvYZInb1DiYY9N1uhvX+plr2DIIg9G7wGvSD+aTy+dEE94JqPPDUjiD2pXKY9PlxvPajwKb3/bKM99tIUvaLXor3FAYc9ZH/KPI7XVj2QFIe7gNO6PDxNg71Ccou9OxgMvaIufT0AiCO5di0fPQjDer3wnKG84O4kvL+Hh70AUp69MvAAPTyyojyCaUQ97NDnvDKsgr1I6yS91Z6VPUviTb1zF2C9Sw83vWgXgb0GfZi9gO9oPAKyh72C2Ds96zo2vQDM8jwOZ189OKwRvYePiL3si7c80yOjPRoOPj16WVE9Xq0gvb7FLr0gr1287hJtPbjIoL0wAqy8iKkLPeB/O70Izki8jLWJPP/chD1G5fW8/rhpvXJCTD1eXH49gA2VvbicbDwQrc68yotBPcrYh71NZ4k92PRePKhnGLx4DFs8QXSDPays8jzTnTW97pJ1PWCUfbuCZlU9MlZ5PYCsZ7pIOkC8gIjiPLOGTr3YGKm9MrwBPS75bD2UQNY8QKxXPEtxpD3ueTm9eMh0vZd/nr1g7HO9PXCWPVZIGD30MOo8CzMyvQs/iL00dOk8QngIPYBuQroYIkI8oITbPJEMhj1Vx4Q9LgNuvQiwGL1rb3+97YuDPRI8cT0YwQc9IBMlvFoVaj30QdY8SvBYPYzhhTwzn4E94lVGPUN6XL3EhYY8Evmpvf/bjj1a2IK9DoWFvfZicT12Q0K9+CUdvFjKK7145X28GgksPVBvtDtkiZO8AKZRvWiPA7yRA5g9iWCcPcuFmr1mal49ctpjPRPZlr12xEE99mLfvPlmjD1TPU+98XyaPX4JKz0AEBA988NuvVCa/7tyLQY9slWUvZTgmby4SUI8AJOlPMtcm70wHIq8Qyqevbo3aT3mo0W9zhwEvWBMHT0Ae7A82rEuPYBvfbzru6k9rpQUvQm/pT2GIzm9qJE9PE6sRb2ACiU6CXOpPQ5Eer0w9b8762ZRvWgtOr2w+ly9+jxHPQAF/TqsaJE8EASCPEJFqb246Ia9gDZhvSC0ULzMkps8Nl/FvHYun70hsIg93DOHPAm0iT2edkc9Zo9AvZi5k72oVGA8/2SGPd7kez3jwDK94IJfvLIVOz0aBx49gJANO1YZzrzU6r88OR6RPZ8Djj3yuJS9tRSGPRPRgb2UQsI8gIdKvWYJaz1Aba276gJHPWZWLj10O/Y8Ckh3PSZIRD2HaJc9jKqAPDBpWr2IixU8qO4+PMJbaD0mais9KCwFPJh1GrycW4u8wBK8O1BpnzyA0/c7Oo0yPdQYqbygUw+9xBuNvJKVej0GCLC8AY2NPZLFdT0MRpw8TiQNvQijHz2QlZW8DvpmPcCkd7yojQg8kNyAPMo6dT2SvzI9eBxsvVDzg7t4YD+8iA4HPAbeXz3gkh484MsFvVTfjTzgkqW9hMSfvWyNi70+AUM9AMoJOuXXgT0Qnsu8YCFsvHamdz3GYOi8GMYqvFa7aL1w5+m7sPGvO1PUnz04xiO8wPK+u4i/cDxYJgA88uAtPZDBSL0QyGW9ZSKIPQJiTj1E4bc8pv3NvOFaqT1YxQ48eRWnPaLOOT2jtj292L4Hvbg9M712pfu8QoumvUCPfjzzLEC9DvJZvZFugD1BjJU96dWGPcbnHL2gEGS702BOvZBUeb0KxC89pE+7PHM5lj2APt884BdVuyBIfbtTFYC9JsvVvAjmp70kipa8mu99PTAgorxoqyW8sD+jvMuDgb1PP4W9aSeHPZxu6zxoEgi9gAv7O/vFlr22lHa9+XiRPTcIkT3YP288Op1EPbSk3jyQiZM7AukAPdQ2hLxIDSM9EA6lvZhwKDz27zc9fnxCPRD3gLswtUC9XvccPdySk72NaKY9hL64PHAetbzwnOi7Xmw5PcOyer1TH3G95o5WveKHXj1eeBC9iuJZPRaEU73oURW9074PvZ23lj0TInS9AEwePI5CIT24swa8xsF+vWb66LwGW3u9PqhcvcANVbyA4iU7u/oXvUAJnr3FwZ09toQ+PUiCOLyz6hW9OOMJvGPKj73qyHw9gDlnu+6XDL0+cXI9ZskAvQO2IL1Qn6W9IInyPEYDyrzQrRq9FrxMPQAymr1YhjU8syOLvTCGwrwaPFo9Em1gPegqh73CmAw9BnXDvIS8xTyWyfC86RaJPSgRhL3j2Hy9tb6LPejRerwAjCg9+ryQvc70NT3WjyK9SP0VvBkfhz2WbWK9WHVbvUBz/LtwQ8U8Llp4PSTX6TxWQ289QGcAvDoPeT2AH2g6K3QvvQN6db2uO2C97lZ8PdD87ztAT807K+BevQsGHb1yy5C9XmZJvVhparxYglq91mlAPcq/Gz1YRn+9LsBbPSBDVTwDfhO9IO5tPACcmrmwvfe8KNA6vDBVhjvN24s9lpcdPeIHXj0AGya8pn0NPWSjlLxZ1oo9QM3oOyAdUb3eTIu9JvEiPYaCKr13d6i9fmAjPQiZCzzWNng90OzbvOprRD06YRc9CwiJvcBxibuM1pU8bP/uvBu5dr2GjKq9BLOEPNaG/7zC+l49kBu6u1qgmL14FmM8gI92ugxsubyQvw89o9cVvaz1oLxfm6Q9v3mEvSBQDr3wUNa7jNHRvCiedbyhaaE9AE3TvPBaKD2Szom9cIHavMYUNz3ICiq9WsA1Peb7LD18kYS9XV+GPUC0i73u6QW9MLT1PMi5arwApF87ml9iPSL+dD0iJEg9tpOAvYC0UboCGX09Sjg8PYCyYr0CnXg9IAkwvZTDgbw9hJg9wMOnO57smr0qtYW9gJSTvMOHA72A8Ey7l0qoPcO/n70CKhY9EJLEu4Cr/DxdkYs9oPZDvLlBoj1H0Zu9nInQvMCypzsATU67IJO0vBCiyruWqZ+984eFPbBlKr2I3Eu8L9mIveQ9qb3A/3W9zgQKvfPcHr3wh8u8Vo6ivUwPvjwwSY689+qgPYAXGT0+NFu9RPCGPIatNz32NTq9OPtdvKDHaDwQuna94GdLu6jJJj1MGYu8I2qTvdR49DyrO5I94tBzPUreZj2O6SE9vodCvQAhBb3GwyQ9sZSgPeDBbruA8IG8nJnVvPH2nD0gAYG9RkabvexNwLxt0qI9cyRbvTpPOD2htoE9pO3NPPShkbx0QPo8r/ORPdNDmr0Nq5E9CAhMPMJmQT2KuI+9wGr3OgAx/TnLnpm9HKmDvNI/Kz1eIjC9LsgtPaE0qT2SxUA9I+kbvQDJmr2YsAs84LlGvYDIGTqhgpI9MOmou5yBpLyVdIo93QGqPYCzfL1jy6A93JX8vFhtL7zcLra8XGaHvICsLbzgiA28eO5nPDqCnL0o7Gi9gHCAO5BXhLsUG6O9StEsPRB4ijuAe/O7KKwNPToeBT3HEJa9GJ2RvZ0zlj3wq169/NyXvNqoej1jeIc9sM95vctlXL2yolE9y6IyveD9ZLxwMMK8MMqKvCHmgz0/nJk9EvqbvRjGKT0rtqU9wJz7vHmRiD1ntIM9aGRvvJCEu7v8mYm8usFHPUDBujtmlYi9SotuPbSImzwgHJY8+ySRPZVVkz14FaO9YMbjPEqcWT2YjAo8KKhXvR6XJT1k95y8no1SPealCj2LYYw9AJmsPCZGGD1SjS89MDwDvUAaqrsAlQA9AGKPOn4RLr0croo8ANZ4vBwN1jwYHmg8g5GhvQD/wTqAnrm8LHO3PGztuDw4Jgc9cF2IO9IFZT14EJi9wCQuPB4wSD1wLrK7G3+cPchrdr1MMe+8w10VvWoOaD3ECsI8L1yGvTaBtby+zRm9wHY8vFpBSD1ufoC9C7WhvSbAWb0jMqq9Gnt/PT6zP732U/68FBGLvGrCWz3PQJg9612IvbAUkr0aPoS9DWubPXG/kT07mCS9NrNjPfGVkj3AZ/07+KE4vPsAML0AIBe99qrSvIChZjrDHXm9vDKXvQpAHj25CKA9ul5YPUrpRj3mpGm9wNSyvNgLn73wypW9i8YCvduMLb0aYT09Wod0PSAQFjtlL6M9YHTnvDtvpT2Hu429QBOSu2xUrrx9uKY9W8eVvfdNhz3ihy89sr5+Pf7TEL3+Cnw9FLrJPEA9rrqmISW9jAiRvcq5OD2AmhO9sM7POyU2jD0yBBk9dHSSvR4zaL0AegI8iOyAvaDaUrwbJ4M9MEA8vfCK5jtFX5Q9wHznO3tpZL3Y5hC98AG2vMyUybzAib68jhZAPbM8GL3r5Yg9kPAMvWRg9zwKy5q9O9NNvfNoXr02xTq94G1wvfzP8zxOaZK9eISovQ7fOL0wuh89uACavYj0Sb06o4W9gKAQOvK5RD2oKHs8xBGTvV0uiD24IgU9icSYPWBN9byGQgW9PJ+JvVYoVL3sg888wMEDvQzCwDz8mf08jhFSvX9qjj0QUcA7rvhQvVJRLz3gMVE8cP5NvcobWz1ge3+7EyBTvSgaMbyz7pw9oNUyvaIqRD2ohXe9KBs2vKgoBTxAXLY8FITGPDjggb1gdWS8YLgnPb5dP711EZg922dAvQ2jnj1jXhq99n7TvPr6Jj1B/pk9SsZDPVblez2W4/C8alU/PYzbrDygFwI74tpNPRqtez2oOXG9orBVPbAtAb26PAw9exedvbjPEL1+DBA9HyKDPRo4i720s5i8gsB6Pd5EdT2QuIU7W8qOvRS16jwC2nU9nOP2PLPjH73irl89CIIhPVNxnz3ArDq9dtNtvbQMqby2dQo9SCICPcc/kr3BpII9/OXBPJscOr381Nk8JrWbvcLTCz24hRQ9LtEjPc2slT1XWqi97HLavB3Foj3AVmy9QOh7vSOjkL0cGYi8AZ2nPdQcnzzKPJe9EiYoPeT7hTy85Im94O3GPHAHoTsIoTy9gOCou3AXvzvsube8QFf3OtmMoj2bFYQ9KuEjPYBbzLzPWYo9Jo0dvYCeEDwA9J05aVGpPehKDb2BJYc9wqBXPdl2iD3SgG89ct1YPUzhnjzVxZQ9Nr4CPRAShrxYgEU8iFt0POY1ET04Ux+8/HT5vPjVYr2Sszk9AAeuPAhocTz6knw9vgtdPUs2EL2Qs5M7fBCivbipS70AARq8Uc2PPU4Zcj2wApG8yN0evUY+BT3YOQ498HyovWxZuTxmzwU9PPSKPNf8nL3Qva27iUaAPa6ta70EoYK8ALHjPG67db06flo9eHJavVKFNz2glfA8oKO7PEr5YD2Qa/A8on9IPbK8Oz1AG908yniIvf5OPD2Lg409MPpevU5KHT3Kr0I9Ni8nPSI4nL2s2NC8PeifPZsgO73sJrk8hfaTPUDZ/Lz76Ti9EPKtuwCyKT2e+CC9AAKVu5Zwfr3t24A9m4oZvTB2Sb1QSwW96JwmvFM5Ub3wjYC7lBaPPGpdQT0CgG89r0KRPYD7aDw4nFC9YJLHPGAfSTsouCW8aL5cvT3/oT0aI5O9HFX6vPwmojySm0M95/ifPcZUBb0NGI09GGh0POBXj73AjqU6sE2CPLpZcz0MwKs8wI1SvBS+rTwQ6pW9G3RDvUCmz7x5v509yIYpvQB7Hzz/V6C90sEYPciiJzxgZzG8SIgBvXRl3TykZZm9VkA3vZEHqj1Wgx69TH+xvJsTdL3oUT68Ur9JPShseTww8Yi78pQoPUM8SL2Udbw8AGgLPZYzb72YBHa8KOsHvPzs4jyjFG29YHLQPNJKAz2so7m8+uwIPdZ/cj12JE498IWJOwYVOj0g0Y08kHaNPKAqmjyAhwG8s7qjPdlVgD2IXgu8dpRXPbW+gj3OlVU9keuJPeyl0jz7a1S9nmNYvX13qj2O90q9ADMHO1mRhT2g76Q84G9gvBAcXr0oSEI8bqmPvXMZC72KBRA9SMpvPIimn73+x1s9sFjyPCgQczx+yhQ9jBHZPFS7rzyUfJW94OcbPUzn9ryqCXw9XfmTPfC3Qb3AnTa8qHtjvArKMD2hxZo9MZmIPcb2cj1AiOI8vd6hPdBeujxLBJs9BWKbPXiuJz22QLa8ziNgPUROxjz6xXI9otZyPfhQa72uX6S9T+2RvQ33gj1Ldak94By3vCvppz2AHju7fkKcvZiXkr13hpg9gpB7PcC2ob3AUYE86QuCPfhEEb1oshS934uZPSyA97xmpnA97X2QPQ/ik70I1Qq8CA1vvZF5kj0sp668W4sEveDnfbvU3NQ8wu5EPXOji72jGG+9e2elPcMekj2exjS9FySfvTywpb14oHA8hkhYPQCgkjwYCBS8sPAlvafSpD3Znqo9qlgePXi9B7yoHFu83uBzPe9ckb3cSPI8YIFKPAxvyzxT/pM9oA8Ou0iKAD2B9oY9jshKvb0WnT3XHYK9/vqEvTCMsLvNPI894tEyPVb4Zr1o8XY8V2ehvdZyRz2werw7qxylvfNqCb0LWD29yC8tPG2XqT0QCsk7kCGUO9CaY73kH5M8k4KMvQBNqbxCkT49ALW2O9iIWb1PcYA9wrE8PQ7bpL3o4ne9iP9avKYMab1Lw1y9IEkpPFf/nL2gDd88EHiDvINKRr3uDki9QwupPe5LOr07Np69pnqfvU4jcb120oi9O1JlvTDQ5zwOEVO9VemPPdi4bTxrE1u9xpdgvcBH+bpdeII9mjhcPV5KIz0y9pC9etaUvXvLd706En09knqDvWBJaTs8VYQ8mgdtPeAfXTv3m6o9UIi0PJA++TsOszO9qcOoPQiqYDytJYY92HdqPLolTz0qDUw9K052vXAfgDzwZvO8cNnavICxMLrV/6Q9AI2xPA7HWL1owAG9IMTevPA+szws+tU8gM0DO4Tmj72GA7q8w0qRvRG8mz0Gwge9cCdpvUbO5LzRgp09INQmOwOQcL3Uddo8m6qNvUAc+TvzV2W95ZyZPc7nVb0Aef286rZsPSB9hrwAqLc6OJREvWqojL0ip0Y9M/eivcBGoDug2HO7tBqivVgCIjz1loA9IBHvPH6dbj1I8CY9IwmRvTvhEb0ZgJw9Li6LvcD3wjtIcgO9RO6DvHDPBj2Tlg69ps/DvAjRazzA2zG8rm9kvQOMI70wFqw7JeqTPWSUp7xFGac9d5SOPe+vhb23poG9xtoLvQDDi70SDTE9XNmpPEDoyLt+pA+9ftCYvYDDT7o9E409S3wDveG2lD3W0/y8YB9Ju+AHdLx1VYc9w6WMPQNxcr1gOPq8cCtvvZoieD0Rv5k9deiIPVo5dj0wUxw9kAuavbORiL1AKpg8MjuhvdqgGj3ktsA8+Ok/vZ8LqL0+RFQ9C74OvY7CTT34uGK8294YveBjZjwM8d08wFyvOoerkL1g54m94IiDvUx0j72mXww989cBvcDrlDtGqhg9nnUivbgYLTxgGBC7fNibvABkk7pNkYc9qnFwPUDF6zrYugA8a29gvbtDZ737QKa91uVqPYqdQD2AIcg7LnEyvapKfT3y0DM9E4SqPYi3FbyGw3y9RsKCvUbNhb0gHRO7ILk9veQYwDzQame9UFatOzIZLj2q7F49Jd2DPRpYXD2gqOs8MOLmvCeAm70OxQ+9zHqMvY7JUT0IKSw84EMFvXW+mj0AhCI9mQWjPaNdRr1SB3I91aOqPeXSgT3s4YW8GzBqvUYPNT2Af5W91zmYvZwAlbyZK6I9YMExvPrGOz1yq5W9sL6ZOxqtfz2/t4Y9JzmJvYBYWr2QUGu9APJlOaTirTxgu1e8uCkNvCJzpL0S6WQ9cPF6vRA8mbx8cvu8DiqAvboFPT2UHO48jAbBvIcaib3sL7c89tRgvbbX4rxMjI+88jdoPZZtdT2CJ469QQqFPUoNmr18UKo8mg4FPUDG9zyjTIA9wa6mPQD2UL0vMIa9YNg+PJsCXL1vAae9PpYVveg2GD2rBZc9WJAbPDu9C72xUoo9Rf+XPThXSDzSvlc9TOezPJRnjb0wfaa9ho2pvXDGIL1UU+I8WKI5ve5SNj0KqDs9bDWwPPujKb1j2DG9zeufPeryPT2IQQY897mYvUiCSb326Cs9gwiWPQCwmjjwpVe9hg2fvVgKa7wAQCg6NgYUvZbyAz3+XGo91uZ8PSbjcL1wmRQ9XaOMPTR9hbwOiZS9ljF2Pa9LhD36qTs9BmRXvd7IV70bLFq9EA2LvSaYSj1gNw89bSujPcr7Dj2YaT4883CRPfi9KrycnZm9BmrmvKaSlL2gLWM8eoJRPcCtirrGB/i89JWtPNZX67yrn5u9zcKIPQAH0Tv7nwW9SOEzPOi6Kjwwkwi9Wi9UPWh3qr2AGPY8gEFnOx4DS73wsu48qSuePVQggLzIhju9g+afPROulD3XNo+9NKj/PNLlEj2ECpK9HOzAPIDf8Tsc4cy8cduOPcLthL1OB1C9oCplu3Ar7jvh6YY9QHWTvExRzLzTiU29GBkCvfBrgzsw7hE9mHAhPQ+6oj2w2as806NOvcIAp73mGqe9682ovVmxlD0KKaW9QNb1PBsAhT0E0ug8JuXAvEA93LyQwcs7aFMXvVvSPr21OoU9cDfFu4Ch4buPNoS9MISrvESy8jz2SSA9mJOcvVI1fD0iwjA9O+95vfB7tbzuaEY9nOu5PDDS8byqdoO9CGJYvCvEIb1Cklw97q86vUDgrTsSaou9UsigvW7saj1t5Jw9aH1PvEHCkD2eM469AJ+yuW3ZqT2G4lW9SdmjPWxplb2xJZo9AFLqPH2BmT02p7G8VoQEvdicQTz27rm8pvn7vEo6or14ngS94sZXPZO9Pr24REy9LdOUPWycoTx4SXw8Zs8ePf7lTr0y2Qg9IKWMvairFzyAbaQ7BhA4PTr+Ej2Y1Ro9SeegPfCBpb0uUWu9oVybPUtnnT1QPpe95BKAvRHtmj2QBRu9HEKEPICNKLpF+YI9gGLzO/JKbT24NVW92zFzvfv1db2DNYY90BXkuxV2hj1b4j69qtEyPWjoeL1Am0W8y3wXvRq+cz0shuE8EmAWPV7oOr3cvY48cHDSvIhrML2xSIY9XigTPWtVp72OkYW9Jhs5PUCxIT16EkA9YDPUvMxJy7zQRIk7szxeveAy9DwWV309sO2sOzB35DuUqus88LmkvaYH97xwYtY8WbmoPZ7QHb2ALK+7QGWfvJilj726GgY9iLMFPLAZozzKeX49ppAuPeXvhz0yni49IGpWPJXSqT2QuOE80vlOPQeRmb0mYRY9ovRwPXmfpT2mICo9iHOlvah7P7yQNY08pE/sPH4tGb0aPTY9iANxvOzImb1GIu+8APKNOjggOrwGZee8YHuavGDH07yu6DI9LoIZvcDsgzvKcY29rv8SPaqbLz0Elso8JEuovbKnaj0cCsg8uMmDvWP3mD0AAKY8YoQzPRpRqb1mHQQ9Fi0RvUeZjz1Ks1c92AMCPHCs3rzgZXK7HshUPUDQzzu1P6o9+rEwPZgKAzzIhmY8CPJHvRY35ry7PwK9siwNPZ+Wqj0DMDK9UMe2OzQV8jyNG6o9prKlvV1Fnz1DsGe9Ric+vRyqk7zQOo68PIS/vEoZPT1R8J09oD0nOz+Klj2HyoO9GvZqPfBCCL1eaXC97x+qPTANrTxpNqU9kthuPSvue73wkcO7TioAPR9hpb2EL+I8JoVEPeCNervwnoW78IniPD0Gnj3WM1Y9ZRuPPbzp+Dzuzxy9atKVvX5lLj2GbXC9+Ip6vJQEj7z9zog9rmtXvXCT8TwArRu8VPG7PDhDUjzoPGW99VqbPa/IiD1gGGI8AMoUuTCS2jyIvHu8xtJ3PRBmvrxmjwY9aoQ5PVzqubzrDp+9Vf2hPR+ji71CNnw90IatvJCXsby1v5E98EmcvOrFVj2w2Qy9sZ+pPd6OWL0cxIc8aMsYvCyQyTwDUoG9AaGZPXDKmrtBt5U9oAgTPJWIqj1oBHM80J6OvQARFTzqDTc9GMsfPXTVwjzqfF09MG8rvXaqir3wqXa9piYNvXRShzwoPES8qB4DvCJKhr2DuKK9cMK+vCklqT24P4K9X8qiPR8Yhb2bTnm9vpwyPVjoG7yUH4G8C8aLvYyWmb2gp0u8pc2APZhJWL2GvmW9qEA7vcA77LqLehG9lkTIvF4Xib0U3/E8MKLsu0DKxjp9n6Y9sc2cPSg7fLxmrci8dkCZvaADVDusDYe9PKSOPBYAdb0Els08EPA8vZ5rRD1ebUi9xFi6PH76T73AEcA76+kbvfF0jz1bBSy9U3YVvXxh+rzO6BU97OzevFaBs7xQnfa7AKb3OlUPpD2tQZw9YLOQvYSOkbxWtOW8uPl0vbdDhz0MrNu8oDUlvNU4gT18BJA8dTKKPb1Rkj0/85W9sDbAPIBGlb3oC0W9APSYPBSoj70S42c9QDJ5vfSuxjyoHWi9Fl0qvSABezu400i8sDoDPRwQ5Tx+YDA98m1hPZDc+Ltbb5096Z+GPTTxmDz7NXO9wGA9PKSA3DzYywo8QH6Du7AP37s+u2k9HFbUPCBgVjw+OSy9cc6pPT1YqT1EXcM8MCzAvLRnlryMFsk8kPLHOxQfiDzpmqg9oI0fO2rRSD3SgGQ94PsPPbHxhz2hfIU9LmVmPSpoLD28UIu93HvaPLD1FD2b8nu9/gAWPY1Thz0Oi129kATEvEptEj2u5xk96MBevfz5k70wMtM7kCu/uykplj1wW/E7gA0kPQC1hTroYXe8JgkWPX8/pL3+GCW9mX2WPch3Hz1+5iy9YtEOPUiNBzzclck8bKqhvdgDML3U9pe8Hv9vvbHSqD0Zy4I9k7cPvYILKj2LMAe9IiicvZnNpj3W7u28dnIqPcCZwbowPco8AAYEvVAWujtaKmI9fBfpvAhDYbySYyA9NqvyvMj9cbzwyL07OCAhvdX9pD3k6rA8KJcyvDPwdb1QrBW9BgMZvfcelL1UoOw8y/wCvWYxgr3StWI9Iho7PQCMhrpeWQe9C66nPaJ8Qj0GqOm8ulRwPZg+cDwYijm8LEKZPJJ7KT1m2WI9OEEoPOI7MD2LChm9nr9cvVwVnTyA7HI8YBwQvICoSrp6DEI9QHe+OgBSRjrpVYY9gGXUvGlegj3m3529RoQFvT4ZZL2bOFq9sGy3O4Tqlb32nT09wHHEuwDALroICG08wtd7PfCj4rvYhGu80hs3PXyu9TxGvY690G9mvSC9bDtN8qU9eTqCPQAAkbmDA4k9e214vaZBrLym1mA9qOEsvVyc7LwfPZi9mZqePRgkbDz2zis9cDSRvKhrHL1t7Y096BI0vLjefL24Qxs8XxyjPYjEDLwg2Ga7oAG8PKBsdTzbEC69AIhxOxLsWT2zkZk9lY+BPZLCSD3rr1O9cET/u2OJB73MlpG9g36QvfFonD2nppa9qBoePHgEb7xI8y08gN8fvZsBer1aLk89i8xRvXqqWD2QlB+94LOevMvwmL3N/YU9oERIPMAjvjrISAQ9F6ORvbKPLz0NOJc94jd2PWZ4iL3YKn48RrpbvQyMxbwAnjE6pFWKPLBRkL0CIhQ9COhAvYDAObuAY/I8ur2AvYAy5zsY3BQ9HDP+vABGuDv+t4y9CMJGvaqbXz1w8GW9wIjwOk4JGT3DUDW9OiypvSCXczsGqHY9aGouPHICLz1f1IC9LhMnvUUxkT3GbEq9YWiFPcENjz3OZ0A9UOOcO8AB/rs65iI98W+PPTmphD0A3QE80ot1PYznmrwgfxG75hrTvKi1bb1Qz/278F7EvBbrRz2wGAo9FbmMPThhIb2uupK9rIusPC9qmD18wpo8GLAIvM3Xlz0Uz5a9aAgvPKBXEDy78yS9XAyOveuuj73Ghkq9GpsvPRx/nzy8RbU8As8bPeJ/m73ovBU82qCQvZ6BDL3elwY9IPFTO84cBL0c09Q8Y/57vRbosLwcipK9riVgveZE8Lyaap29+QClPQCmhb3C4KW9hDGCPKPEf713uIo9ABl+u5xIgrx6PqK9s2NJvSyrljwo0TM8UNd9veqgob0AtgI8PimXvc3PgT0YWS88hvu6vEQ7h72CijI9ZueBvehwNjznK5G9IGEBPIZuLb2QEd+8Wy+EPbjmBz1IAHE8q9U7vRAPeL2fyKA9AC/6uksNNr0wDZo7HoFePduQLr1W1Zi9MAuIvWP9Zr2i0B09QCoAPJSik7xI3Fi8xsnjvICe8bsZJ5c9YGL7vImLoj3eNpO9IMhvvTLDkr1g4Bq9PbaiPcDnHTwAlBm7YOKJPPBtjb2w6KQ8shhZPXYZ27ycOrg87kiQvY6VoL15daQ9Y2acPbJAOT1kraS97JSRvMD8WDzfDZW9WKgLPAJjib07xVW9pFmnvDJffz221CI94hmlvYA83jzRmZw9SKoaPJdPhL34Fgu98BVZvbpHFz3AP1I8w4SbvQBUXL3JioA9OvB7PXZGSz0dwZ09QOnmPCnrkz0IsGk8gyw2vVOnmb3scP28SzySvdMSDb1gkUw8WdOCPVjQMr2aRW49vWCBPQDMh702oW09LZOpPRRCgL245RI99wSQvTwkmr1QN+Y7wAjEOvOGoL1U34083eOWPaGjmz3w9pO7duM/vfDUmbzKBUU9INdQvUB+BbzT+CW9JqXHvPN9YL2Whu+8nCeZvfawDT320B097Fz3vMb+ar23+Ji9IHhePAP8RL1gfze8RpMcvdMGcb0DlBS9YA0+vYD03jwAAJ68OM6JvTKzZT12an29ykluPTJbjb0Yfwu8rGadPNRHrjxI9hq8YPRgvOIjTj0opYW9wF8SvfIefj2oEVq9NZSdPZh4CD105q08U/9HvVgbcL3u0Eu99O65PNjwmr1sH4A8YAoUvdq+cz34yX48MJvnPOr2Dj23JZs9ZvFdPbx8ljwBd589gEwHO269Fr2yiEw9TtcQPXp2dT1e7Aq9EmBXPXYof73gK2U7ALrsvHGTmz0AkzU8SiNoPey8tzygJ5K9w+IevWNBK73ITzq96oI+PTj7kL3Aioe6VooiPfuRFL0Cujw9kMbHu7CZybytUZs99SupPaZpjb1JN4Q9lhFfvdzy1LwjrZS9hk9WvRBSirtesCM9uGgJPPDpgDtIJya8LlpTvfB28rwmKvO8CWGMPUCIibtNM6g9JtIWvcqvHz3Aa+q6nNPPPOAsHT0G2h+9635YvbZGCr02tEg9CI5jPAgqU7ww3Ui92ryJvSpKDT2cW7G8q/sjvcj0Ojz83bw8jm9xPSbzAT2m4Go9jEqIvfvUb712MmW9Gi6ivcjBVzyAtwi7q7MGvetQqb3+im69QH/5O9Dy6TxyCGU9gBCUPHBjTb0eMgo9bH+CvFYZg70QOpG89VKPPbKyeD2VPYM9EKvtPPm3pj2alRc92HkYvJhAT72m6n09VlhhvVbRCz2irTc9gHyeuyvDHr1z8h69DOHYvAo9Wj2yPoW9zgKKvU82nT2gOxU8BrPMvGiVf718G/u8YH9ZvZAtIz3LaZa9QK5jvJrvqL3I13e8wLMXvTjmbDzLYpe9QEDBug5CEz1Y8Ua94EYUPF7jTD3mpB09pcyEPZDP0zvM+6C908YJvY7BCD2sI9g8wJ77OtLWfD07QDS9E4o9vQYI1bz2qmu9PstcPYS/wzzrHES900tVveewnD1ejmg9Os0mPTgpF73K1lI9MOXXOxpUST0jv2y93LH+PIhEm732sB+9UNznu1Emhz2wwQA9SBdCPPyM27yptpI9r+2jvRBnH71oDW68qAlUPJzsu7xuexk9w+SUvZBEN73MzJe9DI+iPKZ4WL0SUjo9xjtaPQDT9juAG2E8RPysPNzjpb2g9S87kI4xvSiRZbyStwo9e1GBvdz9xbzgG3+7/x6avZE0nT0wMBG9ifuEPVo6ZD1AqeU8BzmWPYgoJb0g+JE8rFS5PJ6Vbb0AWOw5OvZ2PcG1mT1qqUo9jgkKPTDNmrvoNZe9cNvWvHafS70+UDq9eOMuPEBhYjxutly994iivfQ47TwsYYu9biWYvQLMCT3cAvU8VbymPWs1Br3QV4c8GxKdvThdFTw++Bg9MPCAO96FX704BwI8GEZ1vHYRLb0AtaE78CmVuyvuWL0ATSA93Lz7vACdET27h4Y9YF0buyx8jbzUv4w85LKavFbATT1uHSA9xOiAvbaivLxwt/S8mnWevZP+pL0l3p49nMyAPOpDUj1AUTi9k8lovba9Yz0uXjY9mN5ovUDAazwJ8oU9o3qgvbDnmTvoxCY9xtKKvRfLqD1Y0Bo9s3ypvRZrgb1C6Fk94L9PvQCAVDbQx/u7Jp8XPd4YUL1CQF09Eq8zPbDf/zwAPbs8qhNrPcBta72sK/+8zpxMPQhJGr3mmEA9YOV9uz7MCr3bA4W95lcNvdzIybyL5pY925GCPdBmir3r7CC9qDILvYCH4rxgAOQ84MIUPcgNb7z+tYq9cH3APPZBr7zZuo49oOxquzqKRD1acxk9zzmpPatEHb3cbYu8UDYEvfxFvDxAHeW7K1UyvcVPoT1cBPo8nBuUvDBy17sLZ5m9E4xDvXVqnj3k96W8gmoyPSUMkz3A4FI826R2vWA9Lrzem2Q9MK6RvSv1Gb2es1k9AAR6vRZVO72QLii9j3OpvbqMZj0Dkg29FuFxvaBNYLs2j1q9oNaXPCf0g70ICQ082mQ1PdtQaL3QvOI7zhwIPYhnMrzArwW8wFukujsBYL0LMj+9pnkVPUa/mr3b+mO9ZTepPUdPqL0+Ih29xdKYPSgADzxCIyo9Vsg2vSMvWr0YzFq8ZtFSPY4cfD3CtZ+9QaKfPYidMr38OZU8VbmfPSjuP72WBFA97sMtPRDoTr2c1aO85lgJvRNokj1QzbE7TKrQvATFuzzuRVY9krosPRhbKDzQotU8KLRPPIrUnb27NBq9xuclvbDzxzugBIq9Br5CPd5dfz3oxF88Nh2uvOqEVD38ZKg8HcqhPSwZiLx4XDs8ex8KvY8Vpz2b62O94MNPvVaGEr3Ce0Q9cNaaveuEWb0fA4q9i0abvcjnazw8+Oq8/AiZvIEfqT2sRO088FIbvcDIbDy0Tpu8hlITPaBleTtqyFo9+4+GPb1vkz2l16A9HM+jvFPldL0mOOi88Fy0OyDTt7wyoXc95NatPJbkRT3oYRw9gDsMPED52zrAuOI8MO2TO164fj1ato29jxGEvXLRNT2KuZa9SqSfvaR3kL2O12S9S01ZvVwKx7w4Y2U8gaOmPZobqL3OHDs9OEEjvWs3qj0GCyK94kR3PUuvqD3Q4JC9qAo+veBVWLwA/Os4CqNmPZruUj2n7J09ckFnPdiMETyQYba7gFFOupLiNz2fUIo98GmIuzCc6bzQQOE7Yql6PdgXor3zrDW9JutfvQH6gD34gam9Co1DPXrlJT3zeJs9Z4iHPZ0tkD2HII49DvZaPeZd2LzMoZS8gLNJvFg5F70iJmU9veONPdtoE72IbxI8SOA8vQrVqL1oaoK9HhwKPciRHD3AA5a7/KKuPLcCqj228Oy8w1+hvZYfU704T2K9gJTbvNgMbb3HV4W9oCEjvetpab1BrYk9xwyivcOWhT0KbF09Mj8TPTVloz0MO888z+SjPWaLPT3YllO8hW6nPQ5AcL1AThs9G7yWvYqnND2wMrQ7rgp4PQB+Czp+3gY99rcAvY01mz1bu5M9KhRaPaeWiL0vF489XDTrPHi5GL0bWEy9oH1mvRxE0zwGnng91aqBPeTq0TyofBO8LuofPbBHojtILqO9wEkVPNppNT3LDlW9IyyZPSsnE72g0Qk8Bup1vYhbHz0eC0e9mn46PSWpnT1Gbp+9LCTMvLAGpDsSjyk9hkLAvAZr47woy6C9gPNhvaBsV72NqJ496LQSvIQUkby+JwY9ME5Xvcz/nb3i0J29e0E8vRZB2LwUh9k8fT6ZPS4lTj1P1Kc9nJmevDirc70sjYu8bt0sPeKGVT3YzjE8FiDovEBWKj0S4g895v9sPfgXDbwYQWq8XFWKvZR1hb1VEak9XLj/vGSzhb2AHhM8q+lnvV/7jj3QpvI7QAOXO0bJXj07yAq9lXSHPT5TU73wyq27AZGkPbQ22zybYAK9byuTPdD5Tr2QsJc7zhxavYZYubzmd2y9Gig/PQBxeLzbggS9FMTmPI7hl70WHG49ABqhO6ys7LyY+l28jH6SvM+cn73A/V48o9ClvXgdCDw87Je94BlzPPBY8Tuw7pq94FZzvFQ1mbzCRyo9IGS8vAyyhL0Qjho9K1ZivWiweLxF+Yw9I4ZnvdBf3LzwxfU7NI2qvLwqlTz26lO9512EvcBj27ooqC08PLShvchxnL1sXac8GzBWvQaKhL3+kU+99CqNvDqTeT1Ln6m9A6uEvcsAT71u9Uk9aiNOPUbUBz361ng9AMGju2iNHLwGPIy9hxeGvRWaoD3wR/o8+Jw5vMRs7Tx8Z8Q8xhtaPUjRO7yQGMY7NipZvbDnB72+Y6O99qJRPXrfaj2QOOK7sUCHPUBcOLzzq5m9eNY+vfjDM7zAms081iEMPcB2cr26eKS95APrPHXfnT1K5Uw92u01PXBuS70GvOK8v2CIvZKJKz1gFki9AJuIO4DrCbrmT3M9fNutPPxr37x+TIe9vGSmvIL9Sj3w3pc7VuYgPWOGqD2KKkE9SHYsPGBNDbzYMHe82rsNPYclib1/bJu9Pp1XPQJGPj0cI4q8ADhqu14aYb3OtBs9kHOBvfJJjb1oxh+8au1QPW5ieT3i0089yDYTPXzzuTywW4u9q9Snvdt+IL3WdWm9sHSsvPISh73HDqq9ShlePQBQrDeWRyk9S3CVvWBjO70DlhK9IwI2vYCgdLpAnEc8jt+Tvcw3+7wgXOq8iv9RPTjDGb0S3kU9UAj2OwC4DDyKa6a9nr9CPXjdjL3+g1Y9gOyHPAw8pr3gvn27qF8dvfeqoj1mWKC91uwhPZHwpj2TA469yuE/PdbWa72Egac8SN8yPIDmSzrsZpM8QHTYPBSliTwiklo9/SmYPRDRnLy2Q2E9CKQlvHze5DzQh9K8WCltvGBSTztbvYk9aohsPYBxCbuDGV69gDBau1HpgT0wDOo7SoxwPa6wOb2wodC8bDHkPKawlb2WJXw9AHGaue74nr1Ge349kP3svJqlIj3D9zy9hNWivHjdAL3Ad7q8UHKsO1s9Z73Uxcw8lPvlPILENT3KXgw9QJXBPIx77Lyi0yE9pGTqPC6NEL1QHEu9OwKqvYTVn7zMsv68oaWTPY4tYr023gi9412BvUDSozysWtY8+Lc/PD6pcz3Me5U8KA9NvRgXXDy6z3M9oyyPve8Nj70rOZA9JqVrvSq2fT2AWdS8dCPzPABu6LvT7Wy9HfipPcC7hb3rWKI9sm81PaAAJzupZ4A9EBGdu9hFUzxb4Fu9TPvQvFrQYj0AW8q5VtX/vMtxSL0oME88gOkYPcIIXD3TqqS98wdMvUTE3jxW7o69GX6nPb2yjj1BTp49I3CUPaYXYD073pS9JqbXvMB377zMHpE8KCGXvTDw+bvuDlM9TaqFPbb3eD0A+cE5JCGKvajtEj1AeLY7WpOevSzX6bzGY6C9QNeCOi7MBb0flKa9uCV5vPiLBzxRlaY9NlgvPdiBULwDdKk9VTmhPTIQUj0xYpU9epINPdBqIr0np6e9WNVRvG9HmL3+5Rs9APOauyXbjT2zCki9gCc5O3rSFz1gjsu8kMv/u4K6Qz1VxY09Qr+TveR73DzKcXI9yy1ivcCap7ss4va8+mwKPTwYojxEqfA8eogePXJLkb1R2ag9wKAuvOqfLT0eNWo96p0vPUCFGD0cSe08rh4pvV9Dmb1+zaG9bmt/PWr5GT2+iQm9GNwiPMvAfr1+dp29vgZ+vd08nT1l5ow9oH/CvNw0mL1mfGq9E/sEvbY+ZT350oc9QskcPQZAYL3Lk2q9gNX+vDCUBz0ww8S80FuYOxBL6rxIIJO9DidQvdJnXT2CaGo9TiY2PajiLL16MH89lO7hPH49PT1g7V87a1tKvRMFnz1TWwi9yIA2vYiIhL0Aj6O6AD3POmIchL19Cqk9MGn9PHrFfT1y5109OndmPQ6CUz3pAKc9YCYkO77Pp72isB89IAeXvaDGx7xACem8/MC1vP6CRL0Yg0E8kCeMvaaBFz1A1Am9y1amve5cRj3JXqA9U0mbPfyUwzx0HYs8cHT0u/09lD08AJc8PgI7PRg3GD3jhGC99jEUPWD9YTwA3DE7Mo2jvTAttjyme3O9dbGNPWaGSD2NGok97vAIvW3WkD26MlE9LAjfvBxp7jxomlG8abyaPZiNHLwYqFY8td6GPRyQibzwVKU8AC0VvEDdLzyYjZ+9gNEMOj48cr1mzdG8zFDhvLtwkz2WcVs9WioOPbgjIL16fxs92EUevEANb72AcNK8N/uFPTAkibvkAI68fmF0PYu6pr2aTEY911aFPVNZQr0TM549SAAFPNRV/Tx3rpG9AP35vGwfzTwYqA89U9FlvUCptjtLzCa9g5OLvbZch739+4A9zlEHPc7kHb1MJbW8dOegvCAxOb0ojxE9WGBOvIDIS7zmBjq9KABiPGylhr193KI9+M2ivcq8ZT1+MQA9MhCCvdQz+zwoS0G9DNXYvHjUjL2mPGA9/hQTPQ4mYr1j85S9D9OdPahgTL22LuW8GpdgPSCOF7yAopm7YNbRPGIFhL2AOeO8nDTiPOC5D7sMiJO8XBvCPNhLYr2yjTw9ZH+QPEXJgD0AuEE7TjNyPWBECryWTui8RaCAPSaqUD0DNQm94nN9PRfRpb1McaW8/fuhPcP+SL1iVFU9AKDBuU71Oz1aVWw9HF3EvHwWkTwzx0G9D0CKPVAyrbvXSp69Po0lPWDIojx/NqM9xT6aPWq4RD3OFEW9clx6PdyA/jxItDG9wJyTvDIPfD2+CaC9hnLUvAj4mL1wR7q8jpBbPToXMj0WERe9gLyhvADQVrnexEW99kV8Pcv5Zb3ab1A9/MTrPHYCsLzWbDc9GAdcvLgCb71a3149kECnu6BNbLyUhZRSlEsAKEsgSxBLA0sDdJQoS5BLCUsDSwF0lIloAilSlHSUUpSMCmNvbnYyLmJpYXOUaAcoaApCfQEAAIACigps/JxG+SBqqFAZLoACTekDLoACfXEAKFgQAAAAcHJvdG9jb2xfdmVyc2lvbnEBTekDWA0AAABsaXR0bGVfZW5kaWFucQKIWAoAAAB0eXBlX3NpemVzcQN9cQQoWAUAAABzaG9ydHEFSwJYAwAAAGludHEGSwRYBAAAAGxvbmdxB0sEdXUugAIoWAcAAABzdG9yYWdlcQBjdG9yY2gKRmxvYXRTdG9yYWdlCnEBWA8AAAAxNDA2OTA3MTQ0MzI1NzZxAlgDAAAAY3B1cQNLIE50cQRRLoACXXEAWA8AAAAxNDA2OTA3MTQ0MzI1NzZxAWEuIAAAAAAAAAC3BYe9EHqdvJYs8rxg9jS7ZH6fvV5+H70y0w89vpcSvbhNTrygSh+9uT6LPZ3Jpz0FZp09IAgnu4cFoT3i4BI9mxxsvTZ7TD0+qAW9pIezPAsDgT1ANX48jt9SPbQppTxwOAw9VFeRvQA+Wbk2zH89gHzWOwZyJb1H7o29slJAPZSFlFKUSwBLIIWUSwGFlIloAilSlHSUUpSMCmJuMi53ZWlnaHSUaAcoaApCfQEAAIACigps/JxG+SBqqFAZLoACTekDLoACfXEAKFgQAAAAcHJvdG9jb2xfdmVyc2lvbnEBTekDWA0AAABsaXR0bGVfZW5kaWFucQKIWAoAAAB0eXBlX3NpemVzcQN9cQQoWAUAAABzaG9ydHEFSwJYAwAAAGludHEGSwRYBAAAAGxvbmdxB0sEdXUugAIoWAcAAABzdG9yYWdlcQBjdG9yY2gKRmxvYXRTdG9yYWdlCnEBWA8AAAAxNDA2OTA3MTQ0MzUwMDhxAlgDAAAAY3B1cQNLIE50cQRRLoACXXEAWA8AAAAxNDA2OTA3MTQ0MzUwMDhxAWEuIAAAAAAAAAAAAIA/AACAPwAAgD8AAIA/AACAPwAAgD8AAIA/AACAPwAAgD8AAIA/AACAPwAAgD8AAIA/AACAPwAAgD8AAIA/AACAPwAAgD8AAIA/AACAPwAAgD8AAIA/AACAPwAAgD8AAIA/AACAPwAAgD8AAIA/AACAPwAAgD8AAIA/AACAP5SFlFKUSwBLIIWUSwGFlIloAilSlHSUUpSMCGJuMi5iaWFzlGgHKGgKQn0BAACAAooKbPycRvkgaqhQGS6AAk3pAy6AAn1xAChYEAAAAHByb3RvY29sX3ZlcnNpb25xAU3pA1gNAAAAbGl0dGxlX2VuZGlhbnECiFgKAAAAdHlwZV9zaXplc3EDfXEEKFgFAAAAc2hvcnRxBUsCWAMAAABpbnRxBksEWAQAAABsb25ncQdLBHV1LoACKFgHAAAAc3RvcmFnZXEAY3RvcmNoCkZsb2F0U3RvcmFnZQpxAVgPAAAAMTQwNjkwNzE0NDM2Mjg4cQJYAwAAAGNwdXEDSyBOdHEEUS6AAl1xAFgPAAAAMTQwNjkwNzE0NDM2Mjg4cQFhLiAAAAAAAAAAAAAAAAAAAAAAAAAAAAAAAAAAAAAAAAAAAAAAAAAAAAAAAAAAAAAAAAAAAAAAAAAAAAAAAAAAAAAAAAAAAAAAAAAAAAAAAAAAAAAAAAAAAAAAAAAAAAAAAAAAAAAAAAAAAAAAAAAAAAAAAAAAAAAAAAAAAAAAAAAAAAAAAAAAAACUhZRSlEsASyCFlEsBhZSJaAIpUpR0lFKUjBBibjIucnVubmluZ19tZWFulGgHKGgKQn0BAACAAooKbPycRvkgaqhQGS6AAk3pAy6AAn1xAChYEAAAAHByb3RvY29sX3ZlcnNpb25xAU3pA1gNAAAAbGl0dGxlX2VuZGlhbnECiFgKAAAAdHlwZV9zaXplc3EDfXEEKFgFAAAAc2hvcnRxBUsCWAMAAABpbnRxBksEWAQAAABsb25ncQdLBHV1LoACKFgHAAAAc3RvcmFnZXEAY3RvcmNoCkZsb2F0U3RvcmFnZQpxAVgPAAAAMTQwNjkwNzE0NDM3NTY4cQJYAwAAAGNwdXEDSyBOdHEEUS6AAl1xAFgPAAAAMTQwNjkwNzE0NDM3NTY4cQFhLiAAAAAAAAAAaUKnPeYddb6wd8c916PBPZp+tj6Arfs+TSl6PTnYRb7zB9g9Rl/HPcssgDssX6O7ejzlvRKZkT58lGk+J0w2Pk5zg778tao88PA2PQRb2z73LyE+m/GdPrTMM74b5MG+yagNPvfbZL6hyRI+UCbNO0QGw77Zhzk9Q41LPrvIHL2UhZRSlEsASyCFlEsBhZSJaAIpUpR0lFKUjA9ibjIucnVubmluZ192YXKUaAcoaApCfQEAAIACigps/JxG+SBqqFAZLoACTekDLoACfXEAKFgQAAAAcHJvdG9jb2xfdmVyc2lvbnEBTekDWA0AAABsaXR0bGVfZW5kaWFucQKIWAoAAAB0eXBlX3NpemVzcQN9cQQoWAUAAABzaG9ydHEFSwJYAwAAAGludHEGSwRYBAAAAGxvbmdxB0sEdXUugAIoWAcAAABzdG9yYWdlcQBjdG9yY2gKRmxvYXRTdG9yYWdlCnEBWA8AAAAxNDA2OTA3MTQ0Mzc4MjRxAlgDAAAAY3B1cQNLIE50cQRRLoACXXEAWA8AAAAxNDA2OTA3MTQ0Mzc4MjRxAWEuIAAAAAAAAAAay749sqCJPRTqvD2lnbo9b0vNPeDgPD5qq0k9yTLBPUst1T1+I+Y9AnuTPcUeEj6m4oM9fKqOPRheXD3LBqg9VgyqPV8ZNz1Lr+A9PqDSPWTflT35hbI96H37PTg6lj0524A9/amqPSezIj7B2M09JHfrPW/txz3zyeY9WoQhPpSFlFKUSwBLIIWUSwGFlIloAilSlHSUUpSMF2JuMi5udW1fYmF0Y2hlc190cmFja2VklGgHKGgKQgQBAACAAooKbPycRvkgaqhQGS6AAk3pAy6AAn1xAChYEAAAAHByb3RvY29sX3ZlcnNpb25xAU3pA1gNAAAAbGl0dGxlX2VuZGlhbnECiFgKAAAAdHlwZV9zaXplc3EDfXEEKFgFAAAAc2hvcnRxBUsCWAMAAABpbnRxBksEWAQAAABsb25ncQdLBHV1LoACKFgHAAAAc3RvcmFnZXEAY3RvcmNoCkxvbmdTdG9yYWdlCnEBWA8AAAAxNDA2OTA3MTQ0Mzg1NzZxAlgDAAAAY3B1cQNLAU50cQRRLoACXXEAWA8AAAAxNDA2OTA3MTQ0Mzg1NzZxAWEuAQAAAAAAAADZKAYAAAAAAJSFlFKUSwApKYloAilSlHSUUpSMCWZjLndlaWdodJRoByhoCkL+YAAAgAKKCmz8nEb5IGqoUBkugAJN6QMugAJ9cQAoWBAAAABwcm90b2NvbF92ZXJzaW9ucQFN6QNYDQAAAGxpdHRsZV9lbmRpYW5xAohYCgAAAHR5cGVfc2l6ZXNxA31xBChYBQAAAHNob3J0cQVLAlgDAAAAaW50cQZLBFgEAAAAbG9uZ3EHSwR1dS6AAihYBwAAAHN0b3JhZ2VxAGN0b3JjaApGbG9hdFN0b3JhZ2UKcQFYDwAAADE0MDY5MDcxNDQzOTIxNnECWAMAAABjcHVxA00AGE50cQRRLoACXXEAWA8AAAAxNDA2OTA3MTQ0MzkyMTZxAWEuABgAAAAAAAAYoEC8QFYvO0yg87zuela9YNpyPFAxprs0YGs9QB2sPLRd+DwDzoi9bHajvHCU7rtkCCY96GhmPciuhzyQ+bE85CunvHZ+iLyq4IE98Of5uwwLjDxTVIi9AXCTvdDkWTz6mI89RjODvXI9ij2Ub7A8vKWKPeRp6LwQ6jO9HOvtPBwQZLzkUj28wGMHu5y1UL1U0IA8lBc9vIDZgTykJtg8wCUtO7KM0bx4yvI8I081veKafb02N5+8LtT+vMjwEbx+JAw9SpWjvA7WNT0QbBi83jAjvejZdT14ilA9Xw2OvcCYMD3wQqa72sd3vdhddzxw7j69oLjaO1iTNDyotYU9nHJIPT1uJ72WBwk9f/mQvVSMxTww8Dc8J65+vUj8AbxwzEm8dKpYvYC3PT3O5YW8a5scvdAo/7yR2gK9pNJfPeijhzys2pc8OMwyPNAumzvo/d68dLFNPfCXxLvaiY28iq2GPTozSD32qYC9AG9lPcLuED1AeKY8RNd0PSPWNb1IWpK86Mt6PRjAlrz6fCE9DJjSPMwT1rzmq6a8dA7QPABYTDvJyHW9oqIWPQgQFzygv7u72FNIPaCwzDvI6iA8f1scvYE7Wb2wwmu9MLdhPWCnlDycf4a9UJE5vHgRWT14RYE8IA2IPVgtijz0ssQ80O0hvWAyKT2UoHA9YN8FPNwxfr1+/DK91nX8vGBYlDvkVM680oGTPZTNbD2o5QU9LBYtvRTyDD3AgaC7fEDTPAgQiT2tN2C9jElxPaQPhTwNb3C9THGIPXj2qzwC6Gq9RqDRvPByEz328TG9ekK+vC4A47woM5O9mtKCvesGh70eN5E9SPRJPBgYeD3UfG28Xv+IPVy1eD2EkXu9cJ5TPBOic732JzM9ftMnPXRDqzy2zog9atEgPdCZIjyM9ok9UA2SPGDhXzvBNlG9PA1LvdRxr7x8jFa82N8NvOabjz1Y7268wHS5OjAQdTx80468F/0cvWAfJ7vUC2K9CDq2PMbB+LxAumA9nlY4vVCG8bsK+Y49tmcFvUx3tDyTBnm94FJmPSKysryEhdG8AcB6vUqmKT1o9xg9YBCNOyZ0EL2ISXI9OLhxvPRvez0YiXQ92rJWPcBmXrwUEIY9YERiPbBdG7zwayQ8MLYvPUQ0Lb1kAoc9PveAvShHADw0pmo9qIhcPUDZbLzAX8W6MBsPvFivWjwC4hs9EOVGvbD3fT3cN6M8xGESvWrjKz0qjCq9KN9vPUiSYz0eeMG8XEaGvYR1fD3A3b+82JI+vaAdj7sYAPw8XfGRvQgtZL3s0As9bjIePRv9g71CgQ494Gt6uxCaj7ugiLg8eFctvNry07y2BYA9JEYyPWA0C7tYXQo8nPofPcKnXb3qLgO9TNdLvIAoaD0ElwG94AzSO7gaPbzWGWa94P28PMBTkjzsZdA8quxtvdBAkL20vfQ8ED2TPXIKs7xnZIq9wEuIPOCd4TwMdvO8yFqqPHLPar1ot8Y85sjlvKL5ET2S6oq9CO+ivIISjL0uXIK98vl4vRB6DT3w1EE9JE4MPfKzhz2Lbyy9mIVtPC7tj7ywdY+7wMzyOoBgpjwQj488Xqs0vdAZoDwQRp28AytxvajYg7wc/g49BkUAvSZ10LxAB906EA+OOxDD0byemym9FLcrPeS1K7y6waC8pklOvWIOHz0gSIe94JChPJ7YBj0suHQ9+E2QPBjtkzwghWC7LAuAPJMpkL1I+v68uKMovcEzMr3+fSQ9PkOsvJwkaL1oBWq8ILVHO7Lpr7wy2V29sJ5JvAg23zydg0W9DM8VPZq1wLwzeRm9ZHZuPXAmWrx8O4U9gPqdPHcjdr2w1hm8WPp2PHABarzwoCc8gtKHvLKAe70yD3W9hKUzvOLRjr2wTwY9VHtsPaqRPz0AQ+S7cFbCO8Li6bwwj6279HdZvezWuTwihIW9IOo1vEwmSr32RUM90tzKvI06jr1QgLc7YPV3PXCSuzwohy68tHvOPADqBrykOKK8BFXjPIYIir3SQAS93wxsvdhsBb1sxAo9mNvjPFTWjT1sPYk9hkwmPQAli7tA5726IBBEPSC7gL2mGzI9rDBgPdEMB70wpd48Vq6FPfBULzz8o+U8XhcqvRpkhbwEzwu9QpVAvZAC9TwuuZS80DdPPLw8Tz2uFoS8oMCAPUxJpbwodCY9VDqMvQYzVz2iVmq9zPI3vSByhDx6IYE9tJJuPS+YU70KlY+9sLCRO0SQej1SYzg9st+fvG73hb28T4O8gDpMvOH0TL18uIs9ynWgvND8/7w6wkE9oH0xu/AaQT3rIyy9LiFBvQAqhjvYpk08preSvKT+fj1yCy89sO+PPHCFkrxpvHi9lgOSPcfveL0YJhC88LxnPXDoKjywqio81O9tPXk4Mb3sxVc9jyIlvfTuSj00MPY8KfIJveR5Zbx8yTq8OPlLPcgtVbyaIdm8DN9DPVArkrsAA/86nFBAvFjWs7zYEGk9tI8JPQrXgr0QruW7HtCEveAEw7tQhni9o/FtvRWxI71Mqdw8CMPWPIgDLjyA5i+6cYp0vfyO5bz0WXW9EndLvZaWML0ytUo9gJOJPdgyHrxg+yw84LhfPZ/gXb1o6189YncgvQCaV7qg8V+9oDRwPYCBxbrvo3S9QDi/u8o7SD3QcZm7gMc1PNyEaD0gxDu9hCl3PeAdsztA+1c8SN+7vA5aSL2A9hS6FH++vMATGDtgxHG7vM7sPHR+mDzg/kg7GjStvGojSb3QEIA7mBmKPRgPhb2AfDk9cpWzvBDBoLsm+C49MHq/PDkbhr2F/Ey9AKBDOzzxVz3wUTg89lKZvLAFjLsloE298H5jPEx+Qr2QzlG9QLelPLD3Kz3u3Sq9+FtePfA8gTti7Xa9SHXcPBRSXD1bRyG9+ItFvbwUjL282Hc9+opSPQS/Dj0sfKM8W8EKvRDRxjsiEAc9wGW5O/AOtDzMBHg9KwJpveAoaT3pKHu9nSg/vcDFF7zoVaw8QAfDO3iIMD1QbdQ7dCa4PGAZkb0UOpw8JPA1PbizVTyS3VA9D65RveDaFLzEGP484Il0PKj8Rjz4lf28rsFvvekEab1oR6i8ICN+Owhsjz1c0no9eOETPHgtA7z+iig9SsKRPTiPQb3gYnE9Ngq1vOZuMj1Q/Gk9eAgBPfAf2rv6kY+8ACuyuoBwgzvmNok9jt0XPa7Y+LxAmcs8+r4LPcyzibwQ7Ve93SclvbQCez0O+jQ91MY1vcwhgL1gZdm7jP4/vDBNUb189rq8tFxpvJCGOr1gdHA9ZTaTvRyuS71gAWe8upMUvUZo7ry4BgA8NDs6PQJERL2wuhU9BhSEPQAtzjvUP3S91AePPfrMF722fFq94KcPO/joMjyAZAo7XH6IPU39jr3xl1W9bFaAvJdKQ71Ug6w8LzxDvZhsUDwAPNc6OsKBvEzWBD2WW4u9fI14vMxkB70wU/E8vD52PWhTMTznioa9ZMJ7PYhHuTzYTR49vEthvCpwjj2ow0O8PgVQPfScsrykcLA8AIwHukDm3TzE4FQ9KLSGvK6+AL3sn4483MaRPaC5Fb2Mmnq9hwlmvTj9Hjz8Lac8FJy0PM4IGz3k7289IKO/OzjdND0e2dy8egdFvfxhCL3Ysye8cJigu0CYF73gORi7cvmMPWzMU73A0rU8hDRovQwGXb15UAS96K0TPQKZkz2+rpI9S8hTvUj6ajwwtU49LSg3vVBFWT1CDp+8cF5aPdgrg7w13HS9kPKGPZj/gTyE8y89myCSvRIqWr2jbF29kMQYPPCukru3G3O94FqIPQIyQT3gCoM7RiCqvHKdcr3uL6e8bL6ZPExblzzUfI09nUWIvW7gcb2UWHS8tB1oPV+ogL0g/fE74+lsvQCdzTr4xEI8MBOLO4paLT1YqWG8aHORvexcurwYHmA9INtNPciO+LzME8A8MkgyvaS54jz0rGI91WQ2vVIxPT3q7n29MObAu6Ap9TtQ7hk8YmEtPdAbMzxEYvQ8kHh0vZiWfzyQGPE8bs48PQygTb30j648UljqvKs1jr3cdkC8tF94vR4gc73k4bA88MdvPPhiP71Meoc8jupSPQphbr1ud6S81uxVvQAwubfvqhi9gNKPPUR53zw6v4o9UBMWPRDvkbv25E09YOIKu24iAT3sDl68hUcYvUB3hz3ojqM8UlaDPQRuMz1YW0K91EV2vcQndz1Nuzi9JOVaPctVHL1UbIS8yswdPerPNr101oQ8HJp/vbKoiT1dlJG9uHrhvEa2JD0oqpe8jPkRPeQALD3kp4c9oq1CvWiyjDwAIyk9RAHePOY1WD0AXIo71qMrPSQSQL0E5Cm80FKAPcApET2gNEy7R2R8vdQ2ij3iT4684JIzPJhAvzyawUY9yJYNvGKvNr3wQ448bJvPvNKWRr14VOM8ri48PQAlyzzeVVS9FFwJPdCaqzzmZ0y9EB68O8T+Jz0UkWw9YOXPvHgF9jxIB0Y8JgEzvWj9CDzoIqe8BHZNPb1uBb1cK5g8wLVwO/BpezzpLIK9hZsQvfA00Dzcdoy9rM8qvOixKDxwdak7M76EvaywsjwQu0y98gUlPaiGS7yRpXS9APuROgjdGTwCD0I9gytDvSDXS7sIft48wGVAvRDlcr14gJ48mPFavf6r+LzgL+u8jMpMvIA4TD1UOS49XAhiPchlXr3wEEA9ms1UPWRzbz0SopO8oE8NPHQpHD1oYWK9uh8gPRg9nTxAn0c9BFljPXLJhj3CBIw9su8QPYzijz2BEjS9tHECvZgfBzzK5y+9OLkKPfxOaD3KhRW9Mo8pPVD4nbvUbik90ODlO/QWfj0IsCw9voiEvQBkBDzQn9W7uPWCvPCBFLzeIXa9MEz2vMBb7zrgQYo9NnqDvdLRJT38lII98KAQPaDqBzxm/4499hWBvGySkbxwy+U8bdiLvVgrjT3s1Ii82G5sPFSNzTywDdY7IKlhvZhagryEW4I9IZ0xvfRDZT3Yqk88wZ6SvQmtfb1AcQU9ftVJvXodBz1mXlI9Y+9cvaAE27t0uoO8PCGAvMDQmjr4PIk8d8WCvXTT3Dw4boW9gO+vu+CGhz1xCgS9faMjvRZgdb0ApJW6AhZ3vVALib0Srha9cpyCvRoELD3eGUG9EKF5PRD9jDwAPdE8yImUPHpkkrxEN588ID50vDVLh73kbWq9DsJ2vQDDkzqAUFO99AG2vLDZ2LzWLt+8ZC+BvcgXDz0MQ5A8lLYWPeCuYD0qLly9RBAePS7tPj1wrEa9YDcWPITKjjxMT3o9CPIyPZajjj2EV488nHzSPKCjT7x8B349MHHLO3Svez0gi1+7fHSLPULsgj0sLb08QGaROtVFGr3cYLc8Cv2DPU4yMj2Ptwa9Gg4xvfZn67yAlY86IMS9O3z8QT0En4M98Iy5u8DZaLyYCZI8ouaMPUCAHjxKWIy9MFfRO/l+QL1wFIO90CEcvTLOI70WJWG9FqkQPRBfaj2Af1k9JMViPSuekr2klIA96G1GPLbq6bzu5+W8AKhzPaCsjDxQUp27SwN/vSO5Er3sVVk9mPFmPIyhpDy+f4i8gQyNvdgRDjwau0c9QuMJvdLogL2CJZO85BSHvRavz7zml0Q97VQPvSgIeTzUtCU94JKYuzJxrrzpQFu96Fq+PACbS71sGGk9UMBFvFS21jxuEou8iB0qPH43Rz30+hY9CDU1ve9bj70I4us8QPLouolCIL0EC2E9zr37vLiUSj1gDlQ9eKBAPeSIwDyCRj89a4dbvZBc7DzON9C8IJJVPLCX4zwA6N+6preHvSCXETzJuBa90uFGvRB2jTtyA0U92qI/PQy6Y7wg73o76osRvdiqSbzuLoA9UChxPPRBtzy6+4M9NHL2vIDhM71A6qA6gDvTO0QXgT3U1IC94BUwPaRO5TxA0NY8mtqDvXKaT72aqhG9fONOPVSeiT0AUZw5xMd6PSCkmztEjfO8wJkVOwAJULvAEZm7jMlPvIyXXD3NiF+9yN3oPKCHZLx4IVo9+OKLPNBwyTx6Ioc91P9gPYxAED0Akbu68pMHPYSLQD3gBQm8RGYOPQZRND1miww9c16Rvci2CT18LGO8QLWhOgCkPjy4f9s8TxqSvQCIWLt04ME8CPZvvUjlXL30EEC9BtUUvbj1cDy857Y8NFK+PCotEz3k4eI8zLlyPfAVkD1+s4y8bIJ7PfBOQDwgOyO9/GizPICZJrrAR4A8Kpchvcz737wwcYU87NYDPaASDLyAx866zhm2vOhIbzx9Loq9AeURvR3UF72IK229YPJ4uwiFjr3E4469oEAzu5SLsbyqn3K9HDc7PXwxEr123JE96Kl/PSRrXz1o5B49uDMYPWaXgL0564a99APQvLYgQD3P04q9+GRZPYYjVj3qJZC9tLqGvOnFBL2I8qG8ghCFPTBRaTwYHuK8KCd6Pdx2Z7xc5L88+RMxvRaIGT2Owja9i0wUveBJHrxYRm29XIVYPQCwk7fI+Fc92Bw0vJwi2DzYuIS9sMU+vcJfiT09jxq92NHVPPBoBr1c2Vy9aCL7PM/ghb2Q8ie9XHoUPSAGsDuE+ek8XPs4vaQ/u7xoqTo8PsJCPcAPuTuscwA9IO8dPCw9u7ziEIS9WI0fPEgOHDwUy1K9fIFTPToYGz3KKR+9OkVNPUDCBT30bC+9wPO1umC2HDyABGI6XErBvIBqjToEGeg85hRhvUx5lLxKtAG9gCM+vYofJb1k/XA9qPAkPTkCkb04ttS89BVivB4Tij3sD508jFwvPa7mjj0uapA9xYSPvVCvkrxgMAc7fL7DvHNTG70Ywlo9SPMyPTCpW7zsw489eBs0PHfDK72wPqi7sM1aPQDwE7y4lTs95JhnPW5mTj3EOiq8mlQNvXBbkbum4mq95BPDPHJKLb0E/lw950VhvdhUprwU1gc9oJgaPHE0gb1/s4O9UE13vOB/s7tEv0I96lKBPWoQaL1IGiw8ZKOFPZKms7xiQAi9gED8POuVa70qv2O9TEWPPfhZdTwU4AU9PtYavaJvn7wFFkq9EFhzvIR4Kz2WzYI9UvqQPR4xh7whAoy97EaTPbYLNL3aXlO9QFGbunC39Tt4K4o9ViVHPfSUkr2w8XQ8cDGnOw37NL24ERq82AJ9PbLrJj2AK0m9gXoVvVg8mDwkOoW9AGrFuppZKD2sorE88H1wPSYTFj2QzNE7Pex1vXg1BbySSFM9girQvLCIA7xnEzy9wIGJvNAFULxeTYw9kDDyu7x5iL1y2Dk9hvUsPUqFj7wqJhA9IP1sPQoLkT2AHUI8uKWGPYAE5zpQvW498DInPLA82Lxs2GE9i11cvRRufj3YvlG8sG2JO9wBAT2IXBu8tKCFPECL2jyy0Ig9RigAPbBkt7v2DR+9RLlaPchzOD0iGYc9lnkLPQA28zuwUIg7ZpkBvY7RID1Sdpi8YNwtuwSZer0EviE92EcCvHhp3zzoG4I8sk+CPXzAjTyaOoG9XthHPQZlUj20Bjy9so+RPcgldTzATtE7JMmbPPhLBjyAG2W9tBIXPZYdkD189zK8MNlGvV5/Oz1oTjc82YEtvTgTFT2cgVI9/t8tvQQZTryUGIm8WIdzPUhxZz34Ek48YlkzvZAcpbtgnIE9drYlPbCKcj0Uraw8MMu4O4DhDToO8369uBxBvdyfTj1aey+9WP2ovMhXPzzlNwC9eOYWPQfTU72gPkq7QvI4vZKvOD26gBC9MFDQPI5pv7wwIR494LRcvbZowbyA5zM9NHBqPQwWK7xRqm69NkvevGDKaz1YRS29gN0pu6Z7NT2UQkE9jbqSvQCoTLvYmy08qNFDvMAbRbs4ioM97At+PUyfzryKoq28ZiBSvYjCLbyiiTI97wwevfh4bz04w5O93VwYvfxu7jya9gQ9kGhkvFqkpLzk0Wo9oFkLPfCQj72AMPk8SlsnPeDM57yLM4W9HhW+vPUhTr1+IaK8tkxhvcwTcT0LwBu96KpdPCBmhrzgXJ+7VDYuvAH5hb3Azx07UkJ3vWh/Wj21HgC93ESCPfBVBz0yyBw94FQzPWZ647zgTU09gCepPIrYLT0QUg48sLffvACgcDf/j469WCslPOBSPLtYIX485M79PJJLVz2oRYY9mo4evdT8eD0cS/M8YkEMPWFQkb3CHnW9JA/zPGicXTyMpyI9YGy3uwAKYDkQK0K9TIGHvUR6Uj0+pUK9fGI9PajGULzKZwy9hqkOPSBc/zy8TXU9qJZnPUCWY7xkXYo9EChmPPwqdbyB0wW98FXJO2wJWz1wkcc8VNVyPaDw1bulX5C9wr89PXBxaTwocbQ8oLKnPPSpAj3AtLq8BNYaPf75TT12tRc9wI+iPLS/DT00VSw9IEuRvACLUbr6FsK87Ni0PGBH4rxEkKg82LjLPEHaSL14DnY9gZ2EvcoFgr2OWme9dMeSvLxVaD0Av/A6ap1PPcsmD72yfJE9D7gzvcGMbb2WSZI9DAahPHygCb3fdgm9wOLZPHj9Db1AYM+7jomavCABTDy6FoY9fGwCPd68gryg/wm8PPGGPHnmGr1nK2W9wFWzOmB63rzsklu9gEZCvB6xH70wdIA8Uv6APUxbXj1CIAE9vA+GPXT6Gz0oWOc80PBePWSe0DzkBBy9GfsTvew5urzA7Sg7aNNGPKAVA7sLcAC9gCmWO8oLvbzcw768BnWLPYipkj1SMI09wCGzOtQ7Gj0ASPE5EEIHPDYYPb3u9QU9fMMyPeAqTTwgaF+7JrSQvADiBruAWek7Fw2RvbILUL2Cuoo9MDtjPWTg9DzVhIW9WIuivFCqyDy68YQ9qmrKvEgaKb1K3TQ9wXQBvaN+IL28cG29uOKUPAAzeD0oYUs8CAWIvSrhOj20khg9IMEWu65FF70oxmg8thCLPT5DND0SiPK8PJZBvIT7FD1Aex29ENAdPfAsBb2KHYw9aP9jPQDPBbzcfAg9Aiz+vK6FMT1gsJu7SGI8PbzA7Dyo+BY9uNmVPEC0j70JcX+99limvEpGjj3guAG7v+YHvYi/DT3wQ/A7tuQPPSiTKr2W0Sw9TmEYPbhPLj1OQsW8mugoPQj8sLxdRXG9TDdrvUq7Tz0zVXW9oOxbPUSyS70gsWM9KnzfvGAWozvadXG9IEvjvPrim7wsFxQ9UJeovFCKcr0Aymi58JVMPEZmQD04qG09VmBTPWbfz7y4ooC9mMNSPCgN4DxKKS89Vl8ePZB/CT1UR1M93iNKPXBaez0AhmM6RO75vAi0pTxWTdi8HDU/vXC6xTt8f4e9ypssPQC9jLp0vv+8vlg0PXCAkLuAOTa6ugx7vYTsrzysSCO9IsEvPTwuXj1P60G97Je6PN7uX71Qidm8UXtTvWa7VD1ASkg9wKTPOqLaxrx+e6W8TgyTvILvQ70e1YQ9EBrOuwRU7jzIhXI8IjgdvdghA7y4uAO82DMBvPCo1jvWuoG9fs0MvaTefb2cE/U8PLhvPXhZkT3iuZE9AMNgu5D1gLuQPYw9oMn4u4B2LTzIHBY99t74vGponLzqXEm9mYUEvbBSmruSxdK8xIVzPSAlIbvLA0+9rLQhveLil7zg4XA96suzvJiEdD0Lkoa9tUpCvW/qjb2YRBo8fACNPPVfk73EK+880EnqPIfKQ72oSEi9aHqEvaJNSD1MCVU90ZElvXz/0bz25IO8vN9XPZBM2Dwoj1W9KJHPvDAp2jwoF888DncaPZaThD0gl1O9v95uvVAxwbussdE8GFEwPah66bzY7e088BxxPECA2zrqjIM9+rg6PcDjozzYKhc9cPDkuwJDeb2cM/Q8vCVFPaBZjj2ogwC9FROBvfJHST3Nsh29cO79u7Bz1Tv4Xjg95NQJPZYlhz0N5Qa9t6mKvYA0EDtwOG89mFx5PHIYJL3sLBw95MNnPT4Vb70Wwzo9fJpKvfItjrwgyRK7yn6EPSaXir0M2c28pQuRvU6glryKtIa9bMcnPeRF/Dy0na886k5uvcYkLb0m/jg91L84PdpB/7wVNA29gJsYu6DhLb2QaAC8GoKOvYzEAz1RqSa9FLZdvZhEwrwAl2i7iDWgPJyRrjyqIL+8tjRUvQBCXzkhm3W9ekwTvfwi1Dx6yQI9IDZpPJBYYLzp7R69+GmqPEC0ej3w4Cm97EiqPOrykD14rOg8VtswPSBPH7zkImI9kDiPO6jVHzwEyBe9Ahw5PbhxU7zGSFA9gHy3PFiTxjw45bg8RC61PHYsFD3ojw68AGptPGJY8LysUFk95KRFPQKCxLwgTHs9DDNRPeRPl7zPAme9INFrPThQHL1Qk9I8vNq2POLZoLyM6Iu9ktd9vfzwkTw8VVE9UOjIPOCZjbuSvIu8j9RqvZSVNbwj8gG94N1cvWnREb2gsbK7kGPuvLbnj70cTz89DMlwPUMajr2IIRA8sPoCPET9gzz+mQQ9tbJuvZR6GL3AV+E84ONaPdzyaL3qL4K91Gr9vMyM5Dz8jww9fCw3vdm+Lr16x4W8FleEvSRJZD3ISdi8TFhyvCJsobwAWWG6FnmGvXIQwbwWIEA92L/MPKLITD1s/rM8CmWFveCCiDsSkT89QtRMveYuET2KaCU9Uq2IvYvJNL2BfzK9At1nvZGwBL2kRSQ9GARAPXfcLr1JP0297BHqvOg4AbxIYeW8fHeHPeivFbygPwY7MOaWO7Au7zzd3lS98A8+PGyMcj12yN+8SHg4PaBZVT14v7Q8AqpFvWAiUD08O209hJD1vKAkbzx4E289eIWgPDDErzxgGa47vC8APbw/dD1gJw68MnVBvVADy7t1emq9oP62uywCkjzcxxW9BIEmPayNej0s5iY91kfDvIyBiL0obuy8xCFTvM7YPD1wwYy9OE6JvPCuG71sFvy8asUrPViIVz1zTkG9MOv2uxavhj2ZZYC9IMK8vOw4Uj1sR488MHurPLgK67x8tH69uBwQPMq4Qz2+3BY9uMcovd68WL20cPg8nlg+vQTQcry7CAe9YLs5vbBxKL1ocnM8EMRPPJC4Qb34yh69oHj8PMJ/Fj2QVI89NtbHvDobTz3SyTM9nOo4vIilej3QPcK7TGTCPCDph718wmw9kJX0u9JgHT2AWdk8AHySPcMpDr0YlZU8XP6FPcD4JrvyKhM9OGtxPayE3DwQQGo9QBn0ulJftLxkzI89GFl3PVSqYj1Atgy8GuxCPZrYUz0QH1e91BBJvEDgozoC/vS8vCq7PICCITu8XGc9WGFkvIi4pjzE4ZE9qlgdPdmab73Irgo94kGFPcDViD2lNga9A5N2vYHLd70SAZE96HUCPFyyijw+qHy9PuaPPZg7hz2Aks47+ICaPGxLoDxaGNe8MM88vWYtNr3e+SI9ahAdvdgjcj2Gypy8SNZavL/uf72cWGQ98nhuvaRiBr2AJZU74CtDPai+YTxR7D693rlEPQB9qbsM8xq9CqJ/vWrlST3i9qy8QJPDOwCoQDrMbJ68MEj2PAzVtbyijYa9tnA/PbiO8LzANdO89Bl+vVg0ZjzUUjU97JeQPdiMRzzIz2E9FITIPOgpCzx4TUO94FuSPdDyCbxUuvG8mAsavLAPJT0MSGm9wLP0usyerDwQys08NKRavTtoDL3GqtC8aLEVPADLLbqYWwS9cqIdPUCwUrsoXyQ96E/1PDBKdLwAs9M8GG4vvMyILT0446m8cC1Evexwv7wYsCc8WF0UvDp8jLys+X49gHa/umxnVL0FdwO9OFF3PZwteT32nUq9LLqvPKgAa7wUXgg9kICRvSBEOLugfzu7YtiOvUAwwzr5SSK90LS4PDw2cL2k84e9gGBjPVwXZb04unk8BIaTPRihdz2cjok8kJ2DvK7Aa71iVSu9UB+Fvb43iz16+h+9IKZbPJK00rxyJaS8rEeMPQhvhDxAKRm819AYvegIfDygWKG7mP9avCiIGT1AJ3K9sqstvbAo8DsgPK07WHRoPTg/TD16bYW9EOR2PSQsZr1gTg08AIlaPQQWLz2TcoC9SkMwPeuDAL184ZE8ImdEPbIsjz2BhH+9gGymO2j1RDw0wEm9OGtoPXCRwbsGDoI9rPosvZDv1rscyT+8yGRvPX0sdr167BM9pqOBPYQgcD0UttA88pHKvKAwNbuQTGe9P8QLvQyOb73y9CI9bCCWPGAusTtSB409xFx1PZAknTtAfY66FvhdvVgmBb2niSO9hIHTPM51h7xAsUc7rLDGPIr5yLwAINa45I7yPABx7jkAuGM8gCA9PDz65jwAXPW42Fq9PBEbgr2gvwc7ICytO/EskL3MbCg90GvRu3AGVzyUc+I8Hj2IvSiRjj3Md0q8viyRPTrCaL0Ivy891HYPvRRu/DwTgHS9FBV2PeZECD2UnkE91KuNvOCtjjuwhXI9PGbMPCxyZz2FVXy9qAROPUk7Ir0gPQO7MKYNvaiccbzGsBQ9MLSWO963rbyU6cs8gO0xut5NUT1Aams9GQ2IvaBELrtC4UO9yX+JvXKOhLxkM3o9qJk6PBIRJj1g1ni98qjjvBpljL2Ek+Y88C85vVY+Wr08zUK8oMRwO9aL7ryKsVA9JGp5vfv7j70AxmK9JT+PvabQDj2w1Qm8/vwjPWbfrrxsnIy9bI4qvaBxCT0kfS29xyGTvZBJiLuLCXq9KMAFPFAAXjykf1y9jw5IvfYeZL34KG89GIMaPQDWnLmIZUg8RNdgPUCIZTuATfM7KEaTPcjrhDzPSS69shXVvIS3QL1O4V29+N2APRB4Wz2auKq8llxevU+oG71+jIO9GU9lvTZLjT1i8zA9IntgvQBSKDxZySy9kcgyvWy2Zj3XPRi9pgDEvDDijDy+Zoo98K6IPL4aKT1YktU8opsaPRxlMT2syF29UIpzvURkAT3QHju9HCXavAAlNr2/O369eDsJPP6DW72eZzA9YApavYR8Uz1gzbS8zGeBvQ4Nu7z42bg8ZG1BPRBDzzuci4Y90MjSvPQ+jb0APr46MMmSvHZgkz3MP/k85KdfPbR14Ty4kGM9/P8ZPbKq3LwYdBU9I7KIva6S3bzQwtY87JrlPHIwybzKzEw92OsvPa2Ca71Yj9+8lp6qvIhUKzwUBw49HKYpvT7oEj2CnxK91KwwPdjCIz087G09xBH0vPivoLwQf5s7qMpgPBypaT1gSRw9jkFQPaDNDD1glWO7gieAPWVSir08W+E8bXhnvUu1jr1SNoE9xNmQveDMYzzw7zK8wK2IPYIwgr1K7cq8MCAgPUAw2jwgqQ07MAkGPCmyc72gbg09zBN/PewIJrzOohE9oHFFu3zhej3BmW+9ulKGPSSWmDzo7o28t2wavYCX0Tuw1388+rqIvaIFgb3kr8g8ii0pvUSO/bxI2FO81vyLPWIB9rxm4lq9ZwiIvZjYcz0EFru8nDEqPVCrbj2AcNi6zohmvVBb3Dy3jCe9gGvWPFDYdLwAH8i7kGmPu2BE7rt6uDo96SBkvaAVu7xOG/G8or9DvcA1czvUqCu9SlaMvAwpaT0psQW9QKptPHKSDD2EO5E93KCDvTRCpzzJ/YO9BqdRvdCx27s0b6O8pNxZvMyLVb3NYBK9cEJvvaXjBb16Pmq9UFjOu5bsFj0F4JK9AGoRuaDbrLwEkoG9OJnQvLP2hb0SWhK9Ang9PWD/TTywRhi8FDFGPU7cID1oSGC8tvsvPWCMMTyocvW8jENWPdoD8LwgHBg9SqaMvAs5dL0oCw68nMsuPaQXNT1IPDQ9/ObvPEPTB72AXhq7dNZHPUTdJbz0UPa8BCyGvdB1SjxAW+q7PD6DvOlPf72gri68XLKJvW5XV73CfDU96CTxPFk3G73AYym9aAAyPACFeD28mwY9X2WLvUDNGD2CgYK81MpTPajGBD0YWhM9lOlBvcgYYTxndXK9wAFHvL4P8rxBzyq9IVpxvYAsqLugKE88+TBFvQcUgb1wi9k8bDr+vKKLk73Mg1k9DI3UPIQ1WL2j4Fm9XkwgPRhMjbwYqoA9rHeAPDSzjrxosMA8tHBdPddpHr2+1a+8sGe6O+70hL0Go029rMCVPPijcTwgIxc9sBCGPEAaVLsiEko97vbLvMWFFL1snhm95LWbPB5i1LzCqQA9oI9uPQC1mztE1iu9C+iPvSCjXTuKsEc9bowYPYZIvrwONiO9NuYOvYBrbbsAgik8BKdoPbeFT73WDxE9A5CBvUxl1Ty01Vc9Lu7mvLdkdr3ympA9Rg4Bvfydeb1wMp27wEDVO8CTXj3oiYq9GF+QPeEVhL0Q+Nm7gJ5COgjNdz0wVog9sMCCOzDGc7y0/cY8HR5Mvc42QT3Azfu6cNIbvBC3Mj0mI5A917J4vaQufD00cXU9vvA7PVDoHD2gYQ+8htUcPSZekj34pYG8EREWvVDJ/7uOVzY95Ps2PRrTFT2AdjY6isX4vODdgL0aD0m9pvsUvZgVZj20v4Y9xLkYPYSXaj3cX9G8QKnfu/rxLT2AayM87L6oPAB+KL0g96C78yGCvXz/Pbz1E0G9OKEtPGA3cz1gn0E8QE9+vUjfgD3RZXa9NMaiPDgYfzx+F3S94qiPPcB2wzus9iS9XPaBPSxZLb34qgK93N4OPWqXQb0C/0I9auA1PcBKXD1OIGG9eyaSvYQUET32IYQ9yK5JvAqvDb0qVDY9iOMjPaq6KT38Wb88kBuMPQwseD00sJM9bObzPBjSVjzQvp88wL6Yu2iBFby01aQ86pyCvEiNpDzwT4280EqlPA5xhr1AYTw8LnqBPXQ30jykuEo9InvcvLBgdD38QFw9RhRAPTSjWD26uwM9EltNvVC2RL20S5O9UhxRPUyiXT0kKtk8thCCPcwUaj2Ol4a9SEpnveSFkz28Cyy9pDODPTYNeL36teW8IPGlOzhUEr1kGU890qK4vIMVhr0Uqo485Q4YvTAHXD3U+Oc8sIv6POD56btyB2S9rElJvC4qi72aBju9CNkfvOo+/7ze52K9qF1pPTSLhT3AVFe8EFHvu4TpWT0WuJu8nzSTvXUMi72a32C9ikE2PZBsiz1CLju9b2FtvTxIDT2RxhG9aJJPPaB5ND0kat68/FOQvYx+yLwwoYA9YIY1vJAvOz2G/TO9APp5OeQzaT3YO9Y8PPyavJpFwrxk88g8Ur8IPXZsc71kgmg9fOCEvWp76bx4nyy8hMVMvWi8dT34A3+9fDZgvQzIkD3ahI09wM9APR07Fb1STI+9SjaGvTSXk730uNC8GkgUvVqjCj2djla9EFLvPHQ9JLwwX9m7Fis8vWrBr7y6J0895HBtPe9Mhr3ctJI9JMrIPPAqUDxSZuq8tPbWPIIPID0m8/m8XgcwvaBfNz04gEK9I9xPvezKez10N4o8gCJrO0b8QT3cR2q8nGuSPfx7RD3kPGo9zlmSPc7euLx4qgW9bIyCPadzNL3IJ2g9JMT5PBepe71Eps083/KOvT7YhbwAuDg5eiGGPdKB1rxEQbI8qGKPPJCuBz1Up4U9GHeAvMZdLD0gAhY80CiLvXBekTusg0y9mIWBvSjruDyg9wW9IMj5uzykYT0kOCg9VM9rPfx2BT1wB1q9kQwMvRzx/DxuE2O9BtsxPUkXgL2wp+M7kCG2PMaiBr0mZYc9kDYJPI7xPD3IFTi80NVYPdJmeL2I8MK8KI50vaSaXrycZXq8IC0yPJhTmbykhY49Ct00PQD6MrpgEoi9VkbSvOOXFr1kSbA8NklPvaBkXzxGRgu9RJk7PQiidL2kdLY8xO77PAKtybyAPIq68uRfvVYdiD34qdk8uLVrvU2pgL2Al+27YqI1vQe9JL0x0Iq9OOGxPLiy87zA+XO8xhZpvSBChzyqbYU96LySvXCeMj0AfEo9wD2dul3ScL26KlI90Ke8PMCLLL26U7u8gYJqvQjMQj0kjIu9VK1bPdK3gD20J5487LUFPYDBKbo+hoA9iv6QvQC9KjsUJfy8vD7OvAanj73KK4O9qMkzPVDxa70gto08MPP8OyCJSLyf6AS9gEWdvACcurosw4+87kqavEB/wzpIqAo8QN+Quvihab0wjkA8ILbaO8g2/TzADK08JwKRvU4VEr1Ik7M8UFngu9ciJ72oby08DMVtvb9zOL2Axhq9PPHDPAFYZ71y/t+8HA2gPBJ1Jz2Faoi9KPgWvNgYhj3AgGy7lNOHPYa8iT23bju9NAdNvDzNTb1qDxI9HgTkvHx1PT2c7Ds9pY5pvZBwhDvIoHo99D2hPPy69TxsGmC8QPKvvMwYZL1gdsa87DzEPNiseDyO2iO9gHGwuk58Z73w7z09RISSPQifOD1go1G8DpgRvSAiTLsYt3G9DLJ8vTgkAT052IC9ztYMPdisSr0A3fc6rMzLPD6Ghj2EdjS8UPTHPPhAb724/n+9sCCZO/BuFjy4ugw8nv/6vHS56DzITNu8ELQaPN4BM73gzKK8iX4fvZI5Ib3pST69pqYQvWTZqjzU+Is9svJoveroV70ES4W9OEsJPI9nOb1cJoY8TPCnvFZFCT3IIJW8xl4RPSArRTu0c4C9mMJePYDegb1PY4u9yLJfPWh4Gry6JJG8MhY/PWQ+eT0AKcg5rgcEvSi+Sr1kyck8OHYZvHzm8DywZZq8yNlrPJBx1jvYKBq878EWvbDI+zuqbRG9UgpAPQD8pbh8kVo9/PFlvGB7BbsVX4C9eEluPXBZCz2QgCw9Wv2IPeRCcD28dJA9gDF7PcBuXzsMJ0S9sotPveBhIL34LEQ98EaLu9xHGT2BzFK95d8JvQTSaj02NB09KLa7PCACqLzA9Qe7NW1hvVwBiTxIJJM9PvSOPbLFRb24vka9QBBUvIAjYLvE9WE9yJNpPfy+rDwM0pc89oY8PQD33LvslKk8KORYPUS+1jykq5c8TK7bPN0Gg71fwAe9VdcuvfDiX71w/nQ8yNZ3PX67Br04uRS90AiuOxBiPz1kSKQ8b5N/vT4PSD1hnhy9/gePPSP7ib3iany9cpqGPVTHM7xOG4a8Gh6LPY2udL04zoU9uMhkvPS6iDx46XQ91bmHvbLstbzgu8A7PGEIPaMGk70clv08JOh0PaInQT2P7UW9jn4aPX4TKr1bxyO9IKb3OxjDdjw8hOA8bE9qPXeViL18QMy8wp9CPa4Ngz2UT6088B1GPBDvID1A//i7yJMIPeiwcb0id1e9UH9TPf8ngb04pRe8iE3ovDbYG71AKBE9yNOVPKCoBLujJX29cAo9PXi4tryARWo9nG6LPDbyxLwvLSC9yG+PPcBb3Tqgh+G84clFvcbEL716hQc9QFaIOjDz0bvKmZW84GuMvex1ij0Mn3m8mGSJPSAcaD0ANp06AJuXuRCn1zyCYwS9B/RtveagMj1Q9tk7TLIzvExNwDyGLlA9UE2pOww+IT3pfFy9MAWpPOCSGzwgp7k7eniPPYAb/Tra0R29zMhdPaguY734Tys8gDDhuoCPE7vY/Ro8QILjuqANxjxg1DA8KIIWvLwPpDzAlnS7Zm1TvVTNKz0KmHq9JrHevDAXpDvw3hk8jzxKvU7vhz2cpoA8ooMlPXvmh72QpM88IAFXPAyFNL10+iE9RSYlvWxgXb1Avqy8uTKLvbFlHr2ocBA8YPFOvOC8uTyU+mo9iMhCveAcXry4rxG8ynmBvTyCIj2xFhC9DP9pPbBzijt9aYa9xEoMvWRvaT1AC5k6GvdTPeGHKr2yzYs9wBYUO3g2Mr25QnS9IkMIPRS05TwA1EI7yqdUvWBxKbxlSRS9FE0Ova61hT33TIK9jihBvWjFRjzh/HG9sO0EvOaAzrzcCjs9oK0KPAz6rzxKvEs9RHRdvPI3sLwAd/I5IBASPfCQxDt64IA9RBxLvJwKCr0gZWu9oD7muzAOobsQZfE8UIaIPVC93rykWc48aF4CPTgODT0gH109uNabPKIgCz2S1os9QFk/vPYqkT0wS+I8FD9SvQARrLvyfhk9lu5PPW4xgz0m4R09gIgdO3HPWL28FQw9bgI6PSK/Kr0YO008VGx8PVzVlzysfLM8VAlcPVj0XT3sgyY9MhmNvTJhD733mn+9YE9Wu9AcPz1pFYW9v/aCvThBij3Skwq9UkjrvKABH7voEUo8IA27u9z9uTx804I9dHSjvB9AML0Q38w80jgrPdRdszz/EHC9BJ11PWg/RL1saFc9IApfu5RvPbws1ho95q9rvcCTgDssZDW9DpN9veCL+bzSKoU9kymBvQYikbwuJS09pHlcPUyQkb2EAEI9OjQpPYbwkT3wrpc7rEA/PRg6Gj04Smg8kJluPMCofD1SW4Y9wHUYPbZBg71I8Cu8gsPNvMaZO73QHpg8QPx/PaQWkDwI2Ck9UsfYvHxjmTw7pwe9eE1nPH5xBj1AXBm84OVhPWRZgz2SKUG9PrdvvTRdhr1CtCu9BLVYPcA2GjtgLqs7vM8KPeDOgjxuzTE94GTwu8s7cL00n4E9tOOKPdyuerwAXBu5qBduvKDdyTwU6Hu88DQqPXgN6DwUysE8GCSMPWJjMb047u48oFh5PSP+gb0YOW090NORvb7a57yInU69mIcvPLiDA7xA2RM7CBQsPYxdqzwmCIA9/2UbvQMhar0jh429YD1XPBYAkL2SaR29YPnbvJhmB7xsgCw9afc7vYDGRLrQ5g88pu13veRvYbwQnVo90OPWu3PhT72/CBO9gHFKPFyuyry89KA80iSrvMyfRby8vpE94LuSO/RFIj15cIK9gA0SvNWghb38+/08QEvCPMBL0DzgGAS8EAWRPWBARDzoMgc9hMBIvOhDMjxQO2o9WPiOvKBUpDsATv47gGeKu+D8QLswxPa8RtIBPdA6kz2ElTk9DPKKvPDhMLzAXSg7kJinPMAUT718p0o9X3GEvVyAE73GtZG8cPNqPZQ93jyYnQU9StFyvZ3pEb2ACH28tgyAPVTWZT0Q2ki9vAobPWbj2LwuhgM92D8VvILnOj0osZq88Hn6O5iZhLz8hxA90PLPO2ALir0kGQ497sF/vQhnHDyYk5U8bL35vI6gL73e0Q29NOdiPeThz7wMsj89iLfwvPjoxDyZqHK9APt+Oqhukz1o/Ri8yCtkvQC0HjvgZ6s8NJFrPSfvHr2a15m8hmqEvG6k7rymDlG9eBe+PFZQiz2TjDy9391UvbxTED2cBIc94vB8vTAPvrux/zq9gPYevBpphj2ekE49q/KHvbczX73gj6s8dD4KvZBZxTtqCoi97P9evQCyDznKsS+96FMePY5wOr0m8w29sMQAPV6VMD0A0Fw8YqVfvVLyi72oVbY83Ep2PQCAMDhEbqg80Juuu/izcbxY5Y29RPRxPcCXaLuoeZ880HGcvGYUcb3qGkE9wH1mPXf4Eb3yORG9MhyGvTisgjyuO4S9XNMoPRtiTb1gwuO76vHmvKDlNL3AGg87NhyAPQA+Wbmoq+08OGGMPex8Or0UUs08OIWEPcDjdj1ArG07q8M9vUwGpzxGCSI9DhnzvOhGDj3jyCu9oBcRuzB4qztApes7nGDFPLRzsrykHmK9jXhNvXANA7x64y69HcR3vTYSV72eRBy90wYgvYCczbuklKK88puGPfbMjz2Q2Ck9XkOsvEBM+brKzyI9RCtJPSpcjz3Q2kk9bmmLPQeWO70snVU9LNFdPSg+r7wQckI8qKZaPPDrGTxCGlY9DOOTPF50eL34TCw8bvo4PfLkCT24/wC85y98vZpFOD2AVGy6uPfGPLzEKj2gxXk8IOuAPBBU8DwEQMy8MqwiPSHqD73wBoQ9wHI4OzAyXL3O0Ao9POSFPeQxDT2VmG+96x0qvbQsljy6CWW95rs3PQAgfbuh7Hi9BM5nvDAoojvsxD+9kDxkPdizUzzuTEo9lDFivcc6Eb18pHe8gND9u7hxfz1uJnC9WF81PE7hqrx2B0i9/PV5vSDzRjuAwsK6HBMdvQAwM7rw81a9NB+kvJqYVb2wxo48dJJYPaDBgD3IWD88aLI3vMS8ebwQzu48ELbRPCpI2LwaFk69ssgMPWAyY7v6T4c9GBqPPcmCLb3MZoU9sOjUO8rGJD2Apxu7QHgOvHgWFLyqdFi9mNVrPXQBkL34BiE9dpVAPVCy+jyEyju8wPpfPQXhbr2DboO9BGQWvXQjPj3L50S9jOMMvcB6Y71OqzS9QusGvYr9GL08dYs8VERAPdzhiryAw2I7VBKvvPCrk7vafpC8cBDMvNANrjsY9EW8sC4hPMbDBD2kwJE9gv8cvaLyMT3sVMW8cGu9PGBHszvcqyu9TLxgvCJHKb1e1j49/DFdPTDnYDxrwBS9Tk7PvAhMiDzylhY9EAvXuyfEhL2EI2Y9QHAgPKQQkDzvSS29YDtcvAjVvzwACw86oOCAvaLeOD0MDWm9ns2SPapcF73g1WS7DKBYvayaRr0KCoY9GJNoPLzqN7yw8069wBXLOmJsHz1YilM8VsEgPdwOXj3KdkU9CmD+vMAqDjygr2K7ynQEPWCgOr1USog9DKJAvHiwRL2iLoe9UFlOPN58hr2MsF292qblvOHfHL2MgdY85K5JPcTx57zYo4E8cVMSvchHaj3YUoA9TD9cvdgKiL1es4Q9RLGkPETuWb3yNYC8C4wJvcDoZjzdcx+9iC/1PKJnmryS3Sq9fBOCPWoHkz1slMQ8F68wvTAuz7xxqza9ct1IvftcJr2IrAY9rh67vLg2xrygDnm86hcFPY0aTb2gBqE8cKu2PIBuKLvI4Mw89PwmPTqZOj08Fle9sIA+PTTDR7xYbDA86vqGPeRTY7y+2pA9QHf7OvJtRr00cpK8jieRPWyaQ7wCT1m9D+USvYrmHL3AMDQ9QO6ru2CnTzwE+ne9yDwXPFpRGz1OUI09hH0CPaAdQjxqv0k9cCbkPOiMaz37lQO99JLfvI5LGT3wS8486lg1PUq2i7wUz7Y8qCkMPFy0hTzU2vC8hNJivQhqIr2Majq9kKHVO9jyOTwQn4G74LyZO07MGT3BMWm9y2hRvbR8+jwQbfc86giNvcQ2jD1AuoA6ZyYJvcjTDjxfuom96JtLPZZRiz34+V69DIOkvC8YFr2YgpI90G0vvYzpZb149LC8gLxyPVMyKr12/Cc9TiMaPRxeqTx/ewe9Smw+vZTOizw082E9IMJzO5hlvTxUJj299t01PWJ5Q720wTm8IAJNPZgYhLwJCFS9pFPgPN8lJL3KLYu9XGuoPMRqAr16yKe86kmPPdTv3rwyfzw9nP3pPCQXGL0QU0E9AJUtvUBAkbpiN9a8YG1fPVaGhr3Yasm8RHOHPFYogb12wLu8OM4PPaDcjb1gOos7GN8hvDbTU73cmF49PLCxvAitqzwUeaw8UChcPewuXL1AobK7LJeSPFgKFj3mFkk99E34vCQoh71g9Dw9XO5GvSqVCD0hwRS9xljovBiNgz3tew29LdVVvSS0wjwgNnE88IqRPN4uw7weI1E9Np+BvfAmTjywfpu7dEB8PbSrOb2urba88gJqvUg2qLwCfnK9zuQ3vaBRybvy2KK8OGdNPLi3bbwO3jA9COk+PaylpjxAyNe6KqaNvIPCB73An3A7BC9vvb4Ok72wqSk9wJD+O1DJFb0aAgM9MUIEvWSucz3seHq8BE5wPQIJCD3OtEY9GPNXPECHST0sqio9BP7JvOxOsDwo2ri8IiEIvVbQLD0u/AK9YpSTPcRURb0Yqyg8aoKCvMifQzygMwW9Pj0tvdKijj3IrAO83IC0PArEKT0Oy5M9gDoRugB63jyS66O8xNpPvVNIQb0Ca/y8IGWpPJASijzgW0o7Jv7WvN6jND0aM+y8UoSDvawSk723cR69ePPRvKBRaj2k5Fm9/AxmvbIYkD3WyiG9dEFjvDoMBb1UbmC9SJDDvPQCOj2msJA9UNNjveigeb396SO9WPsmPFONfb3CJo09oGNDvTzrdD1QqbM7xMsvPbcSEL0yuk89sNhWvSY8kLyyKEc9EFapO2qWQD0E9Ac9cEn1uzrglby8cau8DgcoPUKqjbwg1vG7VGROvWDKSzsAxuy5IPhnO1QOaj0evRi97OmBveoDr7zgszE7tMINPb86Mr3LJXa9YumSPbyHOL0mLxk9mnmQvJimbTzceeo8DcgIvbwlXbyAdka9UDfDvEr/j73sC1O9lo2APQAMKbrr04e9tDJCveqhUz2APUo86DBRPIgVhLwgSoQ9r7x7vUmphb0oUVM8wjVQvRK90byAy4U7ov0cPVBOpzuAtYc6YnZSvXyubL00EUw9EHqPu8okTL0gAhc8MEKTOxj+Az2KySU9wDkiPexjijzgWp67fiN1vYHDiL3QLvY7rjzUvCQ3QT2YwPs8POT7PK5QZ729wYi9iFYPvSSYoDyuU7K8cRKBvUKJkr0wDvA8WvYoPeBV57sIZ5I9+PVlPegkvLwCqSk9EIUfvKIxOD0PohC9qJCLPZcBAb2Mnhm9uALDPK50ML0kUE89sNrOu9nvdr0O0469tnGNPbuRjL0eTdW8RKCQPW6eOz2iKIU9yEmNPTdmBr1uTGi9wFmNOqjkJbzMMXY9dPWNvBoh8LwOETa9DpeEvG78Dr38YEg90PeOPWYiVT1w5As8+E8tPPAHdD3gqLg7FIpMPV2Ykb2sXrw8giRYPTQiiDw4ACQ80PeGvFK3ir030DC90JpDPLCAoDxnOT+90PyXO0pVPz1eloq9vLUTvdx6hjy+jCm9KO9+PKRpP72wgyy9kCmyPFQGHr1u8wI9xBN0PYCSUDv+LYG98JaIPIhmr7zg/w48RAKMPRZ2VD0HDUu9BMySPXAYCTwXQo69mxMEvdRciTxqA8y8QG/ruqOJG72eL4S9bswOvWwdNb346aM8CJEsvaP2hb2o6yc8Gl6kvPVKG73IYyW9Th2BPSLvgT1g54s7buSJPfBuszsQsgs8ytOOvLjlqDxiZDQ9AAfCOvyoxjzYVUE8qLRLPEqQVz2O+SI9gHgxOlbd27winAA9EptkvRSuHz0igFy9gOLQOvSiRz1aXgM98i03PcoVgr2ikja9ZP+FPaAxY72y/gY9+P3TvHV0g70V3R29KiuLveqpNj037Xi9gm1IPQYMbL1AwFw9sJgsPcgjpTzcPSa81IxtPWjOhT2UDwU9nUmNvXigej3I2kC9ChGQPZJ4DT2M41o94C6oO+S3TLxlsgG9gBVROtz6Vb3AGJa8ys2cvF55LD2g+/u7oOoBPKAMjz2mCIy9KCh/PfwpDL2034S9PAhLPVQEvTx2Wbe8D/h2vX6S17w4o389irA3PaDEeDzYkW89YNpKu34NCj0mCGm9PBVzvLJyjj2OP5K86E46vMAOpzqmrra8ABNzuqRMdryYg/i83FPyPBD3hjviEkC9jkM1vZCz4DvgksW8KmAVPV7ZqrwaYFM9AiDkvF/eC70uydO8XYU2vVO+a70ANuu76mcyPfC6/bxEcJM8uk4JPVwuX7zEPne8sA3SPG26gL2fNYK9YD7Hu9BhmDvyGE29pJWLvUCOjTqUDD09KMv5PGDnvTuIEE49dQ0FvTK8Tj2UtDQ9rNi0PFxpED0ggoC7UCyxvAxqX7x8xfY8+lM6vdilSz0AgIc6sLVYvdAhPL34CAM9O34ivXinBjwKR0Y9nAeBPLQzND1gVUc9xNGMPXARvzzgxX47OlNKvRBfqzx+P4W87FdnvZCBebyo8IQ8Uqf5vDQrCz2Ifkm8SI0QvZSpgD2cQRM90CT7u4B/db3euEI9pIJovBzH9LyQ9m29sh5fvYE5Nr0wSY09PAEIPdy1vrz6NIQ9MCI9PCDoK7uN/oO9PFuvvKR4Nz14XVu9AHBwOAb3IL1aAy29oNBmO+ioMzwEZVg9GIYbvWbbW73bvJG91xxuvXhWbbwobXy8Sw1RvdhqFL2SxJi8PG1bPZhxeT2SZYU9ABMQu9k+Lb2SIEC9HovwvAAwebpg3JI83FvcPEQw4Dxujhw9SMp8vMI4Pb03Q5K9VEFbPQBg3rrWdI496MDKvKAwZj3chew8BCRkPYg7YT0esCM9WmGRvYJPFz0gxkk7UB9MPeAvazsQb788TDYkveD3vrus7ei8SBwQPOp7Oj0ajYA9OPBNPaBZpDzCHdW8xPr3vEQ6nzwwLnY91IV2Pc6Nhj3GBou91OpdPRjhST28vxq9fLaPPVSEhrxigz69TKSRvcys8Tyc10m9CNd3veJ4hr12dUY9EGN5PQSvP7y0h3491m+LvK7CEb3leRm9vOOgvLpM8by+fga9gP1quqLJNj3mNC69gEssOzK0iD07p5O9ROFBPUBKJbuSVTU9AqqHPQrK/bzCOx89iNUXPayH9zxM8LE8AN7UPB7Lib1+9oY9MOC2O3B5k7uQc4e8oKgeO6AMgbs4lQk9ACuwO3y34jyXBmi9tGDgPK77jL04O069HGFDPc5BKr08zhq9tOGLvcq0gD1gT4U83JXnvCbLp7xgAAO8AGwWuggayrwIs6A85NJvvBoYAD1CqsS8/pKCvb8KGL1rjRK9NO93PVBNAr34YC683jiFPbH8h71kgdU8rJAuPWBDAzwAfGg9HsikvBgcgr0gnTK7+KyCPGj8wjyArPe8YGl/vRRAGD3BhYm9JJWevOd0B712VJC9TM3APKjB1LygZ4E976ZIvUQGH7wIUMi80F8TPYB95juAx8k7kqOBPcCNvzwAHj09YL0tPBxUPb2zESO9gx1CvUioHz38UQG9gaCKvZgv+Lx4Nd28oL9kO8yVYLx0eBu9vPMOPdDjMj1g3z48QBrevKjHBTwEdfK8EKewO1iFALwZQCe98I1lPWSIi7wgQmM73AARPUGojb2avUU9KJazPHim7Ty4Me48CQZxvRL/Bj3Ml4m96GobPB6KkL0YcyQ9qBPmPAQ0/ryav4A9ot4XvUC0cz1cXeA84CtIPWiHGb3A7xG9NJN/PWgJQ738OI49Kl9MPQC0YrwkyfG8ns2kvIh8BT2I9oA83ACBvRkfHL0wV2Q8tGP+vIwrwbzIkh89YG4mPaA2Nzv0uyE9sAXWO4bkh71wdbO8AFvHudT7qbzQhb67/pljvfJsFL14NZO9fAZwvXJyHT1w5g28VGEcPZosJD1BYoW9qpDpvKQrE73ITFO87DjlvEWLfr3Y0Vs90KIpPRR/gz2oJIC90tetvFwHhTxypkO94ZeMvXg2tzyMuDA9IBcEPPz0eb18XKA8gBgvuuA6Nb1YxZe8FstOvQBNgjxscYi9MEHau5d3Ib3Kp9u8PmHcvFcUE72e8Ik92AtpPJqNEr00V7o8DIa8vOD7mTztghu9lJ+rvOUOkb2ETmm8JtwQPbTfB72cmZi87HeJPWDCmTzgVDS7hklQPbXuMr32WYe9GmyNvKTqdb08ZTK90GgMPN4MGD3UBac8oCkqvdiUrLw6rk89RFJ5PSyjb73vb329UN4dPZh3ozz4xsI8IMcyu4CfzDyA1Pc7kqSMPVD5bTyyBDu92BF0PfOcPr322ZI91mx7vfC8DT2g9PS8CIV2PKjQnDyokZE9znpDPfhTfjyQ7008ChFgvUCQl7xAYyw7ZOUEPYyuTD3IqkA8lKxovSgqJL2w6Cs9eHEOPQwNaT2KkEE91NYyPcY+FD1MXJA9EMWbuwpDAz3Id808oM6mu2d4bb1WYC09fmwsPXA6/ryizhw9gttRPTqOVL3qThg9Alg9vVCzFT2wN7K7jFtBvfARej0AbZE7DGF8vXhdQr1IiQw8OEsQPNSL4DzA/Fi8J50FvcSZQD1o4Y09kJDDuxaaFb3g+Hk9pON3vKhkDLx+NB094B8tPPxrf7yYf3s9gJ5EPaTVcLxm2DW97nDSvAhvcjxmnna9MAFOPPBIUDxP24y9mGjOvCaJFD0ZuR29hMfpPEyc6Dwb4AK9XcKTvXzokT3tT2+9oHskvbihEjyADAK85oUQPfZHSL2c73M9HiYePeIsrLzsqm09WuqPPSQppDzWdqG8AKzGOROeCb2oru28gKSeurjJibz5u1i94PIOu0yt2zxwSfa75smGvSyGqzwGq4W9sCVkPeTx5DzAoNe7sc5wvS9ZiL1FukC9YMyqO+gVZz3P/XK9igCEPUSPkD2MC7g8G6QbvZ4LAz3D2TS9LuaWvKBorTxhhCm9s4GPvSZFi73A2jq7GsV+vbxUozxoqUo9c31MvVbRV70oIKE8yGDkvFYOOD3Oi3m9jHdqPcDSBLwwcLq7MMSWPBox27yyAc28wIYTvKyMgzxrPXO9vgcOPcwmi70+PYw9oPuxu8At27zgNN6766ofvaNZc71QEJc72q4mPa7FvLy6hNi8i9dbvcCb9LvB/2u9lEuAPTQ37zxzcy29j8kyvUCCyTpcxlk9SNBYvEZhi71qY7K8alEzvfB/fbxwIMY8GCGNvdzNxbxgLYw8EJO4PKC4Y73kmEw9SFv+PBQNMrxOV1G9oJIKOxBRhTy+yVE9gqj2vCF5XL3fV2C9zD0bPVSYNz3wASe8ZnCKPdiTirxI8IA85NBuvdw74jzgEi07RCaTPdCchjvW4jM9Gge7vNhxBbz+rWa9yJZWPFhVTD00CwU9+HNNPFBdUrzw+Vs92CPKPC4mRL0o1Fw98EZmPNgTdT3ppoi9as20vIiXXj3/MUu9l/ZtvQ7/Oz38KAG9UIwEPTBagb0QHFc81C0PvQNZAb24qXw8/MfWvETcbT2Yn5A8kNVQPHjzM7xCekK9DGQ4PcAXh70Yg8Y8gMccu8weX712z4Q9AEh4PQoNBr2kFnQ9bhC8vLzHaz1wB0o8JngqvV4LiL0IfJA9It2FPcKblLyOlTa9NNCKPRguKb2b2ou9kFT/u+7hMT3wuLY7MOL1vPSeaD16KeW8OhwwPVBxhj2G7f684ExXPehdHDwdWAK9oNbFO0QCkz1wycE8zM6GPQDKBrqcENI86AlaPEC8Pr3wOKs7XtFWvS6Wjj1EF089YFNSPPjnYT1c3E69XLpMPZQR1rwAwGm4zIiTPTBVJz2A3jU9zA/bPMbnJD2Am5A6AAriufLyUz3e+Z28ClKXvODgyDzIKfI8kEBZvWjdD73CUxE9THhvvQjsiT20bme8gM9OPZQ3ObxAqG27ppmNvbwAyTxk8Je8QPmLO8TIU7yg+4i7+CKKvezYkT28d/Q8dvkPPa6MW72gc4I9vORMvMBi87vAPye8tIbOvH4UHT3ky7s8LLWIPNYyTj3Q8BG9nERjPb6vLD1Wzw+9sKhIPRjrF7zQuUk8gAgUu2j3Qj1kVfe8lbRHvfAeAz3g7Iq9QHXcuohBgz0oDUu86DqEPQAP9bkAWLq4sB5vvR0vab0UZHQ9cEydu6U4h70uYCu9rPawvPhI6TxeIEa9/2WQvSEFg70g2UY8mLNhPcRfjD3oyXo9/PVjPbhgWj0co3g90F/0OyeZAL2roQK98EmcPDRKqjzQySm8HPUPPdBUHDzHTYO9EXAgvS9WRr0gcxo7uH8LvcBY57wYHGE9AK3CvL7ohj1qLzs9TKWVPOC/7jzer0i99OTGPPk4Rb3wLcw8/Db7PG4wgrzgxgG7QPRYu4b5hT3gkgs9VCEPPeqYiLwwnuE8GPS0vH6fkj0Qs3Y9bO1vPZCNOD2Se1O9CNeXPGTqQL2BUS+9liGHvfAgeT2gpOw7eFyTPRRCOr0W3ZI9Ol+APRQ/BD0sOJA9vIy1PHRewzzuXoo9ZbgdvRy6QT1AkIc6YLGgu3g/FL1ClT49rNbYPLxrW7xlNxK9mM5rPJD/B7x66VE91C2DPABvSTssYno9MMeEPKCoA72Evog9iB1JPOiiXj0Ctww9oOkIu9BT8DygZQm869kPvYgdLj2Gahm9zJVlvfgxfT3Cc4K8bFBZPQAwgTtnlI69AzwfvbDUSL0AhWM7uOxOvFRIkj3ITBo9xrIyvYDnajxMS/A8ZEJwPXA6bL14XDI9vOS6PNTNgT0u2Ek9WC9TPaacbb2UoMQ8zJJuvbDZIT0SsRC92Xw4vSAGCjugrha8LN71PAY51bxo7LM8UiKDPfBhyLvLxCK9amyUvJqF+7yK4g09AHkAPUCnVbvQTGE8Fa6GvewmOLxKNwQ98OxaPRiaej1mJpO9LH1QPSwgbD0qsZE9k/iKvSA3/zsYpXs95f1evb5AoLzwh5I9wkP1vAAW2DlcXCs9wMKmu5wRmDwg6CI81a8DvTTHXz24yy68LMMoPfBmVzygF2896Ov0PHSskr2OCUu9AoCLvd6KkT2APb67fKX9vLyJgT2cok29YLlSvP67UL0qP3i9ILmAPYouJj3L92a9D9kZvTBIyDvMHo89FCKtvPUJLr20cQ+9rqSPPTCwFb0cYrM8gId3uiysWb0sN2w9cF/uu8yd3rzox0C90Gz+uzicKT3UxLy8R5QWvSsujb2kx8u8gi/pvHytjL3stU89gOVLO9TFgj3UO7E8zuFXPYANGLta6TQ9qLKevPfBAr24WCu9oG+bPKASkTxzAWy9Bnk4PYz9/Dz4mJs8hGw8PVK9zrws5rM8AMwzuRtgHb0NmI69FGO/POLaJ72eqo685B1gvL5VRD2OQDM9WZxcvSBiC7s0uy09iFP1PLD2wrxQ8RU8KFftPJz+TD3sBp88bGenPJpJjj2Vawi9DCfMvAwvgr3k4go9YFEZPKD+oDwOBYu9xrCCPb1FB73kSWs9thefvJzhiD2uu1u9qoUHvTqhHL0A72C7Jv4rvZICSz2EuJo8dL2VPFq1fr38X0A9KBcJvaB0Wj3AUwu8b7eBvaBrNL2oPQI8jFztPEhXWbwmNDU95ieFPW5OML0aA+S8TmE5PQAJDjqA/YA8aBnnPMiATTywXPM78LN/PV4lCz0czJg8yC8SvfzUgr3OaHq9+OdkPD4mHD2wIzK9/MUuPRJLKj3e0Au91pAPPaxY2zwm1ge9SOYAPcZU2LyUoek84gPsvGSIqDzwL/E74IEivHaZxbxY/oA9Xx16vQpYLD1AMO28AjCNvZTr+jzuCBE955Uivcp7ib2IRnw9xQVevcBw3rvQfxA9t016veDBi7ywksw8YA4Cu+iaOz3ohkc9QApwPXDiZj0MYfo84Hc3PcQwKLwCZQk9D/YjvbXFCr2UYR89OwxUvX1MI702Cs288lkHvQ5N+Ly+yjG9XL5QPY7aPr3Rf4y9QDhau8CkyLvkPIC9nEebPAwwSL0Sz8i8dltUvaRgTLz8keg8XZGAvaAEqDxi3Dm9QDoquwAAsDV4MoC83mKVvOqrFT2FMJG9rI6qvJgzvrxAOfa76oOGPRA9hT3Cs0w9CFWBPbDu1TzUMd08MDjnvLAE3TvAXuu7vmaSvUTbfb10g8M8fLORvTiJDLxKLCm9geF3vTSDs7yfhDS9vksaPZL4ZL1QDp67og4pvTbLM73iiQ49FATTPH7v37x8OgQ9AruYvARHm7xoO+E8pmmsvIICrrwQ5A09S0spvZoIK70O5568fIuQvUSKgL1Oa4W80BiOO+AnwjxMu0u9DEGBvbKtHL3wuLm8sEeEvLodjb0Y0AM8pKJcPaSGaD00UjM9Ho4jvSS0Hj0EIUs9aaAevShsGbyKtBw9nA4GPazeuTzYgNQ8RKEDvQqF3rxAJIE6dPH0vHuaD70mLSy9TQQuvV87Qb1Apgc8va5kvTqCFr0BxiW9DFNVvWC6qrtYBnw88CyBO8qFhT3mWlA9OHEfPbC6hbxXgii9GCpHPJmhgL1N+Vq9sqkuvZZdh73u/Ae9hJbyPA4nDT266Dk9YBMoOzAN/rz2lpW8cNiOOzozUT00b9A8yvKCPYBIkLuw6hW8eKKNPFCH97vIVx09OKRnPVqj9byI5x+98K6DPQwEij1A/Y+8SNyWPGfngr2QK429IBNvOwLdgr2gzlc8rHbDPCV4AL2qByu9ng4AvRrTI71m2YU9dnOIPfBDSr3MzHu9pHOEPVhdeTwA9cQ5hK+RPZRsJb12Qvi8UBaAO9h90zwkBKI8ns7kvAwun7wg99m7YnxOPWxd/bwQY3E95xlNvbLPUD3Lhm69/J5dPQibWr0NBzi9slHhvEh1RTzmR6+8xHFwPeBGED3304S9SLQsPIgkTzy7iI69uC1qPVArFryihi89OldovQ9bDb0wMwu9FIxfPYT/gbzozNC8VesvvQcpiL3k0mo9OpxMPYDN5juOVW+9AL5wPcyUQD22ip+8rNXEvBRCLb1Injc9QPZXPX+zT71IzNi8flNDPfRqwDy6PI29WK5UPNh437yIeoe9HsgaPQDMYD0i0SE9YNXRvJxjpDyQgVA9nHGWvP5Nk72UCIs9XjrGvDIyWb2Gq4g9NNGivESiBb1AlWo7lFRQvTa/sbx2U4S9lKiNPeAoRDvIsgC9eFWCPMDUVj38nRa9E64DvYDZOLuAexC6KB9EPaAeNzvCwEa9WoMdPfRHKT2wTeQ7EFV8PdhTUjzAFe48RGBpPZC6ibzQye88gOLRPJrI9Lw4tO484Fe8PJYdCL0Aea66NOahvBDXybvYS1o9aPl6vZkRkr16CP28dPdmvPAXfT2AXkG9+DsfPXxjbbw0y1e9CN6GvPSjV7y8Z+o8LOrPvG5ms7wI63k8e5iJvQCStLuwK7m8wJkRPcpN7rxsGEs9CFm/vFDrij2EzUo9hDlxPcbiSz0ItQC8gHWAu2SfibyN/zK9IGMAO5xVj71tHH29IO0JvEImIb1QXx498vyBPRA7LbxSukU9aGgXvGxNaT0cvfE8WPhEPLBjdj13+yW96Ad2vfigcT36Y++8qIG5PLW/Vr1E9a083u+Ovfo5bL0ziHy9dj8NPVAgrDykJdM8RtrdvKDYLTtQENS7zKNuPdwVjb1W2tW8IvuFvVoPCr3/s4C9+SJivbEwA71ujoI9FssTPY1RAL0y2Yq9QHCRPZdWBb2+8jE9gDccO5Bvu7xup0i9dFYtvQBnBTzEuzi8+E9GPUCX2LpZHj+9gHpNPVx0cz2aUAY9WGLGvNBrhzyaSy69MPEhPZYwK73G1zK9WLkyPOxE9zxxkIu9S9Z4vSQeSb3oSGQ90U2MvUCTPDwOx9i8uP3NPGQxeT2GVlg9BiBXvWh9FbyCaoW9YEtGvMxtWz2e4I49YDx8vKAgWT1LpWS9+DuTvWQinjxeUHi9OBVfPQDAMDocUq88LLtxPYqIkr3M9Tk9EBVNPGDCE70E8K48ODJ4PHqH/7wkgDc99ghNPVCPUD2Y7Le8PHXjvNdKgL3WUoE9kF30u85VhL18QS89VLBBvZqJprwwrmE9/GJmPViFMrz8VpE9gtTtvMC0nTsmWUS9wP7CuqDIujzQY0S8gPZLOiM8Jr3cm3c9RDwfPcCMfzssLIU8kPH8PDKXz7xAEXo9cm+TPWIl57wOb3W9SKROPDqj4bzqRy09jVaBvRSvizwAPXu7SGaJPXYNNr0c1no9Kr6AvAyxfL1wun08M+JEvWruFD0EaLM8BInvPJRnLz3gIBw86JgOvBqYiL3gx4g7sLKOvXv5gL02UwC9qdxcvUB/cD2sf4g9+eVuvWCyUrycLMY8gP+nukIKZL3s/z69wCjpOtpPkb0n7pG9gPBjvSQGvbykMo89HPUwvIDYQjuoChs95BtYPSg5NTwA57U6eqtnvUeqib2cg488QOWPu45DO70ntSW97EIYPRSLoTxgdLY8AGthuxAk2jsoZmc9EHwXPCISKb1EEWg9h86NvZQvYD2eHyY9bL+VPBDF0DzwxtI7JAmmvGTHcry0pxc92L/OvN8aIL0kmxc9cs1WPSntHb3I44w9aoyOvbyPNr3IiOm81kVRPfCvj73iI4w9zEuEPbZk+7wKMpK9KDBuPSySgT0Xgga9748PvebaXL2koeY8RDOkPCJrUz15eii96jOSPWDqYT3jb4m98hs5PTTdg70INZG9XJQNPfCtmrsCNQo98K6bvEDrTDxKyDk94F6IPZrNpryAloI9CMiTPSC1VDzX9Bi9UJFnPQAWpLnhI0G9yCwEPIYvcb2cbrE8IAVkPfhqJTzaVYs9kMAGvcyaSD0IbwO8ynCgvKgq+Tx2XAg9oFH8PLSLjz2yKYg97CljPTa9jz2+iDA9Y3ptvTg5Y70ahAi9KDVRPVjDkz2vs4m94LYdvGBSGbuCLlA9sNLVvPp1Pj2UU748QXOGvcrL0rw2i1U9XawevZSgQb2aBjw9DjxCPT5HN71AGJo7MIUvPZjoxLw66wg9MCDZO1hsT7zUb5o8SC+EPIQmlDz8E6a8AOvmOTDx/zvIFWs9gPJXumRYbz1KCUO9mJ5ZvdQTC704m4K9apKZvFBu3jvQQ489gLB6OqAFxbtAiN46WMGwPAz6nDxAYGG7hNcfPWgrIT1ULpM9LoeGPRKWi73kbtK8sPlEPGpliL3s5oK9Uv+QPcaZRT2g4Zw7AnmTPUAA87tuYDI9uYwpvUDIhrpGYE09VrVXPbAwFT3YbRK8dCRlvMpSiz2+Qru8oBQ6PSQHYb1YP3M9YGfSPKT5O7wQfNA7YBAFPM4Qb70UnI49K0WCvScmdb0gdla76EVXPWCdxbwUSiO8QE7OPBg0Pb3k/iE99lhfvaBd17uMpso8bsv/vKSShT1eEIU94LUkOz9aVr1UbCw9HLdRvLAE8Tsx6om9Qs0/PQDNtzlz0iC9yARnvSbKLD1C+gw9QM+wu2huDD1Uk0Q9QR92vUS6WbxucIm8YLQzPYQMAz1M4j09EL7KuzhaaDwPjjW94Oo9veB7PrxLz4O9gIpSOyC2qjwoIps84EzdO8wFZz3vKxu90KlgvcT/1Dxw8qU7T9EXvYB+sLu3HIu9yABhPUOLEL0ZDXu9N8NhveH2b71Y2409YnUHPejkOb2UhZRSlEsASyBLwIaUS8BLAYaUiWgCKVKUdJRSlIwHZmMuYmlhc5RoByhoCkJ9AQAAgAKKCmz8nEb5IGqoUBkugAJN6QMugAJ9cQAoWBAAAABwcm90b2NvbF92ZXJzaW9ucQFN6QNYDQAAAGxpdHRsZV9lbmRpYW5xAohYCgAAAHR5cGVfc2l6ZXNxA31xBChYBQAAAHNob3J0cQVLAlgDAAAAaW50cQZLBFgEAAAAbG9uZ3EHSwR1dS6AAihYBwAAAHN0b3JhZ2VxAGN0b3JjaApGbG9hdFN0b3JhZ2UKcQFYDwAAADE0MDY5MDcxNDQ0MTk1MnECWAMAAABjcHVxA0sgTnRxBFEugAJdcQBYDwAAADE0MDY5MDcxNDQ0MTk1MnEBYS4gAAAAAAAAAOAeCbyI9GC9nIW8PAjcFb09CYW9XWJSvSgRO70yQxO9OI9/Pc7Ger3iQww9kEa5O7giXr2rSo69yNdEvCBn0zxgeow9gM40u0RSOT20R8+8oJ8SvIB5QD22+Me8TAkDPTsQkb3CwSM9rqiOPfDH/Twac4I9QnmRPRQG8jxKUsu8lIWUUpRLAEsghZRLAYWUiWgCKVKUdJRSlIwLaGVhZC53ZWlnaHSUaAcoaApCfQQAAIACigps/JxG+SBqqFAZLoACTekDLoACfXEAKFgQAAAAcHJvdG9jb2xfdmVyc2lvbnEBTekDWA0AAABsaXR0bGVfZW5kaWFucQKIWAoAAAB0eXBlX3NpemVzcQN9cQQoWAUAAABzaG9ydHEFSwJYAwAAAGludHEGSwRYBAAAAGxvbmdxB0sEdXUugAIoWAcAAABzdG9yYWdlcQBjdG9yY2gKRmxvYXRTdG9yYWdlCnEBWA8AAAAxNDA2OTA3MTQ0NDQzODRxAlgDAAAAY3B1cQNL4E50cQRRLoACXXEAWA8AAAAxNDA2OTA3MTQ0NDQzODRxAWEu4AAAAAAAAADwUTS9HJ8jvpgAgb2WUq09QDb/PJDfcz0FES6+iCDtvQ2dBz5V6i4+VsMKvhob4T0AwKG4axgOPkAnDTwwZB08nAgpvWe6Ab4Af2K6SNssvvF0ML5k22E9oMzGuzPu1L3AxRc7tZnjvTAwGLyoip48FYQlPlKc0b273C0+7vsYvopRvj2kpXA993YbPmDHqDu2r6M9uK2TvYKg+j1AfrY7mV8GPvdzJD6ARru93n+QPQlMGD58Cn49XtjwPRF5Mj6htjI+MP6qvL0hjr0CDoO9hkPqPQOhEz7vzyS+R1k0vkIxtL1Oww++wo/ZPeg0hrywpsK80MwJvsYKIr5QXx694OzxO+PYLz4deSA+Bg7uPVDKM76huR8++6A0PuZgEr5VGDA+yKgOvYbxtj1XEQ2+UiIIvhsIuL0GqK49I6QaPsje1bwsCg2+KCejvFbX9T2ChJ8968cyPgDVLrtg03E9V/cmPrs+g73gA7a7bJi8vYAhVjsAwCS6OUzKvYASGDw4otg8nm59vWCT3TvQBhs95vnrPSbHvT3AvL4756blvVQ2nb2mN7A9GlafPavomL1ylt49KAq0vKLa6z3oEJ68mnzdPc9wm73Dr4S9i9aqvWBAwjxQLiG9FGj+vQ8RGj4y7f294MOJvAAOGjof3c+9DG1svaWMJz7JJRq+UAVlvGyeBT3/ZhW+9MrQvUHCLr4cfAO++q2yPRGAqL11igW+KkL6PYqm6z0ioCq+PmThPQDpdLsAj9y61pmgPT4ouz3kvUc9lpSiPb7R3z0glvQ84La3vOGdn71wLIo8+Mz3vF4VrD1bWBI+rsjMPWCla72N3vS9n+/MvWSQAb5C+QW+VHTAvelSgr3gQ2k9QERVPBoevT2SBtU9wZr/vYAWwjr2rbQ9mjACvll6HD76eMe95VswPu/9Lr7kD6i9eNmJvVEA6r1rc8+9kIeUvAkGKz4qg/Y9JPpWvYI24z2S2fw91G3NvZ0FKL5gU428FpzbPebW8D0AVQu8UJphPbXqKL4vlAC+cG9wvE41mT3aKqg9s74wPjkTGz4QgIe9aDpmvchmRL0G6Iq9mjv6PQhAM76f5JC9jqFavSRZcL0xjjQ+jScjPvJALb6yQd29oOvYuz5vC77fUdC9F6AePpZCWb0yfvC9AMmnO6dr5r1TlCU+ssOxPbDZMD0wFbm8uA7SvZSFlFKUSwBLB0sghpRLIEsBhpSJaAIpUpR0lFKUjAloZWFkLmJpYXOUaAcoaApCGQEAAIACigps/JxG+SBqqFAZLoACTekDLoACfXEAKFgQAAAAcHJvdG9jb2xfdmVyc2lvbnEBTekDWA0AAABsaXR0bGVfZW5kaWFucQKIWAoAAAB0eXBlX3NpemVzcQN9cQQoWAUAAABzaG9ydHEFSwJYAwAAAGludHEGSwRYBAAAAGxvbmdxB0sEdXUugAIoWAcAAABzdG9yYWdlcQBjdG9yY2gKRmxvYXRTdG9yYWdlCnEBWA8AAAAxNDA2OTA3MTQ0NDU0MjRxAlgDAAAAY3B1cQNLB050cQRRLoACXXEAWA8AAAAxNDA2OTA3MTQ0NDU0MjRxAWEuBwAAAAAAAAAkDj69zGsUvhJ1Cr4Fn9O92lARvibMIr6vIMG9lIWUUpRLAEsHhZRLAYWUiWgCKVKUdJRSlHV9lIwJX21ldGFkYXRhlGgCKVKUKIwAlH2UjAd2ZXJzaW9ulEsBc4wFY29udjGUfZRorUsBc4wDYm4xlH2UaK1LAnOMBWNvbnYylH2UaK1LAXOMA2JuMpR9lGitSwJzjAJmY5R9lGitSwFzjARoZWFklH2UaK1LAXN1c2Iu".encode()
    weights = pickle.loads(base64.b64decode(encoded_weights))
    model.load_state_dict(weights)
    return model


model = load_model()


def agent(observation, config):
    col_num = config.columns
    row_num = config.rows
    channel = 1

    state = preprocess(observation, col_num, row_num)
    prediction = model(
        torch.from_numpy(state).view(-1, channel, col_num, row_num).float()
    ).detach().numpy()
    action = int(np.argmax(prediction))

    # 選んだActionが、ゲーム上選べない場合
    if observation.board[action] != 0:
        return random.choice([c for c in range(config.columns) if observation.board[c] == 0])

    return action
