import io
import base64
import pickle
import random

import numpy as np

import torch
import torch.nn as nn
import torch.nn.functional as F

DEVICE = torch.device('cuda:0' if torch.cuda.is_available() else 'cpu')


class CNN(nn.Module):
    def __init__(self, num_channel: int, num_action: int):
        super(CNN, self).__init__()
        self.conv1 = nn.Conv2d(num_channel, 16, 3)
        self.bn1 = nn.BatchNorm2d(16)
        self.conv2 = nn.Conv2d(16, 32, 3)
        self.bn2 = nn.BatchNorm2d(32)
        self.fc1 = nn.Linear(192, 32)
        self.fc2 = nn.Linear(32, num_action)

    def forward(self, x):
        x = F.relu(self.bn1(self.conv1(x)))
        x = F.relu(self.bn2(self.conv2(x)))
        x = x.view(x.size()[0], -1)
        x = self.fc1(x)
        x = self.fc2(x)
        return x


def preprocess(state: dict) -> np.array:
    row = 6
    column = 7

    own_mark = state['mark']
    baord = state['board']

    assert len(baord) == 42, "Board length is 7 * 6 or 42."

    board = np.array(baord).reshape([column, row])
    # Convert Own place to 1.0 and Enemy place to 0.5.
    if own_mark == 1:
        return np.where(board == 2, 0.5, board)
    elif own_mark == 2:
        board = np.where(board == 1, 0.5, board)
        return np.where(board == 2, 1, board)


def load_model():
    model = CNN(1, 7).to(DEVICE)
    encoded_weights = "gASVgMgAAAAAAACMC2NvbGxlY3Rpb25zlIwLT3JkZXJlZERpY3SUk5QpUpQojAxjb252MS53ZWlnaHSUjAx0b3JjaC5fdXRpbHOUjBJfcmVidWlsZF90ZW5zb3JfdjKUk5QojA10b3JjaC5zdG9yYWdllIwQX2xvYWRfZnJvbV9ieXRlc5STlEI9AwAAgAKKCmz8nEb5IGqoUBkugAJN6QMugAJ9cQAoWBAAAABwcm90b2NvbF92ZXJzaW9ucQFN6QNYDQAAAGxpdHRsZV9lbmRpYW5xAohYCgAAAHR5cGVfc2l6ZXNxA31xBChYBQAAAHNob3J0cQVLAlgDAAAAaW50cQZLBFgEAAAAbG9uZ3EHSwR1dS6AAihYBwAAAHN0b3JhZ2VxAGN0b3JjaApGbG9hdFN0b3JhZ2UKcQFYDwAAADE0MDMxNzgwNjAzMTcyOHECWAMAAABjcHVxA0uQTnRxBFEugAJdcQBYDwAAADE0MDMxNzgwNjAzMTcyOHEBYS6QAAAAAAAAAICkertTgI++hBWRPRjsFT34vjk9YC8KPbATFz5+GF6+YCMdPoYqAL7gMyI+uEY7vqrWUj4gJRO9Mos+Pg14qj7wXXS+RnJHPkwyvb2sGvy9oOR0PfR9+j0oIAO9eHYmPoSNrj0GYrC9APqfvbzghb4EZNg96F0Mvb7dB74MUqU9QEKmu6yS5z11n4Q+HJCevkDWtbygYhw+VqIkvib2UL5saOI9sOSevvY6NT7r1Js+RjYbvjv9Cb5AddI7kCG6PZvvhL5Qaau8pr6rvSV1nj5Q6ca9f0+cvqh1W750p5Y94P1WPfl5oT7TS40+8DuQvUBrmj3sYK09QHGgve6NCL7z5Ee+LtCOvmLLpr4uwAI+YKBAvdyY+70Cjwo+UMtIvpDd+Lzkr5o9w4WVvirIcD62Jhe+5p5pvqqBKz5g7V6+b1mJvmL2Hz7skqg9uENBPaa3jL6wA/G9QAGoPMCwtb2ZzIE+OvFiPqFXpT6CFFM+8I/8PQZlO74yYis+0NegPQAr4bukv8Y9oIlGPYY8br6unjK+XOysPejRZz0gICM9BpENvmwBhL1I/mW9cw04vjgrp76M1oQ9ZhZivpoCYj48n5A91DqHvQCsKj3wpfs9sMMYvqL7eT44CUi9qpgmPlDIKT7QJCe+WCUiPSh6az13mKq+trjNvT7Pkr5BzYI+Ct2OvjY1v71g+R49y8akvgFkmz5wJ/m9kit3PoKIj75W5nE+oD0MvSLmZT4b5hy+av1lPqC3KD6IXgW9x1WCvpSFlFKUSwAoSxBLAUsDSwN0lChLCUsJSwNLAXSUiWgCKVKUdJRSlIwKY29udjEuYmlhc5RoByhoCkI9AQAAgAKKCmz8nEb5IGqoUBkugAJN6QMugAJ9cQAoWBAAAABwcm90b2NvbF92ZXJzaW9ucQFN6QNYDQAAAGxpdHRsZV9lbmRpYW5xAohYCgAAAHR5cGVfc2l6ZXNxA31xBChYBQAAAHNob3J0cQVLAlgDAAAAaW50cQZLBFgEAAAAbG9uZ3EHSwR1dS6AAihYBwAAAHN0b3JhZ2VxAGN0b3JjaApGbG9hdFN0b3JhZ2UKcQFYDwAAADE0MDMxNzgwNjAyNTc3NnECWAMAAABjcHVxA0sQTnRxBFEugAJdcQBYDwAAADE0MDMxNzgwNjAyNTc3NnEBYS4QAAAAAAAAAMBVmr4A5b26gFgtvH7iED6y+zg+3kkvvqb6GD5g/a89gAoYu4iMBL3chMW90FVjvtg2Qj24bBy+CrCZvhi+C76UhZRSlEsASxCFlEsBhZSJaAIpUpR0lFKUjApibjEud2VpZ2h0lGgHKGgKQj0BAACAAooKbPycRvkgaqhQGS6AAk3pAy6AAn1xAChYEAAAAHByb3RvY29sX3ZlcnNpb25xAU3pA1gNAAAAbGl0dGxlX2VuZGlhbnECiFgKAAAAdHlwZV9zaXplc3EDfXEEKFgFAAAAc2hvcnRxBUsCWAMAAABpbnRxBksEWAQAAABsb25ncQdLBHV1LoACKFgHAAAAc3RvcmFnZXEAY3RvcmNoCkZsb2F0U3RvcmFnZQpxAVgPAAAAMTQwMzE3ODA2MDMyNDE2cQJYAwAAAGNwdXEDSxBOdHEEUS6AAl1xAFgPAAAAMTQwMzE3ODA2MDMyNDE2cQFhLhAAAAAAAAAAAACAPwAAgD8AAIA/AACAPwAAgD8AAIA/AACAPwAAgD8AAIA/AACAPwAAgD8AAIA/AACAPwAAgD8AAIA/AACAP5SFlFKUSwBLEIWUSwGFlIloAilSlHSUUpSMCGJuMS5iaWFzlGgHKGgKQj0BAACAAooKbPycRvkgaqhQGS6AAk3pAy6AAn1xAChYEAAAAHByb3RvY29sX3ZlcnNpb25xAU3pA1gNAAAAbGl0dGxlX2VuZGlhbnECiFgKAAAAdHlwZV9zaXplc3EDfXEEKFgFAAAAc2hvcnRxBUsCWAMAAABpbnRxBksEWAQAAABsb25ncQdLBHV1LoACKFgHAAAAc3RvcmFnZXEAY3RvcmNoCkZsb2F0U3RvcmFnZQpxAVgPAAAAMTQwMzE3ODA2MDM3NDcycQJYAwAAAGNwdXEDSxBOdHEEUS6AAl1xAFgPAAAAMTQwMzE3ODA2MDM3NDcycQFhLhAAAAAAAAAAAAAAAAAAAAAAAAAAAAAAAAAAAAAAAAAAAAAAAAAAAAAAAAAAAAAAAAAAAAAAAAAAAAAAAAAAAAAAAAAAAAAAAJSFlFKUSwBLEIWUSwGFlIloAilSlHSUUpSMEGJuMS5ydW5uaW5nX21lYW6UaAcoaApCPQEAAIACigps/JxG+SBqqFAZLoACTekDLoACfXEAKFgQAAAAcHJvdG9jb2xfdmVyc2lvbnEBTekDWA0AAABsaXR0bGVfZW5kaWFucQKIWAoAAAB0eXBlX3NpemVzcQN9cQQoWAUAAABzaG9ydHEFSwJYAwAAAGludHEGSwRYBAAAAGxvbmdxB0sEdXUugAIoWAcAAABzdG9yYWdlcQBjdG9yY2gKRmxvYXRTdG9yYWdlCnEBWA8AAAAxNDAzMTc4MDYwMzk0NDBxAlgDAAAAY3B1cQNLEE50cQRRLoACXXEAWA8AAAAxNDAzMTc4MDYwMzk0NDBxAWEuEAAAAAAAAAAAAAAAAAAAAAAAAAAAAAAAAAAAAAAAAAAAAAAAAAAAAAAAAAAAAAAAAAAAAAAAAAAAAAAAAAAAAAAAAAAAAAAAlIWUUpRLAEsQhZRLAYWUiWgCKVKUdJRSlIwPYm4xLnJ1bm5pbmdfdmFylGgHKGgKQj0BAACAAooKbPycRvkgaqhQGS6AAk3pAy6AAn1xAChYEAAAAHByb3RvY29sX3ZlcnNpb25xAU3pA1gNAAAAbGl0dGxlX2VuZGlhbnECiFgKAAAAdHlwZV9zaXplc3EDfXEEKFgFAAAAc2hvcnRxBUsCWAMAAABpbnRxBksEWAQAAABsb25ncQdLBHV1LoACKFgHAAAAc3RvcmFnZXEAY3RvcmNoCkZsb2F0U3RvcmFnZQpxAVgPAAAAMTQwMzE3ODA2MDQwMTYwcQJYAwAAAGNwdXEDSxBOdHEEUS6AAl1xAFgPAAAAMTQwMzE3ODA2MDQwMTYwcQFhLhAAAAAAAAAAAACAPwAAgD8AAIA/AACAPwAAgD8AAIA/AACAPwAAgD8AAIA/AACAPwAAgD8AAIA/AACAPwAAgD8AAIA/AACAP5SFlFKUSwBLEIWUSwGFlIloAilSlHSUUpSMF2JuMS5udW1fYmF0Y2hlc190cmFja2VklGgHKGgKQgQBAACAAooKbPycRvkgaqhQGS6AAk3pAy6AAn1xAChYEAAAAHByb3RvY29sX3ZlcnNpb25xAU3pA1gNAAAAbGl0dGxlX2VuZGlhbnECiFgKAAAAdHlwZV9zaXplc3EDfXEEKFgFAAAAc2hvcnRxBUsCWAMAAABpbnRxBksEWAQAAABsb25ncQdLBHV1LoACKFgHAAAAc3RvcmFnZXEAY3RvcmNoCkxvbmdTdG9yYWdlCnEBWA8AAAAxNDAzMTc4MDYwNDAzMjBxAlgDAAAAY3B1cQNLAU50cQRRLoACXXEAWA8AAAAxNDAzMTc4MDYwNDAzMjBxAWEuAQAAAAAAAAAAAAAAAAAAAJSFlFKUSwApKYloAilSlHSUUpSMDGNvbnYyLndlaWdodJRoByhoCkL+SAAAgAKKCmz8nEb5IGqoUBkugAJN6QMugAJ9cQAoWBAAAABwcm90b2NvbF92ZXJzaW9ucQFN6QNYDQAAAGxpdHRsZV9lbmRpYW5xAohYCgAAAHR5cGVfc2l6ZXNxA31xBChYBQAAAHNob3J0cQVLAlgDAAAAaW50cQZLBFgEAAAAbG9uZ3EHSwR1dS6AAihYBwAAAHN0b3JhZ2VxAGN0b3JjaApGbG9hdFN0b3JhZ2UKcQFYDwAAADE0MDMxNzgwNjA0MDk5MnECWAMAAABjcHVxA00AEk50cQRRLoACXXEAWA8AAAAxNDAzMTc4MDYwNDA5OTJxAWEuABIAAAAAAABsUPu8rUSPPSi9Sb3a4E49Hk+RvYxsjrz7O2e9GEdrvUK3Qj12BWm9n5mdvYS6ljy2qGW95MDDPHAqorsAZ9868gNWPXmpmz38qoo8QqQQPQB5DLwAgc68uHkWvFngoD0ks5G8ICoYvODcMjuR1qM96ExtvVDVAb1hZo09KMaovfjvE70vmZC9TXKlPcN0gT1E44Q8lf6APUC49jyo7xC89DKMPMIKQD0y7FY9bAzVvFypwjwRn5o9NYymPZfrgT0wS7Y8oZ2VPc9Glj0u+wS9DkwAPdxGiL3HjYG9IhZIPbIaXD3GCW29m+6DPSwNkzzi55u9sKwpPXbiLT34vma8hFeOvRM+F71Yhiu8uRCAPR6JIL2I6QI8WG+SvXMWm73jNmq9e0+bPaunWr18eJy80IFwvaLBQD3WoRw9kOojPWKzZj1nXpW9o/NYvQ9aoT2+jAu9e/+RvSAsC71Q89C8UtszPXxfujxYyXS9AuBgPTruDz0gZv+8EEkmPaDTZzw8H/q8iF46vctdab12id284L8Ku/CucL1gA+w8mDUuPAz3pTyqw3o9wJw8PBaId70QONg7Il6pvQBYk7sR96k9SxufvSA4OTyoCGE8eOUnPUbiAz2P/oC9hlfnvKQiszxQI+u71ALlPNicObygOEa76F1tvGqnhL1Oew09KGIgveBZBL2c/s082Jp6vXiYZr1Mp/Y8qsVkPXuWGL1m3Fs9P4ycPcCFp7u6LVU9iKwwvTofZD3AOpS64EQFOwEUpz0Mz6S9Ym+FvfDupzsQmqK97F2sPPFEoj09p6Y9SjR1PbQRyzyQncA81IaCPCBJcLuHJZU9NiGAvXcSqD0GLpe9QGJivTP3jj3MJ768AIh7OE4aEz0bs0W9ZkVCvcMqOL1K2jE9ss5wPXBmqjsokSO805aYvUqGcj0I1i+8fKCovdO/Bb2j2qm97rhLvcdrkb2saYU8AF+Xuo7uNT18ar68UzUqvZYmLz1AC8U77n1RvaTy1Dx0CKe8dnTXvGNpR72M7/g8qvJMPb4DZb2F6Zk9YvhYPXJhaz2L13O9VoRLPdwmyTz/Mao9QGbYOibtTD12Mce88f+WPbZyn72Gxjs9YCTwvICASbrY7X28m4SMvXfLg723JpY9vicBvZqBRT0OXm29owKEvQDyGju7Up0961IlvT/pmz0DACe9wMriuyHXpD1DlwW9ix9vva++kb2c8Mg8Q0OQvQaTXD1C22I9pgyIvW4LeD3tmJo9nCeOvQZON70AZew6ze+XPVfJhb2iPDk96ntlPY/emj3Wy+O83tEePZRQ+jxAbPm6kNS6vA/Soz0AFOO7kOTDu7BQDj30aoO8rgl/PWpxQD1DPCW94DyFvcO4Fb0EkII8Duc2vb5xmb0sRs88VDGcvYB+67w4PE08XQOkPX43Br3G9vq8gNtGO8D8mrsAbM48wuo5PVYZ3bxMV8k8AKo6vX8ggT0wnZO9DDjLvABucTxWOXe92DptvKCc5zyAyhg62bWkPSsmfr3g40c8cEYEPQK5bj2AGnU8Nd+UPQCRAD1Sxik9UllqPY6yj71yHTo9XiwHveza+DwydwE9pvRsPeqraj3mV8C8Bp4XPXTYnjzA5oY85N+fPPHEnD2o/yu9nPaWvabnyLzGRqm95WyiPYAU87uoPBi9ww1kvaVEjD3eLlE9c7ABvV7Qjb3KAmQ9DoqWvRLkmL0ahaC9GOAOPd9mgz1Q8ZO9FjOJvUurWL0QFs07ri8jPSbeAj0bLp49DhhwPZyZ07z864Y8wnRlPZQS1jw4qjS9KzmBPXAm6zxIuUe9TwCpPdTdjbwOQUI9KAlyvfuuXL2JPaM9wIJYvELCcT0Li069SpxyPYX4kT1s9sq8zAqSvDU/iD0Iww48kqU4PYhFk72U9qa82QmlPTCK5bueWVY9DB38PCYHrrzIeHs8cpxTPbI9aT3m3C89+vCKvXCUdb3ir2w9aMATPWcwiT1sgMQ8uh6XvfDR7bxLNHy9sFaWO9CvSr0gJbc8TntrPQSP0Tzli6Y9wPB8vSZSmb3D4Ia9IqZgPVqISj1nXqO930qmvfPAoz0KxmA98ZiWPWldjz34BU68BqsKvRXnpz1UEY28ruI0PeDIv7zXTpG90HanPGyK+TzSWU49A8E0vbeSlD0ujRc9jhYEPQCjvboYJ0m83IaLvVTspb0gxJe9GHFxPHjGX7zYASA89RqYPSRGwDxcpZm9O/2hveQi1Dw+zp29MLmiO+GRjD156qY99KmNPBDxzjvsZJe8fAnzvPMEgT2bFJU9di0OvS7LYz3C8kg9bGygPHB3Nb3MKs08+tNTPTykirygakY8ShhTPe4gQr1I60q8mA0VPcxEhzyskKC8sL3ZvPh1ILw45nC84J7FvIKCYz3u3x+9qyKUvczx9LxtLpw95uDYvKvjpj0YYD69lN2aPNzKjLzqeGw9ALTUOoTW+jw21Hi9gDdwukqMND2Q3BO940uMPVBp3LsAe4W7rpmEvQz+g70oLBk91op0vcDLHL1V9qM9KfiTPeLzVT1V35g9mLYPPYNTYL2sEvs8kRWWPQBY/LxeMTi98Iu1PGNQUL3yFiE9LACHvKSDqL2woJW99llSPYxplr14LXQ8QEmNOwBCkb3cSY+8p7OAPZbtHL2QmOu70M8GvbgiTb3gs187s6ROva44Jz0gHkk8YKP2vGC5irxeuYS91P/OPBYYNj1b3RO9jc+hPSioOb1JQ4w9a8KdPRBFxLwzLWy9mPtyvIslhT3D2Wq9Bq2zvMrvp718x6i9PhIMPSCaOrte/Q29Dr0nvcjFNbyWgS494BLpvG5dZz2rLmW9GNsmPOYG+7yAwba8cyoVvXtCI71ONSw9yZaRPfC7h7tL8G693FSmPPq4AT1AIpQ7WCsSPPMJiz3VPZ491zGIvf8joT1YdyE8s6Q7vZheWb2ALlO8oE/2PO4SRb3wlWS91Pj3PGl8oT24tAc8cvJyPSaHfb3w9g29ObmiPQDOejog9kE7K0ZZvWn6qT2S7Vw92s4+Pe6epb1DB6I908OZPfIhAz0yK3o9TqaCvXEEiz3loqg9ELc6vYKsMj0+j0O9QdyePSB1QjzGJUw9RhJqPUOXar0AuwK8aIxpvSt5Ur0P0KS9A/RivaOEHr0of0C8ukBHPUJ1bj0s0Zy9iitMPUtcjL3Azwi8w489vYB/ajoI8HM8myFFvcKhcT2LtkC9pxuVvdCQlLtoKlO8pjhsPczLxDw+bn49kIiIOxsxkL3O7Wa94GoDPZgZp73HKZI9yMpoPI6OCL1zRpM9MGqjvbbjhL3i4gs9c7KbPXUtkz2g5SU8IKEDu/DcqDzg8Q+9OoluPWIBYT2enwG9hJSJvNpoRD0cUa+8wRGkPeItpL3AfO862KZsvX46Jb3OoFu9BioUvQBkhLhoLzu9lBC2PMT9hby69GU919ibPSjoGj1Hooy99BfiPFZc9bwoMFw8XDOBPH6YTj0uOZy9S62gPdy0/rwbSAa9gIIRvNW6gT3gc5W8RlSDvZ+Gjb1YUzC9KA0YvMqSED0AlOA6ASWnPUoLGT2PnI09UAn8u+Qm+TzIKEW9mN4ZvGkliT3AIZS9QOzOvEpUZT0Qcqw7lBmhvGwajb38I469ufWUPaC7KjwFC6I929k+vZa6Pr3+8yY9/g48vVq5Zj2c3aW8Bmoivb3elT1YpGs8gS2DPUjZabxA6zi8ih9rPRA9kL27pIM9YFiCvDIbaT2mLJO9TK2cPICj5ryr9qa9rpp/PVaBurx1HKg9ljI1veZ7dT0AzOg7VN7APBiVHb2M34+95FWRvZEllz3CB5C97gpmvQDpeDvICj+8wIvTuhD4Iz3gYsA8bh4YPQoHDj2I1zG8wxkKvehPDjwAcfU6k8eTvcMder2Sghw9+AEEPRAOnzyN/6A9DuYVvVzMnDyoSBq8ok2YvcwI+zzsCpq9KjJzPUcAkL1A21m8rASQveBMl7xS1EE9M4+bPcB2q7x0VZa9oNkuO1Cgjju40oG9mT+FPWBKN72DojS9AIoDOQC4wDmMxeU8AAB8vFYKAj1In2K9Njk/vR9Ymb3Ov269mBNnvDVboT1CXSI9YDCWvU4Uh71xwZg9jOPNvEmfnj2gBBc8vOOpvJN5V71UBYy91rh7PRDCk7to8AO94pOAvZNZAL1W00Q9vBCNvQrLjb1yQhA9gBcAuuB6ED1vdJm9hO3UPBC/wrzstOe8UHGYvXCixLtmDry8Ht5UPQIJcz1Aho468LXWvHx1sjyPqKc9DkdbvUqATz0QcAo9pG+KvYxR87xg1Ey8KgpXPfC8kTzkcrg8fH+xPCClcL1Qfvm8Viy9vCJIPT0giZG9GyBGvXO2qD1r4YW9zNeAPPLdk70ZxpM93SyQPYD3czrX24e9IrdpPTPQo71N55Y9sArkO2jyHT01Zpw90HWgvNawlr0bA4I94GYUPFs5Rr3ODyG9r0mmPf3emj2zQE696xGDPRtIbr06Mgc9AhksPRiERr2gESq8bMO5PL6kW71WXyK9ALxPuuWFkj0ARpm9fC2IPGOZgr32yKe9Ujs/PRM4qj3grg49Gr9APYX/pj29E4c96PRjvQztu7x0HbQ8Sk84PWvcPr3I5KO9mG1/vPZfdb39hIo97mktvS1KoD3hGqE9GBo/PGjrILwYQXm9YSSIPbI1Pj35bZM9INjTPOB6ZL0Abq27avZpPXaxkL2ANRE6o12NPZNFi73lGJM9usU3PcYAGL1b3Ua97Fu/PKZibz2jMZO9QNy/O/rSfz2rxGm9WO8RPICAQb0Qhrm8cDwjPSjWODxgB6a9Cx2fvYBZ97vUQNs8GPoqPGwi07xQKoW70LTSO3RUmTxwuRe9OmdzPfKZTT12GSM9LpgBPelaiD1gjxI9TQaTPVbDXb0ryEm9AFMlO0joTb3soY88SZ6kPez0lrzYq1c87EKMPCLyQT0IsS88U4OLvdQtpTzGemM9NC+NPLsoCL0ADG+9ELQevfgxZrwMu/q8hPrEPAzYjbww1vQ8Tq5ZPWfbgb3ff4A9Zr2PvYj8Cbx0spI8o0eePYDIIj1MRIS9gjeAvRC2oTystvG8ni9qvdK+Kz3qbXI9WPZfPHNToL165U89LDzcPJAaBr07RF+9oOszO+o2Mj02ZEi9yMQAPKm8pj0Adj+5zmlVvR+zoT3LeCS9JJSevOC+QjwcKoY8f0ecvTgKAjzQRIA87X6EPbATljzUQpG9CTWKPYY8Bz3oX1W8HGmrvDroFD3WyS+9QPkvvQYrXb0gjBo9uIJ8vLAD4jzwB/q7o30yvZipPrw6YWg90MzPu84hQz2OihE9+24wvRCI1Tte10o9YvNSPQBIODwicEc9EIjDPOVAkz3aGnY9cA/SOyizpr0DJpO9wBPwvAn0gj2eH2i9lpmwvK1Gjj3AhO88OM97vXn+pz2AOnq7k1+JPRCn6zumkGS9IkFYPYioJL3O3049a/k4vXK3PD0A2Ny8SCg2vD7lSr2nnoE9SzuNPZA3/zunp4Y9aDI8vDgGL73IOBi9DHyTvQIqNz3yfnE9wL2cu+tbT71gtzI8fGWJvPxA6bxSC0k9lAypvUHIpT1APMu8IFf0PFAxvDxvYIi9LOOkvAj1Ibxgjxo8ksaGvXO/kT3UbY488IonPZLvfD2J5Jw9KZqIPd/Ph70G1g49m8UxvVCWijtAwig8gFksPCu/nL3Lh4c9yKAVvM/Unr2QmEq9ps3dvFDYvztAdfG8ddOlPRZhOL2eXSg9hCmpvCsuLb1eiZe9vIHdvOsCZb14lAo84H56vSq/eD1t8I09i9+gPTBltbseCF09i75XvRXzmj09j4I9q1h3vZvXV70APPC6/DvTPIhgXTx+S0s9eDIEvWQX0Tz6lSk9id6iPSiqa72pFY09cBMUvYOkob2g5TW8gCEgPACt1LqZ35c9y09tvbPFJb2gFFS7dqQavQDmC7yTu4M9ekQtPZu0LL0bWDa9gKlROzttVr3Sd6O9O3ZtvU7vEb3xOpg9XEHavHPGir0KBT89Hm0PPYKOCj27U4g9k9xUvRiUWb0AGDa7YUaWPexan7yYMm68dnUBPTqLUD3+Sx89f3icPeDuHbsAkqu7YGChPCGGkj1Djie9Cn5YPXNngD1SPSc9I1d5vUwNvbyIZxG8KiV4Pb43Ab3TeY092X6fPYxI6jzAaN+7e7lMvZT66DxD8aA9j1WFPbbmFL0As2+9QBDfO1vTSL31hZM9ZrdHPWInSj1Cwzc9mpJTPdUjhz3y4IO9gHAsu26Fo71AKPU6phz6vEgBJLzem0c9+PxsPGAuDLyb7Bi9ZhPgvOanTL3ILCy8wAoCPAOVLL0gOn88pttVvdVfhD1AqGu94CFXux94p70wkrg7Q4Mgvfb/ZL1CdEk9QFiOuuB2RzsIFH+8yGgpPNFxhz2e6Bm9FoF8vTKBj73QWas83OCevVW0mz0ubH89pkEmvftKBb3k5ZU8jCqvPIvcb72GkBk9HtJ+vYCNIDvS7yI99d6lPeQFgb04hw08MT6ePa4kPr0+Zy49wCtOPPPCEr1EfZo8MERRvezw4zwQJic9iit/PQAXD7t2O/u8wfqePUb9pL0uFVI9dsp5PdI1fT0fk4w9qCI/PI4uHL0OF6i9u5WIvcaXHj0AYnM7Du9zvR4nFb2wJDq9WkwaPZa0R71GbFI9DpEbPVsbqD2y5Ws9quk2PcPlKL3i7hE94v8GPaQUk7wQkMG7sIqsu9CsRr02FVc9Ph5vveNvmL0meIe9CcaLPa1YiT3CqY+9uSSdPdDsNr1oSl+9AIx5vdZ87LwYVmE8AT6mPWZrZr1eEXU9HWCkPWfLiT0595I9AAuRuwBb3zuzqUW9ZplbvT+ukr1hiIA97InaPPb85bxo5G48SF0fvPwmhTwiRVU9Nv4LPa9vgz2I2XY8+N9AvHARyzvoRRW9RDOTvE7AHT1cQZ29FhEZPZ+Rnj1LGqI9GHorvNJ4cj0CHB8951SaPbrnQj34AzK8wdeIPVMrT71oWWS9k/1fvcDKErwQK6q8RQClPStxir26/mk9g8V5vWKVeT2w4+K8wMXWOy2PnD0A3E68I4WTPZ77fT201pi9QNuYuro3Tj3gpjA7N3WVPaj6aL2capK9sAPCOxRalb2+Hwc9TpZJPbBQmDvWoJG98JbQO6LbTT2I2gG97ByCvNQnqzzb84W9QHQDvK88ir32EFk9OCkjPAJ6ET3sMqA84rQ+PaSqmTy5X4U9cP2Vvesziz0mXpW9VkgHvW1Jhj2eTE29aMAGPa63Cb1oGka8PEjOPHA9Gb2uuie9M4xvvVBPW73g7PI8KLJlPFCWq7zp8Zg9AlAhPUxHpzwAx1i7IFADu7DrsDtIUDQ8TDCevejicTwy1Qk9GJgtvBww+zxWxik9NC2VvQRSoLz2LVu9OEQkvJvfEr1MDJI8sKOfPICVmDtwyOG8aKVVPA61Hb27Z6Y9EGKtuwACLrmwFv+8YBIHvPB+K70cjou94i1+Per4TT1dJqg9Rnp5vW6Tgr2QpOk8EMTmu2olPz3W/wq9Ay0nvWAi1rzMh8u8AF0yu1A2Jz2uDi+9LAmKPAXGqD1uhnM9g4CAvQCWJLmwBq08AJpxuUkjlj0+h0q9JcCNPRm4oD00+IO9gBNRPDrVpL2q8Wk9tu5svehXKr2Wjz69CNNaPElfgT0wbOW78CKpvFWKpD1cQtu8br0svQhDWTz4Xms8iB0LvewcvTxsg+y8wtxXPe9mhz14oEA8/sc/vUBp5btUtbQ8keGMPVyVuLxb3Ge9oGZRO56dBb2kZZc8wN64utfDpD1w4dM7UAoxvf45Kz32sno9ABaYvRBXzjv+rIu989VovebrTD3AVAG9gI9XusbFWL1iFxk9qiJYPVeomL1zSxS92PwmvaZIRr2EAog8QL6fu56ii70QJTG9u39yvdAAS72uExG9tjhPvahRFDyAwm86ZOzEPKfwmb3euxK9oOuWvWBoK7yAXgo61gZMvQr2bT0CAqe96sEVPfDuJD3WvbG8FicZPdAVqztyL5q9JB+1PADoP7zY/Tq9SEYRvLDOw7w8M7u8Fq3xvAR/0jwAXJq76a6ZPXtjFb2bHxG9dnKIvexdhzzwZIO7w9mSveg7gb1A9Su95ovUvGZ+vLxhwoE9Wl5iPbGGiT1zQpo9XowzvQ6APL2CRJi92CgQPSxco70axAg9ACKdu3I5BT0otz08aI8ZvVbdQb1kZ748saSTPdD7CL0Qs9Q7doMCPQQeojznc6O9wN2Nu7SujDw2LTI9dKODvGi8T7zWECc9k++oPYRQljxk3Zc8a6KnvYgPFr3guoy9gbSBPbLcDD2TZJ09OH99PJ6Zf707TpI9bnspve2NpD0mtXS9YB3OvGmbhj2AIAS8RM+XvDA/1TwATIs7cOicO3jnCT2aXE89ditpPcCkK7xfRZE9QvELPUT6i7zu4gI9TvYAvdQngjyLlJa9hjgrvYUhpj2k17s8FhVyvSGroD3INz+9oJaKvXyXq7zKrHc95HTNPCibJb0KxpK9+WqkPeJjWz3O9Fe9CyRiveJ5Mz3igUk9tugwvWgcYrzJWoM9TNKnPPMuXL1cYKe8hndJveQD2TxgHCQ9G7IYvdjCWbyKg5W9bpBIPXAGgrvwoDC9qFEQPBy21zy6JKm9OGVgPAjMcLz2zP28Qp5PPYp8Ez0oClq8OHZwvCBTNbsunHk9ORGkPbJkHT00HY+8vGGnPOAvETuQAQE9WMh/PO7EED3w9re8f9+pPTidNrwQkNo8h56RvbB6er2pMY0987aFPUaRB71DtYs9aMpjvD6SYD07Lw29gCgiPUeuiz2an2s9AOozuhBogzxBnYk92hR6PSonBD2CbSk9FZ6fPdDu17zw6dU79VWfPbTOjL3QYh69oSuoPSKnjb3G6u68kxs+vS4ZF72AncW8sGu2u3hhDbxqFXk9mlMlPbaoT71DLBW92nQbPfC9qb0gZjW7TgOhvd4QOL3gSHE7eHEUPap1XT2KHyQ9zxqevcE6kT14rzK9gKMdOsI/gb3QeGm9cH6xPDBWgTyA/Wy6JLybvTrfHD3K0w89+VKIPcg0W71mNd68zaqePXBWiL0ePR690z6fPVy/7Tx5oY89UHb/u4x9wDw50Iw95o1FvUNKqL1bn2C9/B/4PB4cH71ovX69cvJtPUgfSr0O2R49Nv7AvIB1dLw1LYA9nnxhPcA7Sryc+Ia9MFTOu0bOe73Qo9U7rTSYPWj1QTyIlpy9YzejPQD11byYmSm9fJzPvFD1przOvFS9AFE1PGhrCLz8Y7g8oJFnvC7GZr0aWnE90Al1vSThuDwqEjA9gqpPPUCi/jyYsj68qJgsPPC1R70wSA+9ZsEivWthU73qkTQ9ROGBvcNVPr1Aqfe71aeZPXEwjj1ehQW9nKqKPH49ab1YCkq9uJ+XvXzskrzDLqY94C97u4LteD1AEoG84DxkO4Y8sLwf/oE9c6qgPXPmZ70ArgS8mtIoPVq+RD1GqHq91oJRvQwG27zU/b08+Et+vdCrFz3giVk8yPRjvNcamL34j2m8xhltvWDUqzzUsP08B/eLPQ51L707b2K9IhuBvYCzMDqMAbS8GK80PKhMIb1Emqq93dKIPTA2gDu7N4A9yBRgPDC5BD0yPXA9cDWJvC9mlb0YOyy8Q1xovUDzXTwGC2090GSevI4EIr2tQII9NNbuPMC11Tu3tJG9boFGvTDPIL3XLJQ9Dlp5vSqwFT3vn6o9GzyZvf58ML1QN8o7TUGXPc6jMj2KuHc99g/NvORIkL3gL029uEl2POBXOTxfepO96pk+PVHeqD0szt68fJWrPBhDZb3UM4g8LlEFvRd7j72wLKS9K16bPYwq+TwAeYy8MpljPQSwhr3KTHA9fLiBvWSk8TyyrxA90B3kvOB7Ybvw1vW7MlVGPSBAajvI6jW8Bkv+vNaFG72+6E09aip4PWN2dL04CVi9CCc1vRDr7DxAO/y8qAg9POAdCD1Ch0M970STPUNfj71I71e8q6J4vcjRID08P8K8gOI1usu4Yb1j7Yo9hoz8vNBC5zuL0CG9QN8aPXPjBr30t469yEQnvGtOG71AORG8vpsDPTzMsTyA7Cm6ZAGmPBoUXj0QlVm94jZPPQb5ab2YxBM9QMGhPGBGX73ibTM9m6pLvVi+CbxAsq08J3yOvWz+1Dy4pTa9KFAYvOzVgTzG9A49rqugvQqXlL3A2A+8gWqlPb+pjj0LV4o9NlEBPb9+jT0uwjg9gIE0vWA/jLw+OUi915+dvZjhLTzclsS8AIJLuir4MT3Qc7s7hsNAPVgLgb0m/ku98I68PL6Icr0r73m9YNYjvDqPbj3uY4295ZiEPeASe71xeYw9GjF8PcL2YT1Qlsa8hrxZPYAgtLyyD569/t8pPSpmjr14Cme8LCGQPH/rqT14dWe90PDau2ZD07zrXxu9GlB1PWgnSr0h2JM9W140vcPYD73Ad6o6TpFNPcB15LxU6tY812+OvRruMj0o43g8VjYevQQC1zwI/zY8/P6bvJkKhz3g8mE71sVAPf0Noz2ouUu8aHxPPECtNr1oomq9HdymPUPAoj0AfzC9W7F5vTIkPz3w0ra88PPHPLt8kL04AG08wA32POsRB72yVHg9WJFTvdq+bj3N54A9fiRZvQa2xrwALwk90OC0vAKBfD138Y098Kd5vaFklD0YqBk9l1uWPTtVZ70Qkss7SM1HvVq2ZT2s/6G8+pYQPXrARD3CJlg9WMxVPP6FT72DbWC9erdFPeisDj3A6Ok7WGE8PEAt87vNxp49tFXuPGRmmb3TF5S9HL7FvCu4c73oNV48bsB8vWrCCj3AUfi7alcOPfv1or143ZW90kBkPWs/jT1uv4+9EcKnPbDI+LsdT4I9LL61vJDAhrw0LJw8xWWDPXCR47z0Woi9cEnMuzAXwLzLbJE94IpWu1gtGDyV94A9MChjvdhtbL3ZUJ09qk03PeZCID3Kexw9QPXXPAKyKz3YoA+8yiBnPVqBNT2L1Ce9PGaAvcg+KL2FApw9yrpXPT5hoL3o/jg8cJ+ZvU4bc71mRG+9wOx1PNuho73TI4w99j1avastIb3w0sC72vc8PUwzqryrQqC9cyajPQxksLyyJWQ9cyCQvbkjhT3wBJU7X6idPSb0Tr0gd0+9NsvPvG6pZz3R2pc9Y8pEvZ1DjT3ar249VkUoPejsmr3D9XS98OTIvLYFG73Fsog9prpdPYk6oz2whLQ7KeunPdBhyLz6NGU94HZvvcBmMr2LKTa9sPkdvey4t7wIVmE8LSCkPTx63LwAP6Y74KHAPC68CD3WvYW9/Aq5PE4YUT1KqXo98PuZu8u4ob0A+ws9cKSlvMMPAb0Cdoe9dyiGPaASILyUHY08QK7cu06pcz0yo0k9ENjAvAx9iDy2htG8AKhWOODTeTsUzIU8nD7hvOw9pTyohCm9UF4pPQB0HTvwnB09uGNeveYRjr0SN0U9LCHCPDC4prxgs5G9uLRWvS+Vn71cmtw8wjiMvcwPkry6bZK9YwpGvQhCWDzyQXg9MJDhu6AbT71LEHO99u5kvQDBbTu5O549AOqcPED7ujv8eLc8WSCPPVApSL2OLAO9A+iMvYtrfb3IyAo9EfGSPRjqdzycId08rG7lvJZm/LxOnSQ90lwTPSBgILziYng9CnAYPcTEnrzmWyW9wOSsvBt6nb1eJge9nkU9vZCvq7tQl/87SBJVvECTQ7y4LJm9ZsX9vO+snT3cWK88AO4COiOlYb2sgY48Li8rvTbmC72GWbm8eIaTvWDFMDw30qi9OPsGvSAjoL3K+j893VCBPc6NUz0O9E29IL2evMCND7xmlXs9lHm4PBHFiD19CKg9zhwkPfDXa73UE4Y84JhgvDavG73BOpU92ocjPS1Ymz0AF5s7gFONu3B04Tu77qM9IFKOvW8uoL2UXoe9ECi+vFWXoD0AWq08vBLGPGCRZb3Alpm9Zk5WvUmDoj3GYD294B3dPHaCgL3AAow68O4ovcBWjr0InQ89AGgMuZTBhrzgkDG74B4dPbhdKby5H4o9iKoLvcjbezz7YoC9tNCmvDHEjT3ME948ZtaVvUQCor39zJk95w2UPX1mmz1MZo28YHinvPxRqr2sVPC8bttzPTVCmD0AFAw6smxIPWSswzwgqkm8K/AXvc7fAb3WtzY9wBpOPCtXF70G52w9c+MKvfdOh71WQwe9KB82PEOBUL1CEX49vpALPQBBTjtOBm49Sq4hPXgHOL3bGoE97FGiPNDgFj22nq+8C/I6vbDCjLwIDF+8UIWTO9MfpL175X29dc+EPfCBtTuQs4e9oKgXvUlOqT0Y6wO9pUKQPfBNiztMn948C+CgvUgWH7xW82m9eF8RPO6ghL3ewZG9SEF+PMAT57qDbqc9bJeDvAwlnL0DbqU9wKYmva4FXr3pboY9wBgqvevNAb0g+z47AB+/PFW2gD3MEuq8arkQPfC5qDyguY08IMAAvfz7nDxqUHw9kO6wPJWOkD1YMFy9R9CjvS6dML1Ht5Q9Y1eKvasiYb2AfQ27PlQMPchAn730Eae9dbyDPfiNYbzAoji9smpSPaw+47zj8qm94JkIO1IQaj3wxJk87jF7vbGilD1WtPa8szxFvbvAPb3CWnc9NgmqvW4TWT2O6Xg9RluyvDsobr1CjVU9KJwPPej6nL25i6E9ffegPZAthb2bKB+9mgCNvfAD8bsokBY8/1mGvQBzmbpIlyc8WlYWPRA5qzxIZBw9OBWSvbokED1rPiG9ZuJMvRZ08bxm0Lq87EKwvD+/pr2gYlo8fCmzPABz7jtInxc8HxioPaqadj2onRA9OFIGvPogdz03+6i9hcOOPejgCbyK3HU9NwGXPXg3I71gn0E8yAUpvOCtNLta1U89g7KKPbstlT2GiVW9auI5PQsClL2omHs8rr1dPfpiQD1gqCe8YxEEvTI/PD02pxq9K3GoPYPML70UL/s8sGT3vPgSUzyoASY8IFgivPiJcL0Q5l29WJ8BPGSjxTxLfDu9ZIz1PIvvm700sK48wGmGugJRob0AOCa6UxJZvQfBiD3T9h+9Ib6EPWaIU72c4KS8YJdqvOY4zLxyYjk9CzxPvTCu+jzGACM9QOqvOtYl47wIpzu9oMAqPOYeHz1K+3Q9YOqBPBh+eb0YhGm82UyZPQthhb0TlF+9FJqRvdKYhb3+0Wi9WMozvN40X72nLZY9ypVMPZamiL2sTo48TLvfPI+omL1bXCG9KPoHvQA+iTuTG6A9RgX2vN5aPb0AlKw58jCgvaS9/jzinTo9luU6Pfmcqj0LLT+9Ru5nvXCfnL37gyW9wODiukDx9DuexY29R+apvXBCKL2IR1O9ANoJvengpT34sUW8+JdjPOBIn7yA7wU6IGjTvEvjLb0hHo892LNpPEDxdzzwhYu8O9yJPeAbF7uE5sE88ASjvdAQ2zveQw89wKqouhCaRb2+GCs9GOhJvXqYCj0ooyq9drIRPVwtibyIsJ290GPNPA5ECD3w/L475mh5vZt/qT0ACZG6u0+EvWZ7pL0EoNU85SukPcOxqD0gdFS8wDH9PEuVUb3cB5c8fMeFPJ4/V70Q6OS7LltePbjabL1Ye2K9F5+GvbSu0DywVUi9i8lrvXDZ/bvAK788qOJWvKIBSD34Th29ddSTPetwJb2pkJc9AJrxurYY3bw+8Uo9oNJYuwASNrtmxMa87xiYPWAo5LzMBuE8sY6fPWBWILxtj5w9QAXDujklqj3A/Qs9c9g/vaTWnjxz2hO9WphIPUQbvDw9XYQ9mYKPPWMObb3cBZ68aiZ/PWqXLD0bJnq9uFsdvEA3ezz+pE29XEyYvbupVL00Veo82wKlvVT4m71W+wS9zdeNPd60fr2LFQO94f+lPUB8hjy6upC9+IZpPE0Imj02wvW8EUCEPTm8nj0LWUi9WHGevWcMkz0tPqI9KsIqPZJeQT1ur3M988NhvVONjL3sD9i8ogV5PVVOmz1EhMM8rvMxvUD4mzpwM5a73F6MPLBtM71Ctmc9wD9mvICqDDsDch+9wlYNPawLhrzLtE69MCyMuyhWYrxCM0M92CMavbDhrjxOynW9lolhPdLNIj0wE647R0eEvUB1jLszUBC9ZEPbPMjqEjwIyDa93l1tvd9bqb0Q9Nc7Fp8ovUZM47wrMxO9CGV1POImbD37eSK9dLWgvUBP0DvzOmO90OH9O64yGb1S6kk9IN+7vGzRoLyVtKE9mIh4PGCutDzGBwm9g75wvUCEKb3U3cc8EAmbvR7LBL0ohEA8jBnavL9ymj1LNwm9UMIFPU2ciz2ahmg9kE0ivU5efr2Cww09KNc/vCzzr7yC3gY9pp0EvcCOkLx7sha95oEqvdOrib2yInY9gLkfO4APorxgYhu8wMaKOqrMl73CUUo9fulaPYgpW7z/hZq9gMwMO/Dmo72SfFg94NtuOxUjjT1+xDA9OXeVPQjhR7yIOAe8RqYMvb/phz2l1o895k5bPVgfG70im0c9IAIku5TAgrxOjUK9dKeYPMBlBD0uSGc9l3eKPX5PFT0ABFG8XpxHvRseVr0AI9W79IGVvRJso73sd5O8G7mWvXY8Pj34lUa8oM0qveSk1zyMR+o80JTpvOM2WL0w0Jq8OH0uvEu9Cr2Rp6k9C0huvV49SD2qgyo9jz+mvXC9kLz+ZmY9zECevbiINLyo6IS9oNRTvDyh67x+BAm9yW+cPQx+kDxA2NK8ewaZPeYeubxqFS49QGjXO2CNvTzCdA49INMcPH4ASL22w1e9bMGHvV1VgD11WoM9DIG9vHYGzrxfgY49WCoZvNC8+DvWFfO84rJyPahvYL06aDk9GDoHPPj7Jb2jTne9DfmHPSXWpT0gqfs8mp5GPbJ8RT0yDWk9CpSlvaA33rxAHXU8YKl2PBx53rx+uGK9Oh51PQRom71oURS9IB0WvIldgz2dnIk9sgV7PajUSL2Aj/c8mEArvc5PSj2oVCa8draqvDgokr1kV5M8ohM+PahdFj16gBE9uvdWPXSjl70LYTe9mIknPZJ2k70YWQA9fDKBPMBog7oau2I9IDcwPMXNkj1OR1Y95c2pPSDLZbzg1l29qls6Pa7DQj3oZD69kCfYuyZZNj3Av7K8fNypvE2rhj2gth69mIhIPFZlkb1AhXs8OOeovVCDSb0Os0+9eMkJvQffkD2yqTY99f2dPTT0ob23naE9bdKZPdaFZb3AwJE8YwN8vRSLgrzA9pu6JB6iPPjHl71ctrq8EDLZPKwM17wyiW89pEPuPI8zhr2RM5U98BcQvRgbdb2AytQ7mCYmvetdF70iMlA9wBaRvFAEBr0pgJU9YmKgvebLGj0QWWm9c/WLPcoVmL2wxIA8PD/qvFQf2DzAKp66QiVdPTCnqb1lZ6o9HDmUPMiGA72Eb569yItyPMdhm71qpRo98Py/PBiIDryMYJi9Eix/PYyc37yImwS8AI7Ou+nZmT3AtxU9c6qIPSYhFb34HQC9zml5PTAf3ztSWG49sPOlu0beab17SlC9MIPeu8CszDtnaqI9mZ6oPd4EUb3TVia9VhAMvf5xT72E6Ya8At5mPeKhWj1Jvag9+I0VPdh4E7zaUHI9YrF1PbB2nTyU8aW8s0YrvUYEOD2m22m9iotUPTaoubygrAw8iFlTvE9vqL3EnKi85ggtPSKIlL1Aahg8tvtuPS5uf70ACqC7LEjwPOtRqb3ghwe7m6WOPeN4EL2GlBo9AO4XPYJ4dT2DQQa9GwiTPR6uNT0sBv28eMILvYq8ib1exUU95j9MvWIPCT1Q/7C7uOmCvZbCVj1g0AQ76k1iPVTZ1jwwUOs7JoUbPZ+BqD06B2Q9tvovvaroQT20vOQ8a9iYPYBz5zwwnpQ7wNH3O2Aq6jyuv2k9AJK5vEPZlj2ADjG7ANAZuSD/NLwwB2e9kPrMPICYorwqrX49kDf7u0W2nz0WMgQ98KH4uw6rNb0Ej4a99W6YPSJaWj3Y0HY8MZmGPVv5iL0r8Bu98gUePSCJLjwAdSi9YC2HvVa4wLz07oA8I+BHvQ4oEj3dBZM9kRCLPXr7YT3AaPw6sHnnuyazXb3zrFG9ocuZPWQhh70kipq8XucMvSC/0TwGV0i9j9emPQU6hj1A/cg7oOfVPL6aaD0I5go8CNAGvIhYITw945Y9eA5FvMDKi7sAO6i7RkecvQBlkDp5ro09Ok17PezVwjyXBYe925xBvU5PAT3TtzS9IOn5PHWVpz1pEZI9IHwbO/tuFL0raou9gfmGPQAmQrrY/jI8ZiwMvdC/trtedVa9KDI7vCD4mb3seuG8Bo91vT9lg73dQKA9U0UMvXNUlL2nX4S9eORzPH1bhT2QRDm9qGY+vODlHrvaVzU9YhVbPV41Dz1aQZW94EQyOzjsR715mZc9v+2nPbLeKz1lrp091HnoPDGslj2I+Sg9kGW3vKhBWb12tnW9ZlNrPfAKFD0nHqI9NDLLPJU4oz0uBEK96o9aPYDQh70+KSs91paLvQBrKr1AGCo9mDFpPK5Oe708UtS8+LAZPWVPkz2Aeyy7wNOjutkTnD1oToi9XM+YvOouOj1OSCY9DGXcvI5FB72oGX29yOkQvbYYqL3Ar9q6wFzJPJtMJ70mYYy9YWCjPfK0Yz0wibo7DtQ0vSJ8dD1AicQ6Xl9CvXV3iD0klvY8yMI2vUBqvLzrf5E9nh9WveYlIr2aT209WhpOPYCRSLog6l48KA1FPKjkdrzw4sQ84JNOvGYLir3H8Kc9aINLvHAu0LuQTJI8GpNwPby3obynzJi96/qHPTrZcz3m6c28zIuSvYBcFLy2xjk9anJmPZZQp70wqMW7gJhgvEPKEb3Q3rA7+H9+vI70Aj2AbFM7yh9wPaQYjr0i/lU97EWjvbCV+zz4P0k8eK4IvPC54zymJ2s9MptIPTdmnT0QKue7Q96iPWjGZbwQMaO9yHMPPYyAsTy49xU9St1sPVAkhju6mmE9MDCFOzmqjj0k55g88vRwPQioaL2gMuy8KGxJPG4vcD15mqY9diVJPUaV2bzS2FQ9nPS2PLpol73q8WU9NJ30PJuvpD04i3U81s7LvEMLjT3GLfS8+GV1vDMCDL1zHiy9BnEIPT7Bf7347km8PJWCvLXjiz36mEc9LuwFvTi4JrzGTMO8oiOfvQC6YrlMzaS8L6qiPRZcVD2kUvw8u2UjvRguKb3M8f68wC7+POA8QLxAkao67iMHvdCrijz+m0k9+02BPU8Xjb0aq5C9LI/tPDg5Qzw+UT+9ZnBvvbwggDyUMuk88CWGvJbkc73AcLO60L9svZDytzyaiXY9MQyqPdMYMr369Hc9oO8dvd6tNj1LtT+9seOEPUG3lz1kqJG9KHMKPVB4wbx8sca86BBdPGu8oT3qlC490h1WPYAvLjuQLIU8SHISvICKD71395+9TLnovFI0cT0QS/O8i2Omvf5BRL3wqog75HmJvC7xYL1Qs/u863povZgIcLzHUpW9lqttPa4qej3Q8ti7oNFZu9uBmr0Ya3S88jVCPQjRET0ynXk9GzhnvXMkIL3oF6e9PNzjvEC6yDrOSFa9g2yVPZRNmb2ARh86fPP1vP6NHr1MntO8SOsNPaTFo73AFfS6qFwKvYgrczyCJG89Gl4iPaNJgT18ufc8qzmaPRAT07yA0YW8U5yBvZ6coL0AO7a80NXYvIEViD2H5Z29wGr7PJCbjzumjLm8BpUxvcjiLr1wQH69K2w2vXTMmr1z7o29Jj3TvEDIkbzAa+C8xKKKvIDC1zydl4g9LZyFPcV0gT3QiIa7gBBau8C8GL3Kek09fAnUvM2plD1OHyk94vVVPT6wNT0Qt5a9NPikPIbsKL2yXlQ9hm3VvIJ/MD0L/Em9WWuMPSByYDtakG49G1hUvVImVT3lUZA91xudvZCekL1qpAE9eHxovdYnsbyg7M08ACmrukw7o7wa6Fw9YkxoPTbw3rwgrWe7SK0PPWrkn70DWaQ9m4+ivYsdkL2t8I09+8QevcKeLz0DmSa9fgYbvcDmmzogBPm8kX2lPQBD/zkYpVA84zwwvYK5WD1sdoQ81lmOvWW6iz2o4zG9qLqNveBQmb0whJ4761OdPXclkz1aRVk9pOaFPIiljb3OoSe92Lk/vWgoT7wFKoo9tG79PKRfwTz/H4M90sBpPUIobz0IYW68nOH4vBjKbr2wnxI9gCVXPACeAzyyOlU9aAZJvGaRWD0wrrO7JB+WPO4/Mb0+Bje9mEyDvd5lRL0WW3e9OFABPXB8hL3M+Z+8aFUxvPJLnb2axEo9VWyBPRAilbupiI09XMKgPEAdJr3meAu95p3gvKLXbj0FzqU98O55vQZSDD2s97e8iJp6vRxJlb2QSOe7nQupPdBHlLuQrSO9cDa3O6+liz2iPHw9EH/cPEDh+TpRG4w9BuRBPWChhrxNsJI92BQjPWCEDT2yBG49Q26GvZhwkL1vs5+9eGl5ve6pQL0oZQO8fW2ZPTB/pLvWB1M9PCSSvbqodj2mwxO9AHVaOwlBiz3knoO82/+iPe4jQz1O3JW9iX2gPUHBkT1gYJI8HEbXvLi8dTzWKHo90npNPUa5XL2TtR69mHVsvcVFiD1A5VO8SM50vKBjdLyY4hs9QHq3ulSi1zySnVM9OyOZPXnzlD1QfqK7EwwpvUiEUjyryZa9HiVCPb72Pz2+c2G9wDExvOilLrw04u08rFKnvEhhPLzyMEw9w0GjPcIIjr2gnue84AfEPDj2KbxGIxq9QEELPPqdIT2u/De9QBLnuhAOwrsYakC8MJHyPFBPVr2T8J094J/RvMGZmj3ghaw84hdCPaDIIjtoFjq9VuQ0vQAugDsA2he6MJepvKBIQjvXEou9uDUNvNnVjz3C0mg9YC+CPCDYbTsAiCE9BFKPvUx7xLwaIpy97A2gPJCzPL2Tn329ePoQPUNmiL2pToM9oP8PO2A7ADxs+f48uic/PXjOQTzACwC9M52XvZYYUL2j/oM9Xx+RvTZ1O72aLDE9wxhAvWAjWTxwROe8/JyXvN8glT1/yIU9yuQ3PaqYLD04fY+9YjQwPa6iGr0VLo09Gu1gPdiICzzozHK8+xKoPRy81TxdMpY9BEvLPBb90LyglA48AFWtuUN/Xr3YvHc8gC3ou39HhD2Kgxc9OIEAPG7Wab0AR3W90jJhPexIqTw8TOC8A/FAvQrlVD0kUbE8VPOAvIDvyDu4txQ9CsBkPeznujyG9109ADQCvchcJ725Kok9nKWgPJBIFr0QWI+9FqEKvYCDpLzaHJ29sC/1vGGJkz2wALS7gkx1PfCApryDuFK9sBd3vcMyC72/kZc9zsqGvcAwJLy23049APo1OVQOpb320g69zsdxPSzeirxijmI9cIqfPJOXJ71KRk89PEvAPIB/X71tR4Q94k9sPboNYT0wvkS9pa+CPX6apb1XfZI9jDyDvNDRjrw6BHk9EFyGO6NoZb1N8pI9Rn4kPaD4SLu4Zwc8ZoBhvW71Tr0kiJs80kEyPWZLLL0Thje9IEcPO7y/orxWDaW98BiNPAD4vTmaAFU9cFHdu8Y1X731lag90+oqvWGSpz2cNYC9Ai0xPYCO/Dw0Zrg8WFF0vTrAGT3ML6W8DP/OvIC+LrugvRw7+IEhPPuWqL1Wf7u8rs5vPQqtSz2ENZA8AAwQulg1Ujwgyue8GVGCPeAOL7s8E7Q88IKFu19xhD2Ahyi9MxAxvYbt7bw2yE896ntZPY33oT1cT9+87FTzPDF3qT2gnEi9bJ7VPIz7lL2Q1KI7sLCWPHZCTD2uq1k9wKCjPKvkp72Qs/G7qD0qPVqzQT11n6U9wNsBvZTPxjwA7Fq7SRigPRo8Hj0u5Tk95t0hPVwxsLzMtOo8kKWVPHRGhDwAHrQ6YAUhvZjcQTwwaNk71UyWPXuLNr2Ym0k89sVSPTepob1Q0/k7uHoHvbTui7xOCl69a2UavTioEj3WEIK9gNdZOzY1Qj0h4Kk9MVSGPRA0zzsMKpi8TSWQPYCytbt+1Y+91G7LPJ5xbD1IlWS9AIC5PFdEmb3yLzw9sCoUvYLunb2p4pU9yNwnvT5GM70wY8K8tLqFvQAeMTmaxIe9OoIGPRh3Kj0CvF49RLHCPAJ9az2OwWw9DFT1PHQenbxM+YG9f5OhvRi3ob0AWba7pBWoPEI4az2gtp48MZKkPQKvcD2zVXG9AJUSPYRkozyWTq+8bp95vdZvfT3bc3+9m3GavVCLtjvAaQM81tA0vfjFMTx7vzi94GCcvGTp3zxwIvm784IOvTn0lD3WFWK9LV6ZPc6DAT2+UWM98Db6vEOnMr1xxY09ODhhvUqRZT2UpN48CweevVyd4bwvhKc9xE+gvfZrPz1MJsi8AJx8u8vyCr2HnKa9AIQ5vc4qO71Asdu7swiEveZW5LxDu529UL7AvHCQBL2wabi7KggMPVT5njwa0V89AudnPd5cbD00KJK9n0KkvXi6eTxH7pk9xK+AvOC9EbtcAYK9mWmcPfSSrTxmcRM91E/BPAe/hz2AxEE8LulmPdQXvzw2qS69K5tgvchrQ71ZZaE9iAhJPHsbpT30eoS83JaJvaI+Gj0ioWw9A+uMvfWPiz1uZRi9jK6/PHqUZT2YNmy9OCJPvEDlAz2qMXU9NV6NPZyz37y4Qnu8Zh5+PcpAhL1TE4c9xv79vOHsiD2KF5C9toAGPRwW0ryY+YC9wpUGPenhlD0WEcO8Qi1GPaRnnrxW63i9w49lvWCmHzyk6aa8rv0avQFTnz0wpiS9aKiovenAoD2gA6I8VZibPfSvrjyAfVo8xGb2PN1khT0g4Cc7H3SVvcBbizoObzQ99L2DPAgvUTxK01g9/AOovVAb5jykDZ+84VGePdxslbyAmxW9SKQ/PGjSDryiOzM9WxI9vTBJmr0cSq28gIs0vLz+07z4kGS9JCKcvByf27zkKKA8sOoLPXg7Cr2Dvwe9GpFTPS4XKL1OKlg9KtR/Pa7fHT32roq9vjBovS6zdL3kLqO9ffSDPZDTobx8Hc48VnrMvNSt/TyaijA9XJC/vDuGar1j90294QmJPWwE3jyDXCm9Q3QpvccDmb3Q8Z+7+KsTPWgmZrz8VoA8tSubPYCzdDrQKdc7m7iRvZ82kb3Y6GU84ghJPSi8BT1P1pG95BuZvAYQNz3g9BI8apY0PTRpjLyUfoW81E2iPLkPnj3ryG69nNTIvLiSSbzA0aw8UOaJPB35hT2qPSA9sJDguyD2ALuG72O90pFcPZNEHL2wWtA8miktPWsUkL10ae08MIfdu1hjFT08QZM8tqFwPWJ9Mj1rEUC92LpyPJkYjj2gQCW8HNmhvYCQwjsAZpg7sFHGPNXioD12qqS9sLkSPdEpjT0WbFu9sLRfvWIjgL3rgIM9REedvUm8nj3I5nW8DLnrvLvXpj3giFO8cthkPV72az1oABy8bcigPXwJpLx4r2g8uww/vU6JdD2ORyM9qIqjvYt9H734FTG8Uso/PeitCjzArNg82HMevZPckT3DXW69vqGWvXQIyzwuEhs9HlhoPYaK/rygJZK86oFuPfLjk73QOMo7fbuOPWC1e7xOhxk9gDJlvSOyGb0QPYc89iUJPbDOy7ywuY48QNTNuj5bMD2jlKg90IaEvII1Xj2DF2q9gBeUO9hyTr1KnJu9wBgavABQ0bj3IZG9QLr2vPBwl7tAp/w6nM3GvB/pqD0aNzE9g8eAPVQRnjwLqR298nAFPXtlir3DoFi9UnFlPcSal7zwndg7CodvPe6Jo71YgHU8pP+sPBa8ir3+7XA9PWaAPdu7iz2cpak8OGAZvDoBSD1aNUY9AL2XvS7vFj1aFnw9awiLPbJ+YT0ankw9SnQ4PdiKObwG96C9EPS1PBapkr2rbKO9YFMxvT51Nr2gHi67qEwzvC9bpL1Weg698rpIPbAkjLvL8Sy9JoxcvafRpr0BRpA93uaQvWbJe71OG6e9QPnkOkCdoDw2R2C9fj18PTo+dz0ANJM7i3t7ve6BPz2GhSy9Q/WPPUCoLrxaPxE9dqECvW5Vh71cSZq8ajsuPVC8er1MUZK9Jw2NPUCunzpw/oO9956lvdQ9l7y7aQ+98Bv2PEbO+rzwLNI7/hULPVB+8ryw1J+7YLJJPG4eNr06XXk9gOVAvfYHRT2WJty8uGpjPCDNFzv8UOE8EAcwvU86pL0Eeoa9BsLZvAmcnj2wOdi7WoRoPejxaL2YX1y8kBSLu49llD0Oang9BKLUPAsHkj1QTaY85KSFPBCrpr1ghWu7xFOavUKCPD3QHi69gpmhvbZDQr0Isj48stllPSZXIT0Xdo49GeinPQQUjL321Ba94QioPUa8Vz1gP9m8fXOJPYDAWb3aLTk9QxZTvV4pYD1jOJ294PZtO2z35Dxyl0w9SZ2UPQDAKzrQhfG8wKyxu3hkFrzM8cS8eE0mPWZH9rxo0Q49012XPVJWTj26m4C91l8PvcClrTybSiC9XqKpvQOPgb2KX3Y9SBAsPP+KjL3A6py9MnyGvWx8qTyQ8sc7kG86vXiVHDyKYKG9c5UUvUBmtjpAJk28gm9hPZZ2qL1A8846YGw1OwiMFzyQegC98NTlOzg8U71wRbu7TD+hvJwu07yyMEc9hIOcveCl6zyg/Oc8gH03vFAfFr2V6I09w/UsvVjHUjxgVD69fs8Jvaz5pbyc2Y+99iYivVA1xTuK3FM9eCFfvYA2uTwgNHq8kJXoO1Ybn70gPEi9iBsBvfZ9Qz3AceU6Sx00vQWElz1w2zm96K+KvZBskr28zYW9gE+RvGNPhj2io2U90HFwvcyBmTyADNE8YAZLPNHWkj04FR+9ns8WvdPXM70AHhu8oX6kPcI/AT0DLai97k1zvaB3+byLyj29YlphPXbB9rzYDB49uvpyPVgPNb3GIBY9+QOUPcbYQz1L3E+9O9qgPQBHajwoZxM9yeqjPUDv6jvmSCy9vA7XvEBJB7yMXZ+8RH+ovTjwj70gtSA7klE5PeCbWL2+EAK9ojZ8PUDalDtuyyI9fGidvOLEVT16nWg9RVSPPfAzxbsU+r48GLVJvECcszra9D09cMubvDNMmb376ai9jVSlPcqVJT06kig9VgyhvQDHlDpY+368vAGAPDuViz1oJiA8n1+BPTivHbzbVQ29htXCvODVLjw9PaE9SdqgPYBbrLxrShy9cAbvOz71dj3rsi+90KLwO5Q5wTy7ine9KntdPYB1dLvyLpG9CSeHPXBUc73tYJA9RkE0PdpVUT3IayS94/AUvZTA6zy3Xos9i5wRvVZfHb1avyo9YCTuvA3VgT2s0KK8diYGvfsPHr2JyZw9wHb8O1Cm3zyeMHU9lgV3PUO0Xr1t/pA9DCWrvFqnaT27f4q94Ml/PFOnh73IQ5O9LkIfvZxlpjxAtIq9TIXuvNbYEj32HXE91EqivaBdLzwmeTS9JoxgPaDJXbwajHM9Ni6fvYAffDwTVUG9l1KUPWZvYD3KYG89HCXrvCwflbxwxlO9/rwBPYtEgr2Ivp29NxamvfDGQ70OhHa9XK7XPIQnm71meGK944qBPfO0Zr22kjW98nqPvcC/9Lp2SdK8qM0PPNYIE710+oG8gGA1vNA4OL0XAY29LMKYvAdChT1AIXu97A6FvIw98rxrXmC9AG+zvKBMijy4Skm9G3grvbJIdT22yzE9pjMbvW7OWz1hjIQ9AMJvuzC1dL3/s5I9nP6mPLD7gDv4gWu94IMsvZQQozwsas68qIEgPIDp9DsAMPw6pFeNvbSbh73HrZG9+Fo6vF/Dkr3YjQE8TPWYvQtndb1AtOm7IJ8CvRpzaD3gpH27gAbtu1UTjD3QkfK7STuCPRrpTj0wali9BE/iPByBrTwt9KE9s15SvVssDb2zPFe9dgtjPQrvaz3AhtC6Q9pLvUiXSbxSgVE9sgpkPQBddTx+Ox09+yRBvVCLzLwtoKA96MtCvaaZcT2mU0Q9EMmkveQGrjy0AaC89iLavICqKjw6CZi9tC2bvfB9nrtCJnw9fMzKPCiWQr3YoCe91nqTvYAWgDyIS2a8OiaKveaOeT0+RHg9YFkPOyyk9Tzohne8h6KVvRgacrz6xoq9gLWhPGZ7WT3oeza909thveGHlT0JF4Y9MDGTPMBQj7p7qZa9qPQ1PAy2y7woeEe90p5mPUDHZ7xOvIa9gHD5O5BxIr2AGN27Dvc2PZy7/jyKDmQ94LrfvARKo72pFZs9zC/KvFD5X72jLI69QKYaPEEnoz0AwAC55Ee6PGC9Kby+EQS9sG0fPUO8J702O1I9i8WiPSbkej2WfnI9bOXHPEBntzo+wxe9PVCBPSOnAL3qhis97P/vvFMkMr1uCwk9yupNPVchgj0Qs4a8imkQPQ5YDD3rtGu9DktgPaseMb2Avze7ASydPeCrpzx5F489M3yivSaAxby4ElC9wLn8O1inA72QmR+9YE2lvYy+ib3mQgK9ADY1uUhEG7zClnM9i5dWvabGAr16REA962WBvUCmF7z8sO68AM7uujqvfj2UhZRSlEsAKEsgSxBLA0sDdJQoS5BLCUsDSwF0lIloAilSlHSUUpSMCmNvbnYyLmJpYXOUaAcoaApCfQEAAIACigps/JxG+SBqqFAZLoACTekDLoACfXEAKFgQAAAAcHJvdG9jb2xfdmVyc2lvbnEBTekDWA0AAABsaXR0bGVfZW5kaWFucQKIWAoAAAB0eXBlX3NpemVzcQN9cQQoWAUAAABzaG9ydHEFSwJYAwAAAGludHEGSwRYBAAAAGxvbmdxB0sEdXUugAIoWAcAAABzdG9yYWdlcQBjdG9yY2gKRmxvYXRTdG9yYWdlCnEBWA8AAAAxNDAzMTc4MDYwNDMyNDhxAlgDAAAAY3B1cQNLIE50cQRRLoACXXEAWA8AAAAxNDAzMTc4MDYwNDMyNDhxAWEuIAAAAAAAAACo9ym8wJKQu6TQpr1AYSC85mcNPbDO27wSdUI9462hvb/inj2AqRu6VM+ZvM37lz26EjA9nkMJPUA68LvCEQQ9vi9BvcA0I7z8A6u8HogRvQ7zYT1hZIk9LIjGvGAiIz2uSSg9NF34PNBqi70uDXs9RLPmPMKFh73WSOC84n1fPZSFlFKUSwBLIIWUSwGFlIloAilSlHSUUpSMCmJuMi53ZWlnaHSUaAcoaApCfQEAAIACigps/JxG+SBqqFAZLoACTekDLoACfXEAKFgQAAAAcHJvdG9jb2xfdmVyc2lvbnEBTekDWA0AAABsaXR0bGVfZW5kaWFucQKIWAoAAAB0eXBlX3NpemVzcQN9cQQoWAUAAABzaG9ydHEFSwJYAwAAAGludHEGSwRYBAAAAGxvbmdxB0sEdXUugAIoWAcAAABzdG9yYWdlcQBjdG9yY2gKRmxvYXRTdG9yYWdlCnEBWA8AAAAxNDAzMTc4MDYwNDUxMDRxAlgDAAAAY3B1cQNLIE50cQRRLoACXXEAWA8AAAAxNDAzMTc4MDYwNDUxMDRxAWEuIAAAAAAAAAAAAIA/AACAPwAAgD8AAIA/AACAPwAAgD8AAIA/AACAPwAAgD8AAIA/AACAPwAAgD8AAIA/AACAPwAAgD8AAIA/AACAPwAAgD8AAIA/AACAPwAAgD8AAIA/AACAPwAAgD8AAIA/AACAPwAAgD8AAIA/AACAPwAAgD8AAIA/AACAP5SFlFKUSwBLIIWUSwGFlIloAilSlHSUUpSMCGJuMi5iaWFzlGgHKGgKQn0BAACAAooKbPycRvkgaqhQGS6AAk3pAy6AAn1xAChYEAAAAHByb3RvY29sX3ZlcnNpb25xAU3pA1gNAAAAbGl0dGxlX2VuZGlhbnECiFgKAAAAdHlwZV9zaXplc3EDfXEEKFgFAAAAc2hvcnRxBUsCWAMAAABpbnRxBksEWAQAAABsb25ncQdLBHV1LoACKFgHAAAAc3RvcmFnZXEAY3RvcmNoCkZsb2F0U3RvcmFnZQpxAVgPAAAAMTQwMzE3ODA2MDQ2Mzg0cQJYAwAAAGNwdXEDSyBOdHEEUS6AAl1xAFgPAAAAMTQwMzE3ODA2MDQ2Mzg0cQFhLiAAAAAAAAAAAAAAAAAAAAAAAAAAAAAAAAAAAAAAAAAAAAAAAAAAAAAAAAAAAAAAAAAAAAAAAAAAAAAAAAAAAAAAAAAAAAAAAAAAAAAAAAAAAAAAAAAAAAAAAAAAAAAAAAAAAAAAAAAAAAAAAAAAAAAAAAAAAAAAAAAAAAAAAAAAAAAAAAAAAACUhZRSlEsASyCFlEsBhZSJaAIpUpR0lFKUjBBibjIucnVubmluZ19tZWFulGgHKGgKQn0BAACAAooKbPycRvkgaqhQGS6AAk3pAy6AAn1xAChYEAAAAHByb3RvY29sX3ZlcnNpb25xAU3pA1gNAAAAbGl0dGxlX2VuZGlhbnECiFgKAAAAdHlwZV9zaXplc3EDfXEEKFgFAAAAc2hvcnRxBUsCWAMAAABpbnRxBksEWAQAAABsb25ncQdLBHV1LoACKFgHAAAAc3RvcmFnZXEAY3RvcmNoCkZsb2F0U3RvcmFnZQpxAVgPAAAAMTQwMzE3ODA2MDQ4MjQwcQJYAwAAAGNwdXEDSyBOdHEEUS6AAl1xAFgPAAAAMTQwMzE3ODA2MDQ4MjQwcQFhLiAAAAAAAAAAAAAAAAAAAAAAAAAAAAAAAAAAAAAAAAAAAAAAAAAAAAAAAAAAAAAAAAAAAAAAAAAAAAAAAAAAAAAAAAAAAAAAAAAAAAAAAAAAAAAAAAAAAAAAAAAAAAAAAAAAAAAAAAAAAAAAAAAAAAAAAAAAAAAAAAAAAAAAAAAAAAAAAAAAAACUhZRSlEsASyCFlEsBhZSJaAIpUpR0lFKUjA9ibjIucnVubmluZ192YXKUaAcoaApCfQEAAIACigps/JxG+SBqqFAZLoACTekDLoACfXEAKFgQAAAAcHJvdG9jb2xfdmVyc2lvbnEBTekDWA0AAABsaXR0bGVfZW5kaWFucQKIWAoAAAB0eXBlX3NpemVzcQN9cQQoWAUAAABzaG9ydHEFSwJYAwAAAGludHEGSwRYBAAAAGxvbmdxB0sEdXUugAIoWAcAAABzdG9yYWdlcQBjdG9yY2gKRmxvYXRTdG9yYWdlCnEBWA8AAAAxNDAzMTc4MDYwNDg1MjhxAlgDAAAAY3B1cQNLIE50cQRRLoACXXEAWA8AAAAxNDAzMTc4MDYwNDg1MjhxAWEuIAAAAAAAAAAAAIA/AACAPwAAgD8AAIA/AACAPwAAgD8AAIA/AACAPwAAgD8AAIA/AACAPwAAgD8AAIA/AACAPwAAgD8AAIA/AACAPwAAgD8AAIA/AACAPwAAgD8AAIA/AACAPwAAgD8AAIA/AACAPwAAgD8AAIA/AACAPwAAgD8AAIA/AACAP5SFlFKUSwBLIIWUSwGFlIloAilSlHSUUpSMF2JuMi5udW1fYmF0Y2hlc190cmFja2VklGgHKGgKQgQBAACAAooKbPycRvkgaqhQGS6AAk3pAy6AAn1xAChYEAAAAHByb3RvY29sX3ZlcnNpb25xAU3pA1gNAAAAbGl0dGxlX2VuZGlhbnECiFgKAAAAdHlwZV9zaXplc3EDfXEEKFgFAAAAc2hvcnRxBUsCWAMAAABpbnRxBksEWAQAAABsb25ncQdLBHV1LoACKFgHAAAAc3RvcmFnZXEAY3RvcmNoCkxvbmdTdG9yYWdlCnEBWA8AAAAxNDAzMTc4MDYwNDkyNjRxAlgDAAAAY3B1cQNLAU50cQRRLoACXXEAWA8AAAAxNDAzMTc4MDYwNDkyNjRxAWEuAQAAAAAAAAAAAAAAAAAAAJSFlFKUSwApKYloAilSlHSUUpSMCmZjMS53ZWlnaHSUaAcoaApC/mAAAIACigps/JxG+SBqqFAZLoACTekDLoACfXEAKFgQAAAAcHJvdG9jb2xfdmVyc2lvbnEBTekDWA0AAABsaXR0bGVfZW5kaWFucQKIWAoAAAB0eXBlX3NpemVzcQN9cQQoWAUAAABzaG9ydHEFSwJYAwAAAGludHEGSwRYBAAAAGxvbmdxB0sEdXUugAIoWAcAAABzdG9yYWdlcQBjdG9yY2gKRmxvYXRTdG9yYWdlCnEBWA8AAAAxNDAzMTc4MDYwNDk4ODhxAlgDAAAAY3B1cQNNABhOdHEEUS6AAl1xAFgPAAAAMTQwMzE3ODA2MDQ5ODg4cQFhLgAYAAAAAAAAwAr0Ol5m4LzI9Go9YKvUvJ4QKT0YLWO9alGivP4MhT3Eou88j6NGvQC8YzlkOES8IiMQvYAu5DtA/rA7SHQlPDRDIL0Q38q7NiK6vDCvSLzcsEs9wDigOhC3kT30FKC8oA8rO+iTgzycwcI8WNa5vFbc67xaFpm81ICDvWxhEr0SctK8VMiEvLh+Bj0ZT0u9mkeGvUezZb3wZmS8FCVwvCBnjr1Arzy7dKPSPD4Dq7wAGtE6+TKBvTReO71UMbI8MjOTvZgJ/DzIxvC89AGBvbQgqzxUy3o9CM/+vP8lkb2qq9i8GOWKPdrYK71A30a8ChoRvdCKNT3jeyW9UVc/vXBAID3yB4A98ElKvNwWJz0kxdQ82D8gPIADzjuAReO8AObYOcRTfD0IP1U8UA0hPQR9hj0AnmA9mDgcPPx1hTzgP9+7vGJ7PZofPb1liYW9lv0pPWBdo7t4tYQ9SJ26vGJSRL1Ukfe8SI8EPEwAzzw8uEM98J6Fu8RdI7w0VgU9TkBFvZSwdz1Yk4o8kpUJPXjmhT3g/0s7KHKRvVS1abzqlBc9sD7hO2RdhjzEjFa9vtK7vFR0XT32/eG81Vd2vfpGJz3GTxk9KgpEPQxCgj00x/g8WEgIvILyDD3qRWe9upqCPQyXfj0w1Zu89b+QvTvREr2KK7O8fFievOu1i70QtMM7cNU8PegnTTzGvjQ9UJgHPPDUsTskEJM8oHPFvLxuHT2Amzi6FDPkPDwzeT1IBme9S+UEvaQFkry6iy89UAPtu5RbL72mRMK8gGFOPY7xUD34OyO8wOGlOx4wLz3YHni80GlOvcayMD1mJyy9ABpqujiSgz3KlBy9JqmRPbrYJ70qvCg9AFx/PNiSMb2AcS26Tgo/vaIvQT2giIm9Xr6TPTZ8YL3Z2wO9dGQ0PQTvijwYAfY8IOVsvcDYpzpYXqM8sJ7OPJBE27vEcBw9OgXavNiWPDzBViK91ClhvYTrvDxQTSo86cl+vb2aAL3A4U49gGz+uxLSND1YsBS85u1ovXBphr0J8SS97CdaPWzn4zw2qF29kGmuvCjeRzy+ZIw9wo5GPVxZsTxUgZA8gqhOvaqPKr3g4u47mRIfvcaJ0bzAIxe8QNelOpbmN70ctOC8YrYtvbSvjz0YEwO92xSQvaALz7xMGz49ryCKvSJInLwAjCs5clU9PeBzgT14Tv08KJqNPSCuIj0AuW48GEF3PcgdNDx4xmM8kkpRvTAXzrue+N+8QJWjOq66ybyCviE91MzEvNnMgr1k6Kc8HNZhPfyJa72kcFw9RAWYvI5okr1YjmG8WBj0PDixCL2KVWi9ALkyPWz9K7yMYDS8ovoIvcR4dj2Ipk+98iKWvBhdzTwmkGG95/RVvcsHer3K2BC9oOqsO9zVWj1QHPQ8WATVPBaPPj2QcK28rgA5PdYmer3AqJM9jZOHvWjphT1wvuY7WqqrvHuvgb38+1Q9SisHPWTTdj34QXs90E6iu244S71otx08orz6vHA2tTzcme489Ow6vea5CT1C0yM9eFBhvW7vGD10QGs9RqOOPUweNj2AZgo7kIaMPQBrfz3SdIw9UK27O0BkvbrgjuO7JAutPPSVYL1q5FS9jkKQvF6Ciz3IXPS8WHYJvOxBWj3IzHM9La+PvazOI71A46Q89myAPepLD7104yi8ypmVvAKjQT0KQ0s9XmyGvKb4jL10vF49+ti2vGI6jj1gIEc8KDKgPCLKK72B+Am9ohEUvbiHB7zcoyi9pcCEveD9vbv8ABk9/IkNPUAnfDsGyXa92EBZvByzzjxiQ8C8dBCTPRhwyLzVR2694ggMPXzbcD2UtTe9YILCu+haB7y42049YNPzPLZOp7y4e+e80fUXvfeRA712X7S81EPqPEDRnjvsuAe9gs4EPQ+jgb3wwoY8xAaRPdpI37wGqoU9eF9kPYCyeTuwx4Q91CaLPaAJAj2MRgU9FO1SveD+ALukNSI9eP+DPUTqRj0A0AU5+M4QPHQc6DzAoWS9cp8TPfE6Rr3I0y88KEE4PWDVArxrYh+9eB5gPTeXdr1iBoY9orF4vQB1vbmyxYg9APrju2sPh71Gpx89eOaWvMADvDxw8W68ZVUXvYzH0jzKm968kCjpvNh/mTzSyu28QELyO1D6cLwA8ja5HOhGvRrF7rzy3kW9eDJePBoQDT3gsGi8jeEQvYChKLsYKiY92IJfPW4AFT26IwU9QhIwvakyYb2Ax0E8+M6fvJRFDD2PspC9BpFUvcASyzqoJGg80CzYu5BPUL0usV+9hON3PcLahL2maoU98Pd8PSxgaz3EPvW8ua1bvUyl2jw482g94BW2uzCuobw0j2g9MWpdvVwtSb01zXW9p24jvczMXT1itLG8wDyiPCTiib28hke9yGDUPFBrMD1upUQ9nkqqvER9Lr1KV1A9lU6TvdKvVD1CExg9AM1sPYB8Pjo4z4M94HwJPBoxPj1wKo87GMm1PHBNZTz5onu9ABs1vA711LwAwV27UEECvN1Kbb1ZUlq9fNAuveBSaT3Zaoa9zh9IvcI5Bb3PjhS9oKCaO4jlULzuPnu9SPKHPHB5Z71IoX+8WJjJvGaFTz2QT+k7yq4QPYD62ruAQ5k8TI4MPX+VR70A3g060C9YvUD0ErvOOk+95Pguvd9wYr0wDoy8YU6FvRq6BT109Wc9WH8LPRyyYL2gBxa84MuvPOzxRL1JqQa9ff0evbomb73QJAs94DZDu1iXtTwaseK8JIYfPfqdiz2Q5v+8gEuVPIKzjz26dIA9vEdbPc55Tj3smJC9jGBvPcTlqjyQ+Wk9zkuhvMp8Vj3A/2E9+KB6PVSoXr32UUg9eO56Pe79m7wI/Su9QDRiuyhGZj3odKm8oIzGO8DMxLo0e8M8lz5lvXJoSL0tpZC9OKRhveQa1LyhIIW9jBEaPa73sLwYU+w8JA7CPLKBv7wgCVs7iDJJvEH4hL2o2Fa8gXgyvTiveT1gHRw9n3uLvQ5hibz4+CY8wKU7OypHIb04EUq9WH8qPcaPUT22roy8gdEgvQTLaT249z+9MAB8PACAM7tAasg7gJWdOqRdHT1ANxk7LIhSPRhF8zzUdFK9hIZ1vfB+g70R+Im9JHW9vDbhUT2IeYg8f8UHvYD2O7spBBq9Tfk0vXQkwLxySZG8/Ip2Pa45i73ivdO8ACwkOQj2tjxVyAG9AGPyuv0/WL2096U8olZTPUBImTrgTN87hI1VPQyBkzz5XH69QLJ8PK4EST2RoIe9fCPgvIxTJr14/f48lCBMvGDyXr3eGoQ9mjwHPYpuGT2Q/0s9PDMRPbhglDxghJI7Fc1svaJmgL0kpJQ8kNSeu2MxHr1MpuG8ugYTvUgJWD1hPA29CGTjPEVxir08KdY8SHYhPfz5RD3oZHE88F2nu/42CT2G/Cw9QskrveqAn7yU5gk9pnGAPdbsUD1A0iI8oC1MPPbZMb22+VI9ICmxPG2Pe72yQic9JwOPvecUi720hDK9exl4vfqmjL22lYw9qtaMPRNZJb3pKGO93hNPPSiTvjzgmB+7BeeKvRKQdL3I70C9zrt3vSjzYz1wAsE7klSHvDjtZ72cRQS94L+Iu3hIPzyAog67OBxRPBibeL3iDsq89O0rvTIN0rwuxzU9KEU9vdC53LydmQ+977aOvehgnry8GpY8oCQ+PEY/LD2E/tQ8rcoUvShbhjxOpAO9XJa/vCoZhD3o6s48tAm8PGKViD3gr3w8AWJ7vSAwMb0QpY28uiGLPWKghLwCjYe8yCCoPOC8HbtAfmG97LC8PMAx2Dr+vDq9crlvvWCT97tQ/cU8TrFMvRBhNj3SXAy9VooLPTqH4rwEszE9YPwNu/+WGr2y5DQ9+TYgvYi28TxijEU9pq+Fvd4wRj1+NUm9QBy2O/rlCT1ITgS9UIXbO/YnLL1aY0O90BnNPAC5/jolrR69rAFoPTRdOj1EdDO8zGFUPVQviD0Y6gI9G/ppvdxZGz1cf4Q8jNJlvWDoK7wyFSC9gBDMO2ABqrvopwG8xPxVvJT8hD2AAGE7MJFJvAFGVr3ALpA9hDwJPbjSWD3gcv+8uKQ4vWygOj3AoVw93NpBPRSMiL0WzQA9x7mCvSxklDwMH3u80D2hO3C4dT1yNw494DeZOzbOLz2wVek72xRtvZCWCz3A92Y9RNBoPZ42Vz0iUDg98HjLPDyGILwk3hI9mA4fPQjFdT3QRBg8dEdmPQzUwrxg7n+7/MFGPfCUgTz62RY9SAXTPNlFIr3o11U8EBQ8PdThOj2wlZI8Brw9PWjXNrwq+II9RCyGvED+hz307Sa8cBUqPWIjWr2QqtM71CBdvB6WLr0MSS09/PkXvfyCMb1YkWc89XyIvRjyMT3Ig3U9YA5POyJy97zoYOm8aJ5ZPICE9jp8auS8gONFPDpUPT2EPv08Dh/OvGjUHDzwrro7mC6PPId5db3Ij0e81NGFPABg0TsAHYc5wM76OnTgGL1mWBm9BOhdPZgLcL31hI29APoWvcAECTzgGJK7hMYXPf3fi71Iz0A9CBxwPfznWz3wrx28blaAPbgpa7wg02A9gE+hvEBMXbvUuic9ACcau+TFfD3eHkI9OLI0PExVpDy4fQq9RjrlvFKuOD3UJDw9qNKmPLpO17zknIE9AGOTOvkzTr2qixI9ld1gvWS2DD1QwJs8eQd2vXq4kL2+tJW8nCUXvW03hL1W3Tm9MCSeu2hZFjwwv4k9IAJKPAhEVTy0Il09ONUbPW6WKT0AwnW8/JEIPeSmlTyaMkG9zKqrPKieBTx41FA8bIVWPdoCcr1XcpK90VhqvTjoLb0zHgW9bHaLPKxBR72gHA27kILIPGDZfT1SCTM9OedavQpwa7382c08gLGBPWjlFr1AP7q6Se+Bvf6nNT10AIY9wHqYO0Y6JD3QDIo7ggewvMDZVDzu5Q49WlWLvKnYF70IthA9FpeMPchmDDxJAYm9Id+PveQ+2DwIS7o8CGxOPEAYMrsieD492X4PvQwFjL11mm692KqcvNSG5byI3nu9Rqs5PYVBDL1gvZO9Rm+HPQyE+zxk1ZY8fM6uPMR+C72wHIg7AG0YvPRS9ryAMwu8UOmrPJfFJb3gZQ29PYSEvbiQdz2gVFQ7IPcMu/jdez1oX1+8gcokvZU7Vb1grUC7g/x+vSgboLzAs/Q8SAYvPGghUbwwhpW7rtbivBi/Zz1MjJu8iCtovYq7kT025zW9QL94u6BQfz06Y4+899pSveJHHb3IN088EJYkPUpLxrw+BuS80LfdvPCW2rvxCTK9rLpUPchHhzxpYJK9HIY3PSwfVD1kt329gESuujXskb1EY3a9L5AJvUG6kr0vfBi9ri82PTDlZrwi4BK95PGGPBKVLT1siEI9SMQavZpyBT1RTkO9fnwZPdJxVj2SwkI91BhSvHzvTz0A/5o5YFcEPO0cIL0ozsI8QgC6vBLx7rz6/zQ9ePmMvWC8+bsSGcG8vu8FvR4E5rxu2Z687EtBPahLWTwQrNe7xntOvYmTXr3Rhza9u5SSvXJGBz3QJLc7uI+BPbS0GD2UHhc9OHZcPSKcW70fiYS9uEf9vOqLh71kfn091I2BPWizAb2IEv+8eNhnPIBPKz3Qeka9ujdEvQBpoToUk588sh6QPXkEIL2s5lU9jn1/vd9vhr3SKUa9CnxjvTJJUj3GUvq81auEvT6UFj20+lg90JE4PGwUYr3uooy9AFYyvHC8sLtrh1m94D+pPFbxBL0MInu8CokAvaAn37ut1HW9UuYNvXgiJzzEnTG8YAghO+REkj20sXa9J6SJvTSkbz1ElLQ8WPSLPciAszx0v4Q9BIY2PfDySD0odU49r9MFvWgMP71IDoQ8NHtivEbLJz3Xx5O9QM0PPf4l8rysD2Q9kmg3vVLKab1cM0A90mVMvVsJWb1QEcG7QB25u7CR8DsIhUQ9TCOzPE2ej71OUjs9SG5yPfFGDL1AJhw80J2eO5vcDr1Ayz67rJY/vTRsI7zlbmC9SEXqPFZGgD1wDty7IvoHPdBXh7vs6iY9qDo2PcDzqbpMW7m8QOfSusZ31rzAVDc7dAdavRg/FD1GDUC9nSAPvYB9MTsUeZO9oHM1vfbI6bxcCUY99Fg3vGwugLwOvpG9tOHIPN/5ir0IuQU9wGjTOpi6kjwkopI8NBxsPfBHkz0AOK67QE0vO8yIvDxMe0U9dHMJPSjELj0AE2y7MCMwPCofHj3EztA8TBUFPVQd+TwRI5K9dgBLPXLRxryGnCu9bDyUPFTxszyglqm7IDgvu5AsUT2gqWq7aWglvXhGbTzw01U98vgPPTiNgbygIzE84lHavKhwszzws8U7/PgZvVGQLr3K8Qm9CkYgPQBUMjnYQQq9ht7SvB4bPb2AkYY6XtUiPXxxXj002pU80pOLPVgHhjzK/4Q9lP8+vNBuYT1K3U29vB+VPHjNQL3l/IW9QDiNugCtRjwAyHg8qnl7vWAV9DtkN/A8QgYMPfBuTDzITHM98h9XvaAfPTuoQZU8wCgGu8A6s7xg74G7644GvaDqSDwoZ3c9YBhZPRiSh7x2clY9hlhhvTBeorzYpoc88oCNPXD6TDxE/JA8gFH/OgwyRLwUUpu8ylDevJBjwDtIMYS9VGiSPQkBFr3C48W86nM+PbqbJj1Uwts8GiGuvAJbHT1QESm9ePZxPaR/HT0kvFo9bjzQvABd9TyG5Vm9WlOovHaPLL0g+CQ78HpYPXCoWT2cGl89sEfnOwSPij1IC309wCE6uxUMiL3kglo9BIhaPVDJ6js4zgo8un7KvIApozoWcPK8oDQ9Pb5dRz3EPDA9yDdAPH6lL73QA3I9gN9NPcg5eT04DRc9wP+dutgJG7zqR3C9QF49vXlkK71M1zw9VLtbPcwye70A9mU9/A3jPM1qSr3UxjQ9gFSNvUyNej0GITG9eCDzPEhhSjyIT3g92GdyPPAVwTyCefW81xh4vYQgxzxciL48Io6QvB549LxMxlm9FLc4vGaLJz0ELT09gJLuuoqAB73VeYy9cDqwO9LcGr3wpw89x2aSvUw10jwwG4w75q1jvX9air3EMg49rsZNPWN6B70i+Yy9wBE2vfODa720CII9AICLPPiPsDxU8GI9NuCCPaTIULxPTEq9+cgWvYSfib2GKIo9AKlEu3ySLrxiAIO8IKNbvDAvNzw05EK9oIHQPMDufL28Sdk8qE1DvcSodT0CLJO97H7zvPSIYT3q7S+99fADvTJuTL042Qi8QhAePWAvF7xczW+8JBhNvccZUb2wj/88VJ1OPdArD7zAe469UAOsPLpXhz24xoQ9EE/bPDBfr7vbqCW9az9XveguiT2KQwY9fNGQvAwASz0IL2G9Pe9jvUDRujsob3s84giJPZSHPr0UU149y8QIvZAyr7t0oHI9MP4kvJCztzwo2Fk99sz/vEAv1TqwBra7dn1OPRxUkj3OmDe9rGmaPFysZLw2d4K8VPMMPRCOMzwoQAU9gJ+sO8wQdz2K4Is9QEdFPHI/prwc84O93s5EPbBov7wkzQu9oOqTO8ia2TwUUrm8FOlgvGJBmbwFF2+9IKlhvbSXKr006y+9yMl4vWOHPL3E7gS95MV+PYbqcb3+D4S9NIXNPDTFcz2O5Si9aCh2PJgvkT3oQ5Q8AKhkOcOnBL3SsRo9MC2UO5KGKr0l/I29wIxVO8rqPT0MKj+9DLVDvFTwtzxUbHw9IIwUO+Sk9zwAISs6BqKPvZhjojzaZ5a8OLQcvO+feb0A0zE9BNDQPOBBgD2AUCy7uOdxPAqwAj2WnJC80CRNPPDSUTzWQC49sCeAPWwJIT3aKho9tfgCvUBytDuMdq08kFcfvIiBWD1IKO88TEmHPdKjO72omGM9yZ4SvTpbhj1g4IQ97L60vPQjDz1AEvs7OyFFveBC0Tukc6s8ANd9PXAwgj1kL3g9gGt1vLaOXL2w9FK9AMNtPAz4Yj3AdC+94OtaPWCtkjw0+Tc95n8HvRLORD2g80085Fpmvdi2Ar0+O5K9gEOIOjy3Y70wBWI9JuVNvcR9iTyA+H088Lx2PYxPgLxLPxe9ylknPdORj70e1hI9kOHGvDW2bb2i4CA9WGYUvACKhzv24wU9OM86PQpCWr0+XN28wBYYO4UCh71cuYi9cL0tvZyZjjxwQ2s8Hsg8PRQ1+bzAxeq8CDZbPWIIqrwcZ6Y8CuuIPQk1hr108iQ9eDPePHAuRL3IAIk9Pn8ZPdIwRj2c1o293so9PY+Xk73jhF+9VBAWPRA1gj2Afru6GKWEPGwGjT1I/Dy9Th07PUkuR71Ab6y7Hu6svECl5rqOgxA9ALxuujW7kb1CeQk9znKgvITTfj1unzY9BaOTveQpeb1Ae5g7QHt5vfKwjj3w7288iG4FPMRWjr0A/wo8kDo8PKCzTzzwhzI9qJ11vYHjGb1sEW49uFQevOgYeDxOMk29LdGDvcBuBjsAkdU89vY0vdhODzzCFkW9GF8nPeBtPrtY0Sg806qKvfhBcT2Qgaa7mGFIPawPaD3ePKe8PM2VPCK6Pj0AzOq6GNR2vDIEVz0SeaW8SN2JPQTJO72Qg8M8NLCyPCeSj71KTYO9JCMrPaBEVj2AnRu6lET9vJARdT3HHnm9oN04Pb7iFD1AHse6Kr+MvPA4hD2JcB69zJItvb6QIL02NY89uDOEvaPTM70EHLs8AB0jOhgObTynooO9IIwUPBAXVzyiFo69av+QPaoPHD20pJA9FEQfvAzIrLw0/mG9zayBvfAwjT2qJFi9uA9hPQxqUb22OoA9eClpPVzEUr2ItS08VReRveiuvTzSk4Q9dhUkvTpcBb3IbSI8qL1VvPCiMz08sLc8TOJkvBqI8Ly4M3M88t2lvCh+Cz0w9Yc9iIoRPNyKd7ywkWO9vmdGPUCDhzoxzBW9KQ91vdYWir1Qgl48QNqzOzQytTycoY88gCErugAjhTtjYn+9NPEqvN+FIL0UH6w8UjiOPfDwEj3+cQQ9NAFFvTDQpzv4myY9jAQhPbVKHb00piC9rEB2PVR5cj3Cdi89uOBzPcArpTwsL6K8HD3qPDu5C732xE09QLISPJCdkDysXZE8dC/rPKA5qDuI81s99OiOPTxGLL2wh/S7VhIhvQBOcTp1GyK9TD6TPbDOGTzMNio9FgYOPaBPFLzIBfK8yK07PeBHVbtwZ6W7xG2OPcCISr3KWg09DMQpvGz9sryAUFo6KcEYvQwckr1d5z29hiNGPaDz9Dw0d2a8IBqbO4ClBz3PDoe9RLubPCDngzvQqZu7dlI5Pb/cfr2dGmW9UGEZvUD6MjzUhBs9bAaKPfiCIz3Que87xHOKPBaNNL2Ygzq8AEdWO3KpCT1mnAc9OEbLvGBCWLxSwYG9wNRKu9jAqzx8+d08HMEhPXqKyrw8KcY8VAmEPagGLLzk9YA9oL5ROzwNJT1wMK87QB6JvGAhALxwiis8RFIqvQpb3LxwwxA8KAnuPCZXNr3zsoe92JkWPYK9Nr0k1lg97GspvFrRwLyUp3o9pjtCvSBBBzs+wW+9eIP/PBzgyjzAJC49APmgOaCrF7v6Cyk97G1lvfAZ8Dw45ug8Eq5avX60ET3YdBk9WBzJPMbKDz0WEc283JrePD8teL1MONC8RFzyPG5hVj1UJWk94MptPWjUljxjiJG9031HvUwrgD0ZjoW9dqdTPSoDIb2cm668FKFRPbA8DrzFmja9aB2SPdqABD3WBA89jL1+vBebhL04hZA860iEvbiF7Ly6hCw9WOlrPUBizbowUTQ8JiievBgWu7x4CeK84IX+u3ioQj2hTIu98S+BvfgFYjwroIK9r9sZvbCysjtQrj29q6Q5vYB9JzwA/WC6gISGPcSjybzgTF27gK9AO5zNDD3SmIO9fofzvNjh5zwY8Y294BbqPEOCh71Q7rs7tB9zvUkmkr38w9E8QEW7PNzrMLzgbHU7duY7vWYts7xWOlG9hvGPvKxriTymbN68IBkoPM7kwLw09sa8HGR2vfQY/7xkBuW85KD1PJTsvbx4bow8dO4yvWAYvLvswRE9jCNdPZnBgb2UMGG9cUt6vevDkL34U0o88I2vO+z8JT244Cq9tzkGvQZrI71AnLg8cqAUvRwt/jx0Xz28KHVtvVCInbyj3oy9VpgfPXiVhzzsOlW8wFXAuufSir0cS9Q8zzxrvYDpfrtcJz+9BJk2PYAQW70QhH09yteCPfQekbwOFoK9mDh7vMTiVj2wMVI9xaomvcIoAT1GLVC9MIFBvOARjLxkkkI9AEZgPYBZkrv6Bh89OO+2PFD/9jyKRg09AEOAulid5zyQKKS7WWsivdRQEj2s8ru8cC49veDcQL2w9nA9KKXfPERYCz1OQIm9Yj9KPYzxdj1AvFk9qD8aPSxeGT2+phW9zPQcPWGcSL2AIo86NAplPYza/bxYhpw8pCFqPV8AZb1IM0k9vIRaPZBoUDwyzmG94EsKvZ3jJr1qDRg9LLeNPQB4Xrx/Q2S9IGR9vcSAO702rCy9NMpfPbyBET3kcvg8tEOSPPRFfj0gaoo9UBiTu4jkyDwSwi49Zo0BPfi0C7zuA4g9fhF6veqgW73QXqg7WbQ7vR5VQj3o8ry8mRmTvVj3Oz1k8C69dKKIPUo8ibwmd4m9dkoovbQYgj1AiSA94sMjPeyEkL0UrE89oODzu3godDwUxTo94DwIvFzrtLxiAsq8pONRvSyFojxgvKW7aA8fPer5S72QgJG7YEptPQRaZj2BFYS9qFzSPKCSBDtsvDc9+m8vPVg7c72cSl89epwgPfo8h71oNwq81Fp6PWQkSb0AN2i7QPkNPL3Yjr2QNG88HAd3PaDrXz0gXYO77F2RPPDfkj2c+w49pMFYPfSEEz1j0oe9mF/qPID+5LwQAww8wGM0vVqxjL30AK28nItjvIwoFT0gf0i82GoOPLEyjL3o0k+8QhYoPXg7Sj2QP5a8lpEGvTb/Rz3gBAW8hgRNvQ+tjL0gGpc74K+cvJCe+LupiUe9zgmFPZRoVLy69yC9ahQ/PQjQ2jywFcU8DDb2vOzUQr18/H09Cn5JPUEDIb10BmM9fKFlPQa9Bz38eD69/gSMvdimGD2IVhg8mgQLPWpRn7x2Zq68FKo/vBjDOL1KyTg9yNxaPCjzQDyg9Ts84BVCPEDr3LqAKzE6sCYpPIzL7jxw9SO9LsLZvJxx3rz0YzE9LDtKvcQk/TyKh6G86lyPPUeMFr3dxCC9tBFiPTCihDsAhrW5XJqIPaQsEb3ClDo9hgfkvDfQYb02cIS9NdCHvetyB72sxoY9oIhcO3LZWb0oPnU8IHxfu4j7WD0wOss7EGfrvJJIjz12LoY9aDcgPJCCVLzkiyc9qhENvbHSNb323N+8zHWCvZjKQjx2OCY94GRpPbiS1Dxir8i8QClFPGZ1RL21I4a95DyDPZw0BT24JBg8LlosPXLXf70kBXY9fBzNPB/5ar0gcIs9VDo9vYAW6byc+429ayYTvVCqzbsgWg279KpxPYyhhr3cV8A89mSJvdA3v7uO4Q09hoKDvMDsgj10h4y9+rmDPdiI3DzsHLc8INIRvJRIXLwyPfq8gDGqu05bJb1QbAq8aHouPBqu8byQOWK9cHtTPFrXZL3gKsk82493vWBJFr3Qt1Y8OKdPPZCIOLwgg0m7INk7PZB/GLxYSmo9IoOdvJAR1byoi2E87MI3vWwy97xS6o69rA3gvDiXajzfnxS9EFB0PBjNdj1Yqiy9njy/vIB2Kju4+Tk8eiR3vRDNlzwAikS9XBWjPHjzLz0AQm49UU9DvQDlnjy6QNW8cOKzu0pwUT2m0y49MA/XOw4khj1waHU9GDePvMib0TxdXom98sdUPbSmkzy0MoY9sJNhPZh+8LxPf3S94KriO7z2yzyA+8E73miQPdTfQLw+e2e9sL+8uxj9RT1gdFY7VGGjvKjt5DyKvF29LNRQPeKn/LzWnSY9MmArvfaLubx89bs8cCjEu0B7zDxipyc9VT6RvQD4zblwifk7UOKMPY86Wr08BFq9VMJNPdjqZjzk75y81k0TPQDqL7k7ZnS9Rv7WvMQAKD1s4i49iABVvdUIjr3eAAQ9DAWjPARxJb3S+OK8bM1kPQwBib0+fBI9rNDbvH1+j70c7Ty9QAtOO2zWnzwwujS9rI/VPMcEir1crWe9DEc6PSLFND1S30s9sJrXOy5L/bwAYbs7pJ31PERgh70AutY6jHkgPfgYfzweNiM9aMuVPKAFeT3OMYk9oPCau2mhdr3n2ne9ukK1vCa87byoOX89NipBPYRxvbzYW5w8wNJ5PZjPPD0Q0CC8LuxsveDXy7ygzXe9rMNkPSH+Ur2AWu46AEZ9u1CNQDwkpIg84lqLPcAkDT3gxP68USJjvSDUGbyE7N88mByePBY/cr20on895MR3vHlBE70wUAI8cNC2O6iQWL10xCa8yJbqvNyoEz3M+Ha8qK3HvIJVg7w0i4U85DmfPOqYbL0o6dc8WqyCvVxVC704lB08Luf/vNpnFD14VsY8dv/ivG+Jeb2QlS88KF2IvCSHfj0IOpM8pN6fPB+9Hb32T5m80IYSPHqeAr0qa0496GAavXi1aT3G+nm9cHA3vOx3Lz3T2Uu9nqiMPWjuTzzIMeu86MqaPFiPFr1wFCI9wCe4u6h4KTyQJN88vMNPPS6qt7x4Exi9tikKPc5dJj3e5Ia8T8KRvUjVcDwc3o+9tDxCPegggjy2tIO8YB09vQ5MQj0AJp+8KFEsPBQVcbwksGu8ogqGvFgyAbwIydI8yKCFvaCggD0umke9IEgMvelefb30qSy92ZMkvQpBIr3j24O9ZWKNvVyZZ71HYya9sOYtvRbKUD38hzG9rLiqPEhGjj0IS3O92Mo0PTaWhj0i5zM9EABaPKjyLTzpxI69xNJhvUxopDxgTKy7cOxiPICUlTrKiIE9Wj7hvGhaajyY6Gc9bC1PPSjvXb2QDr27zoNQPZZhNT2II/Y8HOGNvYAZW7qgrHi9sIF3PRP3eL06uk49CQqTvfBfIzzkBII8iL7VvDSp7jxOWYo9en+OPQaFMz3Qpb67uwVCvZy/jzxkT4M92DMQPFSaRD0AAB46qmtfvVgMTDzWKoK9xus4vaK6hL0M92c9EN4APVjlADwifPy8ibOHvUhQf73A5MS66Bx3vXbRNT14gxw8sMEoPChvxLwOQBU94ANuO1igiTzobse8OHCBPcg5YT3tBW29bNHZPMcriL0ACBQ6RhoEvehaGjxM3D89LIRKvGLqUr0wpAK9QKGHOjw4Rz1IrDc85MA4vOA3az2UHz89+OQHvBAKG7zwMEo8NlMaPQBn5jkYvns8NleAPaAzXTzaC2y9M1wdvVbopby8sSa96nRXvYhkojwsrjE9+FeXPPA+vzx0QX49EIR4vBy9jj3ael69Qs2OvYz4Wbz0IU68AF7huoD68bqlYEC9SO5wPRCVWDyl4RW9Sq2jvGAMJzuIs1S8zNMsvIAEFb38r608JikgPeUUi70QBuW8GGRIPGjBLTxw6kI9JAtyPVA6KzxAB5e7gu19vVBIFT3p8T+9oNZHvUBMubsGnDq9IOtZPVBalDvUUrE8OpG9vPhvLb3YMDS9gJE5OyhVOr10wUi9GBpdPUioMT1oETs94hKOvTQug710AZU8xIgFPbdZJb0geak7re6PvWHgBb10W2u9eAlFPLwGnDzAeY66UEboPAPTFb222GG9uOd6PNiwdj22lBU9tDloPVD9dz3GyMa8xHJLPSe+IL2Rqo+9I5B7vbKnPD1YOFc8XNIgvSjoHT0gJA+74BUgu5CRgT3ocdo8zM9cPUoXd700aSa8giU/vQbRhz2t8Ru93BAmPXz0hj3mrUk9XpaFPdy2kD3M6aI8pIBePT7W3LzIICI8unAtvXDoCT0+PFc9zBR3vIzO8zyc83w9t++OvZC1Rb1Sylm9s5mCvWq0Sj38sIk9KWwWvaDSaT3QXvq87Fj2PEFQGb1ARYu9PgYPPQAwXbjQtcS7pLDoPDRukT1A1986xjHEvDiLjz0UCEa8gPBduxBNYj3ixO287NsDPVcVEb2GuXS9CLS6vFscAb3QloK7QBZ3PNol+7w8+Rw90JyKPJh7Kj18CKE8gKPPu+iStbxUCZM8wD8GvUg/jD2B2oi9Jewwva43Z71IK4Y9uIYLPLJ3iT1kGTg9cM2fu9TAkL0Mt4Y8kAl+vBDFPL2Q/fm71pxHPf/PiL2ACky97N9kPYavRj36VFM9QHFxvQASu7s6HA493ORzvdCuIjydAXq9qeMDvb+7jL2cdLA8wES/OtDLQD2HKoa9DMNSvLA47DsAxkq5NiLKvNynK71gicc7PLyGPJdLZr14UyA9et+EvGzY5DywEu07qEgOvEAs6TpQmVs9ptEgPYzSyzww8D891B4avQKQkD1gUKy7biWDPWRVkr02dFE9qEqzvDd+jL02zMC8oqaEvdyxgz1A6di6wE3CPGRtfD2w9FQ8YoNPPYBhXT2UZEW8km+FPQALhD3g9h29/B2PvUDqBrv/gAO9kNDEO9gbjDwA9u458PP7OzZ1IT0ewY89qDgSvCBbXjy2qqq8rh10vRb7GT2HrAm9BPqcvLGbgL3Qd3s9MCmwPECXqbu4fbM8YgeBvBpvRz20eWE9YKONPJL4Lj1AvFg8YM1Euz+FXr2Ml9s8UvmLveTgZz0QlUS9pOxEvNLYb72wmY88wDTYOiASXTwAf/+8gAB5OmHgg73EEQ29gVQOvTThaT2+zgS9VOXDvJCgkz051Fm9PltXPckSNb2iYYe80NqcuzarEz2g3h889OF1veahCT32J2y9LOpYvUq46rweFS093rG+vBCokr3M1FO99pWCPYC9xjuEVsY8WII7vc53eL2gWZ07iKBIvOq4s7zwjMS8YCsAO3R+bD30EWs9kOoZPAAtb7xo3BW83K3TvAi5dT1VXIy9EAy8vESUar1I0Ui9SVRAvfmchb1Uvku8wY5PvRJ7Lr3giGY96iALPYZiqrxSTi09AHA3PKSVmDwALNS4+OmqvPAI7bvGhIu9zHz/vDBkOrw48M686ihEvWTDxLwYWlA8oPvEu3amLL1ZdRy91EF7vFAviz1wbD28AOgYuTxxJT24kVQ8cMrjPGZV/7zay0s9XpLTvI7IkT1i7yW92NcXPAKDHL0Y6nO8IK7bu7A0cz3AiSc8JnCBPZASnbtqXHK9PH+ePIBZejs8xV49l+2RvTJhGr1wW0Q8gO2MutDuE72i3AU9IPxfPb79Aj3mszM9w9hbvY5WgD2CiRc9pJlPPRDEsDvc44k8iGNxPKeag7049uA8rtIxvVywkj3Qfw68EIHmPLD97Tv8Ihq9uMtovRYBeL3YfXY9hTEQvYB09Tu8e2K9XH69vGg/ej0gnQi7nuE7vfffBr2Sc4y9oCCYPESiDT3UYwo9fH8WvewPhr0AIli6OmGKPYzk17xAqO274JSLvazUfD1C8Uq94JuTPBASyzt4aFs8qDZZvKBY9TwDtR+9IExnPQC0wLsmwDK9d/lrveCHf7ysTJI8LFnqPC54grz+Prm8FIFtvaD7hDwAWQ06viMdPciLP70gl0M79L4GvawdNT30yHE92JxLvOghT72MHgw9mNBMPGhnib0aReS8kChqvSjtZ7zYfZ88cPvnvKbjC71AqhC88yIbvYAVGD2eHlc9EGSEvPhr77wW/SG9gBCRPfZAIz0AHX07HNX6PL7Ehb2nvAG93J/PvITdZT2SGYi8ANErPfpBkrwAO/88nqXsvAbfdL3A4f27rFl4PWBheztKEBQ9LHZPvSqaHT3kI209goGevIWxdb295VO9PE0APWxEorxC7Ha9CBsqPEAjcD1Wvoc9uEGTPWzSQj2ClQ89dIWIveLthT0Ijk49oI3tPDQ/aD2AyKa71I3dvDT1wbyw5ww8ohs6PSiScz060YC9sEIvvH6A+bxqPh89XqSFPSvjFr2IpzY9YuqovD4St7zQwiU8FMIhPaCXRT1A16G8RCiaPMhzgLyUT5Q8PggHvW/kfr1Q9zo8IGeHPfDyEDxkQrQ86vpnvcCDELsAaia9/HxkvGjaPjwqE8y8YG4BPL5Tj72ECYs9cWUXvaQbs7wScnG9KEMcPaUPjL0bBA+9CJsYvEgC2bwybsK8ZFlhvSwFHr3ozIM9cJtCvbBcv7txGTW9jqhBPYwPZj1IAR095MIrvMYasLzoSV88ih/6vAi0iL1ayBk94O8YPG4H37yKmqe8CDL5PKRmmDxB2VS9GBAxvSwxKT0WqTq9vow5vXiPiT22Gy29n9WGvZzM4zxPOI69jMwRvYwxs7ynEoa9inpFveY/8bxnSgi93oQfPbx6Tz3gTwM9zm2NPe0heL3kTes85KhFvN+Nhr3opyU87IFPPRIw6LxifQA9AIEKPTT8cL2m/4c9aPUvvPBsiTtTTCC9dBM3PQBqOjy6fYM9EJjxO36vLr3qzI28cHQQvcSsXL3s3wE9ACz5OcBbgz3h5oO9JtrlvB+iJr2oE9O8mkCCPWq3Sz340xk8auw+PYAlMjyUYM48Rj2EPRgZvjxMfSo9ik4yPUJM3rwwvxI9YMAXvGzVkj2yB4k96nhevWKWZL2N1Cu9eF8EvGBDkb3QBK48pGWJvFa0nryc30y89l6PPYp1XL37wT29hB9EPcDUSDvQMGY8kkQZvRzLIz2sxWk9tA0aPcikLLwALkG9mFaRPFBOibsCsoK8NMlXPZm9WL1sFrI8VNgEvZD8jD02BYK9oPg5u1bT1rxwF1w9kAJxvdSScj2QDum7EHSqu6DXhL1w+Du9yOc4PRhxGDwAepA6kH0rPfKhy7zwPtg8ol+JPU2sLr3bhTO93dNBvRKap7wVxIO9nPs8PX+6NL1wgbk7Iq0lPSiGNT09pwS9Q6SBvVS8jj2S50g9SJdiPVTlMr0cc449VJhhva7lMj0Gq9G8VQF6veg68zxu/Yg98WdLvTRSYbwQc1w9gKkfOmTcyDyWiO+8QcJzvf6H07ybTFS9FIhXPVjBcT33e2y9mxaHvfTUSz0ibo49rnA3PUCDTL1QDmA8T4hLvbAdoju8ox+8Um5EPRChuzxKMGO9rjE/PVIBAr0YVLc8ZUKPvWgqGLway469MP3IO5iAZT1IvEs9JFNpPazytLysP8q8CLcEPeA3IjwAb408UICNPNB2gD3U7ho9U/gNvah21jzs0WA9fdKEvVA7VD0EXha94HZ6PagcIT3URpU83MwkvOU8jr3iUx09p4+FvSy+zTwgcoc9XIx7PZQcMz1obBo9SI4evLi4Ub021hU9UEnVPGId7ryUE3c9fKItvADqAbucLGW9UuFCPYAS5jw49Ty8BeFsvY/cjr1Gr9m8y/wCvRF3gb1CKBY9kGKDPYCVgLuJ3hu9+B2BPA13fL2Eqho9QFz2O2RMej0AHB093BSTPeyzaL3gJl29rtkovRD+tjyo8Gs8vJ+OPPrNCz0cGfY8ZNO4PABrrDxI+RW8qIpcPdwmTr2A8YG7gD62OwBdiT0UQVo9cF6wu7Qpkzz4ZRe8lHoAPcz3Lj3wIT08QDt6PP/Eir2UA/E8y1tDvTQecz3AN7C7BqGOvdDRgTycMxs9EHBJPFjbs7x+fym9UCvEOwy79zzkaF49jLGTPRRlwDxoZgw88AVdvSSxbD2mjtm8ohoyvTijSzwogFk8sNJmPCzXgT0GEIs98F52PID21jx0DlO8EcWGvexfkTzMWHk9nDQlvIDMBDrzOS693j0bvQbihb0X4Qa9nLPkPNTPjD2gzxY9KKsoPLI0Dr349Bi8fBqEvewAlrzMIyc9wNeGOsDknbuYHW+8zrGxvOUuD73y5kG92rdkvZxogbz8jlw9gmGGPXCgyjxYzW89JtKQvV8hTr0JMo+9eH1APfzyaLxga2q88AskPaBSqjx03h+8kPkLPYiLiz3k+Ba9KLIfPEy4Sj2kbf483JxvvOrjhD3t0Xe9zsm0vHC1uDvaKk49WjEvPd4RAj3ZVCm9/R1mvQzojLxgWz694LCVOwD+hDqgymY9wp2wvA6gUT28NWy9gHDdOx9JN71Mh5o8mdmKvYk1K71o21C9CW9bvXTnZbwlxIS9CKRmPMhqVjyIhAG9zHhUPXSEzjxQ4Vw8oI2Nu/8gRr3CeTs9jLvfPNJb5bzg+NG8EuBIPUAlHjvYen88lgNEvWJkkT2gmY89oD6Ou3AbqjsioS+92Ic6PZjUKTwaeWa9LImCPYAW6zrqPP+8gBOyuwuiBb10KEY9kJelu2a8dr3UbUc9mglSvQCGgb20VPY8wJ8vvGhxmDx/CYi90Mx4vf5IHr1Jq3O94FiJvXDM/by64A89AJsmvWBKgDv2/Iq9OOcbvMPkib0AJ0k7mmsivbBgmzyGGgO9sDxPvXj7Dj1wrTY8gO0SPCAeDjzgh2A8IDdevULQkr2OiFY9CaFXvSapjD1gsta8iOTPPEAWjTxuPYi9VMvTPHKVAL0Wk0q98P/XvOzWBj3YhrQ85IBvPV3ob71SaTE9tLLZPPoTBT0CvD69jBLPPHBAQzwEDMi8IFC5O6xZhjw0Ljo9K6oAvRgAZrzY8UE85BINPXhP4Tx8d0i9gFKIOxAuXD3QzsQ7nOiPPRCLjLwaoBI9QKYHvEL8QD3ArGu9wNm6OgKRKT1Dn1y9oPOdvBvGQr1+wwS96kZKPZBTw7vwjaS7cKE3PJALkLvQd4g7v6YYvYygCb1ZjIi9TsWWvOgNp7zS+i49SAR0vOCjMr16vzU9kAGIPeD0xTv+5YI9lEW6vO4pVb1G2E69/keBvfiH6zx8Z0O9dBHmPFDICb1zFoe9IFk+PZC4I7wIhnU8S0NFvaK5Vr0A2mQ94IeavNyB2LxL/lK9w6MZvYAJSjqwS2C8ML2ZPGl3Vb0Q88a8xAKQPaouWD2gzeK85GPPPKAy1zyfeRS9aU+QvSz56DwWFY68mDRovIgEP73QMCG9HAogvIy/GL2tIX+9kJBbPDCq4byAS228qF5qPUwwlTzoQAa85kUuPUBWeTxwHJM8THHTvCJVkz3sVLU8RL9gPb+uVL2Ay7k8+hKHvbKl3LzmlYI9gBTZuy4FC72mKRa9SioWvdqWGb1oty096YaNvTNuEr34Z8c85UZ4vcpHjz2wzAA9qH+QPFTP+zz4y1e9EqtCvd4ShT2uUpE9hhYyvfxBW7xQi647SHXYPPNMCb0waZa8vZYfvQDUazl453I9gORRO0BVf72IS768ukmFvdCbVT0fQIi98oeYvMBJHLwvuHu9+l5nvREIAL2QQTs9AGp9OVfGdb3U3a687S2DvYRCej0zMl+9vT6OvfpJBb18RZO9tQF+vRCjtrs90Iu9WGepvFxVZz04Owo8wF4APABpIjuArhO6gPN5Og6NmrxANXi8gPKwPCQ3yTxwA3+9ut6OvUqTLD3Dy0C9BAMjPZCMVb2pG469PP6wvMrYRL2W4JA9uBRFPWy5yzyqB4+82KE8ve1pJL2oGFo9uiJrvYDp7jtghc+7AJn9Oyhz2rzg9nM7AKrzOVT2yDyAFD89IOWGvWgksDwqIf68qHx/vWCoSTwAbA080jiTvdbWjLy8X2e9MoQUPV4DgD3LQHW91NCMPEB0vzqud409F6wevSRVbD2u2Zm8gFe1O+DHHD3YRcU8jFFVvCi1YTzUPxy9U/4DvcAPZT2ABCM6qXh2vRR29zzeSZM9KmyNPcAU+TrAgGs9wAk1u48qbL3Qya47QOKBuoQDTD0GcOG80Px7PYmyi730WgQ9L2Y/vbAbvLxd+RC9uO6JPbK1u7x6wXO9QBAuvKoghz3oABk8GIRKPBgvOr0knLM88iR5vdggbr287dE8ssJavY7wXr0sMX49LNYrvfxa47wQ16+8xKEivarsOD2cGmo9eDpqPNa6Pb0EQsM8jEFsvKhk4ry9Fx+9gMygPNx6qrwQ5I+9ELiWPJSBjT2WA0O9mmeIPUy8zDxM4Tq92AhePGS2oLwWOoE94E9MO26C6rxOie687vhJPVIvYL1W9D29sFuUvAA5xTq7FTC9ICnku3CtqzxtHEu9pAvnPGLONj2i1Vq9WPcPvYwnjj2oWCI8hhsEPQAegz2AH/Q8AKRjO2DNczzMHEk93mJhvf43SL2KIh+9SA1lPKosjr2+Iti8ACo2OzxzSbwQ8/M8wHPMuuBLnrzq8DC92rAQvfAvG7zmspI9eCAZPSr5Iz0AXBy92J7jvLh56LwouGE9BD9PPQC5RDsIJ2K9YkrIvNTTQj1lug29kBO2vHZgIL3m1zC9Shf5vExiDz0sGGw98LT/u1jqrTzAst078kgBvVyxR71846A8wOYtuzS0jL3AjJw8pMhAvdaVx7wPMnC96EZpPIA3/btGizA9Um2HvWDPd7tpUz694FJLPcDaDruAXu88EMaaO94pUj2ldny95+OGvT4bU72k9Y49MGsbPWBCljyAGXc7ROVkPZwM+zyQhAM8mIVfPL6ATr0k3RY96qk4PVi5f7ysC2w9ekiRvVSVkbyA79q8z3GRvRlnEL3s2aE8WDW3PDQyPr3Auqi6CHpdvLCIbT1QRVO9ouaOvSLVIj1wA4Y9QKY9PAhzNzwoN2A8gi+DvGhBEDw6QzE9Ih3GvGSnwbzgpus8guM5PWxi/zxJlIG9r/gXvTyeojya/1Q9MTUmvWgmOj02J1I91TUbvXQgk7x8lYM8+Vd8vYB/ALx4kHE8fvARPZaIRT1HF4S94GUbOyD1OTuWBoC8FktyvYiFFDz4dD08AEoxvcAuPzvCi7W8bEVyvJAHQDyUOF09/C4zPcgLmbxYIls9UEgjPOBSgzv8L4e9phIOPd0WjL1ySw49AD+qOsTLdz3k4QE9htUbPdhFf7yibsO8+rPVvCbmKT2fi4u91WAxvdzW+jxAfMQ8RhgKvUDM2buwmIw7mA+EPPTNYj2V2Fu9COnlPEEdE70oEMY8EIhOPCDdrrytNwa9UGdKPVo4Vr1fwSq9aadrvbIEg7xyG1u9OAZ1PeaGIb3oy/i8dTaGvWT2jT28s6U8dBT3PJqdD73ASFw8aHRWvUCrFj0ajA+92uH6vFagDT1k3mu8fDhlPRYPWL3Mm+w80EPOOzhxWTwSsxC9+EliPegtbL2icUa9oIxSPJsyLr3L8Ay9eHiRvZAJkz3UYOI8LGgevfANLD1kA968sJ4VvA1jF710Ywa9jKm5PPR2Xz3Ixhm9ftKAPQizJL14KEY85NVqPRiE6DykF4c9MN6SPEA9UbuAcTM7SgBWvRYTKr1UgIg9WC6lvMwcij2weuq7WgZJvbrG27z5KDC9jCekPKyCcT1orPW8CGl6PQQUKr28UTe91giDvSiGg70oAoQ9pFlYvTaV6Lw1nYW95sOnvGUeT71Ahak8iIBFvUD19TqUoEo9fFgxPYgaojwQR2q9i9ZQvYB4Hb2YyTE9QrI7PahGWLxSuRe9AKLouTj91TzgJpg8jnsQvRuwkL1AoM06mp6QvWb0Mr38bA290G7kO3FnEb365U49UyIkvWRlRb3Paxa91PdVPVj7+LznVIa9hf4gvccHS70KaIW99oLcvCi7CTxMHSy9wMOXO0NXS73yH069EJKjOzZ+Fj141p28oNGoO2xBAj3QrZ88yFhPPAap0bzahVy9cIOOPbSqEj2UyFm8SIzjPLCgxLuOMo29Fs+IPfZ6H722n5I99rCIPRjwPL2QqSc8moc7vQjXgrzgGOu78CSFPfbX3rzAG5g7nWKLvbaYQb2o1RY8N+wVvdL+27wk6YO8ypBivU5Vjb2vvze9pJNqPcCMCbxknV+9OIkIvCw1UL24pVU92lSDPcB6WT20dXI9ME7CvIVzBr3ocFI9RPxdPXiNVjykbGa8Wm8bPQxarzysv4q8XgYMPYRcLbyAV8Q8tBnpPIwCbj3QY5k7oUiAvcgEPzzAIzy78AqOPYCmtDugHo891Po2PTJGkT0gwTe8Xi6VvMefOb3SaI49FoO/vLie0DwQDPa7iD//PHCP6Lz5u2W9uC9WPIg3fL0wNbm72ElkvMAYIbuoc568kO/ePIBSyDz8xGg9lp5CvY5rRj3WS4Q9/lFXPUTfTj3Ak6Q7PBAdvQhBFT0EKcg8MIJtPdDbqbu2e9q8gK1aumCLZTucs3Q97Ch2PWJg47wAQfq5YP9hvUK7rbwyNo69MA6YO+blnLxgfl69Kh6svNCNYb1SjtK8QC73O/LUjry03Bi9as4BveBMqzuaVY89/iKDPVZXLL0AwA68rPlxPfZfKL1Qqpo88D+rPHitczzeqxI9hhknvTieF71Aw4W6XL5FvUomET0ATGG7OPt+vWiHYz2a86+8IEewu5DA9jzQmHY9JH7DPFiPKz3EG2c9WXaAvWCvbD0a+YM9CPCRvcI7hD1MSWw9EBc1PNC/d70glhQ74gIFPQjlar1crcA8GGDjvNwUDr0FXgK9qLw1PE5Hj73YgLQ8gLwGvOhpXT0UVo497BVePSJogD2mW2e9fhFGPdhIWj3pFCO9qCmJPOYFyrwA2m07DQImvcS9UD2TN129zqYpvTf0LL2Ai/c7SKsDPYh0tTxAAZE9W68DvZm9S71AsuW6NKqPPewlPL0giAm7yE8mPXKfQj3IxBk9MDNsPWCFxDug2KI88B54PbYvjbzICwm9TmTUvACOG7wP15C9qLbivACyp7xc0mI9PDy8PBIRzrzEbFo9SAyEvdirxTxw8lo8bL9gPWwuJj1KEAs9BlVMvShmhTzAUcM6zOf/PHAUOj2F+Y69Dqp9verejD1ADS29wCCGuooiLr0wOro8ODehPFjJKT0YQnW9Ct9MPUQuSryEdoe9UOh6PZw83DxqbiG9tAtgvHROQz3a5QA9ji4HPZ6BmLwAMXa8qhyPPeMtLb2KKYi8IPczu0RWX73UHze9qBs2vPxiEL3dfWW9PA0OPYiEhzxAlGC7dPSavBDVsLyIzT89aDWJvQbGgT3uqFU9I3k0vRBGW7ygTIY90NoWvCDWfz1g4gC9rOyMvNyGZr3gZVC8yIy4PP8rjL0ErFC9wKCPvTabhL0KKC49tpdNvZb1Rj3AMQm7+gKCPfALhrtrbRy9wHrPPLLqGz1/lCW9emcQvYACEzyAtS081uJYvf51Hz04rYC9siiOPVClrzu0k189Pcc6vdDhuLswHdc7wFbluyR81rylAXW9CEGmvNaSAT3Vgzu9B26Lvb45VL1AjTA9PAa3PKRbJbxA+fM7e1RtvfyxkDzUdxA9AjFhvVzYRj26C4k9oC6bPI47KD2AR5U6nL6YPMDBmDogOuk8ANsWu6wQnrxvNzy9gkYtvYAnLz3K4za98k09PVBbBD2YIBE9zAnFvLhI2DxYghI8aD00vNRykj0Y5VE9zADEPFbTcb1AQYU7xT9vvUjMeb2BUXq9ykb0vEPyDr2s8dA8AP5ZulCXlrs/5E+9EPSIPZC80LuFQyu9FsAJvaQqW7zg9jO7CJEvPCodorxcTZK9TKhSPXU+E70An2M6pm08vTyDybygRTa81FaqPO+Mhb2s+JA9KEGBPGCWD70+wIc9aDMuvcA7Prt0zz285AGxvMBt9buYIUA8APqMugBVyDkgY2Y9iP1avZ6YGT1opL48XOxbPcTjyrzyaR09ZbaHvUClUL1KCeG8kFBevQBnzbnySDM9fumIvPKchL1sRWy8PqsmPZR8ab3A17c8OE5WPECZyjxzeIq9uHohPWKxqLwADEq9cNE5vBwnlTw6Hp28jM5nPWNJgL3+qY+9Eom6vFxoRb1Ghpy8+PZivcD48DxHFC+9FtYXPaKHAD1pkH+96axNvYClcj2gjsi8y4YlvajauzwuZwI95pFHvfiuSL3fzBy9IMQqOxCCuTs41p08ANcLvEZDqbwi4c28HJQYPVBQ2Tx8cHY9bRyLvWSr7DzKDUk96IHyPKR0VL0gRwK7oP4hO/OFhb20F/m8wt0YvaAMrDvU1D69yosXvQDsGLo0lMY8Tl4aPbT4Bz2gqdA7ujxgvQi4dj3EGZO9shLovCQDkT0UrTa8/t2CPUJjOb0I7Xg9CZUfvZC+A7xYWD69mDGNPUDHAD0oXEI83r18vfznhT36jkg90BKouxKUUr2+21E9nXeAvfCmKDy4emO81zeDvVR77Lx4WUQ9JhsZPSxvXz2wR4S8YIWquwP2Bb3irYm81oMpvaBCpby4n9o8FqL2vI48ST3IG968GpaGvCJWJz2DqlG9Ni4sPdX7Pb1GBUW9slfdvCz5prywv7q8RlPVvDB4UzymFkE93P3JPLX1jL04dWA9gCAhPF6C8ryOI++8QNowPALOiz0IUB09Z3oPvTx37zyk/f08eruGvTpd/7yN52G9MOlDvMFBIb1gcpG9wNdZPN3Edr0yiZq89DqIPQKUJz1y0NC87Z0ZvUqsLz2kUmw9DDI8vRTtnbxg9cK7BMj2PHFmLr0A3Js6FMnIPMnzer3Mo/k8QHruu1RqhzyMvKS8QjSOvMAQTLyi34g9OpeLPXZahL1yf4S9aPozPYDSkbvySYk9OpSrvBthQr2gfz47eKUbvS6YjD2Y0xU9gBaiu4z4abyImAE9QoJxvR6nQ70giVq9MIunvCxNnbygC4u8Ll6CvVrTgT26JY89dvx2vUzG+TxgGf87xofQvPhjlbw8m+Q8cAiwPOjXOTyAa4c9fFqQPUDz5zqwpIw8IlNLPXDkgryOxLC8GFkIvLryBL26nSa9gCk/vID4FzyJonS9xNukPFhpTDxfChG9Co8XvY9ki71ihXi9UFhyPebMkbzfshu9RMblPF5liD2oz7s89F/kPJCbD71/spK9nHvvPAEwQr1Og2i9LC9avVJOsLxf4hG9/nhCvXDVmTzwrcs7MCHKu9CwDbzY2y09BkwYPYScPz3QW/Q7uNu3vKScRLzMZ1I93oIGPfJFjT0w+368ILrpvMCytTuUAkg9aDbSvEClaj1M6je8BC+APcxb6jwgVGI9jBV1PQphMz2g13O7GNNdPaTSOz2kLGM9KgE1Pchtozz0lAM9oBsIO2mRGL1Ae/i6KHb4PHTHlLweWIY9JLt8PWqXjr1kfFK8ENtAvFBYvbvP/WW9ls4avVxErrw3eDG9Ql+PPVjcWD0OXP28jLSCPE4FV716b2e9UF/HvIJ+YL1awU69slMjPTwVOLxziCG9JoUgvY7ixryeJgi9fFG5vEQRLD0wq507gE3VPMRQozw8F1e8jHwlPQAiLD0A8Kg5Ig2SPeYBKb0Aez88kHDOPNzVgDwgN1+7gH9lPP4l87wQ85G9xG5kPQCSJDzIjvc8hJqzPGgAQj1MrCm96kkevdsWB70RPYq9uMHiPKSlWD38G8u8hPyBPXCVYD0MXXw9EJKqO7Qq37wU4GE9sK6LPeAyAruMEyU9Ls8wPcAJMT2szd88cGnPuyjwT707qAa9IC7YvABznDnc/zE9dLcbPSgvCryApxg85sR1venzhr1K6tq8KGJrvHBkKryMz608erQLPYzofL20WmC98D9+PLBh5TsUQKo86ILjPOiOHr3iaos92IoSPEDqLDvE+4o9wMy1OsBFATtAZVs7ABpkPDTGXD20H7Q8YKekPJAaUr0Akpc83TQYvWDV67uMJW89CoKLvFw+Tz0YkpE97kpPvRxy9jxGYom9vwEevRDW9TuUE2a9RN54PUAssDo8XT+9rplUPdiCXb1MP4C9nJhMvDATnbt6w3C9XiYovah4EjwpHkG9H95qvUSB/jyS2j29YP0WPCgqyTxQ3Ga8NKZUvYB/g7tkfbE8cPHJO5q3dL2XtGq9esNVvVgnd7yD1E69HqsOPZDg8TzJ2CW9NQyTvQzUXL3mL1C9KlXNvCA1f72E8VI9BCVmvUDMVrv2YTC99KCJPaIPFz3IEgI8TsPJvE7FwbxgOE48JHXVvMrBHT16Bj29/DV7Pfb4T71gK4e9AKaMPGYWLL0Ey7k8VLtpPYCqTLpgJQG8VKpnvcCThLzIoWC8OpyQvbDw4juJBC29PAXjvDyUTryAOCI9FKljPYAWCz0Eu7w8Q64BvXV8j72n7gi9adOFvTJllbzwCNe8EHAUPdiuODyCHYO9TBB7vGjjSjwABeM6RhGEvWjai7zShk09DGDavJpIgLyQPGQ8Rp2DPQATbzvMjII9im2HPVCT9bvUtee8VB0OPRBHlLtg1H27cNJ2vVihFTxAhuK8+rwZPXhEf7yi+0g9OLdQPeDyYTwg/c67bJ0cPYoMAT1g0sc7TC1HvGSKnTzMluk8pNHXPDxuybwkq2s9TWglvaQ0Gj3iM0q9rCq5vFhDIT2AQCu6WFztvKhs1zzAQiw75CuFPVjVwzy72JG94FJUPZKujj2gegw70FllvXCbpzwUgUs9jolAPYBA8Tq44108WN36PPARab0ONVQ942STvciljDxIlc284pRJvT6qrLycL389k12IvSh1iDxy7v68GD7BvHTIyTxWao496jFWPaCzSrw4p489lIQ3vf27O71Qso67jMHxvG6b+Lz0Qvy8sKmuvDzkiTxztiO9PNdLPUh3hzwEPVm8ZDePPdpcLT34EMA8wIwdvUbAiT1kw7k8mF0xPOKyNT28+4s8CFlFPWh3fLxImC+81pOTPVLZOD3wt5o7EKr4u+b7Jj2CgQ29JiE6PcCQnbpYeM68tr5APXRzPr2BepO9mPgxPbpJCz2mjWK94mhYvRBSLjx4B3c8ANVwvJAF7zxQZoe7IIaFvd36Xr1YOWC9NtODvTgpnzxiYgy96CfKPGgXiz2QMsk7GblzvTxZTD1Y1pG9wjBEPZx4bj24Z1a8zCZBvN5mjL1wnGA9wKlnPF1kab2nQ3S9xBJpPbxu07wY5DW8LH5yvOgaJjxuXkU9YG1uO2yLwzySJSG9MH+uO308h73+BFm9Sp9ovTYkCT04SMU8qu6HPShuTL21Oi69jpXovNAHdT0UQea8rpofPfB1hztWD528oKN+u6hklzwAOfU7xMiQPWwDHD0mi0e9sdeCvUaTiT1ktUG91GROvAaWCz094HG9lRB+vQLShr1KM4o9gM5FvYhDIb38LL08HgpAvdTgTD1ihhK9TswBPXipsbywbtu72HgpvXRddD1IFrY8KrYNvYiN0Tys9Fy8kDqgOzQaOz2Ua5A82uUZPd7tGT1kaCY9ogeRPdAmhD3A4cI71NuSvQgIAb06p5O9XStvvYAudjrIB1E8BmZIPeDMyTwAvsS75PQuPWA9UjvcjYM9yF5QvRB53DzwWlq9YFigu3LKUL3A89K7Ilo4vVibUD0m+oE94BbePFIujr36kPG8un8OPWTiQ70oeDU8rpAVPewojj0os9+8aIjyvAD6x7lgRhM7WJKWPPihvzzQfj28bPJpPTIpQ70YJjy9DGasPFSXWD2AY8g6cBBJvMZZTT3+sfC8MHKRPfDOUTxxGkq9kDiku+AiobvAiEg8lEfmPPjVljx4uFk80BPYOwuYk70453k8evoKPc9LEr3ouZE8JF8qvT78MT3yMvO8tC71PAD/7jzCfVG92ISAPFH/jL1oIBG8fCh8vXzegr0YHUc9i0cfvaz5KLyEPRk9HJZFvbYNsbzAsYQ9kOlsvZZwgD3WILC8AD0sOyh11zxwdre7AARQPMgINb0yljI9AK4UORp3Ur1CGWy95IpcvSghH7091o69qo9BPQ/pFL2Q5Yq7yAtivDL+kL1OrpO8ProbvWAxhL1/MCW9DiJYPVDRnDvuwQ49UFUcPUC0DT2ejBG9vnBXPXXykb0IMvi8iJ+CvQIui73MrCG9VN8AvdCKNL2c2WQ9QFO2PBJQJD1i0mi9wPg7u9YBk7zoHnk9OGcZvUTonjwyNwQ9fAf4PJCZTr3wvMk7CHBoPcLJfb3wQco8yIyGPChVmTygkwk7JGxtPQMwWL1CV449KA16PYhKZb0+6Cy9XiFUPQhVRzx4s1I98OcnvALGRr1gRG49oKwAPUg5ir2KqR09IPrXPJ4scL1AIxQ9YiQKvUSIYLy+1kK9bBhlvQC5fzx26QO9kLbGvKizrDxgUie7125rvdAqlTxAJKI6gsp/vV18g70TSg+9Dp6KPYoFMT17xnq9QBESPQIVFz0cQnQ9PM03vXiNqjxihkc9nEqTPcASXTtM21i9uKNvPAj4bT2AyZc7gonwvAAty7xsDj49PQM8vUo8iz2MozS8aD1NPTTerzx2FJG9SKD+PEbjl7yk+D+9mrmOvSxIeD2qZxo9MKYQvD52jb0OtYm9rO7sPFJZQT0WnI09uP5YPTi11jxGQYo9RNJpvBjgezwAkBu7YIFPO1DBvDw8BCi83lc+Pcj+bLxxlTu9lMQjvIWdc70YoS88wO7LPJw+0ryeRwo9kPBLPAkPer3cixw9fFujvOD5ijywynw8ZAiCvSz5iD1kDSu8vHbzPMx/hT3m9mS9lEzZvABq7TogoGo9DOGwPHolKT0oUPE8FI5vPSiFX72Uca88qL+RvaTaEj0AdKY6BpchPRjfsDw9VxK926eNvdBwvDw0Vda8ZI97vfjbnDw0o2w9TxyRvRgjgbzkRXM9EtSIvcWRFb1eTAQ9cNz0PIR0L7wwNHE93GTePDq7gbyIiNI8GAXUPNBNcbzkP0K9gAdCvXQ1lLy6OQA9lHXePBAHlzsw3Uc9SG8fvWBuHL3pGIu9ZvlbvWhePz3nUBm9NKKTPeyuoLw6xRO9Fn7VvMDpoDpMRCo9f4KCvQv+Pb0zUTK9fD52vWzo+DwSKRS96SJ5vVhIbjyrRpG92h6cvJDHNzzS/EO9qMEIPUBxxLog3j278Gzmu5Q0RLyAxlc6ABzlu4Bp1LpQIXQ8dJPXvMzOXbwAqrS7mk4ZvVRIiT3sLKI80D9lPOhcFLzgXi+7pdgcvTYdLj2kzRw9pHZsvJAMpjwsuYG9Oxl7vYJGxrycWYC9ZTozvWIcubx4HLg8OhZXPUw+gj2c/6Y8fKulvHA0xDuEwJM9sO8mvNzKJT3xnD+9WDuPvUwTOLxEDbs8An4/PSrtjD2wTKe82DpJPJwJD72AUnA6BNaIPaBRkzuvviy9WPJdPQySijxWVai8gn26vEQjYry0GGc9KOKEPbQJsjwQLii9JjoZPTUKD72UFR89+jzfvOBAWzuakz29yKkMPXSnarzIznO8brMyvZDFuzyEgnC824dHveyJgzygY5y7JngDPWC9RrslkTa9tL86vZFLFb2wSHY9NsorPQEIA73MI8u8FJGTPdi/nzxgado8RK+dPPCfiz1gnF49qAV9vWAsIz3gkwK7rMozPTB2bzxEl4M8THc1PUws0DwuKRS9Xh/wvIBhk7t4BI+8fN9kPYCxprsAG3Q77FtGPYjQYTxsuja9VkI0PZzWRj1k47k86ItrvcyytLwQvc07OO0gPOz7ljxcmGA9modHvXwUhjwoLHw9rAdyPRqnJ71G1iq9dGQqPSFcj70wysk7TWElvZC7djxWR4M9QCCJPbZSOj1hf0y96HZCPHCTUr2k0nM9HfxXvVxAcT0AFRg8RrBEPcJBHT2MHh89wO63O8UbTb2wJKQ7QIf3O9R1U73BnCi9AMJvPUzY0Tzbwli9LDJ2PZJskz3t7F694UmIvXplBz1OtJM9SHVvvGLKa71gufI8NU8OvXC7MTyAzZe8vh96vQI3X72UG4W92mQmPVTHJL0U8AM9SG0LPSJzFT0I85A9gE0AujDbgbsAwGi9iIBTPRTXqjwA/Ze7OCYtPUCSybuQMZs8AODdu/CSgz3giRE9PjM/PfqXZb2ASw67/PuQPDQudT0orB48ML97PBAJNj1WREO9JJRovcQuOT2NQ1e9eANvPUIPiz1wc389sJRDPT4MDz1A+Gk94H7Zuyq7i7yGdXm9EMoXvcQt2jz8+gy9WNwnPXTZ9zwFkhu9iqkJvTcYHL1BBDi9prJAvYDVXzwwQlM95DVYPfa8eb2kjb88hL0nvPWkk70AOlC9aIAKvVT5pjyeWU297KlAPbZpkr2QM1s9E+eQvVBiPLw0vEk9kPiau1aggj1wF1k8qIpjPaCO4DvzonG9MLIcPUD6rDvkEGY9vSuMvQCTlLt8CzK9mCY/vfyfLrwytqG8Jk8jPVZHCL2SxWC92O75PEA+9rvMojK87tY1Pd3whL3k3Z48up+svOD8gD0g5Rk96JpxPQZ+Wb3qs0Q91wuCvVYSibws4vE81BdpvZ3Mgb0AYiI5cLCIPDgldjwgmog7jiiPPYajK73IywO9wNeevDyhijya+Tg9Yz9FveAv17wYnkM8chSMvT7cZ71qCwU9huAJPRRsN7w5lAW9MECDuyCXgjyCb/C89ni/vKSVgTx8/nu9lymOvU6UR70E1808DuEhPTrxDb381VS8JG+BvZiJfzxqeY69KO8MvKSMdr1ExcM8eOfMPLR0c7yIH4+8jmoHvTbsNj0w2uO7lVcIvYIFBr3Q+Y897q59vVMlgL2A0I67CWKHvYASIbuE2EE9/CNOPRBbyjyl30+96LcXPWMDT734KXG9sMZwvazXAT1sWki8avgJvYC0jT3CFMG8MDMHvMjFZ71idYU9/tyJvJiQDLx7Po29DFl9PYhtgTxkfbU8QGIqOyRworyIAYI9uNhPvUj/f7w0khY9nus6vTjtCTyezHO9tKjrPEE7gb0ubIu9YGvFu4xK3bxQPNg8WrtPPZoCkj2e7MK82iRIPc25Dr2gDlk9iHOEPBwjiDzS3UA9EbONvZjCED0yXEs90Fueu5hbfTxIWIq9AG7IuWzLq7xIXQg8A9wIvZA53zyk6Vu9/MgsvUbYHL2ojxy9QGXRO8P+H720CIs9RCuVPNBgeL2el2C9gHidOkCgojsCNl+9BP1CvUiUDzwA6ES4skRMPaIXCr3IV3I9KNsuPCwnhL3y51M9MiQLPVTPoDxc2Ge8omBNPWyVi72Azt884YowvSTdgz2UpcE8+H2TPTADg7soJIE98PRVPNykU7ywEfg7fKFaPYylQT2oD169gEJaPaVCR72m6oi8PFmAPIoshT2KLS69cJo2vcJM67xo4xQ8gD+ruw5TjD3M8129fqE2PTjz1jyAP8472qPyvGtOCb14YGo9rofTvBSthTzkpDW9HAmGPeBZPryoXh49fqg9PdhRiD3ITJM9yC0MPXxhjb2QalM9OGyNvYCTNDqV/469Oo41PRh0fTw8rf08rCHWvHgAZTyunzq9gFYnPF7GNT1gsdw7HuDdvNzFhr10Hb+8bBK2PDBZ7bywWPM7a701vTRPRr025X+9SMjmPFhCoTyg/E47NKwKvcOvBr0ufky9gO7Ku+JxIj2AIm46ddIcvdyxfD2kS2e8+ihKPbhIYj0Qg3o85FETvTmBKr1KO3S9cIPPu4RWWD3GdFM9VqgYPeAydjyM/Xk9f/2FvehtarwAScQ7ANllPfAGWT0SmiO9D4p+vYNpgr0dExe92F4oPTIBibwYxNm8PIKKvJwRjT3cyD09fsU4PdDNgztEU2M9QDtBu4hhaT3Ciqu8kL+DPSChajwQgF49BGjsvKCG6jzUvVy9NBKKvZgHYr0AIi66iKECPcWtXr2wPO+86CloPdgX8TxqDVi9kDl3PQCDvrpENIU8phGCvNJiEr3Ilg69rWEGvTTmNz0Inpo8SNCcPOp7Uj2duCy9tJUQPUSwJ7yw1cy7SCZfvdh3WT1SyQI97OSFPfanRT08wtS8IE1XO6hIYr36Zla9pJRkPVSFrLzUY1y8xqwjPQDy4TwwqYW7kEu+PFiyeTyYoCs8HDKjvP4XybxwcFY9zLr+PMAbATy6gjC9cOx1PHCVsDyAQGQ77z0SvYnQNb1Wjwc9cHq6vLjHQLz4l1e97KTyPBTwtjwgFIC7AMMPO+CZbD2E3Os8ROu9PPgZzrxTwU697nVRPRCn4zztC329YO06PPzx5rzgvZw8asQqPVAuUj0HcQS9YmaRPUYxVb1GbCW94AbgPDDcdT1s0zk9+FaGPBzpZz365Ii8krzavHgiuryqRn29jtikvE5eS70o4EM9AbqKvWiWPzzIm7q82ViCvRgdwTzAytq6fEA2PefCWr2OCSa9wHR4PfBy97sWJYQ9QAqXO0yaXD2gugu71hMiPcAdCz14Mly92GF7PSiIR7zc1aS8oI+/u3y+gT0Yllq8wH6Ju42gir284fC8bBF9PUQHNz1GyRo9tlo3vazTXT0AzQy6AHaLusC3/DspByC9XCYMPQAc77lENkq8mLt3PFSqaL2QnLc8cDUBPTzYLLxwasA8jgOTvKTaN71wsPm7UPqJO7iprzx4+v08gEWYOsj56jzGxO28AKWmuoxxgj0YK6I8CDB6PCf2kL3uhw29oMWEPK1Wkr0szEy8OrRLvQQAsjzUbVO9vCgevZBq7DvA6Hk7HHU7PQw3FT1K5o099PHSvAxWQr102Vm9MK/FO0jy1rzsS0G9TCRxPcy8G70jD3u91EphvfHsdL2exoq9cDXHvCA617w+Qj294Bd0PTmzGL3aaO+8cK79O5CkYT0wkhQ8CKp6PRSZjr2Sbi49eO3oPNDlkzxo5L28Lt2NPYi96Dzgw/S7AnZQvaLeTz3gMBE9hJhaPcD1hb00SAk9pBl/PQ7OdL3MvB68GgJTPXyikrz4fHA9hK6/PGaiQL0Y+1g8+LuFvHQykT0IC7g89J5YvdCzL7yaqkE9eERdPeApebyyP0m9ABt3PGCNurvR3G294DtyvXBagz00vtO8gDVDOpIwAL3g5YE9GLoWvQAKwrmk/4G9oDlMPGT1e7xMdyg9lIWUUpRLAEsgS8CGlEvASwGGlIloAilSlHSUUpSMCGZjMS5iaWFzlGgHKGgKQn0BAACAAooKbPycRvkgaqhQGS6AAk3pAy6AAn1xAChYEAAAAHByb3RvY29sX3ZlcnNpb25xAU3pA1gNAAAAbGl0dGxlX2VuZGlhbnECiFgKAAAAdHlwZV9zaXplc3EDfXEEKFgFAAAAc2hvcnRxBUsCWAMAAABpbnRxBksEWAQAAABsb25ncQdLBHV1LoACKFgHAAAAc3RvcmFnZXEAY3RvcmNoCkZsb2F0U3RvcmFnZQpxAVgPAAAAMTQwMzE3ODA2MDUyMTI4cQJYAwAAAGNwdXEDSyBOdHEEUS6AAl1xAFgPAAAAMTQwMzE3ODA2MDUyMTI4cQFhLiAAAAAAAAAApI0uvY7WhT35wpG9+WZGvYDQIDqQuQI8rLijvKwF7Tzw65Q7zLUvPSKcVj1Gh4Q9EAzZvODAdr0wcU09okCBPYzg77wDEY69VgkmPUAhqLs8lve8cm+SPSiwh70zHXu9uDYEve4yq7wZowi9WmbivGQtO71oYzg9bH8KvQCn3zmUhZRSlEsASyCFlEsBhZSJaAIpUpR0lFKUjApmYzIud2VpZ2h0lGgHKGgKQn0EAACAAooKbPycRvkgaqhQGS6AAk3pAy6AAn1xAChYEAAAAHByb3RvY29sX3ZlcnNpb25xAU3pA1gNAAAAbGl0dGxlX2VuZGlhbnECiFgKAAAAdHlwZV9zaXplc3EDfXEEKFgFAAAAc2hvcnRxBUsCWAMAAABpbnRxBksEWAQAAABsb25ncQdLBHV1LoACKFgHAAAAc3RvcmFnZXEAY3RvcmNoCkZsb2F0U3RvcmFnZQpxAVgPAAAAMTQwMzE3ODA2MDUzNDA4cQJYAwAAAGNwdXEDS+BOdHEEUS6AAl1xAFgPAAAAMTQwMzE3ODA2MDUzNDA4cQFhLuAAAAAAAAAAM8oKPubfgz1bOgU+QMicvIPkkL0AgJa64cyOvc6qzj2mTO49lpv8PZrp8j2RSQi+HGYzvmDP5bx4ao69EHRRvBSLVr3wKqk8XjztPSjHzTwedi6+c/LdvTCR57xuYJs9K2PivSAnkz0AsDO6oC2gOyqZqj1MiBW+Nz8ePlDTHD2wu+I8xAkIvoi2MD0ATXk9MHQGPf0BCz7EGAK+SpG6PTD5aDwyPIi9s1oIPp7f0T2/Fqm9IQYyPig917zMBWs9pa8kPiTBAb7nZgG+bPITPQDWgTwaBfW96u5bvWCa9rwaQQS+CLd4veRtL70oPhs9gScQPk0MJT7KlfQ9aIcxvTVWLT74qyI9jX0lvntVh72i2PM9YDO4O4BbxbwefBS+l/8BPgaPFr6kcXw9iMVOveabob0y7di9MPaQvOQCob0ADVE9cPiXPJ9bFj7WCb09tGBmPR50h72iPOQ9lsD0PaDi4TwgzZc8NHpRPYJWgz15cLe9ABHMukd6xb0bbyi+kKISvgVTu72gSKs8DPZxvd9QED6g2bg8gFH+uvqYsD03MAM+nZ0JPmjTSj0+xJ69HD1Jvcfg3L1I/IW9ZuJYvR3zED6m+Q6+cp+RPaCdKL5ACAq+DEEsvvDeCDz3ltW9RG8ivtFfF76CZ529UAXlvBWcFD6E2nG9GvmEvcTviD0Biwg+XnSxPZyMAr1QqFK9OdwWPkCKZbt5awS+kANvvSLqvb3GC9o9ABuDPACtNbqareE9YPLtve7ng72CzeI9C5i4vU1zED6sFwY9wJ3eu6rpWb2+ODK+4q2APXmFDj6+24G9wFrQPNqdmD3Zxaa9WL/2vNAjxrygQaU720UFPtxVVD33Kqu9eO6ivIhf5DwIfOO9rINcPWgkJT1OV/M9jENcvaYe8j1vWfe9Dr3PPbwOUz0AKcs6Yn/dPVgz7r0nbBM+WPcZvX4vA762+7K96ILrvah9CT1wi+28kgTFPdfADb4G/fM9zGNuva0YEz4LmiM+x6AEPioJMb5Mlgy92b+AvR7Uo72n+Ni9zq3hPX8uLT4aKvQ9i58wPj3Syb0QprK83ib5vWiwTL3qVPY9sKmuPCpxxj0PeiA+V/C9vQgirzzyUp09OV4dPmfiA750y0g9RJQgvmZHtD1cQfu9makTvjZw2T3QDii+YJKTPXlIDj4L5ue9caEaPkTuB76UhZRSlEsASwdLIIaUSyBLAYaUiWgCKVKUdJRSlIwIZmMyLmJpYXOUaAcoaApCGQEAAIACigps/JxG+SBqqFAZLoACTekDLoACfXEAKFgQAAAAcHJvdG9jb2xfdmVyc2lvbnEBTekDWA0AAABsaXR0bGVfZW5kaWFucQKIWAoAAAB0eXBlX3NpemVzcQN9cQQoWAUAAABzaG9ydHEFSwJYAwAAAGludHEGSwRYBAAAAGxvbmdxB0sEdXUugAIoWAcAAABzdG9yYWdlcQBjdG9yY2gKRmxvYXRTdG9yYWdlCnEBWA8AAAAxNDAzMTc4MDYwNTYwNDhxAlgDAAAAY3B1cQNLB050cQRRLoACXXEAWA8AAAAxNDAzMTc4MDYwNTYwNDhxAWEuBwAAAAAAAACwxBK+Nf0vvjHZHb6EvVi9CBUmvsM/Gz7LTci9lIWUUpRLAEsHhZRLAYWUiWgCKVKUdJRSlHV9lIwJX21ldGFkYXRhlGgCKVKUKIwAlH2UjAd2ZXJzaW9ulEsBc4wFY29udjGUfZRorUsBc4wDYm4xlH2UaK1LAnOMBWNvbnYylH2UaK1LAXOMA2JuMpR9lGitSwJzjANmYzGUfZRorUsBc4wDZmMylH2UaK1LAXN1c2Iu".encode()
    weights = pickle.loads(base64.b64decode(encoded_weights))
    model.load_state_dict(weights)
    return model


model = load_model()


def agent(observation, config):
    col_num = config.columns
    row_num = config.rows
    channel = 1

    state = preprocess(observation)
    prediction = model(
        torch.from_numpy(state).view(-1, channel, col_num, row_num).float().to(DEVICE)
    ).detach().numpy()
    action = int(np.argmax(prediction))

    # Action
    if observation.board[action] != 0:
        return random.choice([c for c in range(config.columns) if observation.board[c] == 0])

    return action
