import io
import base64
import pickle
import random

import numpy as np

import torch
import torch.nn as nn
import torch.nn.functional as F

DEVICE = torch.device('cuda:0' if torch.cuda.is_available() else 'cpu')


class CNN(nn.Module):
    def __init__(self, num_channel: int, num_action: int):
        super(CNN, self).__init__()
        self.conv1 = nn.Conv2d(num_channel, 16, 3)
        self.bn1 = nn.BatchNorm2d(16)
        self.conv2 = nn.Conv2d(16, 32, 3)
        self.bn2 = nn.BatchNorm2d(32)
        self.fc1 = nn.Linear(192, 32)
        self.fc2 = nn.Linear(32, num_action)

    def forward(self, x):
        x = F.relu(self.bn1(self.conv1(x)))
        x = F.relu(self.bn2(self.conv2(x)))
        x = x.view(x.size()[0], -1)
        x = self.fc1(x)
        x = self.fc2(x)
        return x


def preprocess(state: dict) -> np.array:
    row = 6
    column = 7

    own_mark = state['mark']
    baord = state['board']

    assert len(baord) == 42, "Board length is 7 * 6 or 42."

    board = np.array(baord).reshape([column, row])
    # Convert Own place to 1.0 and Enemy place to 0.5.
    if own_mark == 1:
        return np.where(board == 2, 0.5, board)
    elif own_mark == 2:
        board = np.where(board == 1, 0.5, board)
        return np.where(board == 2, 1, board)


def load_model():
    model = CNN(1, 7).to(DEVICE)
    encoded_weights = "gASVgMgAAAAAAACMC2NvbGxlY3Rpb25zlIwLT3JkZXJlZERpY3SUk5QpUpQojAxjb252MS53ZWlnaHSUjAx0b3JjaC5fdXRpbHOUjBJfcmVidWlsZF90ZW5zb3JfdjKUk5QojA10b3JjaC5zdG9yYWdllIwQX2xvYWRfZnJvbV9ieXRlc5STlEI9AwAAgAKKCmz8nEb5IGqoUBkugAJN6QMugAJ9cQAoWBAAAABwcm90b2NvbF92ZXJzaW9ucQFN6QNYDQAAAGxpdHRsZV9lbmRpYW5xAohYCgAAAHR5cGVfc2l6ZXNxA31xBChYBQAAAHNob3J0cQVLAlgDAAAAaW50cQZLBFgEAAAAbG9uZ3EHSwR1dS6AAihYBwAAAHN0b3JhZ2VxAGN0b3JjaApGbG9hdFN0b3JhZ2UKcQFYDwAAADE0MDM3MzIzMzIwNTM2MHECWAMAAABjcHVxA0uQTnRxBFEugAJdcQBYDwAAADE0MDM3MzIzMzIwNTM2MHEBYS6QAAAAAAAAAMb+Az5mrnQ+m0mEPoAlab1QaZI8RAuUvcRIjz1WGUq+Kr90PtQakL0oei++fHOVvqzaiT0SLIa+A6xYvlDynr5obG+9QDa/PUgvHr7W6DC+gNBYPZbi4L3U74+9AGhevaD7KTxQ8pO8M58yvtAavz1GI+y9Bj50vkDgS75d0aI+AN3cuv06iz4zyWK+AAQrvJYVZb52HVo+Ey9Fvpi0IT52sYS+vvptvv+xkb4GZQi+QIHou2Tigb7An0G9WIpAviARsj3OKzo+coUxPqLMOj64hCc+PnEGPvDYiL2bUJU+SvE3Ppg1H75VXp8+Ql0wPqBj/r0NqoM+xO68PZWIoD7GSW0+ceeWPrbIUr6AJwi7GERdvkKpZD6I33W9bbqXPqAXJT4M3+a9MaKNPkPzPL47pBy+ioJtPoiqRb3s1eg99Hy3PRTiwj00lIA9KV+ZPmKVLj6y4KK+ZrCzvZCv+L3rTT2+6suIvpIXeT77306+FWOZPpijKb6Wu1u+jLGQPQC5czx4Owq98v9pPio/lb6g45C94H05vEzK+j1yYyE+untcPngdCL6dLJ4+4xN4vkFLkD7wPX2+E32IvrOokD6A0H6+SAUzvqmugD46wy4+egNVPgB/Nb4DJme+qF1MviKnlr5aIaG+MLDdPRBbsLyPHIY+kCpQvmgiIL01sJE+qU+bPhP2Lr4gcim8yMd0PSo9TT4mhpO+Ru5GPlgqcz0IETq9xv2AvjAJBr4Ycxa9UEWqvS50fT7g4809B26NPpSFlFKUSwAoSxBLAUsDSwN0lChLCUsJSwNLAXSUiWgCKVKUdJRSlIwKY29udjEuYmlhc5RoByhoCkI9AQAAgAKKCmz8nEb5IGqoUBkugAJN6QMugAJ9cQAoWBAAAABwcm90b2NvbF92ZXJzaW9ucQFN6QNYDQAAAGxpdHRsZV9lbmRpYW5xAohYCgAAAHR5cGVfc2l6ZXNxA31xBChYBQAAAHNob3J0cQVLAlgDAAAAaW50cQZLBFgEAAAAbG9uZ3EHSwR1dS6AAihYBwAAAHN0b3JhZ2VxAGN0b3JjaApGbG9hdFN0b3JhZ2UKcQFYDwAAADE0MDM3MzIzMzI0MjI3MnECWAMAAABjcHVxA0sQTnRxBFEugAJdcQBYDwAAADE0MDM3MzIzMzI0MjI3MnEBYS4QAAAAAAAAADYx0r0YNze9UuF5PpLLbT6yV1g+Vhtuvmych76AXGQ9KiNuPrA84r3AGfC8KzalvviQKj6p6KY+nH2Dvfb8qL6UhZRSlEsASxCFlEsBhZSJaAIpUpR0lFKUjApibjEud2VpZ2h0lGgHKGgKQj0BAACAAooKbPycRvkgaqhQGS6AAk3pAy6AAn1xAChYEAAAAHByb3RvY29sX3ZlcnNpb25xAU3pA1gNAAAAbGl0dGxlX2VuZGlhbnECiFgKAAAAdHlwZV9zaXplc3EDfXEEKFgFAAAAc2hvcnRxBUsCWAMAAABpbnRxBksEWAQAAABsb25ncQdLBHV1LoACKFgHAAAAc3RvcmFnZXEAY3RvcmNoCkZsb2F0U3RvcmFnZQpxAVgPAAAAMTQwMzczMjMzMTgxNTA0cQJYAwAAAGNwdXEDSxBOdHEEUS6AAl1xAFgPAAAAMTQwMzczMjMzMTgxNTA0cQFhLhAAAAAAAAAAAACAPwAAgD8AAIA/AACAPwAAgD8AAIA/AACAPwAAgD8AAIA/AACAPwAAgD8AAIA/AACAPwAAgD8AAIA/AACAP5SFlFKUSwBLEIWUSwGFlIloAilSlHSUUpSMCGJuMS5iaWFzlGgHKGgKQj0BAACAAooKbPycRvkgaqhQGS6AAk3pAy6AAn1xAChYEAAAAHByb3RvY29sX3ZlcnNpb25xAU3pA1gNAAAAbGl0dGxlX2VuZGlhbnECiFgKAAAAdHlwZV9zaXplc3EDfXEEKFgFAAAAc2hvcnRxBUsCWAMAAABpbnRxBksEWAQAAABsb25ncQdLBHV1LoACKFgHAAAAc3RvcmFnZXEAY3RvcmNoCkZsb2F0U3RvcmFnZQpxAVgPAAAAMTQwMzczMjMzMjQzMjY0cQJYAwAAAGNwdXEDSxBOdHEEUS6AAl1xAFgPAAAAMTQwMzczMjMzMjQzMjY0cQFhLhAAAAAAAAAAAAAAAAAAAAAAAAAAAAAAAAAAAAAAAAAAAAAAAAAAAAAAAAAAAAAAAAAAAAAAAAAAAAAAAAAAAAAAAAAAAAAAAJSFlFKUSwBLEIWUSwGFlIloAilSlHSUUpSMEGJuMS5ydW5uaW5nX21lYW6UaAcoaApCPQEAAIACigps/JxG+SBqqFAZLoACTekDLoACfXEAKFgQAAAAcHJvdG9jb2xfdmVyc2lvbnEBTekDWA0AAABsaXR0bGVfZW5kaWFucQKIWAoAAAB0eXBlX3NpemVzcQN9cQQoWAUAAABzaG9ydHEFSwJYAwAAAGludHEGSwRYBAAAAGxvbmdxB0sEdXUugAIoWAcAAABzdG9yYWdlcQBjdG9yY2gKRmxvYXRTdG9yYWdlCnEBWA8AAAAxNDAzNzMyMzMyNDM0ODhxAlgDAAAAY3B1cQNLEE50cQRRLoACXXEAWA8AAAAxNDAzNzMyMzMyNDM0ODhxAWEuEAAAAAAAAAAAAAAAAAAAAAAAAAAAAAAAAAAAAAAAAAAAAAAAAAAAAAAAAAAAAAAAAAAAAAAAAAAAAAAAAAAAAAAAAAAAAAAAlIWUUpRLAEsQhZRLAYWUiWgCKVKUdJRSlIwPYm4xLnJ1bm5pbmdfdmFylGgHKGgKQj0BAACAAooKbPycRvkgaqhQGS6AAk3pAy6AAn1xAChYEAAAAHByb3RvY29sX3ZlcnNpb25xAU3pA1gNAAAAbGl0dGxlX2VuZGlhbnECiFgKAAAAdHlwZV9zaXplc3EDfXEEKFgFAAAAc2hvcnRxBUsCWAMAAABpbnRxBksEWAQAAABsb25ncQdLBHV1LoACKFgHAAAAc3RvcmFnZXEAY3RvcmNoCkZsb2F0U3RvcmFnZQpxAVgPAAAAMTQwMzczMjMzMjQyODAwcQJYAwAAAGNwdXEDSxBOdHEEUS6AAl1xAFgPAAAAMTQwMzczMjMzMjQyODAwcQFhLhAAAAAAAAAAAACAPwAAgD8AAIA/AACAPwAAgD8AAIA/AACAPwAAgD8AAIA/AACAPwAAgD8AAIA/AACAPwAAgD8AAIA/AACAP5SFlFKUSwBLEIWUSwGFlIloAilSlHSUUpSMF2JuMS5udW1fYmF0Y2hlc190cmFja2VklGgHKGgKQgQBAACAAooKbPycRvkgaqhQGS6AAk3pAy6AAn1xAChYEAAAAHByb3RvY29sX3ZlcnNpb25xAU3pA1gNAAAAbGl0dGxlX2VuZGlhbnECiFgKAAAAdHlwZV9zaXplc3EDfXEEKFgFAAAAc2hvcnRxBUsCWAMAAABpbnRxBksEWAQAAABsb25ncQdLBHV1LoACKFgHAAAAc3RvcmFnZXEAY3RvcmNoCkxvbmdTdG9yYWdlCnEBWA8AAAAxNDAzNzMyMzMyNTQ1OTJxAlgDAAAAY3B1cQNLAU50cQRRLoACXXEAWA8AAAAxNDAzNzMyMzMyNTQ1OTJxAWEuAQAAAAAAAAAAAAAAAAAAAJSFlFKUSwApKYloAilSlHSUUpSMDGNvbnYyLndlaWdodJRoByhoCkL+SAAAgAKKCmz8nEb5IGqoUBkugAJN6QMugAJ9cQAoWBAAAABwcm90b2NvbF92ZXJzaW9ucQFN6QNYDQAAAGxpdHRsZV9lbmRpYW5xAohYCgAAAHR5cGVfc2l6ZXNxA31xBChYBQAAAHNob3J0cQVLAlgDAAAAaW50cQZLBFgEAAAAbG9uZ3EHSwR1dS6AAihYBwAAAHN0b3JhZ2VxAGN0b3JjaApGbG9hdFN0b3JhZ2UKcQFYDwAAADE0MDM3MzIzMzI1NTEzNnECWAMAAABjcHVxA00AEk50cQRRLoACXXEAWA8AAAAxNDAzNzMyMzMyNTUxMzZxAWEuABIAAAAAAACA44w8LqxbPfBx9jsAMmu5rnoLPdE+oj0WFDk9WtyfvV53lb0gK0Y7FIKKPOBsfbuXa6m9a2uiPSYZkb0IhSm9JbaXPar6ib2gPo+9XHHpvLDX0btoI1G8wI+vu6oGfz09oJs9ZD+KvHGOlj0vFow9yZyaPX7WFr34rEo8GvoBPaB4FDuWJWw9cBPzuxIAMD2FVpQ9LFDovP6xgr2obSQ9c3wgvXIoUj1QNpi9NOHjPJfdmT0ZUZM9aMoFvVD8AL1gDo68pbehPVDFHb2mr0+9wKUjPCAlC7x6Wzw9Jgl0veB1H728ueu8AKNXvVEqqj1wvpO9uD9lvf53Bj2ErKo8AJRnuuv+Rr1Udpc8tZqpPd6EIz3zG3y9MGC1u3xGizwQgju9w52TPUP6oT0uNy49DhB6vQIIOD0ggZ28/NymvGkumz0ANsQ8QO+JOuBMPDx++mK9O+ahvZtDVr1GfDe9aKlBvGj2b722QzU9DEXcvCWHjz1xpoA9wO28ukujdr0iKH49QAuJvAgcd7zclo29sscqPaueR70Ssnw9oG5pvM5ZBr1GaaK9aeSEPazZoDzTkhG9Z42VvbLFWD2wHuk8rZ6XPcDUg7qiNzY9AC6pvXBt67stIYo9LHGLvUtASr3YFwI9aERQvdlTiD2uFhk9Zg4hvdD6Ij0AGCo6n2uVvWiGMjxQogc91mwCvRl7hz0IHRw8CEINPBdCkz1dN4E98FqHvO2kgj2a8KW9JsXqvIxdp7xTVpO9cF+1PAzNujxgni68MotdPcrRUT1caOa8zNX1vJIhGD0OzEW9Jmv3vGj+dbyVCYw9IL43vDLDcT0XlYc9sL3+vHD70bzvdKS9Zo0UvaiiTjwmZHI9QmCNvQccgL1Mmew8xoGIvcyGmL2U8/A8AfKVPYHHkT1I0Ay8e0iMvZagj70U6469MotOPX3Kiz2S5Xo9bkw0PWJJYT0RKoQ9zK/yvJB4vjwslZ48ML60PMOpVr3ouhg8kGbwvPx6wDymIHm94BB2vabhVT1ab0U9IO+nvCo7cT00u7Q83EfRvChXTbzAERs9ADJ0OvTZqb2Qbcq7qhVjPW0Iqj3KaUE9A5UJvQ+Eor2wuQc93vSKvYolXD1KBWE99EiLPG6Tqb1IllG9DBe3PEAFMDyQkai7Is6ivYB9YLyoF5i98/gCvTuyir15SpE9Po0CPbZ5DD2aYlk9jLniPLGQlz1S6Fs9vgtmvYMHeL0q9GA9Y7Y+vUsLkj2AAXw6i+qmPUi/pb1O3TS9fN+9PDukVr3M5oa9O8aJPXBDqLy2Yzo91I2OvHXYkj3wLYe7Q1ADvZBfnb3omzy9PgZ6vUa7ND3A31o8cH6JPPDigjxGYEq9JvjMvMuIkb0gNkq7YOjuPJBrh7xzoJ892FhyPLhOKD2UOuM8Q36KPatDCL3EIoE8F+6SvbQbn72i8BY9At6GvbwWmjyEFMA8qO5DPPbsHr1mkAC9soc7PR73ez0slb+87ayhPR+LpD2gzSo8Gps8PVCOKj14HxW8WwNTvUfBmr3gakU8OMliPAlXnD0yABk9ow1wvYDooL1UKr48owUHvYgHGj0B14k9u2iWvdD72zwIJZm90/yUPRBzy7tgymE7YQKGPSBVJDuiqSE9nAnmvBjKNr3uv5u9WlJwPaxr6bwsCJG8tJyAPJMtBL2C6m09oqkaPf7kM70eumG9BOGQPPpFKD3FD5s9K6KUvXyZ4ryIGVi9mPglPFcUgT3Ytnq9AEYEuSQ5ljwYPGK8FCmnvAr5VT1OF5q9AAdIvOxjyjynbJG9hprUvLyHh7womVI8opxnPVATnTva1C49P6GavT0Ejz1qMis9NtAPPc5cC73wGeS7gBJCvDioR7xz4JU9KIsVPFgqXTwA7B+8KduAPWz57ryUZbA8jOqPPERooLwqDXk9s942vbw7mjxghwA9PgsqvWR74jzfxIc955aIvWjSPTwSrqC9YhWlvaBGl728X+M8egqVvfiOKbxapzM9/OaRvIXDgj1W5429MHZovdYcND3Oo0s9wuMOPfDjI72QjOa8My4+vYuUhb06FEo9O02jPXn7ij2qTjs9TBrhPPIsmb3i4kQ9sMSCO3A1pjuYlhe9eG0APP/3kr0F24I9lJHZPIzHyTyz2Re9s26mvVApv7waPFw9II0/vR4ZZ738l/A80G3evACbnLtkb5+8CtOZvar4Ej0ZCJk9NpcivXIfcD1EaI28AM6aPPRKh71c8e88EGjZPFj9gL32G0w9gkMsPZg8fzz1PIQ9jp8qPcCZ97uUNeY8w4VPvZCf6LvR7oc9+KhKvcYjez1Rjo09BpdePWgfL7xApcA8OsVrPb4Mcj3qKSY96EMfvJJAVT3mbmK9wAODumDOdbz4Rh08AmVjPax+3jw8zo69eHUbvKgvdLzgnWu7pMCTPPDa7bsKOom9inplPcLrnL3gEiw7HnpWPeNcOL1Ib3i9GG0/vWSbgbypNak9wL6nupbH/7zb2jO9VTucPQNDhD2moia95bClPViKiL0g5rC8GtYgPSP3Nb2oXRQ9IDKHPAztgb2Irk68ChYGPc7qKj3grTw7RGOovfMzlT2I/yO96up6PeLHo716iXo9MOcpPQCZ97xM75o8UKD2uwa6m73GT469vTOjPbANxbw2UP684Eg1u2ByVruozS+9EY6OPQDq8zrV1Zs9yEdTvFP4GL3T7TC9AER1O5c+m73g4yE9vvKNvQDXrTvO2qe9zXqoPcPCab2QDNs78iMKPcBOtDswEao7aOIQvPoyRz14fja9gS6hPcwAgTwobxC8oPdRPLDqgbtbJjK9WwuLPVmNgT0Av+S5WoA5PcCO7jvnspi9YP/qPJivMbzsDeG87jQ+PUBNyTzmfS69rZqkPZuTBL2uLoK9OPcqvFJudj0oCyA86rRjPTZ+i73SMXU9WH8BvXmJpD2fQYU9q1SovaDhGLvoWn+8nb+hPbaWkL2A/Bs7fOPWvA83or1Aw6y7zlekvahUM7xgjTg7C+1kvdOhDL2aPzY9IIIfPE5ELb1aHDk95vuvvGDpPDtzRqi9nFDwPOBHsbzoNGw8mnI0PROXJb0RNJ49IUqSPamVgz0RNZg9BRGKPcAusDtY1VE8gIfrO2ftmT1Am/G8zgBcPXu6jz1Abi68uvRbPayam7yuH0+9ynVjPXD5qTwmWCG974mpPcB9uzsgOn27LhlLPTBylTwbghO9UhY8PVB2Pr0QMro7jPO9vGw49bzQAQy9blolPWrGYT18A5O9p7Kovaj3Xb04PKG9ru0NPU6AM704XJ+9kOAdPUPFfb34ZhG8g/tcvTf3gT3oqwq9eMpbvFBkCj1jeI897AGaPChGUjy4gma86lFbPchqRbws9+U8dMuDPFjharx4kh+9GBofvJkghj16hxw9WxwqvWuWIL14qhI9+vFcPeAgUbzW6R+9ANJFvKKgfj28FLk8oKtfuyaggr2VFI89UONuvUuugT2QlGe96/hGvWt2dL2b+Rq9OrFyPej6db3gG3Y8ZwaTPY8Fmb3KMDs9gEVzvYxYibz4kXy9zm1AvWgOA72sV/M89k8mvfsipD28wtG8gjWevWEdkT0+F3i9cDXdPOg+cr3kJKc8kOiUvABl07xNrpc9ONs5vKONdb14hDC8CCRiPDYpaj1C/j89P7eIvXA/mr0mOYe96sCavV58Db247RQ8S6xRvYCI4zwb6Wq9FKOTvViaHTwKPR49fMmDvACWFju0QN48cNm2PIRYqrzEH/I8QPl9vGBmcL3ePTS9Sr98PasLL72ALaI8SIwjvAtWWb1QPcI78IqzPKrTJj3khvk84ITuvBzQujyD0SS9Qh0FPVvDHL3b/po9h9iLPSxf+jxuzIa9WKsJvX+WqL1CMGA9o/AxvUjaKjz8IKy8sjw3Pf77ab3s1tc8IvcZPQCTKLwwmgc9iJMUvMsimL1vlYW9l4WHvRZ5Uz0WuJK9rxyWvbDYK73wBes8E2SQvd5PDr0AxSA8tuNovSgpI7zNlpA9EBjtu8PkX738t9G87T+oPVMQJb3spM08AbClPYSIgDyI3Gi9d0WivQROiL38SLg8dj9Vvewnljx2SM28r5mIPeopaj0MiKe9qBhxPAGZnD2B7pg9upUKPdN5Vb3Gyn299ETSPA6ibb2wUtq7hIujvCyosrwB6KY90eSQPXDitrtQ9ly9YIwcPEgTWL01rIo93RWZPQOuj71OHmk9zGz1vAhmA7zw6Kw7m6xqvRNQKr3sa6I8VhVivX7fZj2FQKE9g70svU2ZiT1s56w8cjdEPVDZx7yjp4u96DVovKzW6TwzEZ89S/KhvfWwqT0Q5wk9prpMPR5Jm704dzU85pNyvSPrkD2rHQC9LP2oPHMcS70cvqy8XJWpPGs+Ab2BYoc9AUOCPT0Xlz1C2mc92MyVvUI5Uz2bCSu9eilFPQ58TT1EoqS9HIDlPGUJhT0AUkM6kIqfuy3alz0BW4k9XJLRvOAzATyymmg9oMfnPNDE9rxetom96mtjPYQz6DwGrWo92x9lvUKJbD3Ud5c8OEc8vKM7oD1oiyc8uHWDvUZAE70o5xi80LIRPQqFkL0cgP88Sm82PWNIhD1jcmm9gJCevToscj3lV549wCvdvKrEYT2RS6E91vNVvaNOkL3ADb+8nDn5vMC5vzp8yf282CspPB74mb1oVz+8ABbOvJAe0zzd2Kk9LNWUPFJ0Xz2TV6i9aMZJvYCs+jwWPci82Ip2vMBharwye3Q9EgYKPf6mpr1DxEy9tnGlve+JiD2ADiY94Ns8vEJlfT2cMMw8dDL6PABYmrpkdfg8wJmcvLRPhDwG27y8xoV7vfLcdz2wgcU8rICIPO7kHz0oHRe89h4YvSPoS70Wwr28E8yUvdz+g7wSzwg9gnaBvSalPz0JIps9tg08PQAzmb0LAA+9WZuTPejuCDwQFFi9K6KcvWQEkL1WH7y8MkYvPWBDSr2TwgW9UNLyO477Hz3gZVE8P12cPaYxpb3bMw+9G3+ePY3gmj2rI4S94hhOPbLjdz2rXIo9FCGZvXDDwTx7wRy9kCy8PHAbizxg7QW8pschvRDGzTzrUqY9Su2WvckFhD1CFV89+/8PveBGjTwJXJs92JVSPMAErrt4+XW8el4aPYyln7zW3j69InQNPbgPCT3SLUM93o0+Pdd0or3sl+a8cEuMO6sQZr2GejC9oCiBPOOTPr24ZlI8xqADvTj1Qjx8Q4m9mF1yvP6qDz2Dbqe9HL+iPNkbjz12n3o9C1aLPc4HAj0uYmq9KA9Qvc69Uz3WpE49IAXvvBNJn72+UwS9tiYIva4fJT2rj6G9XJzvPLvykD2Sw5u9ELq0vJJmJT3AeIW8XG7FvKJpOz3XR6G95Fb2PNNekD2mUcq8pmdMvfhwQb3AWvC8WFUpPAyy1LyAmrE7wEy2vOz2j70gVX08anJrPSNTPr1g7KY8a3wjvdaGQ70i/UM9tJnhPHaAHb3zDJQ9Gy+XvYCYPbxFBos9mKN3vaYSY73unwU98JAIvQMhAr2DIH+9rsBsvQeSjD2MoZi8lbmnPaTW4zzwr+68gByZu7L2bD3MPOK8QNYpPHDvwDxmJXu99n2jvTZE3LyALgg9/CvVvBDuU70I4AW8PqpHvYa3Sb3wThy9Z1iAPZo3YT0EmI48aoQTPTuGk71cg688gM9eO09/lD0QEaY7SEROvWKnm71Vn4Q9qMAjvfZP4bzoKA+9wF7NvBOpSL2mzAm93WGDPS4YPz2AI/i7nAiWvIB5Lrvs7PQ8yBVfvFEhkD3s/No8sGmkPEl+gz2qJh09WOk5vPD7kr1UIpu9amYyPbD5qTzjGg29gG4WuwrhNj2+BCm9QABIvTa+9ryQkEC9RE+xPJW2oj2auzw94Y+iPVOMkj1mZGw9Ep1IPe3OqD2AXdc7Q5Y2vUwo27yyWC49NmamvVDo4TtWGce8yJQsvdz5xLygP2O8wAxkPGjaBrwOzpC9wIzBukADfbxMeJa8lvw3ParWCT3f35U98OPmvNgSNLwEbsI8CtSdvaAzDbtTuJI9/AO2vGD72Lw0XYw8wkeHvYbvS70AQK28mkAFPaZk77wKMm09N8iIPW/IpL1o0429zjxRvfP9Db2GuAy93tdyPZqbaD15o5891qZ/vXOGhz3qOF89uOqCvbKhXz2gKGS91COtPP3Llj0YRw28gMiTvED0LzwLjxu9AAfPO6JuZz3wrrq84NbWPFu3Ob3K4Fs9gMmxu9rwHj2gyXS9AMvFufgtErw6j4W9MDAFPXZabD2AutS8wI5UvQ4yF72D32W9ObGmPc95mz1k/808wPIVvYaxUr0XcZA9SIFAPGNxeL1mzg29YaCBPYavAj2ib2E9y3McvTigbjygfVK7IDEyPBILdj3uHJm9GIdLPGHViT0o03Q8i0ljvar8WD0ABBi9uyhkvWV2lz00OY88ZvEpvfd5o732rEk9gnlFPTYk3ryCREY9VqcUPVGYgz3C3TE9ospHPay1k73w7rE7O9eCvQJTYD126wG9MOLRPPg3WDyLA3e9JY2PPVACPL0A8aC7lGO8PCcLhD3AdMe7yGAkvSpGXj27LA29tpVUvWClTDxAy+q60BywOxisFbx2hd+8xIbmPExPyjy+lX89u2EXvboOZj2AByU8U0NOvanQjj1Zuqk9/OzuvK7/Ab3g70s8MB2RO/NqHb3DNR29hGTuPBCZrjv/iYo9xM2pvSD6x7wA8hc52pwtPYSJkLwOfHY9MNqFvMYUHr2YyXE8pHKDPGDI1rzAJcW76PoSPKuci72QXtu8mVWmPX6ZaL3oK1w8QhtHPSF7pj38K628JrybvWi9kL0WDTm9kiZrPdwyzjyVKog9AADvOGDLeLvRdKg9sUyFPZaUT73js6a9kA/8vCBoIbvoQTy9FGa7PACUgLlQgrm8jPenvAA1XDyFRqI9fIC0vCCyOb3mSNS8C1aQvVDEo70E06w8tJKnvaB4F7swrmi9tn2hvYBU0bsBUac99DSZPLPnpL1AQAK83LeuPABnvLkYPGK8ABEHPAIKXj3VCoo9w76lvTY3e71dkpk96HmGveOPZb3YSjO9ltUAvUsmOL2/DZ49mPJvPOs2pD3Cb389e6s3vabNZ70AeDe4huxBPXZ1nb2Ghq+8prIUvTDYxTtUT4O8UHVHvdaGJz0yK5q9nA2MvPx5j70VBJk9aTSnPaDk8TzIwk+8pjI/vT7PIT3xl449rBLvPH6yZ70CaI69ADjFuqiXQbzYx1+9gFAfPcBYuroWTgY9cBPhPJKBTz3T9R29vGaEvE8NkD3kcso88UmlPRPlYL1qq2I9JugmvXDfE70Ar0i9qxAfvUdmhL3GBG+9fu44PQRazDz/boa9fFOFvPa40LyCMkA9xPndPP71bD3Am6i7RP6fvbJbOz3uLoy9FOD1PMSj2TwibHU9b4KfPdY+dr3gbxm88FyxuxE2pD242C+8iDgcPfurL70PPpU9APCQvYBFPbtGVXm9YHc9PNhceTzC7z49PGzZPPZLnr1O7TG99swMvQDoSTnAaD+88PaDvBgyCD0Gnpq9kMxtvQgjKr325qO9t0OXva5wZz3Q65w74IGnvaghWLxlb6I9QDIyPN75Rj1j5Wu9ol5ePaxw27wWT5G94PKdvQN2Lr24nkU8il8jPfvddr3S1AE9MF/iPPj4VTzY/0e9SjFjPa7sdD3g1CS7LtkYvfbRwrz+KTM9PeWJPWAE4zweQAA9kq6MveCuBzsgqn88CMJivcsYGb04PYu95tKcvbDJqLxzU6a9a9iTPSy7m71wmmm9QB2CPMKVST1y/zc9Q8enPfuGB73UpJM8aAZ9PDJsob0GKMO8ssltPd+nor3T+5y92PxuvXABsjxgcm+8znZEPfCryzxDwmu9+XqKPTBXzLxgali9ZFSYvVCiybwI2lm8DROgPYJEiL2AS9+8wCKxvOsbCr3UAPA8k9YxvRIxMz1rtQy9Li+YvbrhaT0EkfI8vjZ3vcTBo7zmm5a9tHKcvYtwE73J7JQ9XuY9PazFqL3w0r48SBBovRrVRD1ofly9QDjjPCKUjr2i7Z29zhcfPfKQDz3crrO8mNkzvRKTlr2uXWU9ylloPay++7xgxwe7CGk8PDRRtjwcrc28UN2luyh5IL0wn748/JrwvCglHjxAV+o82EoqPS5Ynr3QLRA9yOeGvaDVBruMy+u8Qy09vUghObxugJ+9zEnxPGB41rxyfTc9gHstOxZPWb2AFS+8ZomavTlMlz1hoqQ905JKvfO2Rb1I6XS9AHPJPHldoj39Doc9JGPNPHJgEz0r6Fa9c/uNPebCD72AhhW9IPc3uzgSSjy5Xok9nfGpPVbaTb2IKXk8LBarvChdGz3QkEK9Zr5JvWshFr03X5K96B5kPN1ZgD0UO8o8kDXIPNKtl72YNZe9KHt2vFPcCL3Qh767AlJ8Pbk+lT1/4Yi9+OI+vVBEmbvLBKY9kIg2vYLSSj3Abt88wOD+O0DgSbxkDug8pFXkPOuDYr3ej4+9SrARPZY1Gz0Pb5E9oqyHvbh2Q72Qu727jLmfvdVDij0Vx6Q9jrg5PQCjLjvU9ae825RjvVo2Uz3QzPg7Je+KPSYR3LwgFwm81nMQvTbwSz2mBgO9IOkkPLWJnD02M+K8cPuPPL/Sgj1zun29EHJFvWJWVD3anI+9WJJuvGNKSb3uXQm9QMqZvWqkZz0gCpq8lyujPfj2B7yIxjQ8EAO+O50Ioj3WhWS9EUigPUBcE72gHEo8vGi3PPVjnj0Ye6e9ZmllPUfuk704vH28rw2YPd5QUT20IJe8wN21PL36kD2zXBa9YJMqvcrjXj1AaQa9v1GYPQ38oj31zoY9bhuhvQxz17xmnaO9wIDnvNwcy7zgVU487lQ+PSXKiD0+BqC9AHYoOgLUEj0cj6C8PEaePPMQnb1j+6W9iqV/PZt+Jb2YI2S9tujCvEg3Kbw2QTE9YUWSPZ6Sl71Z7aY9WbObPWArDL28OIa9gMbmvKbnXD2Lnli91uQmvTvnBL1ejhe9AErgO05HKL1tf4E9Fht7vXgiDL0zj5w9PsRwPdBO17w8Mb+8+JsBPYhHA7zsFYG9SEwIPQC8pznIjBO8M3aFPawWxjw62V09Sps4PQC/mzoG+V89AN8FPNTHgLxXLoq9DGGGvepZIz0Mb5q9cC1vvXLknb04iCq86MknPXBfCT0OgY69FnKkvbIBVz2Q1PK8Fj/nvGAIMTwwwei7VjLdvKQg2Dyw0OQ7ZnDWvFVyiT0QtO67v+CbvabUQT0SKyY90j1bPT7BGT1g9x098MOhvcwonjySgKm90H2HvU23mD0KnWE9DGTPvE57DD1+xwE9d1uUPVZ0Bb3WxoG9Z0yhPTYzv7xmOAc9ELaOvLBgsrwaTxM9jb6UPTgEJr27kQu9wBnRukA9vLqm5Gg95AP0PCYnRD35JZY92BlavS9IoT14sik9mGg0vEG0qT0uVVi9uHMnPSggAb0gBCe7HkYivTCmzjvTnZS9NtdWvYCZDD3wwYC7lryOvQ2xiz27fHm9KAkhPdpZfD0A7Ka9YIbWvHhbUL3wZ+g70A/IPIElpD0oczw8z1uqPVaeZz1Yfyu9yocQPXCp1zz8Poi8G9BTvfR2oL3KWW49LPzuPKaZXj1g4AO8U0t4vVSv3zwC5GE9gCHYvN7WqL2sGoA8CEGnvawoizzIMHy9OzlovYB+ATzUgOI8DZGMPXHYpj2MD/G8qqhPPQDuG73TTHy9AF5ROhzBkb0rYiq9B3+ivRa+PT24JGG85l64vGGNhz2qt0U96BGhvcKeWD11kYU9KEwbPYO0PL14iCI9yKUhPSa1h72QhPq8BLGZvM0ZlD1mKGk9Fg4qveKbXj1y6HE9Tjk5vUgeCLxTJKU9Su10PcmHqD1fMJ+9mP+kvUR8nrzoxxQ9WEBtPPJAVz0EY7M8gSeFPQAYPLxc9Yy98jsrPWgsJjxgdWg8z8efvbo3bD05opM9oF+pPO46mL3AsIm7gJnru/S7ir1QiuI8Fr++vCrocT0N+og9jUejPZEUjT1EGoG9cOiOvSDKCrxxaJw9aDwnPXzM3jz0sPk88BO0PGz0xLwujZS9YAwQvZw0jzw0HZ+8qzEdvZLxKj2IoWE8Jj5tvWTWkLwWaXy9QDJOve1HnT1A0Lg7PJaBvTtoZ712TyA9QJJOvEpFMT0ncZ+9LKTvvBpUeD2REIQ9gN0nuur8Zj0GYxA9kF+WvT5ALb26CjY9tud+vUwi2jzBIKU9BtVavcvlN71MP/i8CPEEvaoGFj3GF6O98GydvdY1ZL1g4B87s3cQvSlyiD2wheA80hlSPd/YpL0ALZ69fvWmvbLJeT3y6Qw9DgYZPfYPn72AtD68JgQ3vePlWb2w2Ki9GM8OPIBHUrxKXjE9XQOXPU7Jjb3QaTW9gP4DvGIBTj3qNW89IJZEvcgNTTxTeEK9ddykPUDoNjx+l3A9QALVO6xzsryAfJa7zkV+PQISBD1GOJy9gBm2uzainb0gscC84YmPPULtKz3sOpy9AI3XOaQ2g7xy6H09TP3MvAqKWj3MRIe9FE2cvT7AS72odhS89cKRPcbfQT0+W1g93oumvfR20DwlmZE9MyagvbyX77w8buG8eAptPKDSIDzxF5Y9EBHtu4WbnT2Ajq47dtF+PQ5HNj1MLvG8ypeXvdwCjLxi7CM9lgf7vBLBeT0Bqos9xRSqPVDDjDwoaCq8YEiTPBvTQb1YkAw8tis7PRA51zuAAD29sLnNvNZvcj2IrSW8RixxvV7vDj2BAoA9Fkw5PXJBTz1ObEE9phTuvIVHiz0yCjY99rJFPasqRL1oBAO9cyMZvcBZjruHTJs9nQulPT5IH73AZEu8UBsIvYQx4DzKm4+9qEh9PFSN+zygSUe9LoYEvZS5kzyo70W9gCbAvP52DT2xW6k9RE6MPMDQ+DrgYj48QK6Ju5hVezygkRa73pkLPaaga72Upe48FMSQvfnaoz2WVQS9wN73vAwtlL1y7Vo9KBxZvOiSDLyu8h+9cB/7O4zXiDwwk7S7uaaePaMwgD14UzK9nIjFPFajGr0IvTm9adqZPVtuqb2gh/u8qCc0veAEeDu+cm49UrgyPWizS73yJ6i9KUqCPV7aED3ERIi8AFZHuVxuhDzvmJY9rpukvUBAVjyQPWC9gFgROmPMnr1AR428dH/EPLGUlD3IO1Q8UdmMPcBsdDxu9UE9cCyZO+BwqLz0Jqq9UOE3vZg+O7wnRoS9AB2Qu5wAgb2JQY090Je2O3Vpoj1guB28PHmOvekSpD0cx548Y3Jzvd5jDz3SPzU9Qk9EPdyhg72DsGC9ClMDPWmIgj1Au9U6+Dl3vcxOorxQbRu9EJjHvEAg1rwz/mK9txeFPfy6oDzQTo27enowPdaIfr3ICCW8+t5IPSCKSTxbQwW9Jrq9vPRoqLwOyg29OMwQPAbN17z6oHM9hkhnvYBoHz0AzKk8ENWMO1JJSj1AhyK9qyp1vfi/Lb1uEzG96M9lvXnxgj0btqY9gCRfO6t6Qb2LSjK98c+FPYOuoL3Auui8TEfdPB4WKr1i+Fo9gMxHPBrjWD3gER87kKyHPOwrjTwS1Uk9M711vSNHpL3A6Xi8kHviO9z40rzo5Dm9aDUBvOAEqrwVepo94ndQPa/Go737+i69DvybveB0WDyyAV09EOvPO6iFFTx+UHC9eDplvZhMELzAlrC7sdmBPei9Wb34Gly8AFXju6BmLr2TEIs9ukAcPZS/oDwA7ZS6HE7gPA1dlD0AgGc8/RmQPZWrpj11dag9jOjOvMadxLxQdpu9fNTKPK4JDT0kNpW8aGZ8vTA0hDwgixK9sNcBPbYDT70oZ1q8AOisO2ZdX72mDQi9CDubvcpDWj3cTMi8Gvd6PdQt5zxA6o27sK/KPIDtmDy/3Ik9Pr2MvUxAzbxmdU09VD22PECckzww4K47kjIJPZhcFLyNJ4U9FC+avFCm5bsA/ai5Gm4jPUDjl7w4+ns8QAmbPG7XCr27Vi69NwqFvQAQ4DyK6Vk9qmgiPVt0lr0IrwS9IixbPbBZmzuIujy8IHyQvWbK8rzAP6i70byVPbOtnT0U/q48rugDvYitQr0wAP+88BOGvPNyiT1C6Ie9OEhWvLOKG72saZu9XNqcvFscDb2Qury8w5orvaZcXr1SHXw9C4igPb4jSb1+s2299/adPau8Kr0LRJK9kvNxPY7Sor2IQWW9NMfVPKTyuTyohxW8TohYvbB5lDuWO309wIERPPDaiL1oAiU8eh8tPYjeLrxr4o89PpIqPQ51hL0gyQg89eeZPdP4BL2hkog9EH4jPUlwpz2Bh6Y9RK2JvdD07byQmrC8mD0nvRoJMT1AhaI7fLClvcym/DxM66u82+tOvQ4BK70htqA9WGs+PGDGNb2NrZg9QNLgvBoRMT1AFKk7QIOWvSgymr0qMKK9MOeVPGyGp70wtba7Ju6pveDGzLzbHme9nRGdPa1yij2eW0M9+ReqPVL5cz0qxT49AEUTPSpBgb1snMi8/OGsPDAxIj2QAro7lld9vYC3Bbs4BV69CGWcvSXYiz3Actu6AsWcvXDp57zYdn881sDOvOQ1ijyr0ge9m5wPvQOfDr3ibGI9k36IPUBLKTyIFAk94KZ1u0Hoij1gJEY76JBUPADlTby7K6S98TaRPbKObz0AaIy9EpBKPc5bKz0wHU+90NDPO0BaRTxA8Fu9fg8uvVgsKL2QRyy9Ua6QPaPUUb2Ywma9JjVuPWhuAr060pi93q0tvV1JoD1k3o08ONEVvSuKp70MA4i9DJDVvJ4dRD0v4Za9YsdwPXiOS72c+5K8gD4gPLaDNj3gHU68X4uHPUbbJj0cfY299rACvQZ4Iz3d4qg9Qt9vPTi5XL3khuk8qDZNvUY+0bzaES490OTePGOaH73A+aE73KOBvb42MD0ww8U7e92evf47F73mNyI9h/GKvdZBZL2obWK9B4aQPZGjkT1gExW7MJ6JO2JnLj3bbGa9vskxPYBLXDrWZT+9XoinvToDXj0wry+9c9cvve/3lb3v/pE9BDuMvU63F72GLgW9Ltx7PTZ9Yj11a549iPtuvb4ID71yK5S9+vR/PbU9iz1mpOi84DxxvNAMuDx4TV28+vsxPdswCb3gtWC7shgzPQ7UZr26/2k9DKaqvY1MhT2s74e8AE7PPGgYoL0SbAw9JQecPWEIgz0Ap5G6gEp8vb4aHr1VoaM9biJzPVA5zburyiG9hCe+PDZBIz10+NY8vhR1PdBUyDzkROs85hiqvf77Or0cR5s8KxNmvevNnT3bcS69buahvVb4dj28VcU86HEuvMUTqD07rKS93psLvRyOvzxGfQG9c+8SvbOFZ710Rou9/ht0vQtWdb2QaZw7IeqLPVjFebxAwPc85nW9vADbHr3ybJS9iPM3vWYn6byIFHE8NqZ7vahPXDxGQc68gnulvaJcVD2MLq08EOSnPBBuk7vsCYW8mHU5vHrAZD34vw49oETnvPYmp721dI89xkd6PbQcuDz29xa9XJGNvebF77wAH4G8OAEVPAwY6TwAjPe8BKfSPJolkb3Hi5+9vB74vDBbqTsAEhq8IjAdPcgsB7xm/GU9IvpBPdq5cz1utKK9wIipuyiLBzwC5FY9k5NGvZ7GUj2as2g9btULvUzd1Lw4H4K99s1+vStJAr1dzIs9wFPwvJF4kz3+RZ698JihO4jdLjzLzUS9TIThvLatLD3oSiw87Denvbftkb1+cEW9IiN2PcR/6jwAL+66ePt6vNT66TyleIs98K7GPCYmbr3AaOC76ihlPcBzUr2ohEA8AABZOYAyG7sKhls9YHBvuzCMtztApqm84ICevCAhzLwGOCu9grM8PfAd0TtmXEW9yycSvZx4jjzgQcw805ZwvZyPpjzmnUs9d9SHvY5nHb2NqIw9MvU9PZsfZL3aSjg9qoN1PTjcNbyIdRI8VkkwvYFLij0I+Yu9TnQoPYAqMrxuTyk9nCLsvFC58TyWmk890l8dPR60qL2ofUs8/oxoPeltlz3Awi68k0qavaDWJrxAe5C9IDYyvWzR9bxoGQG85mRDvfrzh71wXj+9JilSvfYkybwAr3G7kEfYO6iqArxwAXi9fWyUPfACZb1y76a96HcVvZbfLz0wV7Y7bkZMPSJjOD0ALGq8ELH8O/By1zsgdTa7gp5rPaa+QD0qlHg9Kms3Pdj/cTzQToW8pAfvPACQszxeLmw9AJhBuWfPh72CURg9eKRjPJCK1Twcwci8gIJ9ul+joD1VTqk9JB6hveBeBL3YwCM8SCSavQN7iD26S0I9m8ZJvXk7mD3OgHm9GpJyPVCyFT02QMS8szYzvatTcb1gkGS7NN/bPO9dnT2oKSq8Lf2TPf6zf71mCJG9bAyfvSohKz1AzLM7mLZqvUfygb38P429qA9qvAST4TzR6Ik9PsFfPW6yKr150Zs9D0mNvdxv7Tzcspk8TFOrPGC09jzth5490Hv8PDsOMr0ILTE8ssg2PXYLZL1Wp1G9k7iRPXB9DT0IyR48k/RNvaDklDxgnK+8PgMoPXPfD727aWu9IHWePJDZvbx8aNG8+rxWPUy44bw422A8G0lJvXyGzjwgY207BX2PPZjxNb0AULA49XyAPXNlp736lnw9i3BnvRX1jD3QFq67CJaOvYCHyrsGC628cjdCPXhfpL1uETe9k1Uyvbyh8jy2wmM9cGq7PLYgKr3mt2Y9hmEuvf/0lj29iJw9xpZdvcaz0byegik9YMglvdr2UD0DpJS966A1vaLrGD3AZuM877iQPZ6KSj3IKgc9AbKjPXaZ3LyCGqW9D0GjPetimb3uFAm9NttLvdaxCT3mLLy83GygPDG9pj0AdcY69oDvvGFShj3svOa8R46JvbxX7rxMerw8Gq5OPUwml7xIEUe9AM+Mu/D5izs0zJi9v0uRPVkajT1Zbpk9yrA6PfGAqT0TSao9CiMFPWUNpj0e0xa9kJPKvM6UIb2IQA498K2dvfYi7LxKE2c9YqtzPdEFgD1wuty7TgdNvZzt/TyuOwi9VbSVPUZvc70Qx8U8NZ2EPXUbjT0bWJQ9AKeiOzZoNj2o8kq9cLKZOwBMczv4Dmm9hHiqve6Xo71QA788w4JWvWrBWD0j2R69M9mjveRwujx2Gg69DBjLvODWA7uw8wQ92E0UvG6rqb0kasM8A1pQvYvLab2Yzz+85tY8vW7WIz1CsWU9oJjfPLtQmL18o5A8YJnMvLDBzjvWTWM9Bry1vAh0QbwWtom9iF0DPMBrlToylBs9xF/yPIC5JTqggR+8gHxyuuDcZzwq7Q090XOOPRpdFz3zuJE9GBkMPCBPdLspfIk9gv8nPXKsMj0eBI29lrUePVB/kbuzykO9wAbQPDiKdbwU24e9AG20uRJykL3cZYO8tv8PPebfi736J189/CyMvWB2ybylWZ89mOdJvX7gHz3+5Uw9GNlKPAZVar1leY49MYuIPejtFzzGCHS9buVmPZwDjTxSj2U9uzahvaAlS7tcUu+8cL3IPNVUoj1LkIu9YwOQvWAVBrymREq9Tkd2PTFxjD1k2oG8qPRivftMjb3mNDQ9nm4aPaieXDyQRPm8NimsvBAugLwrTpu9LyilPUdnjj2Yrna9O/WOPY46dT1EyJy9HpBcvaQZnb0TgxC9c7NlvSoOqr0uLXQ9/4uJPZRCobygwy+7oGhbvcjxZzybyDy9wqt6PW7xF70U54G8FIaoPPhgGD1Gl249/D2dvctRhT3A6N88YM5OvQ3oqD37Ony9CaOcPUvmmD3DJaA9CAgrvSYJSj2I8nq8g46EPbwihL3A5Ak8MIPyvAAYOrxwiNC8RRmJPehLi73mSp69jGfcvFqYRD1YjRU8lj/fvPYDO735B5Y9PyGqPbINUz2GL8e87q1yPa48Or1o3Ta98EKJvFDSDD3LE5+9AJZmPG6ybz0Oolq9PG/vvJORdL3MW8K8PI7qPAS4rDwAMEg7bbKDPaNIlr2yu6W9cBSevcmGiD2orV69ICgQvXPMAb0eMqq94eafPVKROT0KGx49lUqdPYpbMz24PR28EEpCvTbhH73G6Ao9ODo9vW4yj73Okge9HYGVPUA/mTr7c0m9gNpgO6OqnD1I/2m8zmxbPYBUr7ygvBa7hKGGvbyIurxrGQW9+mqLvRw8k71+HGA9VMKQvZh9L73RzYc9wCsVvUOTlj32MlK93sZ8PXZN37x7ID294NFpPBOohr38Rpo8HlR7vaBbRjtWXig9WJ8nPbK9Yj12HVa9JMyvPLBoR70oRQk9F5enPfFzhT1ofhk8vMe3vD6Kqb2u6m69oWiiPej0MLxBjYk9XuE9vajIN7zavXo98A3Ru8eZqL0I+jW8uMYRPYa+Or1bkaU9W6ojvYMACb0o7B49eiZXPSLuo73YPHU8wIY9veAYZ7wgQec8h7mfvbgDELwAuc47MLwxveihir3pz6I9nEbSvDF7lD0SolI9Ff2SPeTZ7jycZom8NpZHPRPBoT2d+6Y9LH6DvLDfvjvaQy89oFalPIGdjj3Ea9U8Cmp6PXnHnj1IWBO9INFSvMZsRz2gPeK8rlsxPTGHnD04cE+9eI1TvWq4KD2uQmq9MMvAvCiSRLwAUP24wxFFveHenj1gtic9sK7hu/iyMrwLwiG99dmIPVLhLj1NQ6I9IJFavNo5QD1U15K8auGJvQ6eqL0uM2g9xUiVPSw/jbyq3009v/ajPSBYf70c19K84t4vPaDRFrvmAGS9MFpmvSjQgr3kmps82JAovOU5qD3rzxm95HacPL8woT0AUzc8Vjx/vTCGjb2Qb2y94DoNuxRzkbzTyFu9e6ClPUvblL3WLam9oIgzuwjmAzx0l6M8AyeDPf2EpT0Akje7nKu0PGqNQD1+j1s9CG8SvYyK9LwojiQ8TN6sPHZqCz2iOF09bJfCPCJzID1D52+9pOGkvaTKwTxSDAQ9YPxTPB4KUr10WZ69gBK2vJtFRr2g0sG8dPPiPNYVWb2OOqG9xhPqvJYEGL1QI7i8uLZMvM5qNb1U7c08pHqgPHDwB71cKfo8gLjou1J4HT0gwHK8GDo3vL6gS72oywc9VIL2PBhvSzz4IVU87j1lvU5hn73gxwu99ngbPdukB72erC69IoY2PWCZBTuMvp69HGDrPDLrBj0ACQI7JHjTPPr5Tj0OFVw9y7GKPZahsrzggWQ7vtt7vUOVUr0Q6rE71vAEvYAIHrxQnbK8XFTcPADB2ToSvUs9jhIQvVZpBL2AXAM8kgdRPbBdsLyYWka8ZwCbvdKpcT02YJS9omQvPV4eND2Qd8M8MLemu9Ti+zxMq9m8c8E/vSSz4zwZ8aQ9gZ+lPWLJYz0Hu6G9howAvfECnz0gLau8EDr1O7Bu2ztmzi09Zk/vvDjwe7z7Vjm9CPkYvbauf70kdYE8E3QcvSB2hLygHJi8SJNKPCbGTz2wVJC9GDkXvFkdoj0g/yc9OrkWPRwIh7wYjzS9wvRPPbbgJb3idjg9kD2LO0ziu7zXNYu9stNaPcQmnb0GZRg9Bt8VPQhIATyT/jK9JuJyPRMNoz1mDiW9sGLfvLqXcz1y9Ek9eh9FPQpjm70BIpg9lq5YvZCIhL1dqpM94rkbPahAAT0SpVw9+n1qPes4gj38TMm83NbgPB5CWr0KC0c92LF2PDbtr7xO2Dm9gCcivBwj87wo0CE88NHPPJYlzbx6/Fo94KWhvb7BmL3Q7rc8BFWPvfxgoDwQEoC7y20LvZqfXD2yrnU9GBwJvKYXUT0LZAi9WfCRPZY4+7yibH89AGIhO+bGab3+gym9MmCDvQBPnbv/oqA9eGMAPd+JqD1QlZ68y3AIvZ7aFD1R2Is9xH/vPBZD2LyQ9Zw7FFKSvaN0nb3I2Ew8tgRKvfBFnTvTCxO9fYeAPTi6ZjyYJGw89hwFvfDNzLwox3u8xOmKvUKRSD0MnNq8HjlyvcZNxrzy3V49ckdhPQh5R7xL/1q9zyGMvUnPij3lqZQ94EA2vXsJXb3mzxu9KmVoPcJNRT0o0o29qOx+vAhXpL3Ec5i8QETxOoiGRLzQm5W7uBdhPADjg7vVupc9jvQMPfSHyjy6aE49ADnbusN2EL026ji9MhsBPSfRgL3+uyk9EeSSPcA2ajwAACu7Ub+kPbgAYDz6YqC9A2aOPUDmvLpseo29WMtUPNzhhr1Yv2O9HEWgvPApEL30Ppi9wBnxOxgKar0AOzq8bmhXvcLuRT2wEyA93kkGPaWUpT15Aoc9Flt/vfC5tjwyr5u9MpuGvXhqNDygOQs9YAmgPBA98zwtw4E9Il5CPQAvlTrAKN+74FQgvGHJhT0nE6K9hsl1vYLyWT0IQR88ToqSvWvoVb3AB9y80tp0PSY5Bj3zKYo9BhB8PVi5IL3gM148DAPXPKSh4DzWsLm8iPUQvSNEqL3ynW49/NyLveoiVD2yFyE9RCuXPEhHID3Olji9kVGnPYA+p7vrbRy9G+ABvTN0CL2Qk6U8wCvVOxCpvTxwiLk8JxmXvZykoL3VlYc9sICfO+Bj8jyQA8y7lu98PU/apb3i/Hg9gDPuux69Uz1VdqY97CC6vJ9Pib2k1Zc8Q7JGvdg9TjxtRZ89XITkvICogDsoWHs8EaSBPWIMQD1m4M+8QqGAvTojqb2ECoy8o9hnvdTBmb248m28i5eFPa6RYT1U/p+9i1hOvasNpr1OnSy9hq5uPUZcAj0IuSM8Yxujvfi+CbyAlGA7MN9wvXtdnD1SXTA9SPlXvR1Gjj0kmqS94OMtPJAI4jtAlNa6YbWHPWwdvrw/RJi9mix+PQAcDTrCrVY9rOuUPKowQD2Qf1i9tm8wvbd+qb3w4Bk9lKumvQDD/rr4AiS9AC6iu3Y1X72W2kO9Rn3vvNudbb27nTC9UKWxvAj9Kjwcw+K8TrOGvWwP+Lwwero7WyVBvS7bFb1whNO7XM2pPCAtYr1gdU+8yaaRPWZ0f72sDJy9gG2APLp0BT1Q3uo71KymvBMeIr1ELJ69GOwbPbgpI7xhrZE915mbPYCGjrtokC48QLqiPIwZ3bx2Ad28THquPJ8Np71rKYW9JlYdPaP3LL1wxFy9hi8gvaMPgj2o/nU8orcsPRDSK70wbfU7LfqmPaYpS70ma189Oo9OPaAog71wkZe7AGguOSuFlz03DI49pFDNPMLSAD0Dg369wn5bPRiKdTw+4XC9AHxBO8ArBLz29Ws9Aio3Pa58TT3gjPe8+OVHvAIUXT0DbG697ESmPPdFob3gQZ28i+ELvTYeH72w0yI9rXiIPQDuU7vglbG8TK6fvECHlzu+sDq9dp37vGBEnLyIGEC84O8XPcZ6s7y43Ww8w36mPfxTpb3yJ5m9MGSGvd7KVL3hA4g9iFxHvYxkjryK90c9OPaKveCpYL2Sa3Y9/7ulvevAlr0Tcgi9AHmLOfNver382aa9QMJTvJgEXryMHdq8NiOXvbBekDzY2xC9sqFRPVIUUT2C6J696DFbvBYAQL3D3Ki9buGevdA/Iz1Ep5g85kFyve45I70oX4G9VJGhPJORVL35F4Q9Q0UevaZeMT3wkdo7PP/tPDlDnT39FYA9AEC6OhCEnztjAiW9igmHvYwC2TxA/NY8KCASvSxX9jzQo229a5inPTKSAj0cNMc8XmEavUf+nz0WJxG9vgAevTTcgb0FUY49OEJ3PFmmgz0DioW9MJ/du6YOIz0Q9gq9kuuJvUN4qT2oSE69EkpvPVbAHD3KrC49YJH1PMxspL0y6Tc9gJBVus0Hlj0qg1s96f+aPdgROr1AQ4O6oAocOyIZbz2PWpW96DdLvNvBVL04FE681o+yvBw8sLwIgnW8iHtOvNI+Xz1PnaU9AJ23PJAzEr1T8A294OH1PLAEcr0YFx09PGDVPECL67yiG2U90TaAPUx/8rzLTS69WxlfvVPTdb3YWQE8xqacvYnrjT3sJri87o5LvXBLurv8Y569E6M+vZIcpb1AVf48FHSSPGxe4zwUEPE8PnNVvcCEhzqSxoy9wo8yPaR2yTwMuuQ8OjFzPdzFkbwMnNy8DPD9PAC8Dzx4cCG99kiwvCmlnD3uuQW9QESSOpyckbw6PDI9krJIPSM0aL3QAsM7GNIUvXjYCD1Qkp07ycSKPU5CWD2HxaS9kppBPdC7iL1Cixo9u7qNvVAL37xMoPo8wKCyOy2gqj2TW6O9RPaIvGDn5ryg3TK9BjVzPRxPojxQ/qi8k3tbvaX8lT0AILe6m0ZnvZL9Zz2sJfW8pXWjPcoTpL1zuIS9sILgPFr8Bz0G5x69DL/rPCz2ibyiWgU9SKgIPWhoZTxAu2a9CmJIPQFEoT2+f3q9XL3cPL5ZKT11pZg9ikAHPVRSk70wOt283gMEveL/Tj0AkFm5oL4EvAAuBbqxsJQ9l8OavWQM2jw4liu9oO4JvKJFRT1IDw695qYGvehhSL02R9+82kFSPZM+Bb3uWQ+9loMNveFlmj1S9Xc9tceNPQABKDtuoBK9WD1evTdSgr30jYm8s3MFvUB0NTzH5I89xAuLPGyPgLwdA50915mGPbarC70HDJo9mCozPMclpT0rajS9gLsYvbKXWD2rrhG90Gr7u1AuqbvKkhk9KoZTPdETkT1w/dW8ACIdPJbBzbyAwDw6SCwbPY4CBb24qVo8xh1uvQBnmTqv9Ke9jCqCvO69Nr1+jjU9ImoGPbAx9Tz98YA93CuEvRhonr3gLO48/jQePYzFhDwGRhc9zTCgPYqyLT3ohFs8paaCPUD15jx1RZU9K3BuvdiuKzw8cp689EiXPAaQKL3rZJg9QABSvCCBbLsAdqs6GANfPBLkRD3mfVU9ON5LPNarvLwARwC8qi13PZ0slj3GMIa9N4KFPYAVRzpqco69yIMAvbb9b712l8u8zlN9PWOMoD0Aysw8vAKZvBMXML3wQdm7bjoOPUCWMDxeB3499CjFPLlOiT2kW6e9uFcgvUusR73cYLO8oBsoPU5oGD0Et6k80NqVPA/wnD1i0hQ9PMCLPDPYfL1UaZy9WrQ2PahpPjwgwzW7nEy0vNG1oz22ziO9OpmeveBbT7x6qGc9wAYnPeTy7DxiKWQ9eFMNvSqXcD2uEGM9fI2dvAhELrwwQ+M82iJ8PcOsRr3AD4E8glI1PQi8D70DHJk91iNzve7EcD2TQRm9ms81PZDFiTu2lUm9xjsRPSSaszwDYji9Nz6cveBXljzsOYg8bhJnvQA1xbrm8W+9hkwivUDkjzouoYa9QgFcPaieazx0lvc8AOAsvWZgnL3y7i09qq1cPcBbxrzfqZ69w/wGvX7XmL1oFkS8IAHXvEoxXT3kAaC9I2k2vbrabz3z92i9sPoJvfOWpz307IY8UI+euy7YH73giJ68fG2jvPgwUTyUdaq8MAGmvaZ42rzm+U697FbtvAPdLL1gJuA8dCOUPP6uHD2jgTi9II9Cu7vEl72kers8gmU4PYPDQb1QDpe7AKBOvHB9mb3IMHS8fM23vLjLBjySHlc96zCoPe9air1wEuK8ADtTPLCHJL1YCj+8FuTovBMsI71Mz529s2SGvX8Rmb2W+4G9pg0zPQBcpbpW6nA9cGFlvaotND34tHK8qVifPTjvADz28g696QaLPfiJYr2gCYC8aFtrvZCch702yZi97HebvKPNeL3YtFU8OH1/PCENhj0T6169kCraO/GChT1gsiQ7IPd2PCldlz2CEG49lppzPfCO4DwCAZW93IWvvFLRnb0LIyG919ilvbj9LDwLXTW92JcNPezh2jxucBc9jrRovYYDNL0g5AC8fMiJvDDHgbxisFw9WENnveqhTj0AiOS7DmwhvY7Ghb24cRY896GpvSw/5TyK+kQ90H2jPJOgfr2wopw7cNTHO/5bQ70Oan+9wJ2eu7DPsDvFTY89euIqPYZ0k73WQCG9qxwdvXhxUL3QbNa8AAoZOgIfYj3yvQU9dxqqPaFdoj1FLI09P+yQvVpDGz0ed3+9wLCIugqbQD3BX4o94DB/O3RV6zxNMZQ9VeyEPQiPOjzNY5s94m1IPYiPC71+DBK9ALzrvCg8Irx2Ppa9NPPIPB78Jz0Oo069OJajvSBXPzzAL1q9BHWevFinRLxmnQ89NLLrPJB75bwbIIq9DMm2PAPlkb0AlCk9AI/LOVDptLscAOq8T+aPvS3ppD02vtq8AoqdvTiyWjwANa67IUOdPWIzmL1Adtu6Rg4qPag7Zr3Aus66MDbNuwpkbD3SIWY9eosnPQ45Sr0uWVq9cBYfPWhIOjyOoyu9dnNlvTj4ULy9KJc9DqwPvcDjsLsS6zs99oSxvGolWj0QoKW7PtsgvelekT0ckbi8qiByPeR+xzzADe87aZegPdPSHr3GH2G9TGvOPJtqbb27yha9mIV+vYplMT1ehFk9kIsoPZwe+jycuYm8lEeRvSj1CLz+eVs9+iksPYNKpj0CLC09ph4ZvSCH5TyESYO8GxCoPSYNpb0abqK9AcCJPSqRQD0o3zi8IwCFvWIgYD3gQ5697AyJPOyxjbz61gU96isTPZK5mr1Ytye8zRuGPYAwrLtoPyM8SCVvPGK2eD0W9Uc9QHmxPBacor1s+uk8WpUhPWRJyTxg9d88kEo9verdIT1ECqC94EEfO+rvWT2EUIW80W2hPQtDpb3KeVE9fNifvaGdgT3WOSU9wbOLPaZhy7x431O92x2XvaDMtDycifK8eZikPXqjXj1WoTS9iGV0vAD0ljywJaY7qgCJvcCk/jw7CYA9iEwOvCrfVj3A21G9cNUGPX/uhj2D6U+9c/umPYkKoj2gpse8dFWKva1hlT0AlZq5IGfxPE9tkL3qHUI9gBESvEjxBb1Atii9tiO1vKrrob1AkAm86JwZPQBCCDldFKc91VGJPY5WWj2eeH89MASIvJdanL2QdIW7qHtZveaXf72Qj9w8GPMVvS4oOb2EAb480Ly1O1ANYr3jMWC9vl5XvXGKhz0zRzi9QOniui6eSz3nUYe9z+CXPa5WV73YpIW9vHytvOSSmbwOkEM9vIyBPICrCbpS7389GlByPZDw+TvXfaA9G9dnvUjmDbxDtaU9sGGKu87YEz0qKJi9g8kavYQimb2Ke209BGuPPGhmPryToEq9CJFZPNy07Txy2n099lQFvW0Uoj3mv3E9IykovQ6uLb2+vio9AGmQutBVCD0CWzQ9oF5bO8C2cLwgLIM8VryUvcCLjLpGIgu9B9CEvQiMir0P0Ka9vyeHPQD2a71irj896GYPvVhMEL2YrC08wGTZPGWqpT1wneu8LFWOvABl9jv4VAG8QBmiuzAFsDx3Cqo92hNlPWALcL1gM7W8ciRcPRb06rzI13e8aLchPM68F71IIEk8kAETPegURzy6BUo9hcaePSJ6KD1ULIw8yP+dvczZiLzb0IW9zqUJvUBeMrzK02E9gtggPSpZgb2I90688BnwO1CGljvXfaU9EPbNvOKmaT2AxhO75aiNPex26DxEzPo8oORvu9Oio72Fb6g99DqnvXhPeDw4Xy88C2eCvWNoL72yhaG92oxvPdn7kT0AORo9gnRTPQA0Hb2JhYA9AB/pu+5rqL2W5hk9tko3vfhLKrxYjU+9a8WePaxH0jyAY/u8DB6jvZtMSL3IWWY8ggd+PYMPUr3kMaU8bcCNPZCDAL1DaZ89AogtPQgqeL1KooG9dimKvRhoeLwuPae9tlbTvEz5srwkQ7k885qcPfQ1jb1QCOQ8yw6nvX6mJz3wYoc7fBuzPE7ORb3w08q8Vo7nvDrxfj3ATOs7hGCXvQIBLT3QOoC8392YPa0vkj2Q+tc7QP6pvRAA0jvWHxY9aEJpPCTVpbwIJ1S8uzwevWjgJb0qgE89MOOBvW0tkz0V3J09eLVmPPD+i7xgfBK9lcqdPUA467wAEHI5qFhRPIAdKjxAUQc88FHlO1QOmzy8E+68BlhhvbqGfT2A24o8gPp7unZ4bL1ih5y9wBMhvcy9nrxs49y8QzicvXSu6zwgtMw8am1EPcxvn7wCRH091BamvGD9hTzUPes8YLlfvShhAz0u/IW9GPeAvXixQDz+LWe9uEcjvcEZpz2TOxW9lu+evSdnqT3mSyC9uEERPaA8L7xwXIq9APyNunNeSr0wAoq9tUGIPTSS1zzG3kM9AohSPfToljw4LEa8iM0ovAgvHzwZGp49mmg6PS2yoz1cYvk8VIGZvcyi0Dyc78U8zAe9POBLBDyARcK8HC3+PB7yKr2wj448frKovWp6VD3iqZm9ZGaqvfCNvTvfEoq9qWCNPfYBSz2eTwE9npIqPezmpzwdD4U9y92HvYAmy7xBVKQ9QoB2PWgnJL1mcSS95O37PBvjab0z/II9HjiqvbNFSL1aOT495OqhPAYkrLx0WKg8FJ/nPADu+bzK4SE98E+6O/hEEL1Y3Vq92DV+vXiIWjx0wYu9pAq9PCPgl70yA3M9AKjvvAL/Wz0IJS+9kIKrPICa9jv0c569MsRrPeAZ3bxLh3i995SjvYkvlT0gDsm88O4BPWcJjz2KBVY9AGoJuxz1z7yUhZRSlEsAKEsgSxBLA0sDdJQoS5BLCUsDSwF0lIloAilSlHSUUpSMCmNvbnYyLmJpYXOUaAcoaApCfQEAAIACigps/JxG+SBqqFAZLoACTekDLoACfXEAKFgQAAAAcHJvdG9jb2xfdmVyc2lvbnEBTekDWA0AAABsaXR0bGVfZW5kaWFucQKIWAoAAAB0eXBlX3NpemVzcQN9cQQoWAUAAABzaG9ydHEFSwJYAwAAAGludHEGSwRYBAAAAGxvbmdxB0sEdXUugAIoWAcAAABzdG9yYWdlcQBjdG9yY2gKRmxvYXRTdG9yYWdlCnEBWA8AAAAxNDAzNzMyMzMyNTcyNDhxAlgDAAAAY3B1cQNLIE50cQRRLoACXXEAWA8AAAAxNDAzNzMyMzMyNTcyNDhxAWEuIAAAAAAAAACr2og95LScvXC2e722uFA9OJozvXiESzwAaQ28qzUjvaxZ3zy3D4W9UHkOvaBNMzy4TSe8sI2PPPNBEr3AibS88WWdPeB+Srw4rmC8zggbvSKlcD2CmZC9VslkPc52Z72B9p09WK03PPNsoL1nyIG93XSmPYa/TT3sMq68xkdOvZSFlFKUSwBLIIWUSwGFlIloAilSlHSUUpSMCmJuMi53ZWlnaHSUaAcoaApCfQEAAIACigps/JxG+SBqqFAZLoACTekDLoACfXEAKFgQAAAAcHJvdG9jb2xfdmVyc2lvbnEBTekDWA0AAABsaXR0bGVfZW5kaWFucQKIWAoAAAB0eXBlX3NpemVzcQN9cQQoWAUAAABzaG9ydHEFSwJYAwAAAGludHEGSwRYBAAAAGxvbmdxB0sEdXUugAIoWAcAAABzdG9yYWdlcQBjdG9yY2gKRmxvYXRTdG9yYWdlCnEBWA8AAAAxNDAzNzMyMzMyNTkxMDRxAlgDAAAAY3B1cQNLIE50cQRRLoACXXEAWA8AAAAxNDAzNzMyMzMyNTkxMDRxAWEuIAAAAAAAAAAAAIA/AACAPwAAgD8AAIA/AACAPwAAgD8AAIA/AACAPwAAgD8AAIA/AACAPwAAgD8AAIA/AACAPwAAgD8AAIA/AACAPwAAgD8AAIA/AACAPwAAgD8AAIA/AACAPwAAgD8AAIA/AACAPwAAgD8AAIA/AACAPwAAgD8AAIA/AACAP5SFlFKUSwBLIIWUSwGFlIloAilSlHSUUpSMCGJuMi5iaWFzlGgHKGgKQn0BAACAAooKbPycRvkgaqhQGS6AAk3pAy6AAn1xAChYEAAAAHByb3RvY29sX3ZlcnNpb25xAU3pA1gNAAAAbGl0dGxlX2VuZGlhbnECiFgKAAAAdHlwZV9zaXplc3EDfXEEKFgFAAAAc2hvcnRxBUsCWAMAAABpbnRxBksEWAQAAABsb25ncQdLBHV1LoACKFgHAAAAc3RvcmFnZXEAY3RvcmNoCkZsb2F0U3RvcmFnZQpxAVgPAAAAMTQwMzczMjMzMjU5Mzc2cQJYAwAAAGNwdXEDSyBOdHEEUS6AAl1xAFgPAAAAMTQwMzczMjMzMjU5Mzc2cQFhLiAAAAAAAAAAAAAAAAAAAAAAAAAAAAAAAAAAAAAAAAAAAAAAAAAAAAAAAAAAAAAAAAAAAAAAAAAAAAAAAAAAAAAAAAAAAAAAAAAAAAAAAAAAAAAAAAAAAAAAAAAAAAAAAAAAAAAAAAAAAAAAAAAAAAAAAAAAAAAAAAAAAAAAAAAAAAAAAAAAAACUhZRSlEsASyCFlEsBhZSJaAIpUpR0lFKUjBBibjIucnVubmluZ19tZWFulGgHKGgKQn0BAACAAooKbPycRvkgaqhQGS6AAk3pAy6AAn1xAChYEAAAAHByb3RvY29sX3ZlcnNpb25xAU3pA1gNAAAAbGl0dGxlX2VuZGlhbnECiFgKAAAAdHlwZV9zaXplc3EDfXEEKFgFAAAAc2hvcnRxBUsCWAMAAABpbnRxBksEWAQAAABsb25ncQdLBHV1LoACKFgHAAAAc3RvcmFnZXEAY3RvcmNoCkZsb2F0U3RvcmFnZQpxAVgPAAAAMTQwMzczMjMzMjYyMTQ0cQJYAwAAAGNwdXEDSyBOdHEEUS6AAl1xAFgPAAAAMTQwMzczMjMzMjYyMTQ0cQFhLiAAAAAAAAAAAAAAAAAAAAAAAAAAAAAAAAAAAAAAAAAAAAAAAAAAAAAAAAAAAAAAAAAAAAAAAAAAAAAAAAAAAAAAAAAAAAAAAAAAAAAAAAAAAAAAAAAAAAAAAAAAAAAAAAAAAAAAAAAAAAAAAAAAAAAAAAAAAAAAAAAAAAAAAAAAAAAAAAAAAACUhZRSlEsASyCFlEsBhZSJaAIpUpR0lFKUjA9ibjIucnVubmluZ192YXKUaAcoaApCfQEAAIACigps/JxG+SBqqFAZLoACTekDLoACfXEAKFgQAAAAcHJvdG9jb2xfdmVyc2lvbnEBTekDWA0AAABsaXR0bGVfZW5kaWFucQKIWAoAAAB0eXBlX3NpemVzcQN9cQQoWAUAAABzaG9ydHEFSwJYAwAAAGludHEGSwRYBAAAAGxvbmdxB0sEdXUugAIoWAcAAABzdG9yYWdlcQBjdG9yY2gKRmxvYXRTdG9yYWdlCnEBWA8AAAAxNDAzNzMyMzMyNjI5NzZxAlgDAAAAY3B1cQNLIE50cQRRLoACXXEAWA8AAAAxNDAzNzMyMzMyNjI5NzZxAWEuIAAAAAAAAAAAAIA/AACAPwAAgD8AAIA/AACAPwAAgD8AAIA/AACAPwAAgD8AAIA/AACAPwAAgD8AAIA/AACAPwAAgD8AAIA/AACAPwAAgD8AAIA/AACAPwAAgD8AAIA/AACAPwAAgD8AAIA/AACAPwAAgD8AAIA/AACAPwAAgD8AAIA/AACAP5SFlFKUSwBLIIWUSwGFlIloAilSlHSUUpSMF2JuMi5udW1fYmF0Y2hlc190cmFja2VklGgHKGgKQgQBAACAAooKbPycRvkgaqhQGS6AAk3pAy6AAn1xAChYEAAAAHByb3RvY29sX3ZlcnNpb25xAU3pA1gNAAAAbGl0dGxlX2VuZGlhbnECiFgKAAAAdHlwZV9zaXplc3EDfXEEKFgFAAAAc2hvcnRxBUsCWAMAAABpbnRxBksEWAQAAABsb25ncQdLBHV1LoACKFgHAAAAc3RvcmFnZXEAY3RvcmNoCkxvbmdTdG9yYWdlCnEBWA8AAAAxNDAzNzMyMzMyNjMyNjRxAlgDAAAAY3B1cQNLAU50cQRRLoACXXEAWA8AAAAxNDAzNzMyMzMyNjMyNjRxAWEuAQAAAAAAAAAAAAAAAAAAAJSFlFKUSwApKYloAilSlHSUUpSMCmZjMS53ZWlnaHSUaAcoaApC/mAAAIACigps/JxG+SBqqFAZLoACTekDLoACfXEAKFgQAAAAcHJvdG9jb2xfdmVyc2lvbnEBTekDWA0AAABsaXR0bGVfZW5kaWFucQKIWAoAAAB0eXBlX3NpemVzcQN9cQQoWAUAAABzaG9ydHEFSwJYAwAAAGludHEGSwRYBAAAAGxvbmdxB0sEdXUugAIoWAcAAABzdG9yYWdlcQBjdG9yY2gKRmxvYXRTdG9yYWdlCnEBWA8AAAAxNDAzNzMyMzMyNjM4ODhxAlgDAAAAY3B1cQNNABhOdHEEUS6AAl1xAFgPAAAAMTQwMzczMjMzMjYzODg4cQFhLgAYAAAAAAAALNKSPcTtU72rZ4i9bDG4vDhrkzxkFJM8kFN9PdQAVL2iS1S9rIBqvT+Hjr3w/6A73PRsPQixRzx247m8YAibuxZvmLwmA2S91LlzPV5ZH718A8Y8OgwAvXCY3ztAWE09+sZLPRgMdb1W5Zm8qHxQPeomjT3k5iM9Q9MSvcwFpLzQjGc9CFVDPSINOr1Jk4+9GCM/vUZBRz2Q0uE7VBdrPXytvbyTRUO99puHvO7CFz32K0C9tl8UPUAtEjtUPL68Xx0XvZA9Pz03Rmi9yKV1vGDWWT1wLso7Fpg9vczwLL0zYh69Vy6TvWZSPr1fQWi9cDiZO06iKb0gEVY9U4OKvVgZgj0EyYk9QCPDu1S1hz1QnJc8iP0lvYRA+LzAJSI9uB49PQagOT3AH1A9hNv5PDwOszxfgwS9WAEmvL6Djr12eKu8+MFaPfyhK7ygUnc98A8IPdSUtzwj70a9qdUFvQkKar22Xp28HDaRPP5GH73adTS97gI+PRKM17yAIe+7mtQQPSjBIL0MMRS9TK3cPOhidTwYGpA94H/NOw7vHL0mZMW8sKKiO6B9YLuAIci60IfsPIxiwTyAg2k8GioxPYGIgL32GIk97pbVvOjiFjxgY5q8oLuXu+DZ77tE32U9MBBgPOaGOD34mz28w9KFvVhVILw8p1a90PKDPIBQ8LqvDni9UB4oPaD9Zry492k8uD02vODwDb1o0Uk9AJwtuqgt77x0e4g8YjrkvJwk+zzo9P48QGZwPFK2Ob1Aba880I70vNBUvrtMQJI9PtujvB+1Hb0gyXi7UCXYu6B0GLsUm5M94GO9O9zhI704R2C9GGsTPWB247uA/nC7zngNveID0rzKVNa8s/gIvZJL2rwaNIY9aI0zPKiWiz0EOJC8eLFvPQ/Uir3fVBa9SMV+vZB0HTx27Ce9imB3vf9IFr3E20e8ACinueI1Fz3IYmQ9B40avdrh97wwCNU8oAQLO8g6TryIMom9fJIpPSp7VT2s8rK81Ow3PSxVWj0ipUM9n0NIvay1t7x2PkQ9DhUmPXQxUz0oQtq8sIdQvWqhTz2g4Ga7oXiBvfZ6GT1kDJE8Lj2PvbB5Mr1gXTc72BslPDy6vTzIygI90qwbvYxfrLyARtu6LJ91PRrMCD0gSvG8qJkCPVzkEj3yocq8OKgTPb+BHL1uvV+9q+iDvaB1qjx6mZM9AJwRuWDlubzwPWM92LUZvIAu7zy4xC092kGHvUlFNb32h6u8aFUyPaJ3IL141AU84MviPBCwzTsg62g7VWmGvbpAMD1QREk8C0mPvWxbST00CJI93EvbvFAJaD3UOuA8xJx3PXz3hT2E51c9JAHSvMgn2DwAuUS6T44nvYByLb34oXO9TGN5PWrCKT2Oi4s9gIpnu/x0K7wAjKK4QH8cuxAVcz2CQ2S9wJj/O9RTbj2YdIW8YLsQvPHegb1SzIW9QHtfPMDfKbwA4Zg7APlxPAS08byPGpK9ak6EvBhx0Ty+7Ay9lr4FvSDycj1NP4W9WHOAvIA54bsWWOi8CDaSvCBo3jtQd507riZIvbRyP73o0o+8ruT4vDgbgD3uqyo9duUZvaT68zzg/0o9eq4gPcoYgbzoCKk8wG8DPeHbML3OdY28y5GQvShfY72Uunc9jlJyvQB9XLpAlYq6oW5zvTAtkjw3HQ+9gCIOvVAmeDzED0Q9UpGIvIiMm7zA9hk7wVBSvaTeZD1MVwg9rSF7veTsXj3j4lS9DvStvH6kaL0KKlY9mO+jvHRjtDwUE6A8HOSDvFJReL3uWYC98KT6vMz/OD1CB049QCdzPUIqgT1fyWi9mlZfvcR6OT3Q/IS8Pm6EPbYtVD1QmKc8/IxNvXCVczx8hzy9CqzrvCu1R71soqM84CqcPMLsg71K3N+8wEYUvFx/eT3gAUM7DINZPdgWmTyAyRo9AEMnuxBDWb2qGMa8Ln/+vBiofz2WM8u8BhcRPYOlGL1ACGw9j+06vaizXD36wII9CA5sPJY4nrx+wgQ96LZxPAhzej2wVeY87FnAPMjaSTzED349TOHVvD9oiL2oaCY8Rvo8PXPaab0TaoS9rFqNvWjV5rzUqds86iAQvdHSc71cH029ZvomPWCCnjyYwny9kKkDvXRu/rz0Ti69Nx4QvbCyKDy1L4i9EIWYvNBTaj0oMqc8R/oHvdkZTb22hUs9epzbvBQMbj0Q9/C84isbvQpUCj2T2Vy9nO5iPfC8qzsQVO28jBd/PaKbUD14WZ880KqaPEbnubxd7Ga9gJuNvDDenzyvC3S9YMzwPNoVSj3ot7I8vpaCPdr9Y71YYzw8iHYuPA0Mkb3GV229oCGOPGJr+rywy/M7dNSBvYg71Lyw+HI9KPnKPGQKWbwQltK8LAEGPSBw2rze0ea8cJaHvTDGG7xYvo09mA6EvbiEzbyKyyo9ENulO6AnLbvNDJC9oPvqO6ZnH72wWJm7+IKcPMYi67zgXIi95C1oPewB4DzkNXs95tBCvQCD1ToWUAE93APmvNAwKzyEyoq89/qJvfY3iz1wc/68ZpSCvK6rAL0gv209oAr0O65sG73kMn69YBfzPBBoRjy2rWS95H42PbDlOz3k+888AH2+usBxtzutSha9XDQuPSUzUb2eCCc94CP5u8jdFDyIbOm85WRmvYCmhzp7S3C9gIlDOnRg/bzwtD29iKovvaKrmbzYSEg9ILaAPXBIsDuo8DU8VkYkvbNyBr3keVg9nphsvRengL3C73O9VkVOPeCxFzs0iYs9DN9lvYhtPDygt1W8isCLPWDL7jtomj+91UlQvSA7BDz8fIk9NqkSPRxqar2Kh1W9DMFePbLfUz1YEWA9ekCKvT9oML1UT229QDd1PXTBYD3ASGS7GtLHvNWriL0o71495PbDPCSdKr18YI09fJxqvFy3wryU1jI9GKuDPRLSPL3O3Ti90V+MvZ7sDr32PFI98s4CPd4dbb3QEMW8voZRPeBVqbyOokM9pNBqPYlcRr0gECO8DM3lvOAkATz2B+a8foNPPfT4uLxAMOQ7IKeHPYTP3ryOzBY9AN2JvYR4rDwQ6Ym7OIJlPUBZK73CMGK9YHyeuzRIGD0Ianc90JOtPAATPDzttiy97A2SvFBSXDwA8Cg9L5AhvX98jr0EkXw9tkaOPZR1h704X3Y8QKOtu7KWhLww2ss8mAr7PCrgGj2icYG9unFGPcRIbz0ote48YBnBO3AvCTw889W84Is+vegBRT3YEwg9tVyFvfhiET1aaoQ92kfWvEz3wrwiTZA9bgsMvZzsPbz4TM28TJoKvSjDcD1GDAA9QjbwvHhnkT00bHA96pROPaQzTb0Ml0m9MBUCvBb8ND0APIo96sgevZrzjL3a84A9iM1YvQATSr0Y3cY8Iq2KPXD16zusuJE8yPyfPACkCjpge5e7QBLCunrHnLwwcKC74AAzvO51jLwgHHQ8eGJ6vDBCMDwarlI9tI91PaZ0Rz0gMla7MId9PYDLYz3uJsa8onmlvMCWFTws3jo9AO9NOqAC9bxA98Q8DrM1PaLzjz1KZoA9MsJIPfW3cL24FQw8DAsgvKrnKL3wXT+9DFUFveAbpbvGMIW8XCmPPUw1hTwwl0K9HlMsPQhcXLygeU28dforvS82hL0e6IK86C0FvIsZar11X1K9LlQEPYDbEzt6LUu9YJnKO3w9MT2A3Di81s8svfT18DyEw3O8iDH0PGCFUry82WE9TkUsPeQ2dz3EutE8CDk4PEQFFT1AX6+6QBN1u75uUT0IzFy9phxLPVgE1jwgn8Q7KFCMvQgFBLyEIOI8kpdevSj1bbz0CIw96E2CvICZkztIUEI9UPrsuzI6w7wEVdC8CTqBvSTsQr0g+6w7pANZvNdMR73SccS8BLs8vMhsDj2reyC9BtoFPfcjLb1IFDk8lFPCPGwFdz1KnIQ9lHzKPLSGj71AWuS7SECPvDDx7jvA6h89fOQmPbKMM732XV29SBsPPcC3Hjz8vci8WJxlvfDMgTwEopS8yFOWPHAr1TvYRkM8TKVmvXTSzDxueS29E0V8vRTJWT0EjDI9WJx+veLtKb1YZHI9/JKNPeRCQD1oCm09lkKBvZUGLL3UrVo9nOaRPQO1G702Moy9wAJcPTuFLr32eYU9DLPCPKLrdL1IERy8AB0HuiBUfTsM43Q9AM1nup67PL1ESG29WIOdPKyXb7z2vI49qkYwPfBAn7sM+2c9jEvmPJK6VL0A8e48WV0ivdAjaj1M2om8qCPIPLjFhjzZNA296hKFvTcjIL2YKjS8PN+SPdifNz1YZmK9QDR0PIa1GT1EXmQ9zCGDvPoYEj38xGQ9IBWjO2wvBT04N2492bZ7vd9mKb3ETbg8wBc7PWoed70QG2Y84LeoO/iLe71Yv4U9svOPvagWELzwoP48EFGYu8mcL72edoY9+PWLvS5Rhz3prwq9fKgWPbQUHz2ocIM97mayvMyQ9DwANNQ5NKIEPWA/ab1gQTw8QL6APcpWeb3cxHc94HPWu6Kakj2Y3V49FvqXvD6NQT3Yfqw8LHFLvbzZRD2Eaey8bAM+vPcrXr1gUfE8IEGqO9B83zscXWg9nHXAPMBKxLsQuQY8JGGQPMxMRbzQaUE8/yoBvdA2qLtgnnw9wKPuutvmUr20pK+8gMbHvBKtET2AyXI8gA3bPDT5njwYC7K89NDwPMDaWTsQtx489KFSvNjC1rzguQ28iLY+PAAGP7ok3AQ97LM5vLDB1juA5/Y655chvXMDj73USRm93lQRPbQlbL2CkCw9KCO6vIBjkD2gSL08ona0vPR7ab3cu4084HeMPGCA4DzSFH29+OdaPUDQhLviWWm9sW0DvWJhkz0McUs9h6cEvVDn8bvAlKi6IKhSO/Hfh71wTEQ87HgsvQ4HiT12W4O9hBNhPbAy7TvgZiE9wMnxOq5yED0weTM8QEJOuximw7wIYUo8vdCPvQAHD7oM6FM98EYevMBHLDt6hIC9WhRmvXwtxrz41+i86AKavCwls7wgwog9qCxvPVh1xjzQqkQ9W6oZvfBXHTwYWgK8bkUsPVwjPL1/aTW9vppMPfQsdj0IODk8dL+hvLjgWD2ARro8d5IhvRY1nrzKyGS9+FaOPYGHb70ugpI9ADrRutvvdL1axlQ9WCJePZj/jrwnCR69Li+BvG7wKT0slBq9AOfqPByGS7xIHwQ8+rAovcBlzrrZ71u9Xq6IvRWWFb2OXzI9agCAvYJrjrxhoxS9fPiGvOn9Db34qT+8MpYFvT4wgr1HZGK9wOakOmDwzDtgxpg7yDjhPMDCYTwAtOm6rMjOPDAjL7xKQ3O9LpehvMBr1TxsplS9tpNNPVrmwLyA6Lw8AkZgvVoW27wml4680eKIvcwnwjwAj2070AniuzEDE71U4Vm9vMtMvPBJ3TzLUoC9wM4WvDqGcL3kjZg8Gqkxvf3ygL3404Y8XjxDPRWPfL2qXlE9BouOvMb+O72HJ4+9QJYou8DSir1gkWg9xKyEPdefiL11DG69/2d9vVDNnDzuLks9BBwpvYDS0jtgbCA9OOs0vbSSsDw4LHs8kuwvvdShaj2GBho9OKhMPIYvhz1m6S89KF8zPTw2Hz2kCY88QCw4uwY8Iz0IIRo9/jGNPTrIFT34m449kkIzvYBoLLpQtGA9sKO5PMV6P70kYu287lAyvWDI4zvU17c8iDIZPGB10jwoB9E8KyyHvWLXij20Po08qmHLvMpKDz1Pb1O9+JgNPdA78jyKoOW8Ur8KPciLDLwkw6+83F4/PTA/VrxhfQ+9WM0svcDkcLsY4jI9KgoFvbyeZb0cp3S9/R1avbC57LsH2Eq9ZB2dPEjryzwwtIk9Mh0HPT61LD2A81M8rA7zPJSXbr2EaVU9aMPDPB5Kgb1h6Q69soOHvbaJUL2coj89GlkHPSDHkD0uPIc9RH+KPZKZkb2wr2E80BsovRgnkzyW0Yq90JN8PaLEJj3gfPc7pGw1PbSGkj1wVdW7HJ5AvB7NjT16FgW9QBapu2A7CzyA7Wk8sHSNPbn5f714lG+9qloyPSwjXbxUA6c8fkSavBDfn7zU97s8wrwMPcRb0bw8L5C9thEcvdgmoTz0Ndw8cMkgPZiVPD2m9oA9wi0fPUJhkbxA4ui7uiJYPZy5WD0Q3XQ9EjAMPcDJuLrwhLY8nPKTPEaitLw4pYa8Gc2Ivd5gM70B6Bm9sM0NvGNriL06/IC9IzcwvV5BmbwI8Oo8buijvEAoGbugeea8oBQjvNYkiD1u3w894KmFPWJyHb1UFKo8BleFPXSmTrwguFK9TC8fPch2Gjx+IoA9eozFvPQBej2iH5E9eA8NvCrBID2oktw8xJTsPIjPfL1svWE9wHYmPFheVzxVbje9ry0+vZAIhjtwW888MLUAPBi4bz1riHG9gqVUvcCUjDvc6R69Ttc3PRAQQbxgxdc8jkn4vH7/p7xXI429knWnvHkPP71Aa8w8yOVCPAj/VL2uMoa9QOIyvQCQ+DvUTVW8qtGTvICWoTtrD3O9AKdPu87ukLw6ONS85ANbPXyTaT0AKOO7Ss+XvCH5G73IZh89iO5NPbNmgb3gZ+Y8GBRjPZiR3byKtJE9RJ88PXgFJr2oYAw9KH5aPcYaMb2gMUo9+UohvTCdMTwGXIE9TFmIPWonhr0o4TM8In6MPeiDNDxi3QY9nvyNPZaoiD0fz0W9anZqvUS5gT3UjAs9cJ5wvMATXrwPQzi95ryFvWw1Iz2i7qK81+aPvcL/Sb1opkm8UlESPf4RKb3wf5S7AOcSvbtbib1suNo8ZGgxvQANe7owaQ28zOZ9PRKpgb2IoYW9WvqEPZiKDj2IWZK9nsfEvDbYwLzSqAU93GL7PLCFX701pkC9QDESvDZwgT3uHu+8ABOVOdSmjj2M5fU83KrovKB6/TsgGuS8oGO0O7xmYj1IDDI9qHsWvHqDm7wgNeY7mhOSPRL9Qr2cklg95pYcPf/1kr0Mg0M9fkeGvGikKTwocD08FIQzPWB+RTsKTIC9IMIIPEhMkrzwZUY9lsxHPXg7trzBEEy9wuUBPV7otbzYlxy8XHlVPZ8Mgb0+SYy9vogTPSCFVT3Kdgs9lgaxvDAIqrtkgW89PgNRvZIbubzy/VE96Ky9PIBq2jz8u009WFBtPGS8Vz1Aiwq8gBD6ul1ZTL0QFwc8snrWvEA5VTzUN7k8PlyCvWA6nztSA4Q9DJPsPAj03Dyo31I9SE5APMiLjD2ien29pok3vcA3Uj0iJY69rOTBPDxZWz2yL449+ORBvI4HHT0IxoG87iuVvBKjUb30T4Y9yNY5PRo+k7xk5rY8cvA9vUIEgLzwo4+9cFtPPQCpLD3cYV89rFVlvAAmJzlsc1e8QNjVOsBUZ7sq2y29GNnpPGiBaz0cZK08pHA+vFTuWbywqjM8wNTNOgiSgDxkhcc8xOUsveDPbrsZb1q9DCeQPZFeCr24R/s8aTCDvSZQkr3WS4A9IHaKPRx+MbyiOhc959ONvZY3er0KZtS8wDs8PHSyLL3sjT69sEyJPYLMS70sjH+9KIvYPLQje73I9xS8vEgGPYAGSLxQowI8MGNYPXyxLLwcyzg9YHm8uzCipLwYIjk8fRpAvf5IqLzmkyy9yygJveg62zxAZ328bvIEvdBL7TuUmXI9GFwkvCOqcL1Ayyg9gHE/OhKOgr2SEDE9cnOqvA6ZQ71YoZK9pNMpPXjuBz0SA4W9QOj8umhVqrywhsa7yNhtPeU6Ib2OQQc9WL+lPBVTIb2i7W69NkMdPTCyWD3sCIo8wKtCPZ3Ybr0AJyM7+PZ+vKppwryA2PI6WFEiPGwhxTwYH2U9auwFPQyoPz2VGka9YONIu9h6NjweqDw91LAqPU4lhj18XC89oIvCvCuXJ73ca1C84NpBu+zoRL0wtr+7LIqDvGD3K71E8QI9DLBovFw6Jb0MMG+9nsGSPdj+3Lzi/BQ9ELPmux3KEr2Nbgm9OgwGPQxuWD2AWyg8LJq0vIRwyjyAlee7Vgj7vJj0hzy82GU9GAtHPQQiOry4dXQ9ILQ9vaAuwjv2F+m8iM8iPZiMILyOHok9HPTkvDBLpjuuXES9LuMjPZq+Sz1oBOk8zGf+vOixaD3wqzg8kAhSvAD1CL3wFY27gHfhuhALJ73EUls9TQYFvd6yEb2Yc4w9DtssPRjciz38KE09PJucvIMVbL3/F369DHuzvLiuFD3IppS8wMAsPH4viT3Qj4m75WKSvU8ybr2TT3C9juMdPQUFir0wR8Y8+HG1PNLRLj2MQow9srqmvDw7jb3RZIu90FGUPPDgiD1ASGC84HlSPSD1lbsIVUi9lm5cvbEDh71c04Y9LExaPWaTkrxH0ne9Yp/DvAjhTrzmlIy9FhkYvbDRGD1wUYA91B77PNRIhz2IOGM8zvsAPaT3ET0E/Bu9sShHvb5KS729vRO9RpYjvZBN/bx8Blw9guFGvST+IT1obQM8dhkePXC0Xj1Yn/W87Y8NvYChdLt2cU298Cb7u7D+hTtKJo+9L+dXvaBq1jsiV089fDSDPLgwKz36kfq8ZJR+PaTgNr2gFJs73EL7vHAUBDy9ZQe9wJRkvfQ8ZL08h2U91hscPS54Dz00hmU9h1knvewr7TzuAIW9ABK7OSC8YD0Al9k7KCM9vJArzzzA4fS6QCP8u7DltrvWOEo9iMhLPdDAHr3+Wla9zkUmPXpxwLxAOto6u/6BvYho37yYsgm8gMk7urOwZ70IHVs9wOC9O5Tkrzy7hQG9OLuiPJZr5LymYF+9uPgfPLB4ibvQU7E8mke8vM+WG72k6oM9QKgmPFCCA7waUju9MPLHO8hpS70MSf488qaRPRj3b71g9SQ7YB1jO1KwS71W6kc9kAOPu8xJbj0W9CW9PukiPby6Tz3p4nK9GIPAPH3Zi72K3i49qJJmPQSBrzx3Xw+9Q00EvZPygr0wFuG8vDyoPCruVr1YwVQ8sCzDvFM5Kr1Aiek7gI+jPLT1jD2Y6oc8YNGrO7wRkTxkgRE9dGSOvR9ZWL3UOD68zgh9vYh4iTzAe1s7ew4QvUA3JTuIxSk98lwBvXAFI7yOaZA9bkkDPZevKb2YlYM9jOhwvdoyWr1Q9TM86JI9PHQkZj0+kI699h2KvFJA+ryGwYA9DKR5PdirLj24Kye9AITDuAzSjD082Xk9OQIBvTqK1rykIEW9QDsDO1BPmry4vtc8WK6DPBgCErwJGYO95uWjvAxNfb3kFDM9bLIKPZhnaDwkpVG8gK0WOmO2j70gPtE8QD4rPS7ygLwQqSo8fGpmvWyYYT1WOl+9wEThu7AGgT20HSc90PVpPYDgYr3IaI49nEiFvSBVmbzYn1+9/deNvYyULz0C+Y28pd9pvRz8Fb13pI29VIINPZ6xGz1iuIs9fsdtvXiGe7wEikG9hCqQPAfQF71sjA299d9JvfL2XL2AZoE73J+LPZj+6jw8Frq8wIfturB9Yz3IzVW8HH8BPVAqcT1AcyY83G6SPQZNMD0g5Xm9fiqEvSCq1zw43Oc8BpenvNjaQ70CSwm9IHDFPFxz0Tw4P2C9qHs0vUCwPzzwd6Q8gK26PLTKCr0YMzA9nmCXvMqCiz10ED09kMmqO/ZPrLz6HZA9eDaMPHSwhD0YrLI81ftivVTdQL0MWGM99OhZvQhWg7wwa3s9tMSpPKJzjD1E+iw9QFzpOpAhYjzSGEo9HFWzPNVUE73cF+o8NhhFvUgOaz3Eh2E9kPncO5ulgb2wwyU9vIxdvajPATxYxlO9CLjMPMAlibzMlmu8Pp1QvRq5ibwY0Aa8kGMNvLzeH70ASHA6RFSmvJjDHT28ikm9QGiwu+B+Gr18Wv28QEFjPMAxAjwil/S87mefvHgeHTywMh89sImUu+5vOj25N3q9Lh6svPpUAz2fFWG9CEXjPHt4Br2cfSc9bMw7PUB20DqQCGI9riI0vZQ6Nb1w79C7gPxKvWRsU7yiBtq8ABaHu7a5nLxAApw7GkSEPWLYsryeVt28AW+QvSSNXrzWH0E9EJ1fPd1MEr1AlfO7tgfSvEYmNr0wgPu8E+N2vbVmcb0wIYG9HOzpPOoE0Lylzi+9/vdDPZDsKb2mcI49LpWGvYhkGD0A89E7eo87vaB/4TxFdyW9JFE3PVgSUjyAt4+7TDMTPeu5Nb2GXnu99s4VvTE+I71obTq9YAp2PQ4ocL2YzFk8D4SPvZC+Sz2/S1+92F/NvGebH73CmCq9tTwGvQDO7ztwbEk8tCj3PPRCr7wwejs8EEaTPcj8cz10GdM8gFy+urDh6jwgKS08QOtUO1amQb1Pzmq9LEKmPESOXz1AsVc7oNOBPeTyCr0itZM9ylbVvEiKTTyAXNc6oHNbvcBoJrssusC8iICGPZBHgL231Xi9/zkxvfRNcb1LRjG9oNHCO6BqCrueB5+8DsgzPeAXTzvM2qw8YNE3uzR5aj1r9WO9APCqOXCnWz0O6PK8sGmmPFYTjz03pJK95IDHPLi5QLzqLfi8mMvnvCw0Wb0ATRq7XPhgPdDsELxRbEu9zR5CvWqxTT3ocHY8ILFBveAHxjsa+II9e4hKvcjRbDyEZ6Q8+BpQPKWzL73IRCY93OZPvJgqbj1w7JE7YFB0PGQXYD0wKlw9QP7QPFQYIL00NeQ8yBiJPIFzJL0ASf07Q5devdgCUDzwNEw8BCFJvRAYRjxg2X893kiGPQkYdL2/Oxm9zNWSPKCBDj1+Mja90pGBPcToCD2OyjS9TA9Pvb9SD72+yYm94SkevQAKm7qAjTi7uMzcPHbCg7wAiIw9KO+4PIAReT1Ckwi9HicdPQj0fj2YfYs9IH4aPAwMbrx7+4K9AJUFuljuCz2Yr1k9IP2pO5zkiD3wIAA9NJgevND81LwM14K9qNSuPJqpIT2uv/u8OGSMPCBOujzghf47foAuvdl6E72+uS+9rtsjvQA0FjzmaEk9oJKfux5gcL0avgc9BHh+Pcj4CLy2rSc9wZ1+vdirE7zQgQA9QHmAPWj3Nj1qWzU9MEe+PBwWizxCSYw9hL2CvXJfsrzYXGw9yHX8PBwj6LzAM8Q6DyAivdigDz0wfYA7pI9yPYTGL70wMjo8tgA2PUxE8rycJXA9KwVivSAYDzzEQPe8SgNOPawEJrxO+V+9bMTFvMpgiz1QZzE9PulBvTTYEj34V1w9/XwXvcapOb3QXUw9srvRvKCNCzzAHyA8nLmRveLTBb1Qt4A81WJ6vZCCDr3ofBS8l+pfvWCiXL21B5K9GM0tPEqT8LyA0W49AA03PJYZVj3+B868dXZMvbmqE734oFw91gUXvT9wHr0cyYO9AOG9PCCa9TxkQEM9hO1xPUIAIb3MZgs99MpJvDv6Hb1QxYA8MptBPZbcVz0uO4S8+7FBvfh+f7yE25W8o52OvQAHgjzcx9e8IJreO2BrhbsQXta7MEH+O/dyAL1A4m49oNmcPABD3zxwFBA9uAJUPYiu0DyAGMo8KnU6vWWMSL1AStm6kAuaPHnMjL38t4Y8jpV+vQSaxDwk3KG83P7fPG0UaL2AB2k6pEtjvSLXs7yA8qI8Zm1mvYS3FT3SG0u9WCySPAwHOz10jRG9ycSEvcjsBz0Ub8W8qocqPexnXz0gT2M9gGKDuzgtKjygF8i74PQevSR0LL34xTk8SmJNPQyBBD0c7IU9UJgrPEAzZj2gLnu7fDvpPATUjD3AOpY6mKjoPECC/jsDMxO9jOiOPaYScb2AjY28WqVovXAQszuQ6+w7JBDdvM79Dz1+MjI90Mt8PBAbYL2e0EW9vAVqPXifdzy7bIa9+GUrvKBUkDwA4Wm9zDK4vADxNDvAmxU9QKXxOqilLTyAVYw6AHWquXi/Hr3qNSY9SZ5mvQBmIbk2Gii9FGXPPBrzSL1YwmE9JqOSPcKkSL3Qkzs8qfAHvVMCRb1Ktoq8eIERPSJK+bzEDEi9AF5vOugAKTwQQy+9jhSDveDdGLwABj09BAEiPeAcKzxQc5A9sm6dvBAXET1M3+u8KtLRvHC1OzxS2n69GGhXvQgRZT1m+gk9cUI/vSQIZT1ckhk9nPuFPQDAzjtU7l499TODvcYzcr2QjJw7aHVcPZBagDww7LU7TLuBPJSyIT0mUDs9XGZJPaDeqbv0Yi69br/NvIDBpbquxHS92At3PFE1jr1IXms8oi8LPTAc/juAfZE9vjAbPUxxbrwYrZI8mB0xvGOdkr2gvge8uLz1vHwbKr2U9C89K/6NvejRUr0nd2W9TI5+PZixQr2w6si7nBftPHZHDj0ehIY9yDwoPFCdgrtQGeK7ioqGPcg6bjwoiAa8kP5OPABNg7mAQX+6MBd8PdcBhr0YyFI9wOyJvYCABzw+CHi9Sk0oPaQVzTzAS7i7qS6FvRZijrxCIoq98kWCPXzN0zwNzIa9YCYHvDz9fj0Ilx08HHeSPcAu0zwKyOq8EgEwPaTIWLwIuG09ljNqvQbdFr1AXP27FWQbvYDU/Lu4Hoy9MN2iu5wsnzxGNB69HpLZvNh1ST0C24i9kGJSPVxegzygfpw8Nm1Jvay/OryeaZG98DLSOx9Kir00+uI8hKVDPebVID3gDqO7mt8pveTCOD0stZG9M99JvTTYZT1ECOs84uaJPeiUar0Ywlu8SJO9PFB297vgutC7bGrSPEjiSrwgwQg8qnaGvV7lTz2AopS76HJkPfYIjrz0NaC88sB2vbCYBL14tHk9CO9GPFTzjr105yK97heEPYzmZ7wIBKW8SiJLvSh7yLyoLTc9GI/OPIw9eb0AUVy7qllAvRBL0zwwq7i80rKBvcZgQr1kd4U9sAeOPXachT14NmI8QMwuPf2IQ70IMug82LnrPJN2P73Ex128qKiRPEDdgj3KGpS8bMHtvPgqND2C0Bk9UMaPPaJRCz1acZK8zL50PRxHNrw8Mnc9RGtzPZRBSz0A+9e5FjVhvRpAN70YJxo8gI4Au+JLiT0ibVQ9XujLvFhuIL1Z9EK9AFKLukhu9TzoLXq9KI8dPbzzUb0ESC09QCrgu26QGb1pAUK9ukK2vBJqTD3+QgY9YEERPJSZmTw43ie9QOOwu+QkNb3MBb28FHuGvVpKMr1A/AY7z956vUAz+jolxoG9P7gxvYL4j72Agkk7iHZ5PYB7XrzAvAU8hGCivHTSqTz86N08MAzYu2IcXL2elCI94g6HPdQB8zyAuBy7+KFTvaSGiDzKxra8uC6IvLBI/jzWJ7S8vCwzPUKliL2wkDI9cTCNvWy2gL2o5Vw9jKZavAiSRjz0z0u9DK4FvWAPFLwUxQI9oGHwu1S7O7wOZVg93PpuPQM2dL0Y27w81JS9PCXecb2wigq8uMirPFZxkz10aYE9eBu9PN6JLr0842k9AIXpOSJxWb2ydWC91shuvRDfqjuA6mi8TI1wvCDz3DsTPEG9JSt5vRxlSj3wV6Y8sDQFvaQiRLxOASI9BMihPHE6KL1tKIS9WJ/FvOBaKLyikC+9IJ4Uuypajbwoehg9oIwvO9iSTbzf40e90QkkvaSmQ73AnM48wHX2O2QvXT0omzI80DSmuyDINz2wImS9tBgOPQAeA7uoBP88amGAPexDHT1uepW8ktOIvAAYpDlWCpG80A+TvUIturyAIsk6pAt9vGJTQD20P/y8gBHLO7iSdzwgDT69TP3WPHA8wTzgjTS9hVMDvTi3/Txkfce8WuCBvfgrxzwYEQO8EBsIvYBbpjwMs5c8EEm2u4ByPjukhqq8AH6POtQqj7w0KJ08OtV3vRhgdLzMGFg97i6EPYBPIjvIyDu9SGoPPcydTj3olRw9DB5dPUBiQDuA00C6thE4vSAM2bsY8Gc9eJb9PAZ9Wr2ncY+9ZGLVvACr1DpMoGA9ZNuzvEC857q49QY9NkQZvS3YZ72QaFw9+KLePOwWVT2Wt1S9XMvIPJivUj1oDog9CMNvPEa1CD3ohsy8QJRoPXVsUr2qwy69TKIKPQ9hP713sFC9fN9NPYikbL2SCxE9pmVTvT1Ve73IbEk86akfvTSsqjxoP449AGZpO9okM73i4WW9AlCQPUDIeTzUxFk9VIuRPFwYbz1kFG09kCkDvGA6dD1YE1I9NFL9vCAqEbwWCRi97F/2PH425bxGKIG8gG+XOw4wIb1czyU9DwVhvaBw1TxA6hs9x7mGveB1TztMuIW9QD3Xu6TQgbyIMGy9do5FPcxidryuAMG8tVUVvVBmnrtMU4I90IaHvRCHtLu+wIo9iZ2Svd5LND16YEO9nJFiPZ9ODL201P48Zs/tvJzzOb3a1jQ9rOcJPYCyh7oACN67yshuvShXgDzILFI8JJd/vTxtbbygGua7IGuxu1CUpTxkDXw9f69wvXCOSz1AW9U6OPixPMYyhbw8wGs9EGFovb/7Eb3QNAW9eKpXPIZ8PL3wJig9QB2avFz6iDzgd2g9wAE1vZbslbweLnS9LrwuPcQdi73VwpG9zELAPGvNSb2Ghxk91u1QvUCyoDpSYz89r7smvVliDb046Rs9WEg8PFDdKjxwg9K7Kri/vHCN4bv2HT+9dGI5vTKpUL18dsg8ogyEvRAFUD3j6kO9Jkk1PRQcwjxcxzq8LxdXvbouB70QdnS90O6hu0RkmDzI22a8/CmwPFi8GbwgJh084gomPXx0CT1YLYc9HEs5PdTWxjxQjJE9kn5CvWZIE73U1fA8pMttvYCjsrzQkbu7EmUyPVbQ6LzYa2w9hvaNPb00Tb02MJA9cC6NO3KRPr3AYQW9hUF7vSKygbz2r2m9dv7dvLgPU7zIDyK8iPkDPGb7Mz1W66O80LlIPcD2jD2EEmk9rN6LPXhwf710VGA9+pyHvfxpOD3DQni9fISHPZgQZ71gigG9Z7YqvXxMuDzM04Q8wOJxPRi+Xz0QhHY94PBrPdiDbrw8i7G8+MkbPezgZz1dBl29OIcEvDgRv7wmsI49EF9mPW53er22kGW9arFEPZD7BDz2eYg9VokKPdQw0jxk9um8ICEIvJCs/bu8WrC8ANsAuljjij1IpyA8viSDPRfJJb0SfEy9GmqNPf5YZb1U84c8dFsHvbTKIz3gLje9i/CMvViGXj0sJnE9FoaEPQC41bpu1Y29HFDuPMcrIr1gCU274/QMvcQYJ70IuwY9nBmHvCgaOD3o6WQ97mdMPRgqBrw+X/e8KHgQvQydxjwsMFY95BEpvFo3Ur1AyUI7rBdmPQ2ShL32+g09YO9XPbQ3u7zBJgm98Ex9PagxhDyuE4097IVTPXBBmzzoJws8OPiFPfkXjr1YkTU9dAruPNvkVr20Ow49SqStvCrWS71ML9w8OMahPIZto7wyWDy9GR8ZvShJb7yYZCO8fmC0vHESh72EQNw8AAW7OuBztrvA1ei6AxNRvczqpDzwOFW9eId1PU5vWr08zX89VLW8vAp/gD3WKjo9mKp6PLjLijygqEU84ER2OwwzUr2QgHs95h3LvIx0uTy66pK8BOSvvB6Xab2gTE49eLhaPeTulLwIcXW8vObAPBoy/Lx8rGc9CtGbvIQ1ZD2AOTO6mMg9PLTZ1DxxdnW93SIFvbL39bwol148xh81PYLHyrx8roQ9EF6zO/WZEr0gVnW77NJIvQ4sjb2KokU9bPHKPGjos7xQf+i7NiqNPYNXL71KgSS92IyEPYibpzwgjyu9KKVSPVBnQDzX62a93CEfveRxEj0mjFQ9DMlqvZRqkL3A+cG8glRGvdRiSLy7NmO9ANy5OIw4WD0opXq9QB+sOgBTODuYV3Y9BmZGPSBSTbsQWD694D8QPTb5db0loYi9CGUAPMQU6zy4U3o9ZhNevewwCj1gJMk8UlVOPcjthD3PxEO9Gyp0vVCivju4ckM9Z10gvbqnDz3sdo48wX86vdvNNr0goVG7uyZovWiXhD1rpUe9RB+AvMAmzjoExHy8zCdUvWaIVT2nNmi9GLFzvRpvFb1inhm9lYAFvTTUprwQJ/c7cOEKvaiLJjyeb4o9rGSaPPxlRD2wjHA9XnsMPQprxbysJ1M90M0BPIDz8zpQ+9k8wPxjvZgjCD1o8Xk8rMBaPX6lTz1iyIW9shxOPZxDKz14nuW8TtE9PewBNb1wVns9Y+OFvcHgEL1ohgw8fhmPvaCwcLzcdJi8cFdnPIA/jz1deTW9BlOQPU5GKr0AG2i7Wk+vvLZdTz0yiee85gP8vNCOE7wgHpI9qK9qPAjjxDy7nkO99CI0vAA4S7iAuUw7uGTyvERmvjzwdlU8tGsuvfyOhj20xFS9oI8QuyyAfD34twu8EGj1PGhqWT3o4B09pBQMPRT1iz00Gqc8WCNyPMZJMD0kKGc9RJyBPS8cZr3oA6O8zK35PI5uAb2uwta8UOavOyBmO7w0TR49qJrGPAAZ5Lp4fgY9Q5t7vTBwrTsOP4o9kPaLPRBLDTwehpA9QCnBOuhvBLx8I6+8MLdYPGjqt7wAi9q7uJZKPDorOz28ZjA9pH9nPQAa2jkKIUc9XNnJPFzeXD1yEyQ9rklVPTrOLL2UG6O8YGc+O6wDRj1kpne9RDofvMSZ3zydFRW9pUVyvVA2Vz1IeUI8XI8DPTytpzwIoXw9O14QvT5PSz3AVQ+8vPJOvVAjaD2gLEm9ALHBO4ClD7tqXFi9FbyTvWZTkj1WYYA9QBXYOzZFCz1u8K68YGFPPHu8NL1ow+Y8MN18PeY2Uz0Ex428AKPhucDg8Dv5bGy9YOFBOyQhXD2IjI09MrlvvQB/Qr2IwtC8gB0wPOaTorzG6ou8tGmuvOjJZz0Kbby8OqHKvICCdz31tZK9WOMoPJZHjz2kFGo96BBLPADw0TwQMDg9voiPPWJLXL0RpYK9eFbevBz4dz0AnRg75kcUPZDI7rz2M5a8SEGNPQAeeLorgnS9RCjkPACxXz3AS0O7yuMTPazljz2EK1W9tM+3PKbfNj2W5hw9O02LvcBcjzxAcb+7DDMePeCynrzwRzI9KsrHvMYyzbykv6e82E9GvTTRiD0AYAg3QmedvEAHoLuM9NS8qlNavVC5UL18gFE9oCFYOwA3V70poEq9hrvBvOh8s7xM0H28tuggPXTO+7zAXi+9ztVevYANTTrYUQ89WmpEvVAkaD0MXKu84kcLPZ6TOz1IdVA9jolbvZIrIr3EJTC8CPdVvYBLirysUW09KF+6PFY3ZL0c0ja8BIe+PNBlgLw8m4I8tINsvA7NBz0YTVO8iO5kPaDfwbt2wj49fuBCvRy72ryAJgM74n68vFVhBL2UxGc9XQmAvRgDLD3Q1wc9ilI9Pe5ojT0C2Ee9YKCrOxQcXD1ENby8oeIZvbjmVTxAJEA9Whlnvazvcb0qtvK8RCFmPaJehr0AuYE956iNvdAW7rzEJ5Q8QEVeu4QtO70iOQM91wd8veiNTDwUf329mBxRPShSSL1u2449QJokvZa1h72HEEy9XoKtvMAcJT127H69oJTGu7yYqjxUWY89SGoBPMAspzuAg3I9xpQgvQYxUb0oy6o8huWFvdq8gD1YpXY9uHohPfP0j72ethM9DlyTPUIqtbzIH188ToeCvPwoPD2WkkM9MyAQvWxukT2r8Bq9eJMVvLDIC7z4hb48lH/ivMYlhz1sXyy8ho/IvI3wiL0wYX49gMcJOyK0Ej2CmBk9gKg7OsBnnry6DGK95ENdPTX3M72Eq6O8pvqDPRoFLT2ou1M9Or+SvJSP97ySlSU9lqcMPbC4cTz+oUg9YACMuz6EiL1AwlS8YkGQvMhLZj2ADx098DXDu6ycrTzU9Ww9qJRRvcx3erwKX9m8BOq/vDoRgT1Ap+w8nvSevF60Zr1LPnS9ANuPueBxUT2yEXm9VA2QvQiI5DzIpk48aL4/PQO/fb3oc0M8DJXlvEYWgr1p7We9uQmRvdAXZbxsrzG9tF93PX6lir3AX8q8bNqLPUC5wzpgN4k8RN2DPRZAMD1gM3Y8sKEcPABNojvbwAG9AGhuO3iiXj2/Hlu9lhWivFzuujwFl0i9Gq70vGC9PjvsQDO83jEjPQT7UD0rAB29UEFmvWC1nzvu2Ui9NJbrPPDOkbyuc5I9gOs6PSDfV70W0FG98gsovZ6jiT1nLCa99J8nvdbxe70IpmQ9AAxPOlBU0jwjUwq95CkWPeAtArwAVyO9/xkgvYNvgL0YMyY8aTwIvfD6yztwJTE9Ex9RvZjvujxMFaG8kI9/PPKkhz2KvDE99qQYvWZnGj0VgIS9jeiHvTzZzrwyFLe8QmprvbxE3jzEH5K9DlGpvCg4vbzySY+8Rh82vQLlRL2gOt+73GWKPWC4Sr0BFIq97HElPZ7ag73oE0a9GEk6PRjodTyDWRS9bkCRPcJzIT2cG0I9wA5MO2i12TwADwK6/3MevdjUkzx2s2e9UMo9PDREhz1iOrC8qOJ8PcZFYb2ANWW62S9KvVAWkb2YGo49AFhhvUiiXz2QCvq7aFo0PFy+Q73orlA9HhGAvdQLDD0ewoO8ekU2PdXAIL3wcMa8wqKGPcwXiD3gYms8WMp+vSzo4DwcgeW8REQLPfaETL0u2oW9gLkvPTgODzwU9C09PkwJPfaagT38rGA9oCD6O6DcVL2UalG9lpyWvMCXt7smwaG8xNHrPBwkcz3niYi9oPVHO8x3Ib2iygq9APIsu9Avgb26onW9y7lnveiPXzxcnFs9/CNKvSyn8DzUj988TCetvGxhi73Wq1e90EyxOwqw+ry874E9HKNkPQtlIb3egTS9BLqdvGjI9jzeZZi8dnuAPaJekL3qrvm8PqAWPVDn5buulw498K/DPACcjrrcvx89gGxAuzRm9byEpyo98IFfvWXkIr2tBgu93M87vDDxnbtzdoy9YJ9HPdMwNL0w3oo9TjiRvEwP+DzgD0E7QmydvPaxST3GETs9fksBPQayjz26nWe9lmBKPR4SjD1+s0o9FCy7PAoHPz0IhWU9xh48PdBUiDy4SZQ8ZGBqPWVxCr30zVy8uiQfPWIjfr2yx4U9ACZAOol2L70QIdw81nSOPewXI72E/3O98ATPO4BwtLvsz6U8twJVvSAG/TtIJ3M9tiHbvLDQkbxs3Mo87tAOvTIQET0+8l+9QC3Cu4iFtrygLNU8eHivvHYzIT1LCAK9KIIDPIAsg7qOZzY9gF4vPXjCyjy4XaS8vkGQvLApCz0x2ga9poQ2vVC23DzwZL07oK6APSBNNL0iljE9NgmNPQDNMDrVakS9KM12PThiijwBk4S9vPcrPYYbSD1Qrhc8SKKRPbSrjz0wZnA8Ds0IvbIaCj0ABDm9jLONvbCiZj3kIza8bHllPQxiUD12O2S94JBgveLKcb0ibzk9uPEPPNA8Xj3cF0s9ECtxPADqYbrm5BE90PbEPG6LhD2WE4k9YLkJu0ASTrtqTkS99JVoPcBRqDvXtIO9UNbrPIH1hb0o7mO8cM0ivUCXF7zzWwe9ru2FPeoRGD2g7J+85ONvPWlPCb1AR5q8YMgxvCDO+Tzm0JG99G/IPCnyiL0odUa8EIt+PZBMW72QAnQ9JmmAPUAyarxcxxY92VpFvW6sZb3uLky97nyHvcR7zzzIJXU9DEhUPchiYjxaejc9sBvBOxAUAD2grT67XHVSPVDQrrsoDYe8wGK5Ok7PcL3MioG94MrhPLhRCDy7Roe9FKt5PWCYPLtwx9y7GJl4veqNrbyAShq7FHThPPI8lLzQo4c8cOBJvXyCaz1O8Re9bLOPPB3hfb3I/TY9RE8TvZiVLr2NsTu9BBFkPbpQzryGJhI9XG8NvRjVIjy2zic98e8hvWABD7seYl+9qFwkvfipcz2thEC9TsnxvKoSDz26AEG9TMp1PcjlkL2qP169SGA0PPTA8Lww/t874Im3PALLFb0FW2C9hEM1PVA4iz0gW/y7WvOHPWM9g70MFLw8IMsSPEiONj3A1f67sERLvQTj3LxkqlA98FDWuygGhr0VWo29YAaMPMAPgD0oFAq8gCPIuwhrhT1pmWC9FqB6vQCA/Tuo0Pm8mO+DPWSqVz0OXxm9wmITPVvYkb2AysC85Mxpvbwf5rwMeog9INQAvbAOyrzsnWG94BoKvFjNEzxYvOO8gC2XOqzeND3WVdi8OM9iPOzEJj0ie4o99oiGPXg1WbwLpo29sIKFu1jbO70Udme8MKQ7PCx37LxYXBc8oOCHPBz8YD2KFKO8JBJ6PQhFhz32eJ68qDWYPFhOxzzIoSI9/MZzPdSXkj3JNAO9/EtgPVD1K72g07a7UGRdPe8FCL2iL4s9AF3FOqg7WL3AmD677ocCPXQAAz1Q3Es9dLwFPcbnhr30Wkm8ohKJPYSfAT3mgna9zJ5vvecTj73Elwk9jCCLPdArhzyOu5K9yigDvaikl7wo61I92MONPQCoULmvlDu9eg/3vHRm1zzoZA88Yh+HPShTfT1QQ4C9nPMbPaBoz7sMw/C8aAqjPKpVAz0kSk69JiMAvbJ2Hb3wBm88gAVePRDgfD30VF29dkKMPTj2rbwYLJQ8A287vUqMkD2t54W9gPjAO/oAHL2aeEy9lMl4PQC08DuYMIY8AJipuexi+Dz42oU8JEdUPRjgIDzsjTQ9xOhXPTDn4by+DIC8n80DvfA0N7yRaRu9qIpQvdjrez3PGSG9vB7CvMAnrjweyPC8tKSIPf6A8LyYKDc9h4cDvZTDXT1++YU9tt+IvaCKVj0YJ3w9kNbBPNR63TxOVpI9Y6dvvUrJJj28G069EdaAvag0ATzc/0S9ZMyPvVwubD1cSpw8IND1PK5hPb1Ek1k9pvCCPYQBDb1wECQ80olCPbB6YbyQed08gPmmOrhXgz2QqGU8WEiSPbh3dT14pxA91FXnPNgxUjyMRVy8hTxuvc9uEb2Yuw89aK9bPNg0OL3ynkG9JGo4vXj9uzxsslg9WrE7vfSkijwKlIG8tGOEPCUOV73WYEw9DjWjvH+da72EDJI9xN+HPMTvsbxbuXy98nVLPdhYfT08qok8zB6SPITodLwTBRO9YFVtPXCdcz1unY09xl5WvdC29LzrUAe9oAfou7Bxjrvo3vg8WCa+PBT1dLwQKxW8sEMCvI0ShL0AR8O6yLRSvTAVXT2w2u27yF93PbrSAz2EgGg9ENqkO3bGL72OAFQ9RhobvYgfVjyVFRy99GzbPE+Fg71qn728jiiRveyT7DzA+mC9KIx9PQ5eWL3gENi7MLOAPcDwQT2c8p08eIQ5vdD/Lz0QfTU8gPAruvwDUD1UOni9WJqrPMkSH722iRQ9YNv+vKhUMj0ghnY9wuM4vWS6YLzohxI9IFQSO4C55zzoPS88AKb+PFveHL1ExmE9RnYSPcJNNz2YGF29+EJwPIAyZLyaQiK9O1YuvWnoF70oK508Mjq5vAD+xzyAK7A6CDBrPMIxKr28u3A9QPPLu3A4SrxIDyY8BomlvChL1ryQ6Ni7nD7mPIbHQz3Y1FI9KBPzvC7iG73AZWo7369dvQg8ZT17oyO9pkmQPWAgfjy0Bks9xE1+PfyfUL08G5A9cHFxPd5fSL3gF687EnWSvWjc8jyYDKo8ha5TvR75Uj2Im8w8eNiFPdrgiz3Ut5C8oLcePQwKZD0zNoy9+DDnPIE+ar1YCeS8ot41vUy00DxByUG9gM3tutC3Czxwnjg8WAMEPSotHb3coGA9AEWFOew4jT0AIzK73JIqPbAPaj3Owja9bCnZPEQHZb14zFI9QHYIvOcFiL0AZaQ74NeWPAATsTtsxZ+8JMuTPSq9Vz1hIle9jTKNvTKuFD0s38s8QIkWPPTsg7003ie9oLIhu5xUj7z24Y89gAUouqlIHr3h3l29EF2yPNYZGT3wTZw7YB/6vP4l9rwZ/By9cKiQvb62Pb2yIhe9ZBRrvHjPBLyESU29VKH5vJx3QrxCK0s9wvvevMg/zrzU8Le80muMvQTXBr2gvca79DBMPXqQGT0oPh49TOuRPICSgz1Y1yI9SI41vCBCYr3MPR49ULQsPFR7qDwwfhi9uNQWvICzMbp+Vzc9UAL5O7TQYr1V7Ae9TG6xPKC6nLsQ8VY8qnmEvHTPP7yQloY8iHwbvW+ciL1wVLc8+GCSvd3KCL281fc8CQIRvTzARb0ABK45WpkMPeLJED1AOs672Bx3PQhnODxh9RG9dqglPdAISj0OHjm90De/O+yPfj0o/xw9mGELvBjZgT3AwxI7mXxVveO9D72QG2A8YKfgu9ThA72D3zi9kvNLvQ8war0WRDU9VOjSPDdtOL14yde8yHyAPFR7Pj0Az9K64hDzvJQJcD0CM5C97lufvDxGlDyUWx69IL33u1T7NT1ItIC9TE11PdCoYDwIUH49+7qDvSzJRLzgdBA8YJCkO3Cl1TwMapS80IDBu/xJAr1Syk499riTvZTOxjzdVAG9SGCNPT+qGL0Azwk8PC9+vakicb0oBGA8koYovWToVrzouTg9+G4JvQCMFz1wWn485D92vUaTOT0g1ZG85KhJvErAHb22n4E9+hYVPUjTUTxGQjo9hik/vVJjMD1a8Io9XM2UPCj5ET1WYIC90i+DPaAAN7wc1Yy8+LUOvJCGa73E2nS8EtggvZxeNT3QTDg9X2yNvRK+Qj3gU3u9jB71PMMvK71+u4s9KX58vQDCfr0IgmS9+iagvAyaybwBu429XzJgvQxAX7xA+dq6AyePvVzp9jxeF5+8ypcLPRfXGr1WCjE9lqsFPSBUPzwknDs9KOdyPSphkT1wOos7xKvHPOY+Pz2O7Yk94GkdPWSfCD0gEYe8vmUmPcgUNb3Q3lM9ZFMWPaib9TwcdbI8WMaKPCjLir2m+I28iM8qvCAQWjuw6t07yEEJPIBYFjvgqDQ9PHzPPNRLAz3op9e8sBD9vDTT6Lx8sQA9RkmPPR6kCj23kYu9IBVaPNDNiD0OaD49NCpnPdAz4DxgZYg9DStnvQBXQz1sd7U8frT2vETtZj1Enl89E7EWvYCnjj1w+f+8gCzMOm9RCb3Aw6i6ZD5xPbh5ET1wsi+8hLG/PAQ0Cr1cyYI91n2RPdCT7Dxgw1U7kLqWO6D/wLvSsEW9QASHu9z4gLxI+4g97CNkPVkqdr0gxc07WL9oPYjtiz0Afz+6CHEePfBOXb3QPyO90h8qPQDyWrz6Y0a9gAu6u2RagTwE0x49iNZUPQWyYb145GC8StxDPXQF2zxGYyQ9YFxqO9xsAb0OtX697EZJvZw9Zj36caC8YKXCPIxJa7zsRLk81jsivciGIj3qrzI9cM7kO+IrJz1AnpO7wCsxvYCUJjuDBzm9AeYEvcSWLz0vU4m9AH0sO5y6IbwgbVg9MhVTPR4/OD3Gd428wCA7PCEKhL1Qbcs8NKL9PNKNO734yTm9WG3svBCBXjzookU94OxePOiBDTwlz0C9iWwEvauCX72SUpG9KP7hvCgHhzzgCk49UKhkPQzd8bzwVDq8AJkpPACGDj0845M8XqslPYwgxjz4S2w8buITPeDw4zzMScu8sJC/O67cgb2KQEM9UN2gu+bDyLzvZly9NG8wPQDtcT1G6xu9fPNPvdRWVL2CShA9sGeCvDpTjb3Q7dG7oOBpPcA7ujpGDoU9NJhlPdDzbjygtIW7FFP9PCAylrvIJwI81Oe2vOi5VDzU60o9hMJyPQg+CLyI+Hc9+ch9vfTEKj3EuMi8nJzEPNDJj7tw8+674AfjO7ZCAD2Y0cs8/JnwvJowir1IZra8wi4IPZeQCL0EhF89rAI7Pd6FHL0ATH89cGJzPO5TiL3Y7uq87lLqvABxdbxGAxe9zBtMvcQbpTzATPI8BmVpvWw7Gj3CGE49MhUjPYDyQD0G0z+9U8wevYA21LvM5ZA8UHm3PAAu6Tww1oc9ILjrPNS2NLxJMTS9kK8pPdglZ72cggy9IMc2PQQaWT3A8Sc8oFKlPCigHjxAhza7KiVPvRDyKzxgSsE7uCqlvPRfQz2YtSw9VFzovPBQIT2YqtE8GQBHvSzpfT2oPuI8aJhAvNTJ7jzUC4s91ISHPUQ0yrzers+8aHChvLTr+DyEBkW9oAm7O6qHn7yjoiu9WxBYvXSb/zyTpI69cISHPeBc1zzEJHw9OM9qPJiKRzw4CEK89iEuPTMlgb0Qo1e8hvjavK9QB72E6/W8hM9YPbhdjDxgCUI7SIB+PfLP1LzT5yW90OOmvJpphz3QBX69uA0zvJ7DIT2Eka88tMw6vVR7vjy+o1a9qoVxvRO8Ar3432Q8y2gFveJ6kD0isCG9kq+YvKb2Mz0AOn46MD2rPNp3Kj3CoQq9OEFmPRoO2LwQwyc9QC/huoR+DT363Ic9AAzwOxGCkr29uSi94L1KvOTKZrwCNg09yE2kPOAT0jvQr3698GZUPby9rjy/g2e9rrKTPfxCiTzOiyk9/AGbvFvOgr1aeVQ9yURVvYBBUTsC2iu9tGbSPPzNtjw84IM8hEJavXjmnDybtSW9Wga2vADh9LuYQNI8bHWBvYy/uTyYxRM9ObRXvTzUhT0i75q8uKoCPRCtuztuEjI94PgbvdQBtDwx63K9ajiSPaYozbx+Gi89l9ZpveDUvDvICGS8/n4EPVxSez1y9FA9hFBLPVaLFj30qk09gOvrujJodr0ggC89eMqMPfpKLT1QYQi8gHJ6Ozovgj2gkFU8QBEoPADagbsGgh09tE1vPQabDz0AMYs5tN5fPQ54BT18gO08LnqOvRCkhrymZza9pFk8vbD90DtoBuk8iME8PHrMMz0i90Y9AJ5mvEBdNzwk0Yc8AKpfvfbAAL0gsvm8TBpnPYJ7jT3ZNxS90neEvZUTFr3GaOu8WHGRPKC4Ob1hRni9UNucO3SHcLy0woc9wLGTPRoZWr2UvpG8/EjrPJBGEz22cC+96nopvcDN7jxQF+Q8cCHEO9yEEr0WY1O9T9GOvSwd+Dzoe1A9uGoPPQskkL30Ynk9IKFdPcOTA71I7HA9gr87vW54Zb2QIfQ7mENzvIyDH7yELRY9Ym4HPeJ1kbxw/vo73PggPQyi1bwoEB683AP9PC5WND18s3M9AmC9vDaOhL2wn6i76ts4vZ6YmbwuoaC8Y8qIvQAw7TwQWvi8oOIwPOR07Tw8hfo83BSTPLRPez1wZUG9CJzKPJjRX70wriy9AGypO0zeiD2JDia9IAKoPCD8gLxcmzK9wHDpvNRkRT1ofCU8Dj2CPTR35zzgoCi9qHnvPG44Oj1IK4M91EFvPQCxiLoYWL289gh0vUi9ir0Yj2W91nXsvGaAirw0ofe83saGPVAXcD1Eh249bDlzPXhWgb3Q+kE9QGndPCAk6Lv8Kcq8QhbYvEYeQD3YBWs8TLNpPX8Hhb17vku9ejY+PbjnMTzsKsE8qxWQvSjm87w0YAG9QOuCuq19hL308d88pbgzvRg+cD0OQCo9G8Z1vZTQjryAadA6NEmHPWIGSj2GvH29iIeDvbC7kry03pE9zFKEvKrVGL2cWAY9QxGQvcE/Zr2oTvA8nJKAPJTC5DyQ6sW8ykE+PZqVNr26Lj69gKQVvMbvSr2AzxO6lAKHveL0lrz6Ena95hpDvdAT+zsdoQW9IWElvQwehj2eVgU9iEBBvUTRbD1UoYE8NDLbvACBDzx8qnU9yCJ2PPw4Ib2M9RY92wZivSgyZbzgJxG8LFU2vSB2sbvg6je7XPJ7PdCBgr0OGaa8gizJvCCKyDzoFWS9CI8vvKJJQT28WSU9OBF2Peyj4DxmmA89JJ6RPICn7btoDpU8VICTvMAk+jvQmPe8pl6MvVzvZr2TL4a9mVEMvershLzAcg49MNHePJDBZbwcV4s977mPvSj0ObyTgSq91qQovf5XDT0+WQE9PK1jPUCPJDzYa6o8uF5rPXVBjb2wQlE9LimRvcQA8Tws0ni9QFV7PYh6Kz2gs8S7FFh6PbCvHTwg8Fw9SmkqvaFyPL3QFCs8GNIOPQJOT73s5vu8gFAXPR7vsry+Mo692mkjPdhCkz3iwiK9Lq8MvQzJjDzgAVe7JrI4PYCyRrqMQW49YHhjPMTlkTxkNG29pMxCPXq4rLz4Q448dLEtvWMhjL2UPVI9IDK9u4RD7DwwiMS7vg8BPVDKjz3VEY29wFpXPW5MWr1A/hY8OHBIvPcCjr1aeE89/BiBvWgmZj2w9og9bCITvZBoU73g6XK7NLN9vXQDurxQ15674qg7PQzFFD0Yd1k9yDVivChjzjygO4Q94+wDvfCIcz0vyhu99707vQNSDb38yFu9NiMlvZDxzjsgc4e7B96SvVgiJz18jZa8zETNvIDLrzoEfKm8EBOJPIZDCT1AxJA8OJ5wvbD20DtICXQ8dOPCPBhHY732BDU9IOgaPfxgLT0AqYC8wFqHPaD8Obs7S4i9AKW0uaBjSDtI8RA8UJuKu5yeHD1jy469PNc6vWDSDLyAb149sKEvvHR5ez3oNAY98MLBPGhpkj1TUQu9GJXWPMC7cz38+Ia9XOaUPKCKZjz42Tg83rZ/vZ57iD0o2Xw9VtJTvc4WSz0ogQs8JnevvLCtmztQhU284DmIPRDrDbx0Df88bLUtvFh707wy4ZC8QCDHunZh3rzN2Ae9hFgkvQklab2SfEi9PCziPMSxoTzcUqG8EHHlu5EWar2ATvi7hEdtPVyR+LyOYHK99iFCvWDjeLtyB4A9jZB3veTG+Tw+t5A90IPVO1gOF7wMWzg93kIjPYoZRj2e5UY9HG+DvEJxIb2A2fA7MFZoPY5eSD2GcYS9HKtrvVA9i7smQ8S8SjQDPfGKSb0AaE65sBGYuwA3gDy0eoU8yEJXPLY60bwcVYY9WEcrvdz8XrzefDk9AIzEvN5bQr2Ozyu9eCdMvbBqmDtWw5M9lxBKvUzcaL30v8Q85sIfvXJJxrygJUS8Gm9fvbDnt7v68fi8QoTtvGLMCz2OOCS93FJXPYhmWzyMN7M81giCPSChhr2uho49xEIKPckQgL0+VAM9R5pvvQy5oLwAgvG5aRuNvURnM73c84U9kmBlvdQ4Jj1KhUu9SN0ovQohIj2gAEk7t8F2vYDORjwV5269DbaOvcDQFbwgu7m74BxuPcigJzws82o9dKGUvAhKKjxCMIU9misevR4qu7wcVIo97EKFPXzFL7yoQQQ9ClOKPTzCjD1MAl69SLljveDJfzycBc0818NAvbxN6zw6UY89sIf0PBDbhz1GXHa9HAffPAT9obxQGn49tjQovTi7kr3sk5Y86tRlvQBz1bvQb309YM98vZS+kb32eYI92NZ5PZi7f7yY/Gu8fP1EvAB3az1EL1A9IPMlPGqz/7z6Thw9wZNTvei0g70Q36K7Zuw1vVAhzDuUHm69tA+hPBSuUz2PQDe9VDiAvJAFury8oEu8aH/EPAQxk7xKGCA9wHRRPJCQaTxcBzE9QGKAOxb+krym14C9nBftvK7uyLycEaE8HHIgvEQE8jwkuDG8xXUKvbj4dz1qsoC9CJEfPFYeUD08b3E9kAJnPcquQj1AL267LJksPb7WZr2/fIy9Xp5yvbQEqDzkkR68xClHvShlHT3nNnu9BrrZvKJINr1efFA9rF9QvQCtjrlowYo9oLsiu0i0VTzA8W49iOezPHYASz2OKFG9DBR+PaScI714JaY8cvxuvRD6Mz1DGz29/DyfPF6JN70uVk+9dH7mPAwmOT3yzIE9oo5WvWgCz7xtPQ29LXdVvURRjj3c3nk9hVoQve5OOb3W8zs9jJhrPYAa5rrCsIi9nwGBvUZPBz209sU8AMzWPGT0ojyo/sY8jFNYvWwMhDysMFm8hq+RvcBhFL34v489c4yTvSBf9LuynR49QCVPu2Bfkzx8MSC8AOkjuuwiHT1Ptj+9MONhPYvFb71wZOw7kl+NPTSrIz3IoVC9ANn6uiYogj1AbFs9UD/bO+RGozwuLjK9Vr8XvdIkHj1ovQw8QJrdPASCHr3MeSa9RthDPRi7Vz24KnA8EEUKvD1RKb0FTIS9tBFUPbRBwzzEWzc9sEHPu2/Pgr2olB+8EF8HPQDxdLqZLBK9gPhVvBfYi704RlW93CE3PdDAOL0QrbY7GLhVPJZdGz14eFI8DJSIPSEbGb2kOC09XP4YPd6iij2ws4C9GPkQPUjG2zzgjbO7pvzOvNa0QD3Add87qACSPQjsNzx24Y49anNRvWV6ir0Fx2u9sA39u9j8kD3CzAY93NX8PKrCRb0YE7A88KbKO5iG4jz6AyM9pLUxvaBU0jtcXky8gmjWvDzKebx2n+u80HJpPNyUcD18O2K96Pj5vPBGRj1is4S8H28mveo/2ryoS4M8wyaTvQafJj3NcHO9ZFM6vZojBr2orxM9R9ZJvR48jb1EwHk94NccO89PCL28gXg9ML3wu1i8ZLwRSkG9OJs+vIClBDzyUJE9QHZkPQ59BL0cxIk94wogvSR7fz0EX4c9iFGFPDxHbj1uEXW9suEfvdj3jr0AyPK5eDbqPDZbhbzY5HC8+JkbPazkbz1gDPm8YtxEvSiRbj2ihRu9ll8tPWhOkTwwjhc9EO2QPYzyij2oIRW87JK8vNjKQzzizSU9NEiFPHBizjxCFVS9KPIpvR5C2rwQAYc7Ko4zvdhW3TyorW09uPmAPUDE3rr0/vc80mIoPRKsgb3S8yy9fnW2vAAp57rkCEG9PhvKvCaXiLyiF4A9GNvsvFgCsLwANEK54mJFvR65E700obA8xgQVPQakHT0tFFC9p/oXvUD9FbuQ35M84WmTvcFATL3g97k7vIUuvV+9Mr1iSgY9lqwFvWYx37zM8x68NbMOveSqkb3qIBK9iLaVPGyZ2byAs386HPKzvC7Vcb1A3009gA3iu+CLHj3y4ie9SFf9PFFrGL0w0iI9LmDFvOBtaD0u7Cy9couQPWYtLz3w+UE9iLlYPWAKHrws6zu8wKpZvXBvJT2Euk+9PDUyvVRPHr0gCLQ8AKhdOa5AJL2W1Ys9ABCfN4S4Cj3QsLQ7oG0XPcojkrwWhV69CH6RPfdDGr0cXoI8guxEPQAoWb2ALzg7+K5jPUQFIT2MpoY9ktCBPXSaW710wGS8QWcUvfRSUr1mi7e88uMcPSA7hb2AREA7ELBfvRRjZT1AYns7hFUKPUIxtLy82Kq8uBAnPQC/2DwEwf68rGvDvNqQ9LwAAqM7uHoIPYzJOz2KUhc9esxJPejzsDzW1E+9IIoavLiEMz08foM9kkHQvKOYgL3eQ6W8hAvSPOB9ijyMHsI8E/cqvRqEPD00ORE96tp5vQpMc73Ue2C9yKSTPXYAobyIGoA9QAGePEiUfD2i3ow9THtdPbyFc7xCsa28lCdlvBiqSr0wabQ8RHsevByBeT3olwq9RLMNPd6sK72grms81nqKvB3vh73YvNy8GIiMvQSBgb3G/dy8dKMlvNjVBD1lh5O9cN55vMTlB73g4cC74POMPTApqLz4zQw933VlvUbyhj0AKGS8UIASvYzihDxgvA48sINzvEwpF729vpK9qI8VPVpsCj24Jq48HroDPfohN71eef28pEeLPfieCbyg3U87kBaGO2iZf73gkZM7wGaPPRiiVj1UNnW9agcjvZzZd7zQ+2c8XTprvd48BT2II4q98wBnvV7ajD0Y7JQ8h1Q9vWS31TxQoY48ZGJEPaiEeT1LRSa9OkqKPbglVz3ieEG9WktjvSc3FL1gsXK9RmRqvY/dcb2k4Sa8qs/LvBANSz0wdM073Cw6PQAAyDX4pGK9AJsfPLSHkjzgyQQ8u5hBvQA4BLtIvlg8nAlfPfxXrzzEhHQ9ZixJvXg0/bxQhTU8OCtqPNgxAbwBeR+9oD2IvTjNWjw94ke9WM9SvSIFL71MoKY8uMhGPPDi4jyMAKU8MjIqPdgSdbxkgVk94NRTPSC3kbv4RoY9xOAkPTx1Wj1AD3Q9aL8hPKMAIb1wV4E8euG6vCSvEz0QTzu8gt+BPaCbF7sIU3c9CpKRPRB54zxp5im9hJo3PY5kkr2c0Hw9opAfPYAy+DtYScQ8QDtZvUKljb0gi+Q8gAC6OkgHv7zVjn+9QLV/O7iwPbzesiU9ksaNvdRUST2dgBe9VCnAPPhhLTzEjxM92FJbvQQWtryPWwa9ALX2Ob9PFr2KIEe9KCS3PNKUwrygbXo9CMSZvIz48DwiFLO83PFHPWT7gT2IKWW9qH4zPeYahT2ACQo9GOIpPWCk/bsg6EY7IPRNvP5aQD18Dt68mIgdvKA1Bj2JI0y9ZItuvQR6CD3gsa68wDURPWZeQr3al3G9QCcsPUjGVT3AMiO9VmoHPc54pLzMGQg9RCSWvH7ELD3YkYS9EDCEPZ7tJj38/Cm93ocaPSg/MT1USTk9XDX0PAAc3znW1oI9oMJ9uzzWxDyQMBi8DDCUvGCoGbsQRm89ZotPPYqdir1wx6674FwiuyBT/rtAb/Q6JNt6vN4SYL3w+Qg8WHKivCi/MjysAFA9pMEqvbdUIb1AMj49DHrHPAf3gr2gdfg8MHKrO6S+7Lz2QUe9YOUsuwCiyrz2Fho9oManu+ybsTxk71W9TfCSvSydvzwMjII81IMoPYDserx87g09EOUPPHBJ7DyADgS7QmmVvG/PEL2kyjU9ZjxXvY6Fjz1KJim9uLfIPMw1LT0yHUE9UHlLPfBPZD2Qqki80UiGve4LdL3MH1o9SjmFvYbIOL2QItk8NiDPvMN3jb0glgY9RolLvSYONr1wdYG9Wt6OPahiXz3gOPs8WWuBvRCCZz1iXIq93FfYvNJoB73uuCo9Rpk9PdIHBT2453o809g1vaoLSL0aDA09oGvcO7pACj3cZwU9gG4OvVJHgbzv7AG9kHjAPJjOLDwgfMC7co+EvbodUj3ucIY9vnKHPeo6jLw85Yq9pgw/PVjTfL3C+jK9IE51uzQNez2wn4o9XHuBvHYgKD1UOCc9hBTOPO0Fir1E14C9mEwdvGyB8LzGtxY9DFIBPXoojj0cVUG9yLxkPQCTMDqA9m86oHfMPAR/dz3eQpO9Io9zvSB9tLsA60u6eoP9vIhEOL0LI4W9VKasvIz2bLwg6xe9yhtAvXh3hD2+h768aBMgPPCZDjzWQkA9V5ccvZCnfDyW9009DESEPJK4jj2m5pi8wG3zPECPRjsgX7M8iOhfPa5skz0Q9967duGRPShSETzevJE9kYcgvexzBT2IUjm92JnKvKIsIj3whpo83MinPIh0RT2gHjU76E4BPADbqLlv7o29GlscPUxkkL10R1M9jtOPPfSuhD2BJQ+9ILl/O+BkzrxU51m89uJyvcgfpzwuz668rJHHPBC/4LvgFs073FR9vTBRvLt4oly8zhM4vZD2zjySM+u8rjcNPQC7RLrMJ1288PVBPWYmLT1gVJI7sDqyPI6+1rycWfe8yBo7vWb9UL2oDHg9+IDVPA4tib38iN88Jn+CPawRpTzOxYi9KIaIPbo6PT2/vXa9LveHvdIZAz0fDQO9+MDdPBKOPz2H55C9IHjHvF5Lg7yEFpg8xAWDPYuST70U37A8CSWSvQz+9LyQiWm84KWJu8CK2joAWmu5lihxvST5e7wUM/88Pqp5vWbPGj0yqRA9AmjwvCjVe70oIRs9BErvPEJRjr3bQH+9cgURvYf/LL2ACgA6yPjgvMyEIrzr7oS9NI1rvA3aJb3M4HA9iUoevQTq/jyydMW8fLZ8PWydzLzQxoM9NArvPGkLer0oRx48NLmbPOw4Ob3g3Q298MAoveB6jL3QgZE9xhiDvXhQaj0cZIs8QEERPcCZqTz4rRM9MqpMvXz1ir2883Y9fKBRPdPCD71YsoM86i4ZPSTwqDy4ybm8qo1ivWDyyTuKbz69Qk1ivdjKLL2wCfq8lKhqPYqqeb28wls9EHSZu3DxCL3r4U29ODhzPWTQQ71MuNg8Tl2MPYSNxDxuK3C9Is3ZvDzpAr0IKPm8dbImvZD6xTv8FHw9jAnsPPhnLT2sNOi8SPp9vYZdBj3hnhW9Ut5PPYatij2m7go9JUBqvc6UIj1xtTC9fDp2PcDSxrxweug8EBL2u9gTAz2gwJk8Ro09Pd7wFD0yjzg9KObVPNliXb2mdF+9LIvYPN5N47x0TRQ9HE1nvNiMkD2AX0S79gEQPQC+dzrvMm+9fHt7PfQ6ozyQSYc9eCoivV6ihL0Kc0G92JPNPP5Tgz1kP4c80CKJvQhdDLygs+Y7hBBPPZASgL2TxYK9lCOEPAhN3zxosgk9GJqTPck0Tr2g9Pg8EP4vvAgLSzyg9Xg8XtupvBzG8LxHkz29gHRJPT/mDL3wcsc7OC8lvTIGRr2skzC8AKttPQDWILto95U8RLpMPeX8hr1Q+x49TCwRPUCz4zzUQVa8evVFPTgVSrxeazA9zoRBPZiKbrywEBU9EBOBPWCACDwUomc9aoo9PWjDR72kJio9TMJWvRx9Rr0APb07VnsmPR/Dhb3o0l89FJ4BvRD4jTu/khi9KMX4PMBG5Lv4Ir08aPttvWD4CL12UwA9sBKSPUnkO72UWFs9kyCJvSwtAT3UPoK9TC54PaCOtbsAJPW7SMhpPHw5Zb0gKl879Fg8PQCYfjrwP1o9KlgZvZSEKb0k52w9cPsSvOCu97yI7xC81v2bvDzhhr1sY/C8gOyXu5CztjsuRyQ9sK+IPRVsDL2v3oq9gLpSvb79gr2MrXc9KAEQvGhLQrw8ITw9opAuPeCNQbt5Vo+9sEtHvQz/NbxKO4i9KMZ2PdoVzrxMVI89tJfoPGQVxjwAiUo82o+yvB+ZBb0Qn+w7YIQgPHyRZL3UUog8NBAPvaKAwryKjYo9wPNBPeJRHT04gC48YPyQu2Q6jL0cpeq8WMlmPOp+7rzuIVa9lIWUUpRLAEsgS8CGlEvASwGGlIloAilSlHSUUpSMCGZjMS5iaWFzlGgHKGgKQn0BAACAAooKbPycRvkgaqhQGS6AAk3pAy6AAn1xAChYEAAAAHByb3RvY29sX3ZlcnNpb25xAU3pA1gNAAAAbGl0dGxlX2VuZGlhbnECiFgKAAAAdHlwZV9zaXplc3EDfXEEKFgFAAAAc2hvcnRxBUsCWAMAAABpbnRxBksEWAQAAABsb25ncQdLBHV1LoACKFgHAAAAc3RvcmFnZXEAY3RvcmNoCkZsb2F0U3RvcmFnZQpxAVgPAAAAMTQwMzczMjMzMjY2MDAwcQJYAwAAAGNwdXEDSyBOdHEEUS6AAl1xAFgPAAAAMTQwMzczMjMzMjY2MDAwcQFhLiAAAAAAAAAAiNaQPGIsML3muZE9MPKDPWDmhbusBY08CI97PFgbUbyQc648fKVovRwnHr2KLoM9naqSvQrMjz34fR48QMyHuoDk6TpQbO48FmeQPZxEhb2oXSE8QuEnPYp5X72Y3wI9XM+dvDBD6btxDn29cA19PZSejDzAsJA9oEtVvGRYoTyUhZRSlEsASyCFlEsBhZSJaAIpUpR0lFKUjApmYzIud2VpZ2h0lGgHKGgKQn0EAACAAooKbPycRvkgaqhQGS6AAk3pAy6AAn1xAChYEAAAAHByb3RvY29sX3ZlcnNpb25xAU3pA1gNAAAAbGl0dGxlX2VuZGlhbnECiFgKAAAAdHlwZV9zaXplc3EDfXEEKFgFAAAAc2hvcnRxBUsCWAMAAABpbnRxBksEWAQAAABsb25ncQdLBHV1LoACKFgHAAAAc3RvcmFnZXEAY3RvcmNoCkZsb2F0U3RvcmFnZQpxAVgPAAAAMTQwMzczMjMzMjY3ODA4cQJYAwAAAGNwdXEDS+BOdHEEUS6AAl1xAFgPAAAAMTQwMzczMjMzMjY3ODA4cQFhLuAAAAAAAAAAohHdPfXQLr6tGQg+WiXmPTc9M76obqC8y8a4veCXirzp7yg+RYOVvVttED74Mfk8WYOXvSM5Ej5G59E9Au3RvZXXmb2d0DE+wnP8vUDC07xZe9i98KxaPdTtBz3k3iC+3dgHvuvSFj78HJm9PAd6PX0YLr7q/+S9nl3lvV8tKr7ZJTQ+tu8FvkBehzuA1iu+qNLOvJXrC75eXPI9WUwZPsjbgzzkUX09CgKkPSon6T3AQzy9A4yOvTJvX70AXKw8yhMQvr2FDz4j+gE+m0YCPhQwNj1N6Qu+sPSrvZD3L76CNdg9PCsjvnz6Mr1pH/S9N1DUvUJb2b18mIq9WHa1vLh35r0wYrw8w8YVPiSFob0QT1+9Pb0xPnNoLr6bPSA+8MeWPMpc4T2V9Ac+eMpbPVr3/z1uNKY96ATNPJDBc7wXTgm+OYvlvdBxRD0u4aw9IEPjO97ynr1wvGi9Gy8gvt7J4z2g0Ee86MtbPdDWXj1nAiK+wpztvZT7vb1SUuU9KBWFvL5rzb0iNpY98sfZPWQ4OL1AoqO8ZkDkPbCM1TxiDLc97ZoaPpj1mLwgYeS8AI5RvBj19b2wovu9xLYsPQoxnj12ULo9hC0mPV4fyL2eYBi+ORcHPkDCMr3sw3u90KGGPGCVmzug8K+8llLmPVkZG77qVfE9dvezPUSYLz0lPy0+9gOlvSBpbjxutdg9aPynvGU7ET7lw+m9fn/IPYipo7wLdAo+eXIXPvBzTD18TM+9oK+cvbgGvb1UZIo9VLdLPZU9Jz4GplW9AMjMvPDpBbygy3C9iTIaPiCly72Ii6a9QBRcPOClhrsWwCm+IpSvPWgKjT0A8XC8mRfXvWZWeL34/Qa+GBzHvL4TFL7oDwG+2MWyPDq2qT2o3s88yLLaPIIX/D3goYW7FDktvQKuCL5mtAi+APU6vYAOvjwXcuO9SoGzPSA5Ibx7EQ4+lJ4HvpC/1jzbmAA+IbzYvWR7nr3EY5K9v74BPg4MrT0oVES97ZgVPky9Lb2ItqE8zLUfPQXNF75xZCY+BFxRvQWbHb6SeJE9EKZjPSdOBD5ROYO9yB+qPHS58b3SEX69KHvEvShq1zzOweA9xNPovXnopL0evCW+H93ivaR3IL1eGK89PH0GPcjdL71tnAA+EwUCPm2zlr0iDcK9sZgdPt73rr3GmRu+VpauPVC59TyUhZRSlEsASwdLIIaUSyBLAYaUiWgCKVKUdJRSlIwIZmMyLmJpYXOUaAcoaApCGQEAAIACigps/JxG+SBqqFAZLoACTekDLoACfXEAKFgQAAAAcHJvdG9jb2xfdmVyc2lvbnEBTekDWA0AAABsaXR0bGVfZW5kaWFucQKIWAoAAAB0eXBlX3NpemVzcQN9cQQoWAUAAABzaG9ydHEFSwJYAwAAAGludHEGSwRYBAAAAGxvbmdxB0sEdXUugAIoWAcAAABzdG9yYWdlcQBjdG9yY2gKRmxvYXRTdG9yYWdlCnEBWA8AAAAxNDAzNzMyMzMyNjg0NDhxAlgDAAAAY3B1cQNLB050cQRRLoACXXEAWA8AAAAxNDAzNzMyMzMyNjg0NDhxAWEuBwAAAAAAAACksUm9yQ0JPpA1SzwAPGY8AK4ju/8wGT6KymO9lIWUUpRLAEsHhZRLAYWUiWgCKVKUdJRSlHV9lIwJX21ldGFkYXRhlGgCKVKUKIwAlH2UjAd2ZXJzaW9ulEsBc4wFY29udjGUfZRorUsBc4wDYm4xlH2UaK1LAnOMBWNvbnYylH2UaK1LAXOMA2JuMpR9lGitSwJzjANmYzGUfZRorUsBc4wDZmMylH2UaK1LAXN1c2Iu".encode()
    weights = pickle.loads(base64.b64decode(encoded_weights))
    model.load_state_dict(weights)
    return model


model = load_model()


def agent(observation, config):
    col_num = config.columns
    row_num = config.rows
    channel = 1

    state = preprocess(observation)
    prediction = model(
        torch.from_numpy(state).view(-1, channel, col_num, row_num).float().to(DEVICE)
    ).detach().numpy()
    action = int(np.argmax(prediction))

    # Action
    if observation.board[action] != 0:
        return random.choice([c for c in range(config.columns) if observation.board[c] == 0])

    return action
